#version: 0.2 - Trained by `huggingface/tokenizers`
Ġ å
Ġ æ
Ġ ç
Ġ ä
Ġ ï
Ġï ¼
Ġ è
Ġä ¸
ã Ģ
Ġ ãĢ
Ġï¼ Į
Ġç ļ
Ġçļ Ħ
Ġ é
ä ¸
Ġä º
ĠãĢ Ĥ
ä º
ĺ ¯
Ġ â
ĠãĢ ģ
Ġå ı
Ġâ Ģ
Ġæ ľ
Ġ ,
Ġæ ĺ¯
Ġå ¤
Ġå ľ
Ġå ħ
å ¤
Ġä »
æ ľ
Ľ ½
Ġè ¿
ä »
Ġä¸ Ģ
å ħ
å ®
Ġå ¹
Ġå Ĳ
å ı
Ġä ¹
Ġä ½
Ġ 1
å Ľ½
å Ī
Ġå °
Ġï¼ ļ
å Ĳ
Ġæ Ī
Ġä¸ Ń
Ġåľ ¨
Ġæ Ĺ
å Ń
Ġå Ī
Ġç Ķ
Ġäº Ĩ
Ġå į
Ġå ®
Ġ .
ä ½
ä ¹
æ ĸ
ĠãĢ ĭ
å ¸
Ĵ Į
å Ĭ
Ġå¹ ´
ĠãĢ Ĭ
ç Ķ
Ġä¸ į
ĠâĢ ľ
Ġ >
ĠâĢ Ŀ
Ġ e
Ġ <
Ġç »
Ġå ĴĮ
è ¯
å į
Ġè ¯
æ Ĺ
æ Ŀ
ç »
å ľ
ĥ ½
å °
è ¿
Ġæľ ī
ä ¼
äº º
Ġæ ī
Ġå Ĩ
å º
Ġäº º
Ġå¤ §
ç §
Ġæ ĸ
Ġ 2
å Į
ç ī
ä¸ ª
Ġå ¥
Ġæ Ŀ
Ġï¼ ī
æ ĺ¯
å ¹
Ġï¼ Ī
å ±
é ĩ
Ġè¿ Ļ
ä¸ º
µ ·
Ġä¸ º
æ °
Ġæľ Ģ
ĩ º
æ Ī
Ġå Ľ
å Ĩ
Ġè Ģ
Ġä¸ Ĭ
æ ĺ
ç º
Ġå ¼
Ġä ¼
å ¾
è ¡
æľ ī
Ġé ĩ
å ·
Ġå İ
ä¸ Ģ
Ġç ¬
å¤ §
Ġæ Ń
Ġå ¾
Ġå ·
Ġè ®
Ġä¹ ĭ
Ġå ¯
åŃ Ĳ
å® ¶
äº İ
Ġå ½
è Ģ
è §
å ¼
Ġæ °
Ġä» ĸ
æ Ń
ĠæĪ ĳ
Ġç İ
¦ ģ
ç İ
æ ´
Ġæ ²
Ġç §
Ġç¬ ¬
0 0
¥ ¿
Ġå Į
è ®
Ġå Ń
Ġå° ±
æ ł
Ġè ĩ
Ġåľ °
æ ŀ
Ġç Ľ
ç ķ
é Ĺ
Ġä¹ Ł
ç Ĳ
å ¿
å İ
Ġä» ¥
Ġæ ķ
ĠæĹ ¶
Ġé Ģ
æ ³
å ĳ
é Ŀ
é Ļ
å ¥
Ġå Ľ½
å Ľ
ç Ń
Ġä¸Ń åĽ½
Ġæ ¯
å¹ ´
ĥ ¨
é ĺ
æ ²
ķ ¿
Ġå ¸
Ġ1 9
Ġå Ĭ
« ĺ
Ġåı ĳ
Ġå ±
Ġæ Ĭ
æ Ģ
Ġï¼ Ľ
Ġç Ń
çĶ Ł
ĠæĹ ¥
é Ģ
åŃ ¦
ä¼ ļ
Ġæ Ķ
å ½
è ¾
çķ Į
è ´
æ ī
Ġæľ Ī
æ ķ
Ġä¸ ĸ
Ġåı ¯
ç Ľ
åĲ į
æ ±
Ġè ¡
ĠèĢ Į
ä» £
Ġæ ĺ
Ġæ Ģ
ĠæĪ Ĳ
Ġç º
å ī
Ġé Ŀ
ä» ¥
Ġä¸ İ
Ġç ľ
æĿ ¥
Ġå° ı
Ġç ī
Ġèĩ ª
ĠâĢ Ķ
¾ İ
Ġå ĩº
ä¸ Ń
å ¯
Ġæ Ľ
æ ĥ
Ġä½ ľ
ç «
å¸ Ĥ
ĠåĲ İ
Ġä¸ »
¼ Ķ
è¡ Į
Ġå¯ ¹
å ĵ
¦ Ĥ
Ġé ĥ½
æĹ ¶
Ġè µ
æ ¬
é ĥ¨
æĪ Ĳ
è ī
Ġè §
Ġ -
Ł ³
è Ĭ
æ ĭ
Ġ 3
Ġé Ļ
ĠçŃ ī
Ġåħ ¶
Ġè ĭ
è ¦ģ
åĬ ¨
åĲ İ
Ġè ¢
åľ °
Ġæ ¸
ĠçĶ Ł
çī ©
Ġæ ±
åĪ °
ä½ ľ
Ġæī Ģ
Ġå ĳ
Ġä¸ ī
çŃ Ķ
é Ľ
å Ł
çĶ ¨
Ġé Ĥ
æ ¸
èĢ ħ
Ġæ ³
Ġ )
Ġå ī
ä» ¬
ä¸ Ĭ
Ġåħ ¬
å± ±
Ġå Ł
Ġ (
ģ ĵ
å ĩº
Ġè¢ «
Ġä ¿
å §
åĮ º
Ġé ĺ
Ġæ İ
Ġä¸Ģ ä¸ª
Ġä¸ĸ çķĮ
Ġå º
æ µ
Ġè ¥¿
ç ľ
æĸ ¹
» º
è µ
Ġå¤ ļ
éĿ ¢
éĩ Į
Ġç Ī
Ġå ĩ
è ½
Ġè ´
ç§ į
åº ¦
Ġå¤ ©
Ġå ¿
Ġè¿ ĺ
ĠåĪ Ĩ
è ĩ
Ġä½ ł
Ħ ¶
Ġè ¾
æ Ķ
åĮ ĸ
éĹ ´
Ļ ½
Ġæ ł
Ġæĸ ĩ
Ġé «ĺ
Ġé Ľ
Ġé £
å¤ ļ
å¤ ©
Ŀ Ģ
Ħ ı
Ġæ ĭ
ç Ĥ
ĠåĪ °
ä½ ĵ
Ġæ µ
Ġåħ ¨
© ¬
Ġä¸ ľ
ĠåĮ Ĺ
Ġè¯ ´
Ġå¼ Ģ
åĬ Ľ
æ° ĳ
¦ ĸ
é ¢
Ġé »
Ġå ĵ
æĸ ĩ
æĸ ¯
Ġä¸ ¤
Ġæ Į
è¿ ĩ
å® ļ
Ġç ¾İ
å¾ Ĺ
å £
Ġæ ĥ
Ġæĸ °
åľ ¨
æ Ļ
ç ±
è ĥ½
Ġåį Ĺ
Ġä½ Ĩ
ä½ į
Ġ 4
Ġç¬¬ ä¸Ģ
ä¸ ĭ
åĨ Ľ
å° Ķ
ĠåĽ ł
ĠçĶ ±
Ġä» İ
æĺ İ
ç Ħ¶
ä¸ »
é ģĵ
æľ ¬
ĠçĶ µ
Ġå½ ĵ
Ġé ķ¿
çİ °
ç ¥
Ġå¾ Ī
å ²
åį Ĺ
æ¬ ¡
èī ²
æ³ ķ
è ¥¿
çĲ ĥ
ä¸ ļ
Ġå ¦Ĥ
Ġ 5
æ ¼Ķ
ĠéĤ £
Ġå¹ ¶
Ł ¥
Ġç» ı
. .
Ġé ¢
è Ĥ
è¯ ´
æ Ľ
åĪ Ĩ
Ġæ ŀ
ĠæĹ ł
æ µ·
Ġä¸ ĭ
Ġæ ´
ĠçĽ ¸
ç ½
è Ī
Ġé Ĺ
- -
Ġäº İ
æľ Ł
å¿ ĥ
Ġæ Ļ
Ġæ° ´
Ġæ² ¡
åĪ ©
é ķ¿
Ġåİ Ł
ĠåĲ į
Ġåı Ī
å ĩ
æĹ ı
Ġå Ķ
åı ²
Ġ2 00
Ġæ¯ Ķ
éĩ ı
ä¸ į
Ġè ½
æ ¯
åĳ ĺ
äº ĭ
Ġè¿ Ľ
Ġæ µ·
Ġ :
ä¹ Ī
Ġçİ °
å· ŀ
Ġæ ı
Ġ Â
ç§ °
Ġç ¥
ĠæĿ ¥
ä¹ ī
è °
çĲ Ĩ
Ġä¸ ª
Ġä ¾
Ġè Ĭ
æ´ ²
Ġéĩ į
Ġåı ¤
Ġè ·
æ Ĭ
Ġå ģ
å Ŀ
Ġå »º
Ġè °
Ġåı ª
ĠåĽ Ľ
Ġå® ĥ
Ġå° Ĩ
º «
æĢ §
æĥ ħ
ĠçĶ ¨
³ »
å Ģ
ç« ĭ
ä ¿
Ġå¥ ³
åĵ ģ
åī į
Ġæ ·
åĲ Ī
Ġä¼ ļ
çĤ ¹
åħ ¥
Ġç ģ
è ·
Ġ. ..
Ġå°± æĺ¯
Ġæ ¬
ĠåĲ Į
Ġè ¦ģ
ĠåĨ ħ
Ġåİ Ĩ
ç» ı
Ġ 6
ĠæŃ £
æ° ´
ĠÂ ·
Ġè ¶
Ġéĩ ĳ
Ġåı¯ ä»¥
Ġè ĥ½
ç ©
ĠæĿ İ
Ġè¯ Ĺ
Ġè¿ ĩ
Ġå¤ ª
Ħ ¿
Ġèĭ ±
Ġï¼ ģ
ä¸ ĸ
å¸ Ŀ
Ġåį ģ
é £
æ Į
ĠåĽ½ å®¶
Ġçİ ĭ
Ġä½ ¿
ä ¾
æ ¡
Ġçľ ĭ
æł ·
è ĥ
Ġç Ĳ
æĺ Ł
Ġé ļ
éĺ ³
æ± Ł
åŁ İ
æŀ ľ
Ġåī į
Ġç ½
ĠçĪ ±
Ġå± ±
ģ Ķ
Ġè ĳ
ç ļ
æľ º
Ġç§ °
Ġé ¦ĸ
çľ ģ
ĠæĪ ĸ
Ġå¹ ³
Ġ "
æĽ ²
é «ĺ
é ¡
Ġäº Į
åħ ¬
ç ®
Ġï¼ İ
Ġè¡ ¨
Ġå¥ ½
åľ º
Ġç «
è µ·
ĠåŃ ¦
åħ ĥ
Ġ2 0
ä¹ Ĳ
å° ı
äº Ľ
ĠæĢ »
Ġ 7
Ġæ²¡ æľī
Ġæĸ ¹
Ġçī ¹
æ ¹
ç Ī
Ġé ĵ
Ġè Ī
Ġè ĥ
æ° Ķ
æŃ ¤
åĲ Į
Ġç ±
äº §
Ġå ĸ
Ġç ®
åĮ Ĺ
æĹ ¥
¾ Ļ
åį ģ
æľ Ŀ
Ġä¼ ł
Ġç ²
æ² »
çİ ĭ
å¼ ı
æĪ ĺ
è ĭ
äº Į
Ġ 8
èĬ ±
æ İ
ĠåĲ Ħ
ĠæĪ ĺ
æ ģ
Ġé ¥
Ġé» Ħ
ĠéĢ ļ
Ġå· ²
ä¹ ĭ
ĠæĬ Ĭ
Ġå· ¥
è¡ ¨
æľ ¯
å· ±
ç ¨
åı £
è Ĳ
Ġï¼ Ł
éĺ Ł
è ±
Ġè İ
çº §
Ħ Ł
è¿ Ĳ
èµ Ľ
Ġæ³ ķ
Ġè į
åĪ ¶
åħ ĭ
äº ļ
Ļ ¾
ç ģ
Ġéĩ Į
æ º
ĠåŁ İ
ä¹ ¦
Ġå ²
Ġå½ ¢
ä¸ ľ
ĠåİĨ åı²
å§ ĭ
ç ¤
æ² ³
Ġæľ ¬
Ġç ĭ
å¹ ³
å Ķ
äº ¬
Ġå Ŀ
ĠåĬ ł
ĠæĽ ´
åī §
Ġèĩª å·±
Ġå §
é ©¬
ĥ Ń
Ġä¸ ĩ
Ġè ī
Ġç» ĵ
Ġå¼ ł
æŀ Ĺ
æ į
åĬ ł
Ġæ° ĳ
ĠèĢ ģ
Ġå ķ
Ġæķ ħ
å¤ ĸ
Ġäº Ķ
Ġç ĿĢ
è§ Ĩ
é ħ
çī ¹
Ġ1 0
Ġå¾ Ĺ
å® ŀ
Ġæĺ İ
æĭ ī
Ġè µ·
Ġå¹ ¿
æī ĭ
Ġ /
Ġæ ¼Ķ
Ġå® ŀ
Ġé£ İ
åİ ¿
Ġç Ļ½
¦ »
¦ Ļ
Ġ 9
ĠæŃ Į
Ġæ¸ ħ
éĹ ¨
ç ³»
Ġé ģ
å± ķ
è ¶
è į
ç ´
æł ¼
Ġåĳ ¨
ä¸ ī
èĬ Ĥ
åį İ
Ġåħ ³
é Ķ
åı ĳ
¨ Ģ
Ġæ Ħı
Ġä¸» è¦ģ
ç ¾İ
éĻ ħ
è· ¯
Ġè Ĥ
åĪ «
ŀ ĭ
è´ ¨
åŃ Ĺ
Ġä½ ĵ
é ļ
å¾ ·
Ġç ¼
Ġ1 8
Ġç ©
å¸ ¸
ĠåĨ Ļ
Ġå¥ ¹
Ġé ©¬
æ Ħı
Ġæı Ĳ
Ġå¤ ĸ
æ ¶
åĳ ½
Ġéĺ ¿
ĠåŁ º
Ġä» £
å¥ ½
Ġä½ į
å¤ ´
æŃ Į
Ġçļ ĩ
ĠåĪ ĺ
å£ «
Ģ ä¹Ī
çº ¿
ĠæĪĲ ä¸º
æ ®
è½ ¦
æĶ ¿
åħ °
èĩ ª
å¸ ĥ
æľ Ī
åĨ ħ
ĠæĮ ĩ
Ġç¾İ åĽ½
Ġåı «
Ġå¥ ¥
Ġèĳ Ĺ
æķ °
åİ Ł
Ġåı į
é¢ ĺ
ç± »
Ġ ?
å ¨
æĥ ³
Ġé ¡
Ġç¥ ŀ
å® ī
ĠæĶ ¿
ĠåĪ ¶
è¾ ¾
è¯ Ŀ
ĠåĪ Ľ
ĥ ı
Ġç ¤
ç» Ł
Ġæ ¶
Ġå® ī
Ġè¿ Ĳ
èĢ Į
Ġé ħ
Ġç ł
ĠåĶ Ĳ
Ġæ ¹
Ġ 0
Ġå ¢
Ġè¿Ļ ä¸ª
è¯ Ń
Ġçľ Ł
Ġåİ »
Ļ ¨
Ġå¿ ĥ
Ġé ľ
Ġé Ĵ
Ġæ¯ ı
ĠéĿ ¢
é ª
æµ ģ
ç ¬
Ġæ ¢
Ġæµ ģ
ĠæĪĳ ä»¬
é Ĵ
ĠæīĢ ä»¥
Ġåį ³
å½ ±
ĠåĨ Ľ
Ġæĥ ħ
Ġç Ł¥
Ġåı Ĭ
Ġçº ¢
Ġèĩ ³
å ¢
Ġæī ĵ
ä¼ ł
ĠæĪĳ åĽ½
ĠâĢ ¦
åı ·
Ġ1 2
åħ ī
Ġåº Ķ
è ¨Ģ
ĠæľĢ å¤§
æķ Ļ
ĠæŃ ¦
è Ħ
ç¥ ŀ
Ġæ± ī
Ġåıĳ å±ķ
Ġä¿ Ŀ
ç¨ ĭ
å ³
åħ ³
Ġå Ģ
çī ĩ
ĠæĶ ¹
Ġå® Į
ç ĿĢ
Ġåħ Ī
ĠåĽ ŀ
æº Ĳ
æ´ »
Ġåħ ĥ
è± ¡
ĠåĬ ¨
Ġé¥ °
Ġåĩ ł
å »º
Ġæ² ³
Ġè¡ Į
åı Ĭ
ĠéĿ Ĵ
çº ª
Ġæ Ĥ
äº Ĩ
Ġæ± Ł
Ġäº §
Ġåı ĺ
Ġç± ³
å¼ Ģ
åĢ Ļ
Ġç§ ĳ
Ġè Ĳ
Ġè º«
ĠæĽ ¾
å ¦Ĥ
ĠéĿ ŀ
ç§ ¯
é ¾Ļ
_ _
ĠåĲ Ī
Ġç» Ħ
å¥ ³
ç ¾
åı ¸
Ġä¸ ĵ
å° ĳ
ç ĥ
Ġåħ ±
ĠèĬ ±
å ¦
Ġ c
éĢ ł
éĩ ĳ
å¿ Ĺ
å ŀĭ
æ ¢
Ġäº ĭ
Ġæī ĭ
è® °
ç± ³
ç½ Ĺ
Ġæ ģ
Ġæ ĦŁ
Ġæ· ±
éĻ ¢
è§ Ĵ
é ĵ
Ġåģ ļ
ĠåĨ į
å¸ Ī
ħ §
Ġå¼Ģ å§ĭ
ĠçĽ ´
Ġå® ¶
çĽ ®
æ¸ ¸
ĠçĶ ·
å Ļ¨
ä» ¶
æ »
é ĥ½
Ġæķ Ļ
ĠæŃ ¤
Ġäº ¤
Ġä» Ģä¹Ī
Ġå· ´
è £
é ľ
Ġç Ĥ
Ġé Ķ
å ©
Ġ1 1
é£ İ
ĠéĹ ®
Ġå½ ±
Ġä¸į æĺ¯
Ġäº ļ
ĠåĽł ä¸º
Ġè® ¤
Ġæī į
Ġæ° Ķ
è® º
Ġæķ °
Ġé ĥ¨
Ġåĸ ľ
è İ
åº ľ
ç ¼
Ġå £
Ġæ »
æ´ ĭ
Ġæ į
éĢ ļ
Ġè® °
å¤ Ħ
å² Ľ
Ġä» Ĭ
éĩ į
æį ®
Ġæ¬ §
äº ī
Ġç² ¾
ĠåĲ ĳ
Ġä»ĸ ä»¬
Ġç» Ļ
Ġçģ «
ķ ĩ
Ġå° ĳ
Ġèĭ ı
å Ħ¿
åı ¤
Ġåı ·
Ġè Į
Ġ19 9
ç ı
ĠéĽ Ĩ
Ġåı Ĥ
åĶ ±
ĠéĻ Ī
ç Ļ½
è º«
Ġè ģĶ
åħ ¶
ç ¡
Ġæ Ł
åĬ ¡
åĽ ł
ç© º
Ġæĥ ³
å· ¥
ĠèĳĹ åĲį
è§ ģ
Ġä¸Ģ ç§į
å ¡
è® ¡
ĠåŁİ å¸Ĥ
ĠåĽ½ éĻħ
è ħ
¾ ä¼ļ
Ġå± ŀ
æĻ ¯
æĸ °
æµ İ
Ġä½ľ èĢħ
Ġé Ł
Ġèİ ·
åı °
Ġè® ©
ĠæĹ¶ éĹ´
Ġåħ ·
å ĴĮ
ĠåĮ ħ
Ġç¬¬ äºĮ
Ġè® ¾
ĠåĮĹ äº¬
Ġ20 1
æĢ Ŀ
èĤ ²
æ± ī
è ĳ
çº ¦
Ġç ´
æĸ Ļ
Ġä¸ ¾
è Ļ
é »
Ġç Ł³
-- --
é Ĥ
¦ ı
ç Ł³
è¿ Ľ
æ ·
å¯ ¹
Ġçī ©
Ġæ ¡
Ġé£ ŀ
Ġæĺ ¥
ç¤ º
Ġä¹ĭ ä¸Ģ
è Į
Ġå¸ Ĥ
ä¸» ä¹ī
Ġåį ´
çĪ ±
Ġæľ º
ç ł
Ġå¾ ·
Ġç Ļ¾
Ġé» ĳ
é ¦ĸ
ä» »
å ģ
èĩ ³
Ġæ ®
æĿ ĥ
é Ł³
æ ¥
Ġæ¹ ĸ
i n
åİ »
ä¸ Ķ
Ġç ¡
Ġåį ķ
Ġä»£ è¡¨
Ġé ²
Ġä½į äºİ
è ģĶ
Ġä» »
çĶ µ
Ġç ķ
Ġç» Ł
æ¹ ĸ
åĲ ĳ
åĽ Ń
Ġå¼ º
å½ ¢
è ı
Ġæĸĩ åĮĸ
åĵ į
å¤ «
Ġåį ĥ
Ġç§ ¦
Ġè Ħ
Ġçº ¦
ç ²
å° ¼
Ġ a
Ġè¿Ľ è¡Į
é ¸
æĿ ¯
ç´ ł
Ġ s
Ġè¿ ŀ
åħ ¨
ä» ĸ
Ġ =
Ġè Ĵ
Ġé Ł³
Ġèµ Ħ
Ġç® Ģ
æĮ ģ
å¸ ¦
Ġæ´ »
çĶ »
Ġåħ ī
Ġåı Ĺ
Ġæİ ¥
åº Ķ
Ġçĭ ¬
åı ¥
å ĸ
æī Ģ
Ġé ģĵ
Ġç ¾
çļ Ħ
è§ £
ĠåŃ Ĺ
Ġæł ¹
Ġé ¦Ļ
Ġä¹ ¦
Ġå¦Ĥ æŀľ
Ġåı °
Ġåĵ ª
å½ ĵ
Ġé¢ Ĩ
ĠæĹ¥ æľ¬
åı ¯
ĠéĢ ī
åĽ Ľ
Ġç¤ ¾ä¼ļ
ĠçĽ ®
Ġç½ Ĺ
åĪ Ĺ
Ġåħ¨ åĽ½
éĽ Ĩ
Ġé ĥ
æ¯ Ķ
å ĭ
Ġå¸ ¦
æ Ł
ç ĭ
Ġè ±
¯ ĩ
ĠçĲ Ĩ
Ĺ ı
åħ ±
æ Ĥ
Ġç Ł
è® ®
æĺ ĵ
Ġç© º
Ġ ~
Ġæİ ¨
Ġè ģ
ĠæĢ Ŀ
å ł
Ġçļĩ å¸Ŀ
åħ ¸
é ²
é ¥
Ġå¯ ¼
Ġç ĥŃ
æľ Ľ
èĪ ¬
Ġåľ° åĮº
ĠçĶŁ æ´»
ä¸ ½
Ġè¾ ¾
ĠçĲ ĥ
Ġé ¸
Ġè§ £
ç Ł¥
ç ĸ
Ġåħ¶ ä¸Ń
Ġ m
Ġè§ Ĥ
Ġéĩį è¦ģ
Ġç§° ä¸º
Ġä½Ĩ æĺ¯
Ġæ¸ ¸
Ġåı ²
Ġåħ «
å¼ º
Ġç»ı æµİ
a n
Ġå½ĵ æĹ¶
ç§ ĳ
äº ²
Ġå ¨
æĿ ¡
åİ Ĩ
é ģ
å® Ĺ
è¯ Ĺ
å¤ ĩ
Ĺ ħ
æĶ ¾
Ġåį İ
å® ¹
Ġ1 5
Ġé Ń
ĠæŃ »
ä¿ ¡
çī Į
å¯ ¼
æ® µ
åº §
Ġçİ° åľ¨
Ġäºº æ°ĳ
æ¬ ¢
Ġå¤ Ħ
Ġæ ĳ
ç Į
Ġä¸ ĥ
Ġ19 8
e r
åı ĺ
çĽ ¸
Ġè¿ĺ æľī
Ġæŀ Ĺ
Ġæĺ Ł
æ £
ĠæĿ ¨
ĠéŁ ©
åĬ Ł
Ġåħ Ń
Ġ1 6
Ġ b
Ġè® ¸
Ġä½ľ åĵģ
Ġèĭ± åĽ½
å¢ ĥ
± ¼
Ġä¸į åĲĮ
ĠåŃ Ļ
ç® ¡
Ġè§ Ħ
ãĢ Ĭ
äº Ķ
Ġåķ Ĩ
Ġ ã
åı ĭ
åŃ £
å¿ µ
ĠåĨ ľ
ĠéĢļ è¿ĩ
åį ĥ
Ġè¿Ĳ åĬ¨
Ġåį °
Ġèī º
ĠçĶµ è§Ĩ
Ġ1 7
æ¸ ¯
æŃ £
Ġç Į
çº ³
ĠæĶ ¾
åĨ Ļ
ç» ĩ
Ġå¸ ¸
Ġåĩº çİ°
Ġæ¸ ©
ĠçĶµ å½±
Ġå·² ç»ı
Ġè¶ ħ
1 9
æ¡ Ī
Ġçł Ķ
åŁ Ł
è¯ į
ĠåĪ Ļ
Ġè· ¯
ĠçŁ¥ éģĵ
å³ °
Ġç½ ĳ
Ġç ı
æ¹ ¾
æŃ ¥
ĠåĨ ³
è¾ ¹
Ġç ª
å£ °
ĠåĲ ´
Ġé ª
Ġä¸Ģ èĪ¬
Ġéĩ ĩ
Ġåħ¬ åħĥ
Ġç ¨
è¿ ĳ
è¿Ĳ ä¼ļ
è§ Ĥ
¦ Ĩ
åĽ ¢
Ġè¿Ļ æł·
Ĭ ¶
æ± Ĥ
© åĳ½
o n
æĹ ©
å ĥı
ĠçĶ± äºİ
Ġä½ľ ä¸º
Ġåı ĸ
Ġç» Ĩ
Ġä¹ Ŀ
Ġäºº ä»¬
Ġå® ĭ
ĠåĮ º
è¯ Ĩ
Ġæ ¨
Ġåľ° æĸ¹
Ġæľ Ŀ
ĠåĪ Ŀ
åı Ĺ
ä» Ĭ
çŃ ī
é ¹
ĠçĪ ¶
¤ į
çĽ ´
Ġå ¡
éĻ Ĩ
Ġæ £
ç ¿
Ġä¾ ¿
Ġå² ģ
å¤ ª
å± Ĭ
åŃ¦ å®¶
Ġä¸ĸ çºª
æĬ ¤
Ġæ°ĳ æĹı
Ġè½ ¬
ĠæĿ ¡
æİ ¥
Ġå¼ ķ
Ġåı¤ ä»£
Ġä»¥ åıĬ
ĠæĶ ¶
ĠæľĢ åĲİ
æĭ ¬
ĠãĢ ĳ
ĠæĢ §
ç Ĩ
ĠæĹ¶ æľŁ
è¿ ľ
Ġèµ °
Ġéļ ı
Ġ n
ç Ļ¾
Ġèİ· å¾Ĺ
Ġä¿ ¡
å¥ ĸ
Ġè¿ ĳ
Ġ- -
Ġæ³ķ åĽ½
Ġæ¶ Ī
Ġè¾ ĥ
ĠåĽł æŃ¤
ĠæĹ¶ åĢĻ
ĠåĮ ĸ
ĠèĬ Ĥ
Ġæł ĩ
Ġå½¢ æĪĲ
Ġçľ ģ
Ġè®¤ ä¸º
Ġå· ¦
ç© ¶
ç® Ĺ
ç ¢
Ġè¿ĺ æĺ¯
ä¸ ĩ
åĩ »
Ġæŀ ģ
Ġåħ· æľī
Ġåį ł
Ġç§ į
Ġä¹ Ĳ
åħ µ
è¯ ¥
åŁ º
æĺ ¥
ł åĨĽ
å® ĺ
ä½ ķ
Ġåı Į
Ġç¼ ĸ
æŀ ģ
å± ŀ
ĠèĢ ĥ
Ġ1 3
Ġæķħ äºĭ
Ġè £
ĠéĹ® é¢ĺ
ä» ½
çī Ī
ĠæĽ ¹
ĠéŁ³ ä¹Ĳ
Ġåī §
Ġè® ¡
Ġå½± åĵį
åħ Ī
Ġäºº çī©
æĢ ģ
æĹ ł
åĬ ŀ
Ġåħ¬ åı¸
Ġä¼ ĺ
éĢ Ł
ç ĳ
ç» Ń
Ġç ĥ
ĠåĲ «
Ġèµ µ
Ġæ Ĳ
Ġæ¬§ æ´²
00 0
Ġå¸ Į
Ġä½¿ çĶ¨
äº ĳ
æŀ Ħ
ç ¯ĩ
å· Ŀ
å¼ ł
Ġè Ļ½
ĠæĹ ©
äº ®
Ġå° ģ
è½ ½
Ļ »
Ġç ¢
å° Ĩ
Ġå¤ ı
èĥ ŀ
Ġéľ Ģ
Ġå±ŀ äºİ
Ġåıĳ çİ°
Ġè° ģ
Ġä¸į èĥ½
Ġè¯ ¥
Ġæ ļ
Ġå Ħ¿
å ķ
ĠéĿ¢ ç§¯
Ġå® ļ
èī º
çļ ĩ
åŃ ĺ
Ġåľ Ł
Ġæ º
Ġåı ¦
ä¼ Ĺ
Ġæľ ª
Ġèĩª çĦ¶
å® Ŀ
èĲ ½
Ġé ¾Ļ
åĪ Ļ
éĢ ī
Ġ !
Ġ h
Ġå¥ ĩ
Ġä¸¤ ä¸ª
å »
ĠåĲĮ æĹ¶
Ġéĵ ģ
½ Ĳ
Ġç ¦»
çĶ ±
Ġå°ı è¯´
Ġèīº æľ¯
åĽ ¾
Ġè¯Ĺ äºº
Ġä¸º äºĨ
Ġç ¿
èĥ ľ
ĠåĪ «
åľ Ł
ĠåĶ ±
Ġç ³»
æ¥ ¼
æł ¡
è¯ ģ
Ġè ı
æ¯ į
åı ĸ
Ġåı¯ èĥ½
æŃ ¦
Ġä¸ĸçķĮ æĿ¯
ĠèĢĮ ä¸Ķ
Ġå ĥı
å¾ ģ
Ġè¿Ļ äºĽ
Ġæ ¥
Ġæķ ´
ç½ ®
Ġå¥¥ è¿Ĳä¼ļ
ä¼ ¦
ĠæĻ ®
è¾ ĥ
Ġçİ ¯
Ġä¸Ģ äºĽ
å± Ģ
æ ¼
Ġé¥° æ¼Ķ
æĸ Ń
ç ĵ
æ¸ ħ
Ġ t
Ġå ĭ
çģ «
Ġå ¦
æ Ĵ
ĠæľĢ é«ĺ
å¯ Į
ĠãĢ Ĳ
ĠæĻ ¯
Ġåĸľ æ¬¢
çº ¢
Ġè¶ Ĭ
Ġè¿Ļ ç§į
è Ĵ
Ġåį Ĭ
å° Ħ
Ġäº ĳ
ĠæľĢ æĹ©
å© ļ
Ġè¶ ³
ĠåĮħ æĭ¬
å¾ ĭ
Ġæİ Ĵ
åĬ ¿
ä¸ĸ çķĮ
Ġç® ¡
Ġè¡ Ģ
æ ĦŁ
Ġä¸Ń å¿ĥ
æŃ »
è® ¾
ç ħ§
ĠåĪ ©
é ĥ
Ġæ Ĵ
Ġ1 4
å± ħ
å¥ ĩ
Ġå¢ ŀ
ĠåĲ ¬
Ġï¼ į
Ġä¹ĭ åĲİ
Ġæ ¼
ç» ´
ĠæĶ¿ æ²»
Ġå® ĺ
Ġå¾Ī å¤ļ
ĠåĽ ¾
è¶ ³
Ġè¯ ¸
ç ¦»
Ġå Ĵ
Ġåħ¶ ä»ĸ
ĠåĲ §
Ġåıª æľī
ĠçĤ ¹
çī Ļ
éĽ Ħ
Ġç» ´
ĠæĹ ħ
Ġå¿ ħ
è¾ ĳ
åĽ ŀ
çľ ĭ
æģ ¯
ĠæĬ Ģ
Ġ ]
Ġåĵ ģ
é ķĩ
å½ ķ
ç§ Ģ
Ġä¹ĭ éĹ´
Ġé ©
åħ «
ç« ł
åº ķ
éĽ ¨
Ġæ ½
ĠæĶ ¯
Ġå® £
Ġå·¥ ä½ľ
éª Į
ĠåĲİ æĿ¥
Ġæ¯Ķ è¾ĥ
ĠéĻ ¤
Ġç¬¬ ä¸ī
å± Ĥ
å¤ ®
ĠåºĶ è¯¥
Ġäº§ çĶŁ
çŃ ĳ
æ ı
è¿ °
Ġè ħ
è£ ħ
åħ ļ
ç§ ĭ
èµ Ħ
ä½ ³
Ġ3 0
ĠçĶŁ äº§
éħ ¸
Ġä¸Ĭ æµ·
æľ ¨
ĠåĬ Ł
ĠçłĶ ç©¶
æ¡ ¥
èĩ ´
åĨ µ
åħ ´
Ġå»º ç«ĭ
Ġå± ħ
Ġåĳ ¢
å® ģ
Ġé£ Ł
ĠçĶ »
Ġåıĳ çĶŁ
Ġæł¹ æį®
æ ļ
Ġåķ Ĭ
Ġå ©
ĵ į
Ġåľ° çĲĥ
é¢ Ĩ
ª ī
Ġå¤ª éĺ³
Ġç± »
Ġåľ £
Ġè ĵ
Ġä¾ Ŀ
ĠèĪ ª
é¡ ¹
ä½ ¿
ĠæĮ ī
Ġæĭ ī
Ġè¿ ľ
å· ´
Ġè Ļ
Ġå¹ ²
åĳ ¨
è Ĺı
ĠæĬ ķ
ç Ŀ
Ġæ³ ¨
è§ ī
Ġä¸Ģ æł·
å§ Ķ
Ġåħ ¥
åĵ ¥
Ġåħ¬ éĩĮ
åħ Ń
ä¼ ¯
Ġçİ° ä»£
Ġç¡ ®
Ġä¸ °
Ġå· ¨
ĠéĢ ł
Ġ [
å¤§ åĪ©
Ġäº ²
Ġè¯ Ń
æĪ ı
Ġå£ °
æł ¹
Ġéļ ¾
ç» Ħ
å® «
åĪ ĩ
æł ĩ
åº Ĩ
éĻ µ
Ġæ» ¡
ĠæĢĿ æĥ³
Ġç» Ī
ç¥ ĸ
Ġçº ª
é Ń
é ©
ĠéĻ Ĩ
Ġç Ħ¶
Ġå¿ «
Ġç ĸ
ĠåĲ ĥ
é£ ŀ
æ² ¹
Ġå¤ ±
ĠåĨ łåĨĽ
Ġâ ĳ
åĽ ´
ĠéĿŀ å¸¸
Ġæ° ¸
Ġä¸Ń åįİ
Ġè®¸ å¤ļ
Ġä½ľ çĶ¨
èĭ ı
Ġæ¯Ķ èµĽ
Ġç¬¬ä¸Ģ ä¸ª
æ ĳ
è ģ
ç« Ļ
åį ķ
Ġç» Ŀ
ç» ĵ
Ġè¡¨ çİ°
a r
è´ ¥
åĩ Ĩ
èĢ ģ
Ġçľ ¼
ç¡ ®
åį «
Ġéĵ ¶
Ġåı° æ¹¾
æ´ ¾
ç» Ĩ
Ġè½ ¦
Ġç« ĭ
éĿ ŀ
Ġç Ļ»
Ġæ¬ ¡
åħ ·
åĳ ³
â Ģ
Ġè§ ģ
Ġæ¼Ķ åĳĺ
Ġä¸Ģ æ¬¡
ä¹ ħ
Ġè¿Ļ æĺ¯
Ġæ¯ Ľ
æ ¨
Ġä¿ Ħ
Ġï ½
å¼ Ł
Ġè¿Ľ åħ¥
Ġä½ İ
å¤ į
ĠåıĤ åĬł
å¾ Ģ
Ġç» §
Ġä¸Ģ å®ļ
çķ ¥
æĿ °
æĸ Ĺ
Ġè ľ
Ġéģ Ĺ
Ġè§ Ĵ
Ġä¿ ®
éĽ ª
Ġåħ ĭ
Ġèį ī
åĬ ©
Ġä¼ Ĭ
Ġæĸĩ åŃ¦
æ¶ ²
ä» ħ
Ġå¸ ĥ
Ġæı ı
è¶ Ĭ
è° ĥ
çİ ī
Ġå¾· åĽ½
Ġä¸Ģ éĥ¨
Ġé ķĩ
Ġå¤ į
éħ Ĵ
å¤ ľ
Ġçķ Ļ
ĠåŃ ĺ
Ġç ¦ı
èĭ ±
æ° ı
é ¦Ĩ
Ġè¯ »
ĠéľĢ è¦ģ
åį Ĭ
åı ¶
éļ ¾
æł ĳ
äº ¤
ä¹ ¡
Ġæľ ±
¤į çī©
ç ¦ı
Ġäºº åı£
Ġæ² Ļ
Ġ19 7
ĠåŃ Ĳ
Ġæ´» åĬ¨
é ¦Ļ
Ġé¦Ļ æ¸¯
Ġå¸ Ŀ
Ġå® Ŀ
è ªī
ç ĥŃ
Ġå ĺ
æĿ ĳ
Ġåİ ¿
e n
Ġ2 5
æ» ¡
Ġ d
Ġæĺ ¾
Ġå¤ ´
Ġè Ľ
Ġ19 5
Ġä½ ķ
åĪ Ŀ
Ġä¸Ģ çĽ´
Ġé² ģ
åį ¡
ĠæĬ ¥
ä¹ Ŀ
ç» Ī
Ġè¯ į
å¡ Ķ
ä» İ
ĠæŃ£ å¼ı
ĠåŁº æľ¬
ä½ ı
Ġè¯ Ħ
æ ħ
è ¢
å² ¸
é º
çı Ń
Ġ p
o r
¿ Ģ
ĠèĻ½ çĦ¶
Ġæł ¸
æĬ Ģ
ä» ¤
Ġé º
æŃ ¢
ĠçŃ Ķ
ĠæĹ¶ ä»£
Ġè¡¨ ç¤º
æ³ ¢
ç Ĺħ
Ġç»Ħ ç»ĩ
Ġä¸Ģ èµ·
Ġåį ¡
ĠæĿ Ģ
Ġåĵ Ī
Ġç¥ ĸ
Ġåį «
åķ Ĩ
Ġæľ Ł
å¸ Ń
åĪ »
é¥ °
Ġåĳ ½
Ġï½ ŀ
Ġå»º çŃĳ
Ġä¸¾ è¡Į
ĠéĿ ©åĳ½
Ġä½ Ľ
è Ľ
Ġçª ģ
åº Ń
æ¸ ©
ä¸ ¹
è¡ Ģ
Ġåı ¸
Ġåıª æĺ¯
2 0
Ġæľ ¨
Ġéħ Ĵ
èĳ Ĺ
ĠåĪ Ĺ
Ġè¿Ļ éĩĮ
Ġéĥ¨ åĪĨ
ĠçĪ± æĥħ
Ġä¹ Į
éĹ ®
ĠåĲį åŃĹ
åĢ ¼
æĮ ĩ
Ġæ³ ¢
Ġäºº ç±»
ç ª
Ġåıĳ æĺİ
Ġ ;
ĠåĲ ¸
å° ±
Ġä¸Ń å¤®
ç Ł
Ġç»Ħ æĪĲ
__ __
Ġå Ĥ
ĠéĹ ¨
ä¹ ł
äºº æ°ĳ
Ġé¡ ¹
é ±¼
æľ į
ĠæĢ İ
Ġ l
åħ »
ĠæīĢ æľī
Ġä»¥ åĲİ
é² ģ
çł ´
Ġç Ĩ
Ġä» ¬
éĻ Ĳ
ĠåĪĽ ä½ľ
Ġè° ĥ
è¿ Ļ
ĠèĮ ĥ
çİ ĩ
Ġåħ ħ
ĠçĽ® åīį
ä» ·
Ġ19 6
Ġåī ¯
Ġè® ²
Ġåı £
ĠæĪĲ ç«ĭ
ĠåĲ ī
åł Ĥ
å½ ©
ĠæĿ ľ
å® ĭ
ĠèĴ Ļ
Ġæĸ¹ éĿ¢
Ġ2 1
ä¹ İ
ç¬ ¬
æī į
Ġå¾ Ĳ
Ġä¸ ¥
ĠåĮ »
åı ³
Ġèĥ Į
Ġæĭ į
ĠæĬĢ æľ¯
Ġäºļ æ´²
Ġåį° åº¦
ç» Ļ
Ġç»ı è¿ĩ
ĠåĨ °
Ġåį ļ
Ġè· Ł
å® ³
ĠæĬ Ĺ
æ· ±
ĠåĬ Ľ
Ġ19 4
å¯ Ł
Ġæľ į
åĲ Ľ
Ġé ½Ĳ
Ġæ¯ į
Ġå ´
ĠçĶµè§Ĩ åī§
æĪ ĳ
è´ µ
Ġ f
Ġä¸į è¿ĩ
å¤§ åŃ¦
ĠæĽ ²
çĥ Ī
åĪ Ĵ
äº ¡
Ġå¯¼ æ¼Ķ
Ġè¿ ½
Ġæī ¾
æ³ ½
Ġè¯ ·
èį ī
ä¸ ĥ
å¤ Ł
Ġæ¢ ¦
Ġèĥ ¡
æ ĵį
Ġè¾ ¹
Ġé¦ĸ éĥ½
Ġä¸ī åĽ½
å¯ Ĩ
ŀ į
Ġå® ¢
Ġåħ ´
åľ £
Ġçľĭ åĪ°
Ġè± ¡
æĶ¿ åºľ
Ġä¹ ¡
åħ¬ éĩĮ
ĠæıĲ åĩº
Ġå¹´ ä»£
Ġä»¥ ä¸Ĭ
ĠéĤ£ ä¹Ī
ĠèĪ ŀ
ĠæŃĮ æĽ²
ĠèģĶ åĲĪ
éĿ Ĵ
Ġå¹³ æĸ¹
Ġç¾ ¤
èĪ ŀ
Ġ19 3
ĠæĪ ı
Ġåħ³ ç³»
Ġç»Ĩ èĥŀ
åĳ Ĭ
é£ Ł
ç Ĭ¶
æĺ ł
Ġç» ¿
Ġè£ ħ
Ġæĸ ¯
Ġä¼ł ç»Ł
çĶ °
Ġèģ Į
ĠçŁ Ń
ç¥ ¨
Ġåı ¶
åĴĮ åĽ½
Ġå¾Ĺ åĪ°
Ġå¯ Į
Ġå¸ Ī
Ġè¿ĩ ç¨ĭ
Ġæ² ¿
å¨ ģ
Ġå »
åī ĳ
çľ Ł
Ġ r
Ġä» į
Ġä¸ª äºº
Ġæł ¼
Ġçī¹ åĪ«
Ġå¾ ®
Ġç»Ł ä¸Ģ
æĴ Ń
è¯ ķ
Ġçī Ī
ĠçĶ ļ
ĠåĶ ¯
å® ¢
Ġè¶³ çĲĥ
æĪ ·
ĠæĪĲ åĬŁ
å® ¤
ĠæĪĺ äºī
Ġç ĩ
è´ ¹
Ġèµ Ľ
å¹ ¿
ä¼ ¼
e s
Ġéĥ ĳ
ĠäºĮ åįģ
Ġæį ®
Ġæĭ ¥
æ ½
åº ·
è¿ ¹
åĿ ĩ
é ¼
Ġéħ į
ĠåĬ¨ çī©
Ġä¸ ´
ĠæĻ ļ
---- ----
ĠæĹħ æ¸¸
Ġç¬¬ä¸Ģ æ¬¡
èī ¯
Ġå® Ĺ
Ġèĵ Ŀ
Ġæ ħ
æĶ ¶
a l
æĺ Į
Ġæ± ½
Ġ2 4
ç± į
Ġæ ¾
ĠåĿ ļ
å¿ «
Ġç ĳ
ĠåĬ ŀ
Ġç§ĳ åŃ¦
ĠçĽ Ľ
ĠåĲĦ ç§į
ç¼ ĸ
ç´ ¢
éĵ ģ
Ġçī Ľ
Ġ1 00
ĠèĲ ½
Ġ w
éĴ Ł
ç» į
Ġè Ķ
å² ģ
Ġé ¼
Ġéķ¿ æ±Ł
ĠéĢ Ĥ
è¿ ŀ
Ġèµ· æĿ¥
éļ Ĩ
Ġ2 2
ç½ ĳ
Ġ +
ķ ľ
Ġè´ µ
èĢ ĥ
Ġ g
ç« ¯
Ġ5 0
é ¾
æ² Ļ
ĠæĤ ²
Ġå¤§ å®¶
ĠåĲĪ ä½ľ
Ġä» ħ
èĦ ī
Ġçİ ī
çİ ¯
a t
çľ ¼
Ġæĥħ åĨµ
Ġæ¯ ķ
Ġè· Ŀ
¶ çº§
Ġ2 3
æĭ Ķ
Ġé¢ ĺ
å³ ¡
Ġä¸į ä¼ļ
ç¾ ¤
ç¡ Ģ
ä¸ Ŀ
å¹ ²
æ° §
å ĺ
Ġåħ¶ å®ŀ
ĠåĲ Ĺ
Ġå¥ ĸ
Ġæ¼Ķ åĶ±
ĠçĪ¶ äº²
Ġä¸Ģ ä½į
å¥ ¥
ĠåĨ³ å®ļ
Ġè®¾ è®¡
¹ ģ
Ġ i
èı ľ
æĬ ¥
Ġå© ļ
ĠçļĦ è¯Ŀ
æģ ©
ä¸ ¾
Ġå² Ľ
Ġå¤§ éĻĨ
åĶ Ĳ
Ġåĩº çĶŁ
Ġèİ «
Ġè¯ ķ
Ġå® «
åĨ ³
Ġéĺ ²
Ġæ¢ ģ
Ġ Ã
Ġåľ Ĩ
ç ĩ
ä¿ Ŀ
çĲ ´
ĠåĪĨ åĪ«
é¡ »
Ġä¸° å¯Į
Ġæ´ ¾
Ġç Ĭ
Ġäº ¬
Ġå± ķ
ĠéĻ į
ĠåŃ Ķ
åĭ Ĵ
ĠæĪĸ èĢħ
ĠéĢ Ĳ
Ġå° ½
Ġåħ µ
Ġå¨ ģ
Ġå¤© ä¸ĭ
è½ ¬
ç Ĵ
Ġç ĵ
ĠåĿ ĩ
Ġå® ¹
ĠæĦı å¤§åĪ©
Ġä¼ Ĺ
ĠåĨ ¬
åħ¬ åı¸
ĠåĦ¿ åŃĲ
Ġæŀ Ħ
Ġåĩº æĿ¥
Ġç £
ĭ åıĭ
Ġæ´ Ľ
Ġæĭ ¿
Ġçī© è´¨
Ġè¯ ģ
Ġæī ¿
ĠæķĻ èĤ²
e l
ĠéĢ ģ
åĿ Ĺ
ç¾ ½
Ġç²¾ ç¥ŀ
éĤ ¦
ä½ Ļ
å ĿĢ
Ġå¸ ®
è ĵ
æĿ ¿
Ġç®Ģ ç§°
Ġåľ º
Ġæµ Ļ
Ġè½ »
ĠåĨħ å®¹
ĠéĤ£ ä¸ª
é¡ ¿
è¿Ĳ åĬ¨
æĿ Ĳ
Ġåº ¦
æķ Ī
³ ĸ
å¾ ½
åľ° åĮº
Ġè¯ Ŀ
çı ł
Ġéĺ Ł
ĠåŁº ç¡Ģ
Ġèĭ± éĽĦ
Ġå½ Ĵ
ç ¦
ç Ĺ
ĠæĹ ¢
å¼ ¹
è´ Ŀ
Ġäº ¿
ĠåİŁ åĽł
Ġä¼ ģ
Ġç¬ Ķ
Ġå§ ĭ
å» ·
Ġå¤ ľ
Ġ k
ĠçĦ¶ åĲİ
èĤ ī
Ġèĥ ľ
èĪ ¹
Ġå·¥ ä¸ļ
ĠæľĢ ä½³
Ġé ±¼
è Ĩ
Ġ200 8
ĠåĨĽ äºĭ
éĶ Ļ
Ġæī §
Ġç»Ł æ²»
Ġä» ·
Ġä» Ļ
çģ µ
Ġç© ¿
ĠéŃ Ķ
¬ ¼
Ġé ¹
æī ĵ
Ġä¸ľ è¥¿
Ġåį ı
Ġä¼ Ł
æĹ Ĺ
å¸ ģ
å· ²
çĽ Ł
Ġä» ĭ
Ġå± Ĭ
Ġç Ĺ
éĹ »
Ġç Ĺħ
Ġæ³ °
Ġè´ ¨
Ġé¢ Ħ
åº Ĺ
éĽ ·
Ġç Ĭ¶
Ġçģ µ
ĠéĻ Ħ
Ġä¸į ä»ħ
Ġé¢Ĩ å¯¼
Ġåħ¬åħĥ åīį
Ġçł ´
Ġç§ ĭ
æ¯ Ľ
Ġæ ¤įçī©
Ġçļ ®
ĠæĿ ĥ
Ġçİ¯ å¢ĥ
ĠåĽ ¢
Ġåĩ Ĩ
å·ŀ å¸Ĥ
Ġæ® µ
Ġè®° è½½
æ³ ī
æī ¿
Ġå¸Į æľĽ
æ¸ Ĳ
éª ¨
éĻ ©
è® ¸
ä» Ģä¹Ī
æĸ ½
ĠæŁ Ĳ
èĻ İ
åŃ ©
è® ¤
ĠåŃĺ åľ¨
Ġä½ Ļ
ĠåħĪ çĶŁ
Ġå¤§ åŃ¦
Ġåįķ ä½į
æķ ´
Ġèī ²
èĲ ¨
Ġå· ®
è° ĵ
Ġé¡ º
Ġæĸ¹ æ³ķ
åº ı
Ġç´ «
ç² ¾
Ġå¯ Ĩ
ĠæĶ »
èĦ ĳ
çĽ Ĭ
èĭ ¦
èĲ ¥
Ġè® º
æ Ħ
Ġä» ¤
è§ Ħ
Ġè§Ħ å®ļ
Ġè§ ī
å¤ ±
i c
ç¬ Ķ
æ¢ ¦
ĠéĽ ª
åĸ Ħ
Ġæ±½ è½¦
Ġç®¡ çĲĨ
æķ ħ
å½ ¹
Ġäº ī
Ġä¿Ŀ æĬ¤
Ġæ ¿Ģ
Ġå¾ Ģ
æĪĺ äºī
Ġå° ¼
è½ »
ä½ Ľ
ĠçĽ´ æİ¥
è° ·
Ġå®Į åħ¨
é Ĩ
æĿ ¾
å§ Ĩ
æ¨ ¡
ä» ĭ
Ġè¡ Ĺ
Ġå§ Ķ
ĠçĶ °
çļ ®
Ġå ł
ĠéĤ ®
ĠæĦı æĢĿ
ĠåĨ ²
Ġå®Į æĪĲ
æĭ ©
æĪ ¿
Ġå¤ª å¹³
çĮ ®
éĽ ħ
ĠçŃĶ æ¡Ī
Ġåħ ¸
Ġæĭ ħ
ä¸Ń åĽ½
æĶ ¯
Ġæĭ¥ æľī
Ġå®ĥ ä»¬
Ġã ģ
Ġç ħ§
Ġåĳ ¼
Ġæĸ Ĺ
Ġæķ £
åĪ Ľ
Ġå·¦ åı³
ä» Ļ
Ġèį ·
å° ģ
ĠåŃ £
ĠåĪĨ å¸ĥ
Ġè¯Ń è¨Ģ
èĩ £
Ġç»ĵ æŀĦ
Ġè´ Ŀ
Ġé¢ ľ
ĠèĲ ¥
æ Ł¥
Ġå±± ä¸ľ
Ġä¸» æ¼Ķ
ĠåĽĽ å·Ŀ
Ġæ¥ ļ
éĿ Ļ
å¤ ı
Ġå¢ ĥ
Ġåº ·
ç¬ ĳ
Ġæī ®
éĿ ©
Ġ4 0
æ°ĳ æĹı
ĠéŃ ı
åħ± åĴĮåĽ½
ä¾ Ľ
ç» Ŀ
ĠçŃ ¾
Ġå°ı æĹ¶
Ġè§ Ĩ
Ġå¤§ éĩı
Ġåħ³ äºİ
Ġé ĥŃ
Ġæ¢ ħ
ĠçĶŁ åĳ½
éĵ ¶
Ġéĺ ³
ä¿ Ĺ
æĻ ĵ
æĮ ¥
ĠéĿŀ æ´²
Ġèĩª çĶ±
Ġäº ¦
Ġåįģ åĪĨ
Ġä¸ľ åĮĹ
åİ ĭ
é¾ Ħ
ä¼ ¤
æŀ Ĳ
ĠçĶ ²
ĠéĽ ·
æĿ Ģ
å¼ Ĥ
ĠåĿ Ĳ
ĠéŁ© åĽ½
ĠçĪ Ĩ
éĿ¢ ç§¯
ĠæľĢ å¤ļ
é» İ
Ġæ² Ī
æĿ Ł
ĠæĿ °
ĠçĶļ èĩ³
Ġå¯¹ äºİ
ĠåŃ Ł
Ġåıĺ åĮĸ
Ġç ħ
ĠæĻ º
å§ Ĳ
Ġå° ¤
éľ ²
ĠèĢ ħ
åĨ °
Ġæ²³ åįĹ
Ń ¦
Ġè´ Ł
Ġæ² ī
Ġ *
èħ Ĭ
Ġè¯ º
èĴ Ļ
æ³ ¨
éĻ ¤
Ġä¼Ł å¤§
Ġç³» ç»Ł
Ġ2 8
ĠæµĻ æ±Ł
çł ģ
2 00
è ľ
Ġè° ¢
å¨ ĺ
çĶ ²
Ġéĩ İ
Ġçº §
Ġå¤ º
Ġè¦ģ æ±Ĥ
âĢ ľ
Ġæľī åħ³
Ġèĭ ¥
ĠçĶŁ çī©
Ġç¨ ĭ
ĠæĿ ĳ
Ġå½¢ è±¡
åģ ļ
ĠåĬ ³
åĿ ¦
åį ĩ
å° ½
Ġ2 6
Ġæ° §
å¡ ŀ
Ġæ¨ ¡
å¦ ¹
Ġæ¾ ³
Ġ o
Ġæłĩ å¿Ĺ
ĠèĮ ¶
Ġèĥ½ å¤Ł
ĠæĹ §
Ġä¸ľ åįĹ
Ġå»º è®¾
Ġåĵģ çīĮ
ä¾ ĭ
é² ľ
ä¸ İ
èį £
æľ Ĺ
ĠåĨ ·
Ġäºİ æĺ¯
ĠåĽĽ å¤§
ĠåĪĨ ä¸º
ĠéĶ Ļ
Ġå·´ è¥¿
ĠåĲ Ľ
çĽ Ľ
Ġæİ §
å°ı è¯´
ç» ĥ
ĠçĶŁ äºİ
o m
ä¸ ģ
Ġæī® æ¼Ķ
Ġç ¹ģ
Ġä¸» é¢ĺ
å¹ ķ
Ġä¼ ¤
Ġèµ ¤
Ġ j
Ġç¿ »
åŃ Ļ
ĠéĩĮ éĿ¢
Ġ x
Ġåĵª ä¸ª
Ġä¸Ģ å¹´
a c
Ġå®ŀ éĻħ
ĠéĹ ´
èį ¯
Ġå°ģ å»º
Ġè¡Į æĶ¿
Ġæł ĳ
ä¼ Ł
è¯ »
èĻ «
Ġ19 2
Ġçĭ¬ ç«ĭ
ĠåĽ½ åĨħ
Ġæİ ¢
ç½Ĺ æĸ¯
çĪ ¶
ĠåıĹ åĪ°
Ġè¾ ½
ĠæĽ¹ æĵį
Ġä½ĵ èĤ²
i s
ĠãĢ Į
Ġè¾¾ åĪ°
çī Ľ
ĠåŃ¦ ä¹ł
1 8
èĳ Ľ
çŃ ĸ
Ġä¸į æĸŃ
Ġçºª å¿µ
Ġæ¼ «
Ġç§ ¯
æĺ ¾
Ġåİ ĭ
Ġè®¡ ç®Ĺ
éĿ ©åĳ½
ĠéĽ ħ
ç« ¥
æ¼ «
Ġæ² »
æĻ ļ
Ġéĩĩ çĶ¨
å¾ ħ
Ġ- --
1 0
Ġçī¹ çĤ¹
æ¯ Ĵ
çĨ Ļ
ĠéĽ Ħ
Ġä¸¾ åĬŀ
ĠãĢ į
l e
Ġå¿ħ é¡»
ĠåįĹ äº¬
éĺ ¶çº§
ĠæĢİ ä¹Ī
Ġç¬¬ åĽĽ
Ġè· ³
Ġæĸ¹ å¼ı
ĠæĢ Ģ
å Ĥ
é Ł
ä½ İ
ĠåĶ¯ ä¸Ģ
è ĸ
Ġè¶ħ è¿ĩ
Ġåħ ļ
Ġå® ģ
éĩ Ĭ
è¡ £
Ġåľ° ä½į
åĽł ä¸º
ĠåĪ ļ
ĠåĪĽ éĢł
åº Ħ
ä¾ ¿
é» Ħ
Ġ200 0
ç¾ Ĭ
Ġæ· ·
ĠçĽ¸ å½ĵ
å¥ ı
æĻ º
ĠçĶ ³
å£ ģ
ĠæĿ¡ ä»¶
ï ¼
Ġå® ½
Ġå¹³ åĿĩ
Ġç« ¥
Ġè§ī å¾Ĺ
Ġæľ ĭåıĭ
æī ĺ
Ġæĥ Ĭ
Ġåį ĩ
æ´ Ľ
Ġæıı åĨĻ
Ġçī ĩ
ĠæĪ ¿
ĠéĽ ¨
ĠåĪ© çĶ¨
Ġ201 0
ĠæľĢ ç»Ī
Ġé² ľ
ĠæĤ ¨
Ġå½¢ å¼ı
Ġå° Ħ
æ¢ ħ
é ķľ
ĠæĿ Ĥ
Ġ6 0
ĠÂ °
åĿ ¡
èģ Į
Ġä½ľ å®¶
Ġæ Ħ
¯ ®
åĲ ī
èĮ ĥ
Ġçı į
Ġæķ Ī
æĽ ¼
åı ª
ĠåĢ Ł
Ġ2 7
ĠéĢī æĭ©
å® Ī
Ġä¼ģ ä¸ļ
Ġåĵ ¥
Ġåĳ Ĭ
å¯ º
Ġæ¹ĸ åįĹ
Ġä¸ī ä¸ª
ĠæıĲ ä¾Ľ
å¾ Ħ
1 2
Ġå¸Ĥ åľº
ç» ľ
ä¸» è§Ĵ
æľ «
Ġç¤ ¼
åĵ Ī
Ġä¸» å¸Ń
ĠæĦı ä¹ī
ĠéĴ ±
Ġå° Ĭ
è¾ ĸ
Ġçº ¿
åį ļ
Ġæ² ¹
ĠçĶ ĺ
Ġæ¯į äº²
Ġå¹¿ ä¸ľ
éĥ İ
ä» ģ
è ķ
ĠéĢ Ģ
ä½ ł
è¯ ·
ĠåĽ º
ĠåĪ¶ åº¦
in g
é¸ Ł
Ġæķ´ ä¸ª
i t
å§ ĵ
ç» ©
Ġå¤ «
ç £
Ġå¹ ¸
Ġå ŀ
ĠåĪ¶ ä½ľ
å® ĥ
ä¾ ł
Ġç® Ĺ
æ¬ ¾
ç¤ ¼
Ġæľī äºº
ä¸ ´
ĠåŃ ©
æµ ĭ
å² ³
Ġæº ¶
ĠåŁ ĥ
ĠåŃ¦ çĶŁ
Ġ v
Ġå½ĵ çĦ¶
Ġæ Ł¥
ĠæĶ¿ åºľ
ĠåĮĸ åŃ¦
Ġä»ĭ ç»į
Ġå «
ĠæŃĮ æīĭ
ç² ī
æ°§ åĮĸ
éĥ¨ åĪĨ
Ġä¹ °
Ġè¿Ļ ä¸Ģ
ĠæĿ¥ èĩª
Ġå¸Ŀ åĽ½
Ġäºº ä½ĵ
ĠåĲį ç§°
ĠåĪ¶ éĢł
Ġæī ¹
è½ ®
æŁ ĵ
æ ¦
å° ¾
ĠæĻ ĭ
Ġå» ¶
Ġåĩ ı
å¦ Ī
Ġä¸º ä»Ģä¹Ī
ĠçľŁ æŃ£
Ġçĳ ŀ
Ġæľ «
Ġç« Ļ
è¿ ª
Ġæ°ĳ éĹ´
å© Ĩ
èµ °
èİ ±
Ġåı ³
Ġè ĸ
èĢ ³
Ġèį £
é¢ Ĺ
Ġèĭ± æĸĩ
Ġæµ ª
Ġä¿Ħ ç½Ĺæĸ¯
² Į
ç¾İ æ´²
ĠæĽ¾ ç»ı
Ġæ¨ ª
Ġä¾ µ
Ġæ°Ķ åĢĻ
Ġå ŀĭ
ä» ª
Ġæ¯ı å¹´
åĨ ł
æ´ ¥
Ġåĳ Ī
Ġç¬ ¦
Ġç»ĵ æŀľ
Ġå¥³ åĦ¿
± ä¹Ĳ
ĠåĲ ķ
ĠåĽ½ æ°ĳ
Ġä¸ľ æĸ¹
è¯ º
Ġæŀ ľ
Ġä¸Ģ çĤ¹
Ġåħ¨ çĲĥ
æı Ĳ
Ġ200 6
è¯ ī
ä¹ ±
ĠèĢĮ æĺ¯
ç Ĭ
Ġèĥ½ åĬĽ
ĠåŃ© åŃĲ
Ġç Ħ
Ġé»Ħ æ²³
Ġæ¸ ¯
Ġéĵ ľ
åį Ī
å° ļ
Ħ Ĵ
Ġåħ Ħ
Ġç¼ º
Ġæİ§ åĪ¶
ä½ Ĩ
Ġå¼ķ èµ·
Ġè Ĺı
Ġ200 7
çģ Ń
åı į
Ġä¸į è¦ģ
Ġä»Ĭ å¤©
Ġè§Ĵ èī²
æ£ ®
ç¥ ¥
Ġå® ĩ
Ġä¸Ģ é¦ĸ
Ġå·¥ ç¨ĭ
Ġå¹¶ ä¸Ķ
ĠåŃ¦ æł¡
æī ¹
æį ¢
Ġç¬¬ä¸Ģ éĥ¨
Ġä»» ä½ķ
Ġä¸ĵ è¾ĳ
Ġå¼ Ĥ
ĠéĢ Ł
Ġåıį åºĶ
Ġè±¡ å¾ģ
Ġé£İ æĻ¯
Ġä¹ĭ åīį
Ġå¡ Ķ
è´ £
Ġçº ¯
ĠéĴ ¢
Ġæ¯ «
Ġä¼ł è¯´
èĪ ª
Ġè¥¿ åĮĹ
ĠåĶĲ ä»£
o u
ĠéĻ¤ äºĨ
ĠæĦŁ è§ī
Ġèĭı èģĶ
æ¬ §
ĠåĶĲ æľĿ
Ġç Ŀ
Ġè¯¸ èĳĽ
Ġä¸Ģ åĪĩ
æī ¬
Ġåħ¨ éĥ¨
Ġéĺ ´
Ġè¥¿ æĸ¹
ç¤ ¾
Ġä¸Ģ å¤©
èı ²
Ġåĸ Ħ
Ġåģ ĩ
Ġæµ ĵ
Ġçģ Ń
Ġå¤ļ å¹´
ä¿ ®
Ġæ´ ª
Ġçİ° å®ŀ
Ġäº§ åĵģ
å¨ ľ
Ġæľ Ľ
çķ Ļ
Ġç§ »
Ġæ±Ł èĭı
Ġä¸Ģ æĿ¡
Ġå¥³ åŃĲ
Ġèı ľ
Ġä¸ ¹
ä¾ ¯
çĿ £
Ġåħ °
ĠçĽ¸ å¯¹
Ġ200 9
è° ¢
a s
Ġç¬ ĳ
ĠåĪ º
Ġäº¤ éĢļ
Ġç»ĵ æĿŁ
Ġåıĳ è¡Į
Ġå ³
Ġæ¥ ¼
a m
o l
Ġè¯´ æĺİ
Ġä¸Ģ ä¸ĭ
Ġæ¬ ¢
ĠåįĹ åĮĹ
ç¼ ĺ
Ġä»¥ ä¸ĭ
Ġåıĸ å¾Ĺ
æ Ħ¿
Ġä»¥ åīį
Ġé¢ľ èī²
Ġåħ· ä½ĵ
Ġè¡ ¥
èĪ °
Ġç©º æ°Ķ
é¡ ¶
ĠçĲĨ è®º
æ¥ ļ
Ġä»¥ æĿ¥
åĿ Ľ
çģ ¯
Ġç´ ł
Ġæĺ Ĩ
ĠåĬŁ èĥ½
éĻ į
ĠéĻ ķ
ĠéĢĲ æ¸Ĳ
Ġæ¸¸ æĪı
Ġç´ §
Ġåħ ¼
åĪ ļ
e t
Ġä¼ļ è®®
Ġæĺ¥ ç§ĭ
å® ¾
Ġç»ı åħ¸
Ġå£ ®
Ġ2 9
éĶ ĭ
ĠèĴĻ åı¤
æ³ Ĭ
Ġåıª èĥ½
ĠèĽ ĭ
Ġè¥¿ åįĹ
Ġåħ± åĲĮ
åį °
ï¼ Ī
ĠæĹł æ³ķ
Ġè¯ ŀ
Ġç»ĵ å©ļ
Ġçİ ©
Ġåĩº çīĪ
Ġéĺ ¶
åŁİ å¸Ĥ
Ġå·¨ å¤§
ĠéĿĴ å¹´
ç ħ
Ġç» ¼
æĻ ĭ
æİ Ĵ
Ġä¸į åı¯
ĠéĴ Ł
Ġé¸ Ł
Ġçİ° è±¡
è¶ £
5 0
Ġä¼ ¼
çĨ Ł
Ġèµ ŀ
Ġå¤ļ å°ĳ
Ġä¹ ł
äº Ī
Ġåħĥ ç´ł
Ġå§ ĵ
Ġäºº çĶŁ
ĠâĢ Ļ
ĠéĤ ĵ
Ġåıį æĺł
Ġä½į ç½®
i d
ĠçŃī çŃī
çĸ Ĩ
ĠèĤ ¯
Ġäº Ĵ
Ġæī ©
Ġç½Ĺ é©¬
Ġç§ ĺ
Ġå¼Ģ åıĳ
Ġæīį èĥ½
Ġå°ĳ å¹´
ĠåŃ ¤
èĭ ¥
å¸ Į
çĽ ĸ
çĵ ¦
Ġåı¸ é©¬
Ġæĸ¹ åĲĳ
Ġæĳ ©
Ġç² ī
Ġé£İ æł¼
Ġèį ¯
ĠåĢ Ĵ
å½ Ĵ
Ġé¦ĸ æ¬¡
Ġæ® ĭ
Ġç¾İ ä¸½
Ġçİ ĩ
Ġè´ ¢
Ġä¸Ģ çĶŁ
1 1
è§ Ī
Ġé¥ ®
ĠæľŁ éĹ´
Ġåıĺ æĪĲ
Ġæµ· æĭĶ
è¿ ħ
Ġä¹ ī
Ġåĺ ī
æĹ¶ æľŁ
æŀ ¶
Ġ8 0
Ġå§Ķ åĳĺ
åŃ¦ éĻ¢
Ġæł ¡
Ġæīĭ æľº
æĭ ¿
æ³ °
è ¹
éĩ İ
Ġå¯ »
éħ į
æľ ª
Ġåģ ľ
Ġè¡¨ æ¼Ķ
Ġæ Ł³
Ġå°ĳ æķ°
åİ ļ
ĠçĶµ åŃĲ
ĠæľĢ éķ¿
Ġéģ ĩ
å ´
æĢ »
åĲ ¦
Ġèº« ä»½
ĠéĶ ¦
ĠçŁ¥ è¯Ĩ
åĪ Ģ
Ġå®ŀ çİ°
çĽ ĺ
Ġæ ¦Ĥ
Ġæİ Į
Ġ9 0
å¾ Ĵ
å¿ Ĩ
Ġæ¸© åº¦
Ġèµ· æºĲ
Ġå®¶ åºŃ
Ġåľ° çĲĨ
Ġæ· ¡
éĴ ±
Ġè¾ Ľ
Ġä¸º ä¸»
Ġä¾ ĭ
åİ Ĥ
Ġèĩ³ ä»Ĭ
Ġæłĩ åĩĨ
çıŃ çīĻ
Ġéª ¨
ĠâĢ ĺ
Ġä¹ ĺ
Ġ200 5
Ġé¦ĸ åħĪ
Ġåį ·
æĢ Ģ
ĠèĪ ¹
ĠåİŁ æĿ¥
Ġåģ ¶
Ġä¸ĵ ä¸ļ
äº§ éĺ¶çº§
äººæ°ĳ åħ±åĴĮåĽ½
çĥ §
Ġè¯´ æ³ķ
Ġä¹ Ķ
ĠåĬł åħ¥
Ġä¸» æĮģ
ĠéĽĨ åĽ¢
åĬ¨ çī©
Ġ201 4
èĮ ¶
å· ®
Ġå° ļ
Ġéĺ¿ æĭī
Ġå¢ ¨
b a
Ġè¢ ģ
Ġä½ ı
çĥ Ł
è ²Į
æĻ ®
æĶ »
ĠåĪĺ å¤ĩ
ĠåħĦ å¼Ł
Ġåģ ¥
æł ¸
Ġæµ· æ´ĭ
Ġä¸ Ķ
Ġè¡¨ è¾¾
Ġå¹¿ å·ŀ
Ġäºĳ åįĹ
Ġ200 4
Ġåĩł ä¹İ
Ġé Ĩ
Ġéļı çĿĢ
çĪ ¸
Ġå¢ŀ åĬł
ĠåĬĽ éĩı
Ġå¢ĥ åĨħ
å Ĵ
Ġã ĥ
ĠæĿ ¾
ĠæľĢ å¥½
Ġæ¯ķ ä¸ļ
ĠåħĪ åĲİ
Ġç»ı åİĨ
é ½Ĳ
æķ ¦
è¯ ĳ
è´ ¤
äº§ åħļ
Ġæ¸ħ æľĿ
ĠéĢł æĪĲ
ĠæĿ¡ çº¦
ç® Ń
å¼ ķ
Ġ7 0
æĹ ¦
Ġåı« åģļ
åĮ ¹
Ġæ´ ŀ
ĠäºĨ è§£
Ġæĺ ĵ
Ġåĩ ¤
Ġå®ī å¾½
ĠæĿ Ń
è¥¿ çľģ
Ġä¸Ń æĸĩ
Ġè¥¿ çıŃçīĻ
åľ Ī
æ³ Ľ
h e
å ª
Ġäº «
Ġå£° éŁ³
è´ ¯
æ± ł
ĠéĿ ł
t t
Ġå± Ģ
Ġç½ĳ ç»ľ
u s
ĠåıĪ ç§°
æº ª
Ġè¯ŀ çĶŁ
çº ¸
Ġæ¹ĸ åĮĹ
Ġåĩº èĩª
ĠåĬ³ åĬ¨
Ġè´¨ éĩı
éĢ Ķ
æĬ ĺ
Ġåı¦ å¤ĸ
Ġç»Ī äºİ
Ġåįģ äºĮ
Ġå®Ĺ æķĻ
Ġè´ ¾
ĠæĿ¥ è¯´
ĠæĢ» ç»Ł
ĠæŀĦ æĪĲ
Ġç¼ĸ è¾ĳ
å® ĩ
ĠåĽ ´
Ġåĩł ä¸ª
è° ĭ
è¡ ¡
Ġè½ ¯
Ġç¡® å®ļ
æĳ Ħ
Ġæ± Ĥ
å® ľ
æ´ ģ
Ġæĸĩ åŃĹ
ĠéĽ ¶
Ġæļ Ĺ
Ġéģ Ń
éģ ĩ
Ġä¿ ĥ
Ġåĩ »
ĠéĢŁ åº¦
ĠéĢ ı
Ġæ²³ æµģ
Ġä¸ī åįģ
Ġ3 6
è ļ
Ġå¹³æĸ¹ åħ¬éĩĮ
åĺ ī
Ġæĸ ½
Ġå¸® åĬ©
éģ į
åį ı
æģ ĭ
Ġä¸ Ŀ
Ġæľį åĬ¡
Ġåĩ Ń
Ġèĭ ¦
ĠæŃ ¥
èµ ı
å² ©
Ġè¿ĲåĬ¨ åĳĺ
æŀ ª
Ġæľī äºĽ
Ġè¥¿ éĥ¨
ĠéĹ »
ä¾ §
ĠåĪ Ĵ
Ġä»İ èĢĮ
Ġä¸Ģ åº§
Ġåĭ ĩ
Ġåį ±
Ġèº« ä½ĵ
ĠèĶ ¡
çĽ ¾
ç ³ĸ
Ġ \
å¥ Ĺ
éĤ £
¤ Ĳ
åĨ ²
æ¢ ģ
Ġéļ Ĳ
Ġæ¶ ²
ĠæĶ¹ åıĺ
æĿ İ
Ġéļ ĭ
Ġå·´ é»İ
ĠåİŁ åĲį
Ġæĺ¯ åĽłä¸º
Ġçı ł
åĸ ľ
Ġè¯¸èĳĽ äº®
æ ħ§
Ġå¾ ģ
ĠåĪĨ æŀĲ
Ġæº Ĳ
Ġå ¦»
è± Ĩ
Ġè§Ĥ ä¼Ĺ
æĿ Ĥ
Ġåĵ ²
Ġ200 3
u n
1 4
Ġç¾ Ĭ
ĠçĲĥ éĺŁ
Ġç»§ ç»Ń
Ġè· ¨
Ġèĳ £
Ġåī ĳ
éľ ĩ
Ġæµ ĭ
æĸ¯ åĿ¦
Ġå¹¿ æ³Ľ
Ġä¸Ńåįİ äººæ°ĳåħ±åĴĮåĽ½
Ġåıª è¦ģ
Ġæĭħ ä»»
è¯ ¯
Ġç« ŀ
Ġé¡¹ çĽ®
ĠæĪ ´
åľ Ĩ
Ġå¼ ¹
Ġçī¹ èī²
æ® Ĭ
ĠèģĶåĲĪ åĽ½
åº ĵ
è¶ ħ
ĠåľŁ åľ°
ĠåĪ »
åģ ¥
Ġ19 0
Ġå¹³ åİŁ
Ġèį· åħ°
Ġè¿ ·
æ´ ŀ
åĽ º
Ġä¸Ģ æ®µ
Ġå®ī åħ¨
ĠåĽŀ çŃĶ
ç»Ĩ èĥŀ
Ġä¸į å¾Ĺ
Ġå®ŀ éªĮ
Ġç ¯ĩ
Ġä¸» äºº
Ġå¾Ī å¤§
Ġéº »
Ġï¼ ĳ
Ġè Ŀ
ĠåĲ ¯
Ġçº ³
Ġå®¹ æĺĵ
Ġä¸į å°ĳ
ĠæĦŁ æĥħ
e d
è Ŀ
èĩª æ²»
éº ¦
Ġè¿ŀ ç»Ń
Ġä½ľ æĽ²
ĠåĨĽ éĺŁ
Ġä»£è¡¨ ä½ľ
Ġç»ĵ åĲĪ
Ġéº ¦
Ġæķ ĳ
Ġæ¯Ķ å¦Ĥ
åĲ «
Ġå ĦĴ
æ ¾
å¼ ĥ
Ġå¼ Ł
Ġ q
åĲ ¬
ç§ ¦
æ¼ ł
Ġçĥ Ł
Ġã Ĥ
ĠæľĿ ä»£
Ġæ±ī æĹı
åį ·
ĠéĻ ¶
Ġæĭį æĳĦ
è¡ Ĺ
Ġä¿¡ æģ¯
Ġå¦ Ī
Ġæ± ¤
Ġäºĭ ä»¶
Ġçİĭ æľĿ
Ġä»· åĢ¼
Ġ Ð
Ġè·Ŀ ç¦»
Ġè¿ĳ ä»£
å ĥ
Ġåıĳ åĬ¨
ĠèĲ §
ä¸ĸ çºª
ĠæĪĲ å°±
ä¿ Ĭ
Ġç¬¬ åįģ
å¹ »
ĠæīĢ åľ¨
Ġè Ń¦
Ġæ²³ åĮĹ
Ġè®¡ åĪĴ
Ġä¹ ¾
Ġç¬¬ äºĶ
è¿ ģ
Ġè§£ æĶ¾
ĠèģĮ ä¸ļ
Ġæľī éĻĲ
çĭ ¬
ĠæĴ Ń
ĠéĤ£ äºĽ
ä¸ ¤
ĠåĴĮ å¹³
ĠèĻ İ
Ġé£Ł çī©
ä¾ Ŀ
Ġå¯ Ĵ
Ġæµģ è¡Į
Ġæ´ Ĺ
Ġè° Ī
æĸĩ åŃ¦
Ġè¿Ļ é¦ĸ
ç»Ħ ç»ĩ
Ġ18 9
Ġæ£ ®
¡ èĲ
Ġæľī çĿĢ
èĤ ĥ
èªī ä¸º
Ġè¯Ĺ æŃĮ
Ģ ĳ
Ġåıĳ è¡¨
ĠçĪ ¸
çĸ ĳ
ĠçĶ· åŃĲ
Ġè½ ½
Ġ3 1
è ŀį
Ġæİ¥ åıĹ
¡èĲ Ħ
Ġ3 5
æĭ ľ
Ġå¹´ è½»
èĴ Ĥ
Ġçĩ ĥ
ĠæĶ¯ æĮģ
ĠèĮĥ åĽ´
Ġæķ Į
ç» ¿
ĠèĻ ļ
åĨ ľ
Ġæĭ Ľ
Ġä¿Ŀ æĮģ
Ġç§ĳ åŃ¦å®¶
Ġç³» åĪĹ
Ġèĥľ åĪ©
ĠæĿ Ĳ
åı «
ĠçĽ Ĳ
ĠéĽĨ ä¸Ń
Ġä¾ Ľ
Ġæ ĵ
ä¼ Ĭ
Ġéĩĳ çīĮ
Ġç»ı å¸¸
èĪ Ł
Ġæ°Ķ ä½ĵ
å¸ ħ
ĠèµĦ æĸĻ
Ġèľ Ģ
åģ ĩ
ĠéĻĦ è¿ĳ
Ġæį ¢
Ġçĩ ķ
Ġæı Ĵ
æķ £
Ġå¦Ĥ æŃ¤
ĠåĲ« æľī
Ġå¸Į èħĬ
Ġå¼ ı
æ¼Ķ ä¹ī
Ġ200 2
Ġä¼ł å¥ĩ
æİ ī
å§ĭ çļĩ
ĠæĶ¹ éĿ©
éŃ Ĥ
éĺ Ķ
çĶ «
å¿ ħ
Ġè´ ¹
Ġè¢« èªīä¸º
Ġæĸ Ń
Ġæĸĩ ç«ł
Ġèĩ ´
åĳ ¼
Ġåħ »
é¢ Ŀ
å¼ ±
Ġç»¼ åĲĪ
Ġç ¦
ĠæĪĲ åĳĺ
Ġå´ ĩ
ĠçĽ ĳ
éĺ ²
å² Ń
å¦ ĥ
åĿ ı
Ġå½ ©
Ġåģ ı
ĠèĴ ĭ
Ġå¹¸ ç¦ı
èİ ·
åł ¡
Ġæ³¨ æĦı
ĠåĮĹ æĸ¹
ĠæŃ£ æĺ¯
Ġèī ¾
Ġé¡ ¶
Ġéľ į
æĹ¶ éĹ´
ĠéĢļ å¸¸
ç¢ ³
Ġæı Ń
Ġç®Ģ åįķ
è¿ ·
åĪ© äºļ
Ġæ¡ ĥ
èĽ ĭ
Ġé ķ
Ġæģ ¶
è£ Ĥ
i l
Ġæĸĩ æĺİ
ĠæŃ£ ç¡®
æ½ ®
ĠåĬł ä¸Ĭ
ĠåĬ ª
Ġå¤ļ ç§į
Ġå®£ å¸ĥ
Ġå¤ªå¹³ æ´ĭ
Ġéĩį åºĨ
Ġå¿ ĺ
åº Ļ
Ġæ¡ ¥
ĠèĤ ¡
Ġä½Ľ æķĻ
Ġå Ļ¨
Ġåº Ł
ĠèĬĤ çĽ®
ĠçĲĥ åĳĺ
ĠæĲ ľ
Ġä¹ ĥ
Ġå® Ī
åĲ ¸
ĠåĮ Ī
ç¯ĩ å°ıè¯´
å§Ķ ä¼ļ
å «
å¹ ħ
Ġè¿ ģ
è¾ ĵ
ĠæĻ® éĢļ
æµ Ĵ
åĪ ¤
Ġçº ¸
Ġå² ³
Ġçī© çĲĨ
Ġæ¡ Ĥ
Ġå¹ ½
ĠåİŁ åŃĲ
Ġä¼ ĳ
æĻ ¨
Ġç ŀ
æŀ Ŀ
æ³ ³
Ġå°ĳæķ° æ°ĳæĹı
ĠæĹ Ĺ
Ġé¸ ¡
Ġä¹ĭ ç§°
Ġè¿Ļ ä¹Ī
Ġå¤§ éĥ¨åĪĨ
Ġèī ¯
Ġè®¤ è¯Ĩ
Ġæ½ ľ
Ġåį ¢
æĬ Ĺ
Ġæ¶Ī åĮĸ
Ġèĳ ¡èĲĦ
ĠåĢ ¼
Ġä¼ ¦
Ġå¡ ŀ
Ġç¨ ³
ĠéĿ Ļ
ç³» ç»Ł
Ġè¾ ĵ
è´Ŀ å°Ķ
æľ Ģ
Ġåħ¬ ä¸»
åĭ ĩ
ĠèĬĤ æĹ¥
åī Ĥ
æĢ ķ
Ġå¤§ çº¦
ĠèĤ ī
ĠåıĬ åħ¶
ĠåĮĹ éĥ¨
Ġå¯¼ èĩ´
Ġçĭ¬ çī¹
æĸ¹ éĿ¢
Ġï¼ ħ
ī ´
Ġè ļ
åį ³
o s
Ġä¸ ļ
Ġé ¬¼
äº Ń
Ġéħ ¸
æĤ Ł
Ġä¸¤ ç§į
æĻ ¶
èİ ²
æĳ ©
æĶ ¹
æ® ¿
ĠæĪĺ åĽ½
é» ĳ
ĠæĮī çħ§
æĥ ł
ĠæĪĲ éĥ½
éĶ Ģ
Ġè ŀį
éĢ ģ
ĠèµĦ æľ¬
æķ ı
ĠçķĻ ä¸ĭ
Ġ '
Ġåº §
ĠéĽ ķ
Ġæ¯ı ä¸ª
ĠèµĦ æºĲ
¡ çĮ®
ĠæľĿ é²ľ
æµ ª
éĿ ł
ĠæĽ °
Ġå»º è®®
ç Ħ
Ġåı¯ æĺ¯
Ġå¤§ åŀĭ
Ġåıĳ å°Ħ
Ġåº Ħ
ĠåĲĦ åĽ½
ĠåĢ ¾
âĢ Ŀ
Ġæ°´ æµĴ
Ġéĺ¶ æ®µ
æŀĹ åĮ¹
é¸ ¡
å¤§ æĪĺ
Ġç¡ ¬
æ® ĸ
Ġä¼ĺ ç§Ģ
Ġç¦ı å»º
a y
Ġå¤§ å°ı
ĠæĿİ çĻ½
Ġç¤¾ä¼ļ ä¸»ä¹ī
Ġä¸į éĶĻ
Ġè± ª
Ġåĩ ¡
ĠæīĢ è°ĵ
a d
æ³½ ä¸ľ
åı Į
ĠçľŁ çļĦ
Ġèģ ļ
Ġå®ŀ è¡Į
i on
ĠèĦ ±
Ġå¤§ å¤ļ
å· §
Ġè· ĳ
Ġæ³ķ å¾ĭ
Ġé© ¾
Ġæ ĩ
Ġé£ŀ æľº
Ġâ Ĩ
Ġå¦Ĥ ä½ķ
Ġéĩĩ çº³
Ġç« ¹
Ġä»İ æŃ¤
Ġç±» åŀĭ
Ġæµ İ
1 3
Ġè´ §
ĠçĽ® çļĦ
å ¦Ļ
ĠæĮ ĳ
Ġè§£ éĩĬ
Ġè¡ £
éĺ ¿
Ġæ°ĳ ä¸»
ç» ª
åĮ ħ
èı Į
æĥ ľ
ĠåĲ¸ æĶ¶
åĨ į
Ġåı ¬
ĠåŃ¦ éĻ¢
Ġè¯ģ æĺİ
ĠæĢ§ æł¼
Ġä¼Ĺ å¤ļ
ĠçĪ¸ çĪ¸
éĵ¶ è¡Į
æµ ©
ĠæĿĲ æĸĻ
ĠæĮ ģ
Ġé¼ ĵ
Ġå· ŀ
åĸ »
Ġéģ ¿
Ġä¸ľ éĥ¨
Ġè ¸
åĩ ¤
Ĩ åľ°
Ġæ¼« çĶ»
æ¶ ¯
åĬ ³
é© ¶
Ġè¿ ħ
é¡ º
Ġé«ĺ åº¦
åĩ ł
å¤§åĪ© äºļ
ĠèĢģ å¸Ī
Ġè¿Ļ éĥ¨
è® ¢
æķ ¬
Ġå½ĵ åľ°
ĠçľŁ å®ŀ
ĠåĨľ ä¸ļ
Ġè ¨Ģ
ĠéĢ ĥ
Ġé¦ĸ æŃĮ
é¡ ¾
ĠçĨ Ł
åĮ »
ĠåĬ¨ çĶ»
Ġåĳ ³
ĠèĪ Ĵ
Ġå¦» åŃĲ
å¹³ æĸ¹
Ġå® ¡
çĤ ®
Ġæĺ¯ åĲ¦
Ġéĵģ è·¯
ä¸ °
Ġè¿ĩ åİ»
Ġæ£ Ģ
Ġéķ¿ æľŁ
Ġåķ ¦
Ġéĥ ¡
ĠçĹ Ľ
Ġä¼ ¯
çĽ Ĳ
æ¸ ¡
Ġç¥ŀ è¯Ŀ
Ġä¹ĭ ä¸Ń
å¯ Ĵ
ĠçĶŁ éķ¿
Ġè½ ®
Ġæ±Ł åįĹ
è Ĺ
ĠçĽ´ åĪ°
è Ħı
Ġæ Ħ¿
å ŀ
Ġå¥³ äºº
Ġçº¢ èī²
ĠèĳĹ ä½ľ
c h
Ġå½ĵ å¹´
Ġè¯ ĳ
Ġåı ĭ
Ġçļĩ åĲİ
æŃ¦ å¸Ŀ
Ġå ª
éĴ Ī
ĠéĶ Ģ
éĶ ®
Ġå£ «
ĠèĴ ¸
Ġå¯ º
æ¶ ¦
Ġèº« é«ĺ
Ġåĸľ çĪ±
ĠæĿ° åĩº
çĵ ľ
æķ ¢
èĬ ¬
ĠåĽ Ń
Ġæµª æ¼«
ç¤ ¾ä¼ļ
Ġæģ Ĳ
ĠæĽ´ åĬł
ĠèĢģ å©Ĩ
Ġé£ŀ è¡Į
Ġç ¯®
ĠæĿŃ å·ŀ
ä» ²
ĠåŁº åľ°
Ġæĺİ æĺ¾
æķ Į
ĠåĿ ¦
ĠåĳĬ è¯ī
ĠåŁ ¹
é ¬¼
æķ ĳ
ĠæıĲ é«ĺ
Ġæ· ®
ĠèĤ¯ å®ļ
Ġç§¦ å§ĭçļĩ
è¹ Ī
Ġ |
ĠåĪ ĩ
Ġåħ¶ å®ĥ
Ġçģ ¯
å ¦»
Ġçİ Ħ
æ¼Ķ åĳĺ
Ġçī© ä½ĵ
è¾ ī
ĠæĶ¿ æĿĥ
Ġä¸ ģ
Ġæ¯Ľ æ³½ä¸ľ
é» ĺ
ĠåĨľ æ°ĳ
Ġé Ħ
ĠåĩĨ å¤ĩ
ĠåĮĹ å®ĭ
Ġçĥ §
å¤ º
æ² ¡
Ġå± Ĥ
ĠåĪĨ åŃĲ
Ġéĩį çĤ¹
ĠèĪª ç©º
ä¹ Ł
èĤ ¤
ĠäºĮ æ°§åĮĸ
ĠåĪ« äºº
Ġæĭ ľ
Ġé¡ ¾
6 0
Ġå¥³ ä¸»è§Ĵ
åĲ Ħ
Ġ200 1
çĪ ·
ĠæŃĮ è¯į
Ġåħħ æ»¡
Ġå°¤ åħ¶
ĠåŃĶ åŃĲ
Ġå¦Ī å¦Ī
Ġ3 2
ĠæľĢ ä¸º
åĶ ®
ĠéĤ£ éĩĮ
Ġæļ ´
½ ¿
Ġå¿ Ĺ
ä¸į æĺ¯
æ² Ł
Ġéĩį å¤§
Ġå¿« ä¹Ĳ
ç§ »
èĤ ł
Ġç Ģĳ
åħ į
å£ ®
ĠçĶ¨ äºİ
Ġåĳ½ åĲį
¸ æĺĵ
Ġæķ£ æĸĩ
åħ ħ
Ġçī¹ æ®Ĭ
èĪ į
ĠæĪĺ çķ¥
Ġæµ ®
æł¼ åħ°
Ġè¥¿ å®ī
1 5
Ġå¥¥ æŀĹåĮ¹
å¥ ´
Ġä¸Ģ åı¥
ĠéĻ ¢
Ġä½ĵ çİ°
Ġç¾ ½
Ġéĵ¶ è¡Į
Ġè¯ ¦
Ġè§Ħ æ¨¡
Ġåľ¨ ä½į
Ġæī ĺ
Ġåħ¨ ä¸ĸçķĮ
ĠçĪĨ åıĳ
Ġéĺ¿æĭī ä¼¯
éĢ Ĭ
æ ¤į
é¢ ĸ
Ġâ ĺ
Ľ çĽ¾
ĠèĽĭ çĻ½
Ġçģ °
Ġ 00
Ġè®° å½ķ
æİ Ī
è® ©
æĢ ª
éĺ ģ
çº ¬
Ġè¥¿ æ¸¸
éĽ ķ
ĠæĪı åī§
Ġç¬¬ä¸Ģ ä½į
-------- --------
æ³ ª
è´ Ł
Ġæĺ¯ ä»İ
Ġä¸īåĽ½ æ¼Ķä¹ī
Ġé«ĺ åİŁ
è¿ «
Ġå¥ Ķ
åĨ łåĨĽ
çĩ ķ
ĠèĲ ¨
æħ ¢
Ġæ°´ å¹³
Ġéª ĳ
ĠæĬ Ĵ
Ġä¸Ģéĥ¨ åĪĨ
çĴ ĥ
æ ¤
åĨ Į
ĠçĦ¶ èĢĮ
Ġ201 1
Ġé²ģ è¿ħ
ĠåįĹ éĥ¨
Ġæµģ ä¼ł
Ġ3 3
ĠçŁ ¿
ĠæŁ ¯
Ġæľº æŀĦ
Ġå¸¦ æĿ¥
å° Ĭ
Ġåı Ļ
åĩ ¡
ĠçŁ³ æ²¹
æ» ¨
å¥ ¶
Ġè¿ İ
ĠæŃ£ åľ¨
ĠæĮĩ æĮ¥
éĺ µ
Ġåº· çĨĻ
Ġæł¹ æľ¬
ĠæĪĺ æĸĹ
çĿ Ľ
Ġä»¤ äºº
Ġçº µ
ĠåĪĨ éĴŁ
ĠæĽ´ æĺ¯
Ġæ¹ ĺ
Ġå¡ ĳ
ĠåķĨ ä¸ļ
åĨ ·
æľ µ
Ġçİ »
è¥¿ äºļ
Ġå°Ĩ åĨĽ
ĠèĲ¥ åħ»
Ġå® ľ
ĠåĨ ¯
Ġåĩº æ¼Ķ
ĠåĽĽ ä¸ª
ä¸Ń å¿ĥ
Ġå®Į æķ´
Ġç¦» å¼Ģ
Ġæī¾ åĪ°
Ġæİ Ī
Ġæ£® æŀĹ
Ġéĩį æĸ°
Ġåį ĸ
å± ¿
Ġéĩ ı
Ġæĸ° çĸĨ
Ġé¢ ģ
Ġçī¹ å¾ģ
å°¼ äºļ
ĠçĶ ľ
è¡ Ķ
æĸ ¤
è¿ İ
Ġåĩ Į
èĦ ļ
çĮ «
Ġæ ©
Ġè¯ ¾
ĠæĬ ¤
æ± ½
Ġéĩĳ å±ŀ
ç« Ł
Ġæ¾³ å¤§åĪ©äºļ
æļ Ĺ
Ġâ Ħ
è¯ Ħ
Ġå§ ľ
Ġåº ķ
æīĢ ä»¥
Ġå¹ ¼
Ġç¬¬äºĮ æ¬¡
Ġäºĭ æĥħ
Ġéķ¿ å®ī
ç¬¬ ä¸Ģ
Ġä¸Ģ åľº
Ġç§ ģ
Ġç¢ ³
ĠçĬ¶ æĢģ
æĭ¿ å¤§
Ġçĭ Ĥ
Ġæ°¸ è¿ľ
èµ «
åľ ³
Ġè¯º è´Ŀå°Ķ
æ ¤įçī©
Ġç©º éĹ´
o f
èĬ ³
Ġéľ ĩ
ĠåĨį æ¬¡
ĠèĥĮ æĻ¯
ĠæĢ ¥
Ġç« ł
Ġ201 2
4 0
èĨ ľ
ç½ ª
Ġåĵ ¦
ĠåıĪ åĲį
Ġè¡¨ éĿ¢
Ġæĺİ æľĿ
Ġè¡Ģ æ¶²
i g
åŃ Ķ
ĠçĽ¸ åĲĮ
çŁ Ń
Ġå¥ ī
Ġæ´Ľ éĺ³
èį Ĳ
Ġè§£ åĨ³
Ġä¸Ģ å®¶
tt p
çĤ ¸
ĠèµĦ äº§éĺ¶çº§
Ġåı² è®°
Ġçļ Ĩ
ĠåĴ ¸
Ġåĸ Ŀ
Ġäºĭ ä¸ļ
ä»£ è¡¨
ĠåĽł èĢĮ
ĠåĬ ¿
Ġå¨ ±ä¹Ĳ
Ġç« Ł
Ġæĳ Ħ
Ġçı Ń
Ġ4 5
ĠçĻ¾ åº¦
Ġç¬¦ åĲĪ
ĠåĨ³ èµĽ
Ġå¤Ħ äºİ
è® ¯
ĠåĮº åŁŁ
è¾ °
Ġåħ į
Ġåħ± æľī
ĠèģĶ ç³»
å¯ ¿
ĠèĦ ļ
å® Ļ
ç» §
Ġå§ Ĳ
å¾ ®
åįģ å¹´
Ġåĳ¼ åĲ¸
ĠåĪ ¤
ĠæĿ ¿
ĠçĢĳ å¸ĥ
Ġè® ¨
æı ¡
1 6
Ġå¤© çĦ¶
Ġå² ©
Ġæ½ ®
ĠçĽ¸ åħ³
ĠæĪĺ å½¹
ĠçĬ ¹
Ġè®¡ç®Ĺ æľº
ä¸ ĵ
æĥ ¯
Ġç§ĳ æĬĢ
åİ ħ
ĠçĶµ è¯Ŀ
ĠçĻ½ èī²
é¸ £
ĠçĲĨ æĥ³
Ġn ba
Ġç¨ĭ åº¦
Ġä¸¥ éĩį
Ġå§Ķåĳĺ ä¼ļ
ç Ļ»
ĠèĢ ³
Ġæĺ¾ ç¤º
çĸ Ĺ
Ġé»Ħ éĩĳ
Ġä¸ľ æ±ī
ĠçĽ¸ ä¿¡
ĠæĪĲ ç»©
ĠåİŁ åĶ±
åĩ ¯
¹ æŀľ
ĠæĬ ĺ
æ ¿Ģ
Ġæķ° åŃĹ
ä½ľ çĶ¨
ä» ĳ
ĠåĦ¿ ç«¥
Ġèį Ĩ
Ġä¸¤ äºº
Ġå± Ī
Ġå¹´ éĹ´
çĳ ŀ
Ġæ°´æµĴ ä¼ł
Ġçľģ ä¼ļ
éĢ Ĥ
Ġåı¤ èĢģ
ĠæĹł è®º
æĿ° ä¼¦
Ġåı¤ åħ¸
ĠæĹ ĭ
Ġå¤© æ´¥
ĠçĶŁ æĪĲ
Ġ0 7
å¢ ĵ
ĠçĲĨ è§£
æģ ¶
Ġå¹¿ åĳĬ
Ġæ´ ĭ
Ġä» ª
ĠæĿ¥ åĪ°
æł¹ å»·
Ġæ° ¢
é«ĺ åİŁ
Ġè´Ł è´£
Ġä¿ĥ è¿Ľ
èĻ ĳ
ĠåĬª åĬĽ
3 0
Ġï¼ Ĳ
ĠåºĶ çĶ¨
çĨ Ĭ
ĠåįĹ æŀģ
ĠæĺŁ æľŁ
ĠæľīéĻĲ åħ¬åı¸
Ġè¿ħ éĢŁ
Ġå¯ Ħ
Ġç« ¯
Ġå¤Ħ çĲĨ
1 7
çĹ Ľ
Ġåħ¨ éĿ¢
Ġå»º æĪĲ
ĠéĶĻ è¯¯
ĠæľĢ å°ı
ĠçĥŃ å¸¦
ĠåĲĮ æł·
ĠâĦ ĥ
r e
Ġ199 9
çİ Ľ
Ġä¸ĭ éĿ¢
Ġå»º éĢł
Ġå¤± è´¥
Ġh ttp
æ¸ Ĭ
ĠåĬł æĭ¿å¤§
Ġæ¼Ķ åĩº
Ġå¿ ½
åįĥ ç±³
Ġçķ Į
çĤ İ
ĠæĤ ¬
Ġå® ª
Ġä¸į åĪ°
Ġæ²Ī éĺ³
Ġç»Ŀ å¯¹
Ġçĭ ¼
Ġåľ° å¤Ħ
Ġä¸ī å¹´
Ġæ·± åľ³
ĠåıĤ ä¸İ
Ġæķ° éĩı
ä¼ ı
Ġèµ ¢
ĠæĲ ŀ
è° Ī
Ġç§¯ æŀģ
ĠåĽŀ åĪ°
Ġå½± çīĩ
ç» ķ
Ġå®ŀ åĬĽ
ĠçĿ ¡
ä¸Ģ æŃ¥
´ éļ
Ġèī² å½©
æŁ ±
Ġçĵ ¦
æļ ĸ
ç§ ĺ
æ¡ ĳ
Ġåıį å¯¹
Ġä½ĵ éĩį
ĠæĸĹ äºī
Ġå¥ ł
éĤ »
å± ĭ
ĠæĽ ¼
Ġåŀ Ĥ
Ġæģ ¢
Ġç§ Ģ
å¡ ĺ
ĠèĪª å¤©
ĠéĤ£ æł·
èĤ ¡
ĠåĨħ åľ°
____ ____
Ġç»Ħ åĲĪ
ç® Ģ
Ġæ¼ Ĥ
ĠèĪŀ è¹Ī
Ġè¥¿æ¸¸ è®°
ĺ ç±³
Ġæ± ĩ
Ġå½ ķ
Ġè¡Į ä¸º
ĠÃ Ĺ
èĴĻ åı¤
Ġåįĥ ç±³
ĠéŁ ¦
19 9
Ġç¤ ¾
æ± Ĺ
ĠéĻ Ĳ
an d
çħ Į
ĠåĪ° è¾¾
ĠåĬ¨ ä½ľ
é¹ ¤
ĠæľĢ åĪĿ
ĠåĽ½ çİĭ
¥ Ħ
åŁ ĥ
Ġæ·± åĪ»
Ġç£ ģ
Ġç¼ ©
Ġåº Ĩ
Ġé© »
Ġæ ĵį
ä¸ ĺ
ç¿ °
s t
Ġèĭ± è¯Ń
Ġéĺ¿ æł¹å»·
Ġ5 00
Ġè¿ ª
ĠèĦ ¸
ĠæŃ£ å¸¸
Ġç¥ Ŀ
ĠæŃ¦ æ±ī
Ġé«ĺ éĢŁ
ĠèĪ °
ĠåĪĽ å§ĭ
Ġä»» åĬ¡
åħ± äº§åħļ
ç» ĺ
åĢ Ł
7 0
Ġ1 000
Ġæģ ĭ
Ġä¹ ħ
Ġæľī æĹ¶
è£ ģ
Ġæ® ĸ
ĠæĪĲ åĪĨ
èħ ¾
ä¼ Ĳ
ĠæĬ µ
åĲ ¯
Ġé£ ĺ
Ġå¼º çĥĪ
Ġæĺİ æĺŁ
é¥ Ń
8 0
ĠçĮ «
Ġçħ ¤
ĠçĶµ èĦĳ
Ġå¤© æĸĩ
Ġå¿ ł
æĸ¯ çī¹
Ġç¥ Ń
Ġæģ Ĵ
ç² Ĵ
r o
Ġæ ¦
æĹ¶ ä»£
å£ ¤
å¿ ł
çī© é¦Ĩ
Ġæ¬ ²
éĽ Ģ
èħ Ķ
è¯ ļ
Ġç ³ĸ
Ġå¤ĸ åĽ½
é¹ ¿
æ ¦Ĥ
åĲ ĥ
ä¸ĸçķĮ å¤§æĪĺ
Ġçī Ļ
ĠâĨ Ĵ
åĨ Ī
ĠåĲİ äºº
Ġä½ ³
Ġä¾ĭ å¦Ĥ
åĬ¡ éĻ¢
Ġå¹´ é¾Ħ
Ġ y
å¦ ĩ
æ³ ¡
ĠèĢ ¶
Ġå¥³ æĢ§
Ġ199 8
Ġè¥¿ æ±ī
Ġå¥¥æŀĹåĮ¹ åħĭ
Ġç»§ æī¿
æ¯Ķ äºļ
ĠçĪ¶ æ¯į
ĠåĤ ¨
Ġä¸Ģ åıª
Ġæ®ĸ æ°ĳ
Ġé¢ ĳ
Ġâĳ ł
Ġä¿Ħ åĽ½
Ġå²Ľ å±¿
Ġç´ ¢
Ġå¼º å¤§
Ġçľ¼ çĿĽ
åı Ķ
ĠéĻĨ åľ°
Ġéļ Ķ
Ġç» ĺ
Ġä¸Ĭ éĿ¢
Ġè¯» èĢħ
ĠåįĹ æĸ¹
ĠçłĶ åĪ¶
èİ ī
ĠåĿļ æĮģ
Ġç ¦ģ
Ġä¸ĭ æĿ¥
Ġä¹¾ éļĨ
çģ °
Ġ201 3
Ġå¤§ æ°Ķ
äº Ĵ
ĠçĪ± åĽ½
Ġè®¾ ç«ĭ
Ġåĳ¨ æĿ°ä¼¦
Ġèµ·æºĲ äºİ
ĠæľĢ è¿ĳ
Ġç®Ģ ä»ĭ
Ġå®ŀéĻħ ä¸Ĭ
Ġè´ Ń
ĠæĬĹ æĹ¥
Ġæ³ ī
Ġ `
Ġè® ®
Ġæł¸ å¿ĥ
Ġåĳ½ è¿Ĳ
Ġä¸ĩ äºº
Ġå®ĩ å®Ļ
Ġçº ½
ĠæĬķ èµĦ
Ġè¿Ľ ä¸ĢæŃ¥
Ġä¸į çŁ¥
Ġéĩ Ĭ
Ġéģĵ è·¯
ĠæĢ» éĿ¢ç§¯
Ġå¤§ æ´ĭ
ĠåĲĮ ä¸Ģ
Ġå· §
ĠæķĪ æŀľ
Ġæī ¬
ĠåĨħ éĥ¨
éŃ ı
t h
èī ĩ
Ġåĩ Ŀ
Ġæİ¨ åĩº
Ġåħħ åĪĨ
ĠçīĪ æľ¬
éľ ¸
Ġéĺ »
Ġå¹¿ è¥¿
ĠçĽ ĺ
Ġå§ ļ
Ġåģ¥ åº·
æ ĩ
è ¸
ç ¦ģ
åĩ ī
åĩ Ģ
Ġæģ ©
Ġæį Ł
ĠçĽ ĸ
ĠæĢ ª
ĠèµĦæľ¬ ä¸»ä¹ī
Ġåıĳ åĩº
Ġè´ ¡çĮ®
Ġæ» ĳ
ĠèĽĭçĻ½ è´¨
æĬ Ĭ
ĠéģĹ åĿĢ
Ġåıĳ è¾¾
Ġæľ¬ èº«
Ġèĥ½ éĩı
ĠåŃ Ŀ
ĠåĢ į
ĠçĶ± æŃ¤
ĠåŃ¦ èĢħ
Ġè± Ĩ
çĲ ³
Ġåħ¸ åŀĭ
Ġå¤ª ç©º
ĠåĲĦ åľ°
Ġ0 5
æ¢ °
ç¢ ĳ
Ġåıĳ èĤ²
Ġå¤ļ ä¸ª
çĭ ±
Ġè¡Ĺ éģĵ
å£ ³
Ġä¸»äºº åħ¬
ĠäºĮæ°§åĮĸ ç¢³
ĠçĶŁ æĹ¥
Ġè½ ¨
è· Ŀ
Ġå¥½ åĥı
ĠçŁ ĽçĽ¾
Ġä½¿ å¾Ĺ
Ġåī§ æĥħ
Ġä¸Ģ å¸¦
ç ³
Ġç¨³ å®ļ
å° º
Ġè¿Ļ æ¬¡
Ġèµ «
Ġä¸ĵ å®¶
è Ķ
ĠæĿ ¯
åħ ½
Ġä¸Ń éĥ¨
æĽ ¿
çļĩ å¸Ŀ
ĠåĪ Ģ
Ġc h
åĪ Ĭ
Ġä¿ Ĺ
åĢ Ĵ
çº§ å¸Ĥ
Ġä»¥ ä¸º
.. ..
å¤ ·
åĨ ¬
Ġæ¯ Ĵ
ĠæĢ» æĺ¯
Ġç¯® çĲĥ
Ġæĸ ¼
Ġèĩª æ²»
Ġä¸ĩ å¹³æĸ¹
äº ķ
ĠæĺŁ åº§
å¤ ķ
Ġå®ĺ æĸ¹
Ġä»į çĦ¶
ĠçĶ¨ æĿ¥
éľ ŀ
Ġä¼¦ æķ¦
Ġæģ¢ å¤į
2 2
ä¿Ŀ æĬ¤
èĵ Ŀ
Ġå¢ ĵ
é¼ ĵ
Ġæĸ° éĹ»
Ġ3 8
Ġ3 00
åº ¸
ĠæĻ¯ åĮº
Ġæ°§ æ°Ķ
æ¦ ľ
è§ ¦
ĠæĶ¿ çŃĸ
Ġåį« æĺŁ
èį ¡
Ġç»ı éªĮ
Ġè° ·
åĪĻ å¤©
Ġè¿½ æ±Ĥ
Ġè¿Ļ ä½į
çĶµ è§Ĩ
Ġå±ħ ä½ı
Ġä¸ŃåĽ½ åħ±äº§åħļ
ĠåĲ« éĩı
èĩªæ²» åĮº
Ġâ Ĺ
Ġä¼ł æĴŃ
ĠæĦŁ åıĹ
Ġå¤ı åŃ£
Ġç¥ĸ åĽ½
Ġé©¬ åħĭ
ä» °
æģ ¨
Ġç¥ ¨
Ġæµ· åĨĽ
Ġçªģ åĩº
ĠåĽ½æ°ĳ åħļ
æĺ Ń
Ġ z
ĠæĢİ æł·
ĠæĦŁ åĪ°
Ġä¸Ģ åĲį
æ¡ ĥ
Ġä¸ĵ éĹ¨
åľ Ń
Ġå§ ĳ
Ġä¸Ģ çīĩ
ĠçĽ® æłĩ
Ġå±± è¥¿
æ°Ķ åĢĻ
ĠæĹ© æľŁ
Ġæ½ ĺ
Ġé¹ ¿
åı Ĥ
ĠåĲ ¹
Ġå¤ļ æ¬¡
Ġåĳ¨ åĽ´
è¢ Ń
ĠçĶ· äºº
Ġæħ ¢
Ġå½± è§Ĩ
æŀ ļ
è± ª
ĠåįĹ å®ĭ
Ġéĺ¿ å°Ķ
Ġå¤į æĿĤ
Ġ u
å® ı
ĠçĦ ¦
æī İ
ĠæĤ ł
ĠæĶ¹ ç¼ĸ
Ġæĳ ĩ
è¥¿ æ´ĭ
æ° ¸
ĠçĶŁ æĢģ
ĠçĮ ª
Ġåħ¬ åĽŃ
Ġåħ³ æ³¨
ĠèĢĮ æĪĲ
Ġæķ° æį®
Ġæĸĩ èīº
Ġé¢ ĩ
ĠèĢĥ è¯ķ
Ġåħ³ ç¾½
ĠåİŁ å§ĭ
ä¼ ĺ
Ġé ³
å¤§ ä¼ļ
éĶ ¡
ĠåĪĽå§ĭ äºº
Ġåĩ ¯
Ġè¿ĺ è¦ģ
åĪĨ ä¹ĭ
ĠæĮ º
Ġè¿ŀ æİ¥
Ġç»¿ èī²
ä» ĺ
æ² ī
Ġç© Ĩ
åĥ §
Ġè Ĩ
Ġçİ° åŃĺ
Ġèº« ä¸Ĭ
Ġåıĳ æºĲ
éĺ ´
Ġèµ ĭ
Ġç§ Ĵ
Ġä¹Į æĭī
é ½¿
æį ·
åŃ Ŀ
æŁ ı
Ġæľª æĿ¥
Ġè®° èĢħ
æİ ¢
Ġä¸» è§Ĵ
Ġçĭ Ĺ
Ġæľº ä¼ļ
t er
Ġæł ·
ç³» åĪĹ
Ġä½ĵ åĨħ
Ġçİ» çĴĥ
è· ĥ
Ġçº¢ æ¥¼
è¾ Ī
Ġçľĭ çľĭ
Ġä»Ĭ å¹´
Ġèį Ĵ
Ġâĳ ¡
Ġå¤º å¾Ĺ
Ġæ¯ı å¤©
Ġä¾µ çķ¥
çľ ī
Ġ18 8
ĠæŃ¤ æĹ¶
çĶµ å½±
èģ ļ
Ġé¡¹ ç¾½
çº ·
Ġä½ľ æĪĺ
ĠçĽ¸å½ĵ äºİ
éĨ Ĵ
c m
éĶ ¦
ĠæŃ» äº¡
éĢ ı
Ġä¸» å¼ł
Ġå¹¿ å¤§
éĵ ľ
ĠæĬ ĵ
åį ¿
Ġåįģ ä¸ī
ĠåŁĥ åıĬ
Ġåº ŀ
Ġè´ «
å¤ļ å¹´
ĠåĨľ åİĨ
Ġâ ĸ
è¯ ŀ
ĠåĽł ç´ł
Ġé¢Ĩ åŁŁ
Ġæ¹ ¿
Ġäºĭ å®ŀ
Ġä¹¦ æ³ķ
Ġæľī æķĪ
è¾ Ĩ
é¸ ¿
æ£ ĭ
Ġä¸Ģ çĻ¾
Ġæľ¬ äºº
Ġä¸Ń éĹ´
ĠèĤ º
Ġè¿Ĳ çĶ¨
Ġä¹ ±
å¹ ¶
Ġä¸ī å¤§
Ġäºº éĹ´
ĠåŁº çĿ£
ä¹ °
Ġ3 4
Ġè§Ĥ å¯Ł
ĠæŁ Ķ
Ġä¼ ı
ĠåĽ½ åĬ¡éĻ¢
Ġ18 0
ĠæĢ§ è´¨
ç« ¹
æĿ ī
ĠâĢ ²
çª ģ
Ġä¸Ń åŃ¦
ä½ľ åĵģ
çĶŁ æ´»
å¢ Ļ
Ġæī®æ¼Ķ èĢħ
Ġå½ Ń
é¢ Ĥ
ĠåĪĺ éĤ¦
Ġå ĥ
Ġç¢ §
ĠæĿľ çĶ«
ĠçĶ³ è¯·
å¯ ¨
ĠåĨħ èĴĻåı¤
Ġç¬¬ åħŃ
é¼ İ
ĠæĪĲ çĨŁ
Ġåį ĵ
Ġå· Ŀ
ĠåħĪ è¿Ľ
çĩ ĥ
Ġéĥ¨ éĺŁ
ĠåĽ °
Ġå¾ ħ
ç½ ²
Ġå¡ «
æĬĢ æľ¯
æ¶ µ
Ġåľ¨ äºİ
èī ³
Ġä¸ī è§Ĵ
ĠæĿ¥ æºĲ
Ġèĥ ¸
Ġæĳ Ĩ
Ġèįī åİŁ
Ġå¿ĥ çĲĨ
Ġçī Į
éĺ³ å¸Ĥ
Ġä¸Ń æľī
ĠåĬ ©
Ġå° ¾
å¥ Ī
ĠéĻķ è¥¿
Ġè Ĺ
Ġå· ¡
Ġä» ģ
Ġå¥³ åŃ©
Ġâĺ ħ
Ġåįģ å¤§
i m
çī §
Ġä¸Ģ ä»£
Ġåª Ĵ
Ġé¢Ĩ åľŁ
æ» ©
Ġè¯¸ ä¾¯
Ġèµ ¶
ĠæĪ ·
Ġè¿Ļ æĹ¶
Ġè¾ ĸ
Ġè¯Ħ ä»·
Ġä¸Ģ ç³»åĪĹ
Ġä» ¿
Ġs t
ĠæĪĲ é¾Ļ
ĠåĨ¬ åŃ£
Ġèĭ į
Ġé»ĳ èī²
äºº åı£
ĠçĽ¸ äºĴ
Ġç² ¤
Ġåįģ äºĶ
Ġåį³ ä½¿
Ġå¥³ ç¥ŀ
ĠéĿĴ æĺ¥
Ġå¹³æĸ¹ åįĥç±³
ĠæĿ¥ çľĭ
Ġè´µ æĹı
Ġè ķ
ĠæŃ¦ åĪĻå¤©
åįĬ çĲĥ
æ¡ £
ĠæĻ® éģį
Ġèµ ı
ĠæĲ Ń
ĠéĶ¦ æłĩ
åĪ º
Ġåľ° åĿĢ
ĠéĿ¢ å¯¹
Ġæĥħ èĬĤ
Ġè¯» ä¹¦
Ġè¶ħ çº§
å¹ ¸
ĠæŃ¤ å¤ĸ
Ġä¸Ń åİŁ
Ġåľ° éľĩ
ç¼ ©
Ġçģ« è½¦
å» ¶
Ġçļ® èĤ¤
Ġæľī åĲį
Ġå¦Ĥ ä¸ĭ
ĠåĬł å¼º
é¾Ļ æ±Ł
è· ĳ
Ġåİ ĺç±³
åįĬ å²Ľ
æī ¾
Ġäº¤ åĵį
Ġæĩ Ĥ
Ġåİ ļ
Ġå®£ ä¼ł
Ġè¯ ¯
ĠéĹ ª
æĤ ī
Ġèı ²
Ġåīį åĲİ
Ġä¸į åĨį
Ġ18 6
å¢ ¨
Ġèħ ¹
ĠçĶĺ èĤĥ
Ġåº ı
Ġä¹ Ļ
çİ Ħ
Ġç² Ĺ
ä¹ĭ ä¸º
Ġ &
Ġä¹ĭ å¤ĸ
Ġéķ¿ åŁİ
Ġæ ¿
Ġä¸ ĳ
Ġå¹´ åº¦
Ġåı¯ è§ģ
2 7
Ġéĺ³ åħī
Ġè½¨ éģĵ
è® ¿
Ġæ²¿ æµ·
ĠåĲĦ ä¸ª
ĠåĨĻ åĩº
åį ĸ
æĹ §
Ġåĵª éĩĮ
Ġçº¢æ¥¼ æ¢¦
2 5
ĠéĽħ åħ¸
2 4
åı ¹
Ġåĩº åı£
Ġè´ ´
Ġm v
éģ Ĺ
Ġè¥¿ èĹı
Ġèİ ±
Ġé£Ł åĵģ
Ġæľī çĤ¹
Ġå±± èĦī
èµĦ æºĲ
ĠåĲ¸ å¼ķ
e m
Ġä¸Ń åħ±
Ġåįģ ä¸Ģ
Ġçº ·
ĠèµĽ åŃ£
Ġèµ· ä¹ī
ĠéĶ¦æłĩ èµĽ
ĠæĮ Ĥ
Ġæľī æľº
çĲ ª
Ġèĥ ĥ
ĠåįĹ ç¾İæ´²
Ġå¦ ¹
Ġä¸¤ åı¥
Ġçģ« ç®Ń
Ī å¤«
èĦ ±
Ġå®ĭ ä»£
Ġæ¦Ĥ å¿µ
i r
Ġäº ®
Ġå¼ Ĺ
ĠèĤ Į
Ġ199 0
è Ń¦
åħ ¹
é¼ ł
èµ ĭ
ç¨ İ
çĳ ľ
Ġåı¬ å¼Ģ
æĹ ĭ
Ġèĭı å·ŀ
æĤŁ ç©º
èĤ ¥
ĠæĶ¾ åľ¨
åį ł
Ġæħ Ī
Ġ Î
çķ ª
èĥ İ
èį ·
Ġæµģ åŁŁ
Ġçĸ ¾
Ġéĺ µ
åħ Ħ
Ġæĺİ ä»£
ĠçĮ ®
Ġå®¶ æĹı
èĵ ī
èĸ ĩ
Ġå± ł
ĠåİŁ åĪĻ
Ġå®Į ç¾İ
Ġæ²Ļ æ¼ł
Ġåįģ å¹´
ĠåĪ ĳ
ĠåĨ Ĵ
ĠçĨ Ĭ
ĠéĢĤ åĲĪ
Ġæĥħ æĦŁ
Ġç«¥ è¯Ŀ
Ġå Ĺ
æĦ ģ
Ġ3 7
Ġä½ľ è¯į
éĥ ģ
Ġåģ¶ åĥı
ĠåĲ Ĳ
éŃ Ķ
Ġè¡Į æĺŁ
Ġå ¦ĸ
å¿ į
Ġéļ Ĩ
Ġåı ¥
æ¨ ª
Ġæī¹ åĩĨ
Ġèī °
è° ±
åŁ ¹
l o
Ġå¥ ´éļ
Ġå¥´éļ ¶
Ġç ¨Ģ
Ġåº Ļ
ĠåĲĮ å¹´
b s
è¯ ¢
ĠåĮº åĪ«
ĠçŃ¾ è®¢
åĬ ±
Ġä¸į ä¹ħ
Ġæ¬ £
æ¶ Ľ
ĠæĤ² åī§
i v
Ġå¤§ è¥¿æ´ĭ
Ġåľ° çĤ¹
Ġéĩĳ èŀį
Ġæ±Ł è¥¿
Ġæī§ è¡Į
Ġä¸¤ æ¬¡
åĢ į
èħ º
ç¿ ¼
Ġæľ¬ ä¹¦
ç ¯®
Ġ0 3
çĵ ¶
å§Ķ åĳĺ
ĠåĢ¼ å¾Ĺ
Ġä¹ ³
çĤ ¼
é¹ °
Ġèĩ³ äºİ
Ġå¥ ¶
Ġè® Ń
Ġå¦ ĩ
Ġäºº åĳĺ
æµ ¦
ĠåĨĻ ä½ľ
èĽ ĩ
Ġåħĥ å¹´
ç¿ »
Ġä¹ł æĥ¯
Ġåı¯ çĪ±
Ġç±» ä¼¼
Ġç§° åı·
Ġ0 8
Ġ199 7
Ġå¾Ģ å¾Ģ
Ĵ ä¹
Ġæķ ¬
ĠåĪĽ ç«ĭ
æĪ Ī
ä¸Ń å¤®
å¯ ¸
åĭ ĥ
ĠåĬ¿ åĬĽ
Ĵä¹ ĵ
Ġè½ °
ĠéĴ Ī
ĠèĦ ĳ
Ġæĸ¹ ä¾¿
Ġå¤± åİ»
Ġï¼ Ļ
ĠçŁ¥ åĲį
a g
Ġ _
æ± ĩ
ĠæĽ ¿
Ġæ±ī æŃ¦å¸Ŀ
Ġ199 6
Ġè¾ĥ å¤§
èĢ Ģ
Ġâ Ķ
éļ ı
è® Ń
Ġæĺİ ç¡®
Ġçĭ ®
é ¦
ä¹ ı
Ġè´ º
Ġæµ· å³¡
Ġèĭ± æł¼åħ°
Ġè¶Ĭ æĿ¥
ĠçĲ ´
ä¹ ³
Ġæ± ª
èĥ Ĩ
çł Ķ
Ġä¸»é¢ĺ æĽ²
ĠçĶŁ åĬ¨
ç® ±
ĠéĴ¢ çĲ´
ĠéĻ ª
åħ³ ç³»
Ġè¯¦ ç»Ĩ
Ġæĺ¯ ä¸įæĺ¯
Ġå½ ¼
Ġä¸į çĶ¨
Ġåĳ Ģ
æŁ Ķ
ĠåįĹ éĿŀ
Ġè¶ĬæĿ¥ è¶Ĭ
Ġç ³
éĩ ĩ
Ġå¿ §
Ġéģ Ĥ
Ġæģ °
Ġé»ĳ é¾Ļæ±Ł
Ġè¾½ å®ģ
Ġä¸Ģ é¢Ĺ
å·¥ ç¨ĭ
Ġä¼¼ ä¹İ
åĩ °
Ġéľ ²
å¥ ĭ
Ġæĺ¥ å¤©
Ġ--- -
èĦ ¸
ĠæľĢ ä½İ
Ġåľ° éĿ¢
ĠåĲį åı«
ĠåĲ ¦
è½ ¼
Ġçģ« å±±
çĭ ¼
ç¿ Ķ
Ġåįļ çī©é¦Ĩ
ĠèĵĿ èī²
ĠæŃ¦ åĻ¨
Ġæıı è¿°
Ġçĩĥ çĥ§
éĿ ĸ
Ġæ°´ ä¸Ń
Ġå¥¥ è¿Ĳ
u m
æ ĵ
è¾ ŀ
Ġæ¸ Ķ
Ġ5 5
Ġæµ· åįĹ
å¿ ĺ
Ġ4 8
ĠåĲį èĥľ
æĭ ³
è¾ Ł
Ġæķ° åŃ¦
Ġä½ł ä»¬
Ġæİ¨ èįĲ
ä¸Ń æµ·
Ġä½ľ åĩº
æĸĩ åĮĸ
Ġç§° åĳ¼
ä¼ ´
Ġåħ¬ æĸ¤
ĠåŃĻ æĤŁç©º
Ġå¹¿ä¸ľ çľģ
æĮ ¯
ĠåĬ¨ åĬĽ
çĳ °
o p
å² Ĺ
Ġä»· æł¼
æ Ł³
Ġç§į ç±»
Ġçī ¡
Ġ199 2
ĠçĽ Ĩåľ°
Ġåĩı å°ĳ
Ġæ¯« ç±³
éĢ ¢
ĠæĶ¹ ä¸º
Ġå° Ķ
Ġå¾Ĺ åĲį
ĠéĴ »
ĠåŃ£ èĬĤ
ç ŀ
ĠéĻ µ
Ġé©¬ æĿ¥
Ġæº¶ æ¶²
Ġï¼ Ĵ
çĶ ·
ç© ·
Ġçł´ åĿı
Ġå¼Ģ æĶ¾
è¢ ĸ
æĢ ¥
Ġçªģ çĦ¶
Ġå¾ ¡
è¾ Ľ
Ġåģ ·
Ġåħ³ éĶ®
Ġé ķľ
åĪ ·
å¤© ä¸ĭ
Ġåĵ Ń
Ġçī µ
åĵ ²
Ġé¢ Ĺ
ĠåıĮ æĸ¹
Ġçľģ çº§
ĠåİŁ çĲĨ
a p
Ġä¿Ŀ åŃĺ
Ġåº ľ
Ġè¿Ľ æŃ¥
ĠæľĪ çĲĥ
Ġåī ²
ĠåİĨ ä»£
Ġè´§ å¸ģ
9 9
æĪ Ĵ
Ġä¹Ł è®¸
Ġåľ° ä¸Ńæµ·
å§ »
Ġéľ ¸
ĠçĤ ®
Ġæ°§ åĮĸ
« çĳ°
Ġå½ »
éĴ ł
Ġè®² è¿°
Ġæ¯Ķ åĸ»
è· µ
ç© ¿
Ġèħ Ĳ
Ġç¥ŀ ç§ĺ
Ġå¯¹ æĸ¹
è½ ¯
Ġå°½ ç®¡
åĽ½ å®¶
ĠæľĪ äº®
Ġc om
Ġè®¾ ç½®
ä¸ ²
ĠåĽŀ å¿Ĩ
æĿ Ĩ
ĠæĬ ±
Ġæľº æ¢°
Ġç§» åĬ¨
ĠåĲİ ä¸ĸ
Ġç¡® å®ŀ
Ġç¿» è¯ĳ
ĠæĹ ı
Ġç¾İ å¥½
Ġç¥ŀ ç»ı
çº ²
Ġçī §
ĠåĲĽ ä¸»
Ġå°ı åŃ¦
Ġå¹¿ åľº
çı į
3 5
Ġçİ Ľ
ĠèĦ Ĥ
Ġ- ----
Ġéģĩ åĪ°
Ġ5 6
å¨ ĥ
ĠèĢĥ èĻĳ
ĠæĬ ¢
Ġæķħ ä¹¡
Ġ12 0
è¡ ¥
ĠæĮĩ åĩº
Ġ199 4
ĠéĹ» åĲį
Ġè¿Ļ åı¥
Ġå¤© ç©º
Ġåĳ¨ æľŁ
Ġ7 5
Ġæī¿ è®¤
Ġä»İ äºĭ
Ġåįģ åħ«
ħ åĬĽ
æĭ į
Ġç§į åŃĲ
Ġä¸ľ äº¬
è¿Ĳ æ²³
Ġåľ° å½¢
Ġè´ ¸æĺĵ
é¢ ĳ
èµ· ä¹ī
çĭ Ĺ
Ġåĳ¨ å¹´
Ġæľī æīĢ
Ġç§° ä¹ĭä¸º
ĠçĮ Ľ
Ġå±ķ å¼Ģ
ĠåĮĪ å¥´
åĤ ²
Ġæ·¡ æ°´
åĿ Ĳ
Ġæĥ³ è±¡
Ġ198 8
è´ §
éļ ľ
ĠéĢ Ķ
Ġçİĭ åĽ½
èľ ľ
èĤ ¯
ĠèģĶ çĽŁ
Ġä¸Ģ å¤§
éĢ Ĵ
Ĵä¹ĵ çĲĥ
ĠæİĴ åĲį
ĠæĻļ ä¸Ĭ
ĠåĿ¦ åħĭ
ĠåĲİ æľŁ
Ġçĳŀ å£«
Ġå§ĵ åĲį
é ŀ
Ġâ Ī
ĠæĴŃ åĩº
Ġ4 00
Ġæ± Ĺ
Ġé» İ
Ġä¸Ńåįİ æ°ĳæĹı
Ġæį® è¯´
Ġå¹ »
Ġå¥ ĭ
æĪĳ åĽ½
Ġç¾½ æ¯Ľ
å® Į
Ġæŀ ª
u r
Ġå¿ĥ ä¸Ń
Ġå§ĭ ç»Ī
Ġåĸ ·
Ġæ¸¸ æ³³
Ġä¼Ĭ æĸ¯
ĠåĬŀ çĲĨ
±ä¹Ĳ éĥ¨
Ġå®ª æ³ķ
ĠåĪ¶ å®ļ
Ġ0 9
ĠèĢ Ĳ
ŀ º
çİ ²
Ġä¿ ±ä¹Ĳéĥ¨
Ġæľ¬ æĿ¥
ä¸ ¥
ĠæĻ ´
Ġæ¹ĸ æ³Ĭ
Ġå¯ ¿
ĠçĶ· ä¸»è§Ĵ
Ġå¤ª åŃĲ
ĠéĿĴ æµ·
Ġä¹Ĳ åĻ¨
Ġèĸ Ľ
èī ĺ
Ġèĭ ¹æŀľ
Ġåº ĵ
Ġçº½ çº¦
Ġéĩĩ åıĸ
Ġå±ħ æ°ĳ
Ġåį´ æĺ¯
Ġåĵ¥ åĵ¥
æ¬ ²
Ġå¾Ī å¿«
Ġå¤§ å¸Ī
ĠæŁ ı
å·¥ ä¸ļ
å°± æĺ¯
ĠæĿĥ åĬĽ
åĪ¶ åº¦
ĠåĶ± çīĩ
ĠéģĹ ä¼ł
Ġæ²³åįĹ çľģ
Ġæ¶Ī è´¹
ĠéĻį æ°´
ä½ľ å®¶
è§Ħ æ¨¡
å® µ
Ġæĺİ æľĪ
Ġæİ¥ è¿ĳ
Ġæļ Ĥ
Ġéģ ¥
æ£ Ĵ
Ġæ¨ ±
æķħ äºĭ
Ġè§Ĵ åº¦
o t
èµ ŀ
æĹ ħ
ĠèĤ ¥
Ġè¶Ĭ åįĹ
Ġæ¢¦ æĥ³
Ġç¨ į
Ġæıı ç»ĺ
Ġæ·· åĲĪ
ĠåĽ½ èĬ±
æ· ¡
é ¤Ĳ
Ġæĸĩ åŃ¦å®¶
ä¸į å¤ļ
Ġå¯¹ å¤ĸ
Ġç» ĥ
Ġè ¹
Ġå°ĳ å¥³
Ġç½ĳ ä¸Ĭ
éĢ Ģ
Ġåİ» ä¸ĸ
Ġèĸ Ħ
æ³ Į
ĠæŁ ĵ
èİ İ
¦ çīĩ
Ġæ³ ª
ĠèĪŀ åı°
¡ æŁĵ
Ġå¿ į
Ġè¿Ľ æĶ»
Ġæķħ éĢī
Ġæ¶ ī
ĠæµĻæ±Ł çľģ
ĠåĽº å®ļ
Ġçī¡ ä¸¹
Ġæľ ´
Ġä¸Ģ åĿĹ
å¼ ¦
ä¸į è¿ĩ
Ġèİ ²
Ġäº§ ä¸ļ
Ġä¾ §
Ġæ¸ħ æ¥ļ
Ġæĸĩ çī©
å§ ¬
Ġ198 4
é© °
ĠåªĴ ä½ĵ
å±± å¸Ĥ
ĠçĶ· å¥³
ĠæĹ ģ
æ¯ ħ
Ġåĭ ¾
çĶŁ ç´ł
é¢ ľ
é ī´
Ġåį §
4 4
çī© è´¨
Ġå·¥ èīº
åĬł åĿ¡
Ġä½ĵ ç§¯
Ġç¡ «
Ġ0 2
ä» Ģ
Ġå¼ Ħ
o d
ãĢ Ĳ
Ġé«ĺ çº§
ĠéĤ£ ç§į
çĥ Ĥ
ĠåĪ° åºķ
èĳ ¬
çŁ ¿
ĠæĶ» åĩ»
ĠåĽ¢ ä½ĵ
Ġå® ı
Ġå±± æ°´
å¿ Į
Ġå¥ĩ è¿¹
at ion
æ´ ª
è¥¿ åĵ¥
Ġæµ· ä¸Ĭ
Ġè° ĭ
Ġç¾¤ ä¼Ĺ
å® ª
i e
ä» ĩ
ä¹ Ķ
ĠéĤ® ç¥¨
ĠéĶĢ åĶ®
Ġç¾İ æ´²
ĠèĤ ¾
Ġæ¡ £
Ġä¸į è¶³
Ġb a
Ġé©¾ é©¶
Ġä¸ Īå¤«
Ġèµ ´
Ġç»ı èĲ¥
å° ĺ
çª Ł
Ġï¼ ı
ĠçĤ İ
Ġåį« è§Ĩ
ĠæĤ £
Ġå¼Ģ åĪĽ
Ġä¼ĺ åĬ¿
ĠåĩŃ åĢŁ
Ġæŀ ļ
å¤ª å®Ĺ
ĠçĬ ¯
Ġç¬¬ä¸Ģ å±Ĭ
ĠåĽ¾ æ¡Ī
Ġç§ĺ å¯Ĩ
æ¬ £
ĠæķĻ æİĪ
Ġéķ¿ åº¦
ĠæĴ ¤
Ġçģ Į
Ġæİ¨ åĬ¨
Ġåħ¬ å¸ĥ
ĠéĽ į
ĠåĲİ éĿ¢
Ġè¯Ħ è®º
Ġå« ģ
i a
Ġç½ ª
ĠåĬŀ æ³ķ
Ġå¤« äºº
Ġå¼ ±
Ġæ ¤
Ġä¸į å¥½
Ġä¸ĩå¹³æĸ¹ åħ¬éĩĮ
Ġå¤§ åŁİå¸Ĥ
ĠæĪĲ è¯Ń
Ġå¤§ å¤§
ĠåºĶ å½ĵ
æĤ ł
ĠèĽ ĩ
Ġæĭ ¼
ĠåĻ¨ å®ĺ
Ġé©¬åħĭ æĢĿ
Ġå¤§ èĩ£
Ġä¸ŃåĽ½ äººæ°ĳ
ĠéĤ Ģ
Ġæ³ ¡
Ġæ® ¿
åĲ ¨
ĠåŃĻ åŃĲ
Ġå½¢ å®¹
Ġ18 5
ĠæİĮ æı¡
ĠçĶŁ åŃĺ
ĠåĬł å·¥
Ġ0 6
ĠéĦ Ĥ
çº ¯
ĠåĲĮ å¿Ĺ
n a
Ġæ¸ħ ä»£
ĠåĩºçĶŁ åľ°
åį ĵ
å° ī
ĠèĪ ¬
Ġå¸Ĥ åĮº
Ġèĭ±æĸĩ åĲį
ĠæĹ¥ åŃĲ
ĠèĢģ äºº
ĠéĢ ¼
Ġç² ®
æ¶ Ī
Ġåį µ
Ġçªģ çł´
å§ ¿
Ġèµ¢ å¾Ĺ
Ġ3 9
Ġéĺ ħ
Ġç£ ¨
Ġå¼Ł å¼Ł
Ġå¤§ æ¦Ĥ
ä¸ĸ æ°ĳ
èĥ Į
Ġæ¶Ī æģ¯
ĠæĴ Ĵ
çĬ ¯
éĹ ¹
ĠåĽ½ ç±į
ĠæĹł éĻĲ
Ġå¹³ çŃī
Ġåıĳ æĮ¥
Ġå® ¤
Ġéħį éŁ³
Ġç¬¬ ä¸ĥ
ĠåĮĹ ç¾İæ´²
å¦Ĥ æŀľ
Ġè®Ń ç»ĥ
Ġæľī åĪ©
Ġå®ŀ æĸ½
éŁ µ
Ġæ±Łèĭı çľģ
ĠçŃī äºİ
Ġ4 7
Ġåł ª
Ġæ² Ł
éļ Ķ
ĠæķĻ å¸Ī
Ġèµ° åĲĳ
ç¦ ¹
è´ ŀ
çĸ ¾
Ġè ¦Ĩ
éĽ ģ
ĠçĮ ľ
Ġè´µ å·ŀ
Ġæľī ä¸ª
ĠåĽĽå·Ŀ çľģ
Ġä»£ è¨Ģ
Ġèı Ĭ
ä¼ļ è®®
ĠåĪĨ è§£
ĠæĪĺ èĥľ
Ġèĭı è½¼
Ġ198 6
Ġéļı åĲİ
Ġä¾Ŀ çĦ¶
o w
ĠçĶ» å®¶
Ġéļ¾ ä»¥
Ġè¡ĮæĶ¿ åĮº
Ġå¦¹ å¦¹
Ġå¤§ ä¼ļ
çĽ ĳ
Ġå·¥ åħ·
ĠåĪ¶ æĪĲ
Ġèº« è¾¹
éº »
Ġé ¾
Ġæµ ħ
ĠéĨ ī
Ġå¡ĳ éĢł
æĢĿ æĥ³
Ġå©ļ å§»
éĻ Ī
æĺ Ĥ
Ġå£ ģ
éĢ ¸
Ġæ¬§ éĺ³
Ġèģ ª
ĠéĢ Ŀ
Ġåħ¨ éķ¿
åĿ ļ
ĠæĢ» éĥ¨
æģ Ĵ
ĠåĨľ æĿĳ
Ġè¿ «
Ġåľ° ä¸ĭ
ä¸Ń å±±
ä¿ Ħ
ä½ ©
ä¾ £
Ġé»ĳ æļĹ
Ġæĵ ħ
é ³
Ġçĸ ĳ
Ġä¸ª æĢ§
çİ ©
Ġæ£ ī
Ġåĵ² åŃ¦
ç»ı æµİ
Ġè¡¨ æĺİ
Ġåł Ĥ
ĠæĹ¥ æľŁ
æļ ´
Ġäºº å·¥
__ _
ĠæŃ¤ åĲİ
Ġå¯» æī¾
è¡Į æĺŁ
éļ Ĳ
Ġåį° è±¡
Ġâĳ ¢
åĪ ĳ
è¿ ĺ
el l
Ġå½» åºķ
ĠéĢī æīĭ
Ġåı¦ ä¸Ģ
Ġ194 9
ĠåĮĹ æŀģ
Ġå¦Ĥ ä»Ĭ
å¯ »
Ġä½ĵ ç³»
Ġèĩ³ å°ĳ
Ġæīĭ æ³ķ
ĠæŁĲ äºĽ
Ġä¹ Ĵä¹ĵçĲĥ
ĠéĤ »
Ġå¹¶ éĿŀ
ĠåĽĽ åįģ
æİ Į
Ġä¹Įæĭī åľŃ
åľ° åĪ©
ĠæĻº æħ§
Ġæĸ° åĬłåĿ¡
ĠâĢ ķ
è¶³ èģĶ
åº Ĭ
èĥ ¡
ĠåĿ Ĺ
Ġä¸į ä½Ĩ
åį µ
Ġä¼Ĭæĸ¯ åħ°
Ġè§ ¦
Ġéķ¿ ç¯ĩå°ıè¯´
Ġä¾ ¦
ĠåĽĽ å¹´
Ġè®° å¾Ĺ
Ġæ¸¯ åı£
Ġæī© å¤§
Ġå¯ ĵ
Ġè§Ĥ çĤ¹
ĠåĴ ı
æĥ Ĭ
Ġè¾ ŀ
æĤ ¦
ª çİ¯
èĬ Ŀ
Ġéķ¿ æ²Ļ
Ġæį ķ
ĠæĬ ½
Ġä¸» ä½ĵ
2 6
en t
çĹ ĩ
Ġç» ķ
Ġäºº æīį
Ġ0 1
ç¿ ł
å§ ĳ
Ġå¼Ģ åĽ½
ĠåıĤ èĢĥ
Ġè¿ Ķ
Ġè´ £
Ġåģļ åĩº
Ġå¥ł å®ļ
åĲ ´
Ġè¡Į åĬ¨
ĠæīĢåľ¨ åľ°
ĠçĽ¸ æ¯Ķ
Ġåı² ä¹¦
å¥¥ å§Ķä¼ļ
éĨ ī
Ġå¢¨ è¥¿åĵ¥
Ġå¤ ĩ
æĽ ¾
æ¯ ģ
ĠçģŃ äº¡
Ġq q
ĠæĮ ¯
Ġ199 5
Ġé© ±
Ġåħĥ æľĿ
19 8
Ġåº Ĳ
Ġèĥ Ĩ
ç¥ Ŀ
ĠçĽ¸ ä¼¼
Ġç´ł æľī
å¥ ī
è´ ¼
ĠæīĢ è¯´
Ġç½ ®
æĥ ĳ
Ġåľ£ è¯ŀ
Ġåıĳ å¸ĥ
ç´ §
ç¬ ¦
å¤§ éĻĨ
ĠåĩĨ ç¡®
Ġç» °
Ġè¾ ħ
ĠæĹł æķ°
ĠæĿİ ä¸ĸæ°ĳ
èĮ ¨
Ġç§¦ åĽ½
Ġä¸į å¦Ĥ
Ġåĩ¤ åĩ°
ĠåĦĴ å®¶
Ġå° ĸ
ĠåĪĨ çķĮ
ĠåĲ¬ åĪ°
ä»¥ æĿ¥
Ġéĥ ģ
é¹ ħ
Ġå¯ Ĥ
Ġåįģ åħŃ
Ġé¥ Ń
Ġåĸľ åī§
Ġå¤ªéĺ³ ç³»
Ġåİĭ åĬĽ
ä» Ķ
Ġä¸Ģ ç¯ĩ
Ġçº ¬
è° Ĭ
Ġå·² æľī
ç´ ¯
Ġèħ ¾
ĠæĪĲ éķ¿
ĠéĹ Ń
Ġèį£ èªī
ç» ¸
Ġèĥ ļ
å½ »
ä½ľ èĢħ
Ġå³ °
Ġå®ī æİĴ
Ġæ¾³ éĹ¨
ç© Ĩ
an g
9 0
ĠæľĢ æĸ°
Ġè¡ °
Ġæĺ Ń
Ġè¿Ĳ è¾ĵ
èĦ Ĥ
Ġæ¢ģ å±±
éĺ ¶
Ġ4 3
éĶ ħ
Ġçĳŀ åħ¸
ä¼ ĳ
äºº åĳĺ
æĢ Ĵ
ĠèĤ Ŀ
Ġç®¡ è¾ĸ
Ġä¿® å»º
Ġæ²» çĸĹ
Ġè½¯ ä»¶
Ġæ ¤į
Ġå¤§ å°Ĩ
æµ· å³¡
Ġä¾ ¯
Ġèĩª åĬ¨
Ġåįĥ éĩĮ
Ġå¯Į æľī
Ġä¸»æĮģ äºº
½ åŃĲ
Ġ in
Ġåĺ ´
ĠåĮ» éĻ¢
Ġåĵģ ç§į
Ġæĺİ çĻ½
èĢ³ åħ¶
æ³ ¥
Ġè¾ ī
Ġè¯ķ éªĮ
éĹ ²
å¦ ®
Ġæ® ·
Ġé¢ĺ æĿĲ
æľ ´
æ² «
ĠåİŁ æĸĻ
Ġç¼ ĵ
Ġæ· ĺ
Ġå¤ĸ äº¤
Ġç²ī ä¸Ŀ
Ġæ·± åħ¥
ĠåķĨ åĵģ
Ġèī¯ å¥½
Ġå¤§å¤ļ æķ°
ĠæĮģ ç»Ń
èĿ ¶
ĠæĹ¥ åĩº
Ġä¸ ĺ
Ġåħ¬ å¼Ģ
Ġçľĭ è§ģ
ĠæĢ ģ
Ġ4 6
ĠæĺŁ æĺŁ
ĠåĽ½ æĹĹ
æ¹ ¿
ç ĺ
Ġ18 4
Ġå®ļ ä¸º
ĠæĪ ª
Ġå¼ ¦
ĠæĢ» çĲĨ
Ġè º
Ġè¯Ĺ åı¥
ĠåĪĽ å»º
èķ ¾
æĿ ¨
Ġé«ĺ ä¸Ń
ĠäºĶ åįģ
Ġå¥¥ åľ°åĪ©
Ġæİ¥ è§¦
å¸Į èħĬ
Ġå¸ ķ
Ġæľº åľº
Ġæŀģ å¤§
Ġæĥ ł
ĠåŁº åĽł
ĠæĶ¾ å¼ĥ
Ġäº¤åĵį æĽ²
çĦ °
å® £
ä¼ Ļ
Ġäºº æĸĩ
Ġå¤§ æ´²
Ġå¸¸ å¸¸
Ġåįı ä¼ļ
Ġåľ Ī
Ġçİĭ åŃĲ
ĠæĮĩ å¯¼
Ġæ° ¯
Ġåī ©
åĪĨ åŃĲ
Ġé¦ĸ åºľ
Ġ7 6
Ġä»¥ å¤ĸ
å±ħ æĺĵ
ĠåĪĴ åĪĨ
Ġç¾¤ å²Ľ
Ġå¤© åľ°
Ġéĥ¨ éĹ¨
å¡ ĳ
Ġå§Ĳ å§Ĳ
è¯ ¾
éĻ Ģ
Ġå± ĭ
ĠåĨĽ è¡Ķ
å» ī
Ġçħ§ çīĩ
i k
Ġä¼ °
ĠåŃĻ æĿĥ
Ġè¡ ¡
Ġéģ į
Ġæĸ ©
æ± ¤
Ġèµ¤ éģĵ
Ġæľº åħ³
æ± ģ
åĿ Ĭ
å¾· åįİ
Ġé²ľ æĺİ
Ġç»° åı·
èµ· æĿ¥
ç´ «
æ» ´
ĠåŃ£ é£İ
Ġæ±ī æľĿ
Ġå· ©
Ġ5 8
Ġé¸ ¦çīĩ
Ġé¼ »
ĠäºĴ çĽ¸
Ġç¢³ éħ¸
e c
Ġè¿ Ī
çī ²
Ġä¸Ģ é¡¹
Ġå´ Ķ
åĽ °
Ġå®īå¾½ çľģ
Ġä½ ©
Ġé¸ £
åķ ¡
Ġç»´ çĶŁç´ł
Ġäº² èĩª
2 1
ĠèĢĮ å·²
åħĭ æĸ¯
Ġèĩª èº«
ĠåĪĽ åĬŀ
Ġç¬¦ åı·
Ġä¸¤ å¹´
ĠæĦı è¯Ĩ
æ» ļ
ĠåĴ ĸ
çĻ¾ å¹´
i f
Ġç» Ń
Ġ0 4
Ġå¸¸ è§ģ
ä¼ į
Ġå¤§ éĥ½
ĠæıĲ åĪ°
Ġä¸» åĬŀ
Ġéģ µ
ĠçĻ» ä¸Ĭ
Ġæµģ ç»ı
çİ¯ å¢ĥ
Ġé ¦Ĩ
ĠåĲĮ åŃ¦
Ġåī§ ä¸Ń
ĠåŁºçĿ£ æķĻ
ĠåĽ½ æŃĮ
Ġ18 7
Ġçľģ ä»½
ĠåŁºæľ¬ ä¸Ĭ
Ġçİ «çĳ°
çĭ Ĥ
Ġç»ĺ çĶ»
èĬ ½
Ġå¿ĥ æĥħ
Ġå±ķ ç¤º
åįĥ å¹´
Ġè ¥Ħ
Ġæ¸ Ĳ
èĤ ª
Ġæľ« å¹´
Ġæ°ĳ æŃĮ
Ġå¤© æ°Ķ
å¿ §
è´ ¸
Ġè¿Ľ çĲĥ
æİ §
æİ ĺ
ĠæĲ º
ĠåĪĹ ä¸º
5 5
ĠèĤ ĸ
ĠåĶ± æŃĮ
Ġçķ ¥
Ġæ£ ĭ
2 8
ĠåľŁ èĢ³åħ¶
è´ ¢
èĩ Ĥ
ĠæķĮ äºº
Ġä¿Ŀ è¯ģ
Ġäºº æ°Ķ
Ġ199 3
Ġèĭ Ĺ
Ġ199 1
ĠåĨ ł
å¯ ĵ
Ġæİ ī
æĦ Ī
èĻ ¹
Ġæ³ ¥
å´ ĩ
Ġæ¶² ä½ĵ
ĠåĬ Ŀ
ä¸ī è§Ĵ
Ġåħ± åĴĮåĽ½
Ġåĳ¨ çĳľ
Ġåįĥ åı¤
Ġè® ¿
p u
Ġä¸Ģ æĶ¯
äºº çī©
ĠçĪ ¬
ç¾İ åħĥ
Ġæ¡ ĳ
Ġ15 0
Ġå¸¸ çĶ¨
ĠéĻ ·
Ġæ³° åĽ½
Ġæ¹ĸåĮĹ çľģ
Ġä¸į ç®¡
Ġéĩį è§Ĩ
æĪĲ åĬŁ
Ġå·¥ äºº
ĠçĶµè§Ĩ åı°
Ġå¸Ŀ çİĭ
Ġäº ķ
çº ½
Ġè¥¿ æ¹ĸ
Ġèĥ ¶
Ġå½¢ çĬ¶
ĠåŃĻ ä¸Ńå±±
Ġæ£ Ĵ
çŁ ¶
Ġåİ Ĥ
Ġåĵ į
ĠåĲī æŀĹ
Ġä¸ §
ĠåĽ½ è¯Ń
ĠåŁ¹ åħ»
Ġå¼Ģ å¹ķ
Ġå¹³ è¡¡
Ġåı² ä¸Ĭ
Ġä» ĺ
åĲ ¾
éĢ Ĳ
Ġåĩº åıĳ
Ġå¤ı å¤©
Ġç ĺ
ĠäºĮ å¹´
é «
Ġå¾Ī å°ĳ
éħ ·
Ġè§ģ åĪ°
Ġæ¡ĥ èĬ±
Ġèĳ¡èĲĦ çīĻ
çķ ħ
ĠéŃ ħåĬĽ
Ġçļĩ å®¶
Ġæīĵ çł´
ĠåĪ© çĽĬ
åĤ ¨
ç¢ İ
Ġè´ ¯
Ġè¡¥ åħħ
é ķ
å¹³ åİŁ
ĠæĽ´ ä¸º
Ġå¥¥ æĸ¯
æĭ ħ
Ġè¿Ĳ è¡Į
Ġs h
Ġè®° å¿Ĩ
Ġä¸ļ åĬ¡
ĠèĢģ åħ¬
a k
u l
åį ľ
Ġåĩ ī
Ġæŀģ ä¸º
Ġé«ĺ å±±
Ġéĵ º
Ġå·® ä¸įå¤ļ
Ġä¹ĭ æĥħ
Ġä¼ĺ ç¾İ
Ġä»Ļ åīĳ
Ġ4 4
Ġæ°´ æŀľ
Ġæľº åĻ¨
Ġçħ ®
äº ¥
å¾ ¡
éĢ Ŀ
Ġåı¤ äºº
Ġå¼º è°ĥ
ĠçĥŃ æĥħ
Ġçª Ĺ
ä¸ĭ æĿ¥
Ġäº§ éĩı
Ġé ī´
ĠæŁ ´
Ġçºª å½ķ
Ġæŀ ¶
ä¹ Į
Ġå¿ĥ éĩĮ
Ġä¸Ģ æĺ¯
çĤ ī
ĠåĽŀ æĿ¥
ĠéĿ¢ åīį
éĵ Ń
ĠåĽ½éĻħ å¥¥å§Ķä¼ļ
Ġä¸¥ æł¼
ĠæŃ¦ è£ħ
Ġå±±ä¸ľ çľģ
é¥ ¼
å½ ¦
Ġæĥħ äºº
º çī²
Ġå¤ ¸
åĳ µ
ĠçŃī çº§
Ġåįļ å£«
Ġè°¢ è°¢
Ġç© ¶
èĻ ļ
è§£ æĶ¾
Ġç»´ æĬ¤
Ġæĭī ä¸ģ
Ġä¸Ŀ ç»¸
ĠæľĢ æ·±
çº ¹
Ġä¸Ģ å¼ł
çľ ł
è° Ĳ
Ġ198 2
æħ ķ
ĠèĦĤ èĤª
æ ª
Ġä¾¿ æĺ¯
ĠéħĴ åºĹ
ĠåĪĨ æ³Į
ĠåĲĪ åĶ±
Ġä¸¤ å¤§
Ġ8 8
ĠæĶ¹ åĲį
çĳ Ł
Ġå°± è¦ģ
åħ¬ åĽŃ
Ġæ¸ħ æĶ¿åºľ
å¾ Ĳ
Ġæµ ĳ
Ġåį³ åı¯
ĠéĢĤ åºĶ
Ġç®Ĺ æĺ¯
Ġå°ı ç»Ħ
Ġä¿Ĺ ç§°
Ġèº«ä»½ è¯ģ
Ġå® ³
Ġåľ° åĽ¾
å¤ļ èĬ¬
Ġé ŀ
å±± èĦī
çģ ¾
éĶ ģ
ĠåĪĿ æľŁ
Ġç¢ ±
è¶³ çĲĥ
ĠçĶ» éĿ¢
è® ²
æ² ĥ
Ġè§Ħ å¾ĭ
Ġé ¦
ĠæŃĮ åī§
Ġæ³¨ åħ¥
Ġæļ ĸ
Ġå¸ĿåĽ½ ä¸»ä¹ī
µ ©
çĬ ¬
ĠåĴĸ åķ¡
c o
Ġå¿ µ
çł´ ä»ĳ
ig h
t v
åĪ ĺ
Ġåīį éĿ¢
ĠæĬĴ æĥħ
Ġè¿ Ħ
Ġæĸ ľ
ĠæĹ¥ èĩ³
ĠåĽ½éĻħ è¶³èģĶ
èİ «
Ġç½ĳ åıĭ
Ġæľį è£ħ
Ġéģĵ å¾·
Ġå¤ ¹
ĠåĨħ å¿ĥ
Ġå¦ĩ å¥³
å° Ŀ
Ġæĺ¥ é£İ
Ġç¢ °
ĠçĽ Ĺ
çĪ ½
Ġé¢ĺ æĦı
ç£ ¨
ĠåĮĸ çŁ³
ĠéĹ ½
æĹ¥ æľŁ
Ġæĺ¥ èĬĤ
ĠæĬ¥ åĳĬ
éĻ ·
éĽ ¾
Ġå½¢ æĢģ
Ġå®ĭ æľĿ
ĠãĢ ī
å¼Ģ æĶ¾
è£ ķ
éĻ ¶
çĴ ĭ
Ġåı¸é©¬ è¿ģ
ä»£è¡¨ å¤§ä¼ļ
Ġçº ²
Ġåħ± äº§åħļ
Ġæĵį ä½ľ
å° ĸ
Ġæī İ
èħ Ĳ
ĠæıĴ æĽ²
åĩº æĿ¥
Ġé£ŀ èĪ¹
ĠæĢĿæĥ³ å®¶
è¾ ±
Ġé»Ħ èī²
Ġæīĭ æ®µ
æ» ĳ
æľ ĭåıĭ
Ġè¿Ľ åĮĸ
Ġçĭ Ń
èĩª çĦ¶
ĠèģĶ èµĽ
ĠæĢ» ç»ĵ
ĠçľŁ æĺ¯
Ġc o
Ġåį°åº¦ æ´ĭ
Ġç¾½æ¯Ľ çĲĥ
Ġå· «
èĸ Ħ
Ġå® ł
ĠéĿĴ èĹı
ĠåĲī ç¥¥
ĠèĦ Ĭ
ĠæİĪ äºĪ
å¨ ĩ
Ġæ»¡ è¶³
åį ±
ç» µ
è´ Ń
Ġæĭ Ĵ
ĠäºĶ å¹´
Ġç¼ ĺ
Ġäººæ°ĳ å¸ģ
ĠéĢł åŀĭ
Ġå¢ŀ éķ¿
ĠæĬķ åħ¥
Ġæ¢ħ èĬ±
k g
Ġåĳ µ
Ġåº Ĺ
ç½ ļ
Ġæ°Ķ æ¸©
Ġä¼ ´
ĠæĻ ¶
ĠåĽ½å®¶ éĺŁ
åĭ ¤
Ġçİ°ä»£ åĮĸ
Ġå° Ŀ
Ġå® ¾
å· ¦
Ġå¯¹ è±¡
ĠçĤ Ĵ
ĠèĢĥ å¯Ł
2 3
Ġåĵ º
ĠçĽ¸ ä¼ł
ĠæĿİ å°ı
ĠæĹħ è¡Į
Ġæĺ¾ å¾Ĺ
Ġåľ° åĬ¿
ä½ ĳ
ĠåĨħ éĻĨ
å© ·
Ġ198 7
ç ¹ģ
Ġåħ¶ æ¬¡
éĥ Ĭ
Ġç¡® ç«ĭ
Ġå±Ī åİŁ
Ġåĵ Ģ
Ġæµ· å²¸
Ġé£İ åħī
Ġç§ĳ ä¸¾
Ġé¸ Ń
æĢ ¡
e y
ĠäºĮ äºº
æĪ ´
ĠåĪĨ ç±»
Ġä¸ĩ å¹´
ç¿ ģ
æĿ ľ
æ£ Ģ
Ġéĺ² æŃ¢
æ Ĩ
Ġå¤© ä½¿
ĠçŁ³ å¤´
çĭ ®
ç§ĳ åŃ¦
Ġçº· çº·
Ġå° º
ĠåĮ» åŃ¦
ĠæĮ ¥
Ġæ¯Ķ ä¾ĭ
ĠæĸĩåŃ¦ åı²
Ġæĸ° äºº
ĠæŃĮ åĶ±
ĠæĶ¿æ²» å®¶
ĠæĮĳ æĪĺ
ĠåĲ ŀ
Ġéĩĳ åŃĹ
Ġå¿ĥ èĦı
Ġæĸĩ ä»¶
Ġæķ´ ä½ĵ
ĠæĿĤ å¿Ĺ
Ġå¼Ł åŃĲ
Ġæ²³åĮĹ çľģ
Ġ3 000
Ġ198 0
Ġ198 5
ĠæŁ¯ åįĹ
æ §
Ġèĩ Ń
Ġæķ ¢
Ġæ¼Ķ å¥ı
Ġå¯Ĥ å¯
éŁ³ ä¹Ĳ
Ġåĭ ¤
åĿ Ŀ
ĠèĮ ħ
ĠéĢĲ æŃ¥
ĠåĽ½ å¤ĸ
Ġæĺ ¨
ĠåŁ ĭ
ĠåĮĹ çº¬
Ġè Ł
Ġä¼ ¸
è¾ £
Ġç©º ä¸Ń
è Ł
Ġåħ¬ è·¯
çĤ Ń
è· ³
Ġå¸¦ æľī
Ġä¸´ æĹ¶
èµ ĸ
ĠçĤ ¸
Ġä¸ĭ åĪĹ
Ġç¦» å©ļ
Ġåı Ľ
Ġåįł é¢Ĩ
Ġæĥ³ è¦ģ
ĠåĽ½ åľŁ
ĠæĹ¥ åĨĽ
æµ ®
ĠæĻ¯ èī²
ĠæīĢ å±ŀ
t m
Ġå¯¼ å¼¹
åª Ĵ
Ġç± į
ĠçĻ½ å±ħæĺĵ
Ġä¿¡ ä»°
ĠæĬĹ æĪĺ
Ġåĳ³ éģĵ
Ġäºº å®¶
Ġçº¦ ç¿°
Ġçķ ª
Ġä¸Ģ èĩ´
Ġå¤§ è§Ħæ¨¡
è´ º
çĪ µ
ĠæŃ» åĲİ
ĠçĶ¨ æĪ·
Ġæħ ķ
Ġç»Łæ²» èĢħ
Ġå¢ Ļ
Ġéģĵ æķĻ
Ġä¸Ģ çº§
æŀ ¢
æ¡ Ĥ
ĠæĲľ ç´¢
Ġäºº ç§°
æ¤ Ĵ
ĠæĢģ åº¦
Ġåħ¬ å®ī
ĠèĢģ æĿ¿
Ġæīĵ å¼Ģ
åħ¬ è·¯
ĠäºĶ å¤§
ĠåĮħ åĲ«
è¢ ĭ
Ġæĭ¿ çł´ä»ĳ
Ġé£İæĻ¯ åĮº
çĽ Ĺ
Ġçİ° åľº
Ġçľĭ åĩº
ĠåŃ¦ è¯´
ĠåĮĹäº¬ å¸Ĥ
ĠåıĳåĬ¨ æľº
ĠéĤ® æĶ¿
æ Ĳ
Ġæ¯Ķ åĪ©
å§Ķåĳĺ ä¼ļ
6 8
Ġä¸ ½
åİ ¦
ĠçŃ ¹
Ġèģ Ĥ
ĠåĲ« ä¹ī
Ĳ å°Ħ
Ġæµ ©
æĽ ´
Ġ6 5
ĠåŃ¦ æľ¯
Ġé£İ äºĳ
æ¢ ¯
Ġç¬¬ åħ«
Ġä¸» ä»»
Ġæµ· æ°´
Ġå® ¿
Ġåĩº èº«
Ġå°Ĩ é¢Ĩ
Ġè¡Į ä¸ļ
éģ ¿
ĠèĬ ¬
Ġåı¤ åŁİ
Ġè ¤
Ġç½ ¢
Ġæ¼ĶåĶ± ä¼ļ
ĠåĶĲ å¤ªå®Ĺ
å°¼ æĸ¯
ĠæĿĥ åĪ©
Ġä¸¹ éº¦
Ġå¤© çİĭ
Ġa n
Ġç¢ ĳ
ĠéĻĲ åĪ¶
ĠéĤĢ è¯·
æī °
Ġéļ ¶
Ġä¸ľåįĹ äºļ
Ġä¸Ģ åħ±
Ġåįģ åĽĽ
ĠäºĶ ä¸ª
Ġåį³ ä½į
ĠåĲĪ æĪĲ
Ġç²¾ å½©
èĹ ¤
Ġåľ° ä¸Ĭ
Ġèĩª ç§°
Ġå½ĵ ä»£
Ġå®ŀ åľ¨
ĠåĪ« åĲį
ĠåįĬ å²Ľ
Ġå¥ Ĺ
Ġåİ ī
Ġè° Ń
Ġæ¹ĸåįĹ çľģ
Ġæµİ åįĹ
Ġä¼° è®¡
ĠåĲ ¨
æ½ Ń
Ġç¹ģ èį£
Ġè¿ Ŀ
åı ī
Ġä¸ī æľĪ
Ġæ¸ħ æĺİ
ĠèģĶ éĤ¦
Ġä¾Ŀ æį®
ĠåĨ¬ å¤©
ĠçŃ ĸ
Ġåĩ Ģ
Ġæīĵ åĩ»
Ġæ»¡ æĦı
è¾ĸ å¸Ĥ
ĠæĺĨ æĺİ
Ġçĭ® åŃĲ
è¥¿ æĸ¯
Ġäº« æľī
Ġéĥ¨ ä½į
èĮ Ĥ
ĠéĩĳåŃĹ å¡Ķ
Ġåħ ģ
çĶ ¸
åĮ ł
Ġæ° ¨
ç¾ ²
åħ¬ ä¸»
ĠåĿ ı
Ġæ°Ķ åĬ¿
Ġå§ĳ å¨ĺ
Ġä¸Ģ åįĥ
èµ µ
ĠåĲį ä¸º
Ġçİĩ é¢Ĩ
Ġèĩª è¡Į
èĤ ĸ
ĠéĻį ä½İ
ĠéģŃ åĪ°
Ġä¸ĭ è½½
çĥŃ å¸¦
Ġèµ¤ å£ģ
¤ ç»´
Ġå¤§ éģĵ
Ġå®ĺ åĳĺ
ĠæľĢ åħ·
Ġé» ĺ
è° Ń
Ġç» į
Ġç»ĵ å±Ģ
Ġçİ°å®ŀ ä¸»ä¹ī
Ġä¸» åĬĽ
Ġæ¸ ¡
Ġåı¤ å¸ĮèħĬ
å¤« äºº
Ġä»ħ æ¬¡
Ġ6 8
ĠèĪ į
Ġé¡ »
ĠåĪº æ¿Ģ
ç¢ į
ĠãĢ Ī
Ġä¸Ĭ æĺł
ĠèĬ Ļ
Ġ6 4
ĠæĶ¶ åħ¥
Ġå¯¹ æīĭ
Ġè¡Ģ åŀĭ
å°±æĺ¯ è¯´
Ġä¸Ĭ è¿°
æı ´
ĠâĢ ¢
Ġæĥ³ åĪ°
ĠåĲĦ èĩª
Ġæī £
Ġç»Ł è®¡
Ġé¢Ĩå¯¼ äºº
Ġå°ı åŃ©
Ġå¤© ä¸Ĭ
ª æĸ½
Ġåħ¬ è®¤
ĠæĪĺ åľº
Ġç½ĳ çĲĥ
Ġè ªī
äº «
Ġä¸įå¾Ĺ ä¸į
Ġæ¼Ķ åıĺ
ĠåĪĽ æĸ°
Ġç¼º ä¹ı
Ġä¸ľ ç»ı
ĠæĬķ éĻį
Ġçĸ ¯
Ġæ¯ķ ç«Ł
Ġä¸Ģ åįĬ
Ġå° ¿
ĠæĪĺ å£«
Ġå®ŀ è·µ
ĠæĦŁ åĬ¨
Ġæī ¶
Ġå¾ ĭ
Ġåī ª
Ġ5 3
Ġç© ·
ĠèĢĥ åı¤
çĶ± äºİ
Ġt he
åĪĨä¹ĭ ä¸Ģ
Ġè´ ¥
Ġå½ĵ ä¸Ń
Ġæį ·
åī ²
å¢ ŀ
æĤ ¨
Ġçĸ¾ çĹħ
Ġä¹ĭ æĪĺ
Ġåıĺ å¾Ĺ
æ°ĳ åĽ½
è± ¹
æķĻ èĤ²
Ġäº¤ æµģ
Ġä¹ĭ ä¸ĭ
Ġèĩª åı¤
éĽ ¶
åħĥ ç´ł
ĠçĨŁ æĤī
å¹ ¼
Ġæ¯ ģ
è¸ ª
æĹ ¨
Ġ4 2
Ġåıį å°Ħ
Ġç¬¬äºĮ ä¸ª
ĠçĲĨ çĶ±
ĠæĦ¿ æĦı
Ġä¸Ģ éĿ¢
å¿ Ļ
Ġèı ©
Ġé¢Ĩ è¢ĸ
Ġ197 8
æĿī çŁ¶
Ġåľ° è´¨
åī ¯
Ġa l
Ġ198 3
æĸ ĭ
ĠçĶŁ æŃ»
æĭī åħĭ
Ġæ¢ µ
Ġè´Ŀ å¤ļèĬ¬
Ġä¸Ģ ä»¶
Ġç² ĺ
Ġç¤ º
Ġæŀľ å®ŀ
Ġä¸¤ ä½į
é¡ µ
Ġèµ· çĤ¹
ĠçĻ¾ å§ĵ
Ġæ³¢ æĸ¯
Ġå±ķ çİ°
Ġä¸» åĬ¨
Ġå¯¹ æ¯Ķ
Ġä¿Ŀ çķĻ
Ġ195 8
ĠéĻķ è¥¿çľģ
ĠæĪ Ĵ
Ġäºº æķ°
Ġæĥ Ł
ĠçĮ İ
Ġä¸Ńæĸĩ åĲį
Ġè®¨ è®º
Ġç» µ
åį ĳ
Ġåı¯ çŁ¥
Ġä¸ī æĺŁ
éª ĳ
Ġé ¤Ĳ
Ġæ² ĥ
ĠåįĹ æµ·
ä¾ µ
èĲ į
Ġæµªæ¼« ä¸»ä¹ī
ĠéĢĿ ä¸ĸ
Ġä¸Ģ å¹ħ
åı Ī
æľº æŀĦ
ĠåĨĻ ä¸ĭ
Ġç§¦ æľĿ
ĠæĪı æĽ²
åĴ ı
d ing
å¤© åĽ½
çĭ Ĳ
Ġåħ¬ å¯ĵ
è½ ´
æĸ¯ ç§ĳ
Ġåħī æĺİ
Ġç§į æ¤į
Ġå¿« éĢŁ
ĠçŁŃ ç¯ĩå°ıè¯´
ĠçĹĽ èĭ¦
æ²¡ æľī
æ¯ ķ
ĠçĬ ¬
ĠéĽ Į
Ġéħ ·
éº ĵ
èīº æľ¯
Ġå¥ ı
éĹ Ń
ĠæĢ ķ
æµ Ĩ
ĠåĽ½å®¶ çº§
ĠèĴ ²
Ġä»ħæ¬¡ äºİ
çĮ Ľ
éº Ł
Ġå£« åħµ
Ġ198 9
Ġé£Ł çĶ¨
Ġèģª æĺİ
Ġï¼ ķ
Ġå»º åĽ½
Ġçĸ ı
o h
è º
é¹ ı
äº§ åĵģ
Ġäº¤ æį¢
Ġç¥ĸ åħĪ
Ġæµĭ éĩı
Ġå¼Ģ å°ģ
Ġæ´Ľ æĿīçŁ¶
Ġåį± éĻ©
Ġäº Ń
Ġåħ´ è¶£
ç®Ģ ä»ĭ
Ġè´£ ä»»
Ġåı Ķ
èı Ĭ
ĠåĮĸ åĲĪ
åį« è§Ĩ
Ġè¿Ħ ä»Ĭ
èĢ Ĳ
Ġèµ ł
Ġæİ¨ ç¿»
æ¹ ĺ
Ġç¿ ħ
Ġå®¢ è§Ĥ
Ġå±Ģ éĿ¢
Ġå Ļ
Ġåľ° çº§å¸Ĥ
Ġçĵ ľ
Ġæ¦ ľ
ĠâĶ Ģ
Ġæ± ¡æŁĵ
Ġè¯Ĺ ç»ı
åħĥ çĴĭ
Ġå¸¦ é¢Ĩ
Ġå¢ŀ å¼º
Ġæ¨¡ å¼ı
ĠåĪĨçķĮ çº¿
Ġå ¬
è¡ °
æĭ Ł
Ġè° ±
Ġä¸ĩ éĩĮ
y le
Ġè´ ŀ
éĴ ¢
éģĹ äº§
åĪ ¸
Ġä½ł å¥½
Ġå®¶ ä¹¡
Ġç´ ¯
Ġæ¶Ī å¤±
åĤ ħ
Ġè¸ ı
7 6
Ġé«ĺ çŃī
æİ ¨
ĠæĬ¥ éģĵ
çĩ ¥
äº ¿
Ġå¤§ èĩ´
Ġè´ ª
Ġæµ· å¤ĸ
ĠäºĶ æľĪ
é¡¹ çĽ®
éŃ Ħ
ä¹Ł çº³
Ġé¥ ±
å°¼ è¥¿äºļ
ä» ¿
Ġä¸Ģ å±Ĥ
Ġä¸Ń å±±
æ· Ģ
åģ ¶
æ¾ ³
Ġè¾ī çħĮ
Ġå¹´ åīį
åĵ Ģ
Ġç¾İ æľ¯
Ġéĩį éĩı
Ġå¤« å¦»
Ġç©¶ ç«Ł
Ġä¸Ģ è¯į
Ġæ° ı
Ġçī ºçī²
Ġè° ¥
ĠåĲĮ æĦı
æŃĮ æīĭ
æ´» åĬ¨
ĠèĬ± åĽŃ
å± ı
Ġæĥħ ç»ª
Ġç¦ ħ
ĠéĤ£ æĹ¶
Ġæ¯ĶåĪ© æĹ¶
Ġæ´ ²
ĠçĻ¾ ç§ĳ
Ġçª ¦
ĠæľĿ å»·
Ġäº¬ åī§
Ġæ³° å±±
4 6
Ġä¸ī ç§į
å¾· éĩĮ
Ġé©¬ æĭī
Ġåį³ å°Ĩ
Ġèģ Ĭ
Ġç«ĭ åį³
Ġç¾İ å¥³
Ġæīĵ è´¥
Ġt v
Ġåĩ» è´¥
Ġå¯Ĥå¯ ŀ
Ġ4 9
Ġäº¤ çķĮ
Ġèīº äºº
Ġç¬Ķ è®°
Ġè¡£ æľį
s p
Ġå¥ ĳ
Ġå°± ç®Ĺ
Ġåįģ ä¹Ŀ
Ġéª Ĩ
© ¹
u t
Ġä¹ Ī
Ġä»İ å°ı
ĠæĤ Ł
å¹ Ĥ
Ġèĳ Ľ
Ġæ·± è¿ľ
éľ Ģ
Ġè£ħ å¤ĩ
çİ° åľ¨
Ġäº¤ æĺĵ
ĠæĴ °
ç¾¤ å²Ľ
Ġçıį çıł
Ġæ´ŀ åºŃ
Ġä¸į æĥ³
Ġåĩº åľº
Ġçİĭ ç»´
æļ ĳ
Ġåįı è®®
ĠåĪ¤ æĸŃ
Ġåĵº ä¹³
Ġæ ĥ¨
Ġä¸Ģ æľ¬
çĶ ĺ
å· ¾
ĠèĬ Ń
Ġçı Ĭ
3 3
ä¹ĭ è·¯
Ġæ¬£ èµı
Ġè¦Ĩ çĽĸ
Ġä¸į æķ¢
ĠæĬ ļ
æĬ ±
å¨ ¥
o c
åĲ ¹
Ġåįİ åĮĹ
Ġè§Ħ åĪĻ
Ġåī§ æľ¬
Ġå·® å¼Ĥ
Ġè§Ĩ ä¸º
ĠçĪĨ çĤ¸
Ġé©¬æĿ¥ è¥¿äºļ
Ġï ¹
çĶŁ çī©
ĠåĪĨ è£Ĥ
Ġä¸ľ æµ·
ĠæķĻ ç»ĥ
Ġ Ñ
Ġä¸Ĭ åįĩ
ĠéĽ ¾
Ġå¼Ģ å±ķ
Ġ11 0
Ġ193 0
Ġäº« åıĹ
Ġç«ŀ äºī
Ġ. .
Ġè´ ¤
Ġå¤© æ¶¯
Ġéķ¿ ç¯ĩ
ĠåĮ» çĶŁ
Ġçģµ éŃĤ
Ġæķ ı
Ġå¤ļ ä¸ĩ
Ġè°ĥ æŁ¥
Ġåħ¸ æķħ
Ġæ¥¼ ä¸»
ĠåİŁ æľ¬
Ġæ·± åº¦
éģ ¥
èĨ Ģ
ĠåĽŃ æŀĹ
w w
Ġä¸Ĭ å¸Ŀ
Ġçľĭ ä¸į
ĠåĪĺ å¾·åįİ
Ġèľ Ĥ
Ġæĵħ éķ¿
Ġé«ĺ å³°
ç»´ äºļ
çĶ ³
Ġæī «
Ġå¼ł å®¶
ç¡ ¬
Ġå½ĵ éĢī
Ġåįģ æľĪ
Ġå¤ ®
ĠåĬ¨ æ¼«
åģ ľ
ĠæĹł äºº
Ġç¬¬ ä¹Ŀ
Ġåĩł å¹´
æħ ¨
Ġä¹ĭ æīĢä»¥
è¢ «
Ġè·Ŀ ä»Ĭ
Ġé¡º åºı
Ġä¹ĭ çİĭ
e b
ĠèµĦ æł¼
Ġç¬¬äºĮæ¬¡ ä¸ĸçķĮå¤§æĪĺ
ĠæĿ¿ åĿĹ
p h
ĠèĢ ķ
ĠçĽ¸ è¿ŀ
Ġä¸ĥ åįģ
ä»ĭ çŁ³
Ġæ¬¢ è¿İ
æ ĥ¨
Ġå¤§ ä¼Ĺ
è½ ¨
ç¾İ åĽ½
éľ Ĩ
ĠæİĴ è¡Į
ĠéĺŁ éķ¿
ĠåıĳæºĲ åľ°
Ġè¯ ±
Ġç¦ıå»º çľģ
o v
çĶµ ç«Ļ
èĭ Ĺ
Ġæ¯ı æ¬¡
ĠåıĬ æĹ¶
ĠéĽį æŃ£
Ġéķ¿ å¤§
Ġåīį å¾Ģ
å© ī
ĠåıĤ èµĽ
Ġè®¾ å¤ĩ
Ġä¸į äºĨ
Ġå®Į åĸĦ
ĠåĵĪ å°Ķ
ĠåĪĹ åħ¥
Ġï¼ ĺ
æį ķ
ĠçĻ» éĻĨ
Ġåį« çĶŁ
Ġä» ²
ç» £
ç¨ ¿
ĠåĳĪ çİ°
Ġå³ ¡
Ġä¸Ģ ä¹¦
ĠåĴĮ è°Ĳ
åį ¢
Ġå² ¸
a v
Ġå® °
èĢ Ĺ
å¼ Ĺ
Ġä¸ ŀ
Ġå¾ Ĵ
Ġç¾İ äºº
Ġçī¹ æľī
ĠæĤ ī
Ġäºĭ çī©
Ġå¿ĥ çģµ
Ġä¸ľ æĻĭ
ĠæĮ ĸ
Ġ5 2
Ġæľº åĬ¨
Ġå¥¥æŀĹåĮ¹åħĭ è¿ĲåĬ¨
Ġä¼Ĭæĸ¯åħ° æķĻ
Ġä¸Ģ ä½ĵ
a b
Ġç¥ŀ å¥ĩ
Ġäºļ é©¬
ĠåĽĽ åŃ£
Ġæĥħ æŃĮ
Ġéĥ¨ èĲ½
Ġçĥ Ī
Ġä¸Ń æľŁ
åĽ Ĭ
ĠèĢĮ è¨Ģ
ä¹¦ è®°
èħ ¿
èĴ ¸
Ġåı¸ ä»¤
Ġæ²¿ å²¸
Ġï¼ ĵ
Ġä¸Ĭ ä¸ĭ
ĠæŁĵ èī²
Ġæĥħ æĻ¯
ĠæķĻ åŃ¦
ĠæĿĢ æŃ»
Ġå¯Ĩ åº¦
Ġåİ ¦
èĥ ¶
ĠåĸĦ èī¯
Ġæħ¢ æħ¢
ĠåĲ ¾
æī ĩ
Ġæ± ł
ĠçĶµ æµģ
ĠåĬŁ å¤«
Ġ ___
Ġä¸Ģ æī¹
Ġå¤ª åİŁ
Ġå¾Ĺ ä»¥
èµĦ æĸĻ
Ġç£ ·
èĵ Ħ
Ġåłª ç§°
Ġå¾Ĺ åĪĨ
Ġåıĸ ä»£
ĠåĪ« ç§°
Ġæķ ¦
è½ ©
Ġæĸĩ äºº
ĠæĹł äº§éĺ¶çº§
Ġç»´ ä¹Łçº³
Ġä¸ľåĮĹ éĥ¨
Ġå¥¹ ä»¬
æ½ ľ
Ġæ¶ī åıĬ
Ġè¥¿ åĳ¨
Ġçģ« å½±
Ġè´Ń ä¹°
ĠçĪ ·
è¯Ĺ äºº
Ġé¼ İ
ª ĵ
å® ¿
Ġå½ĵ ä»Ĭ
Ġè¶ ĭ
Ġæľ± åħĥçĴĭ
Ġ ________
æĿ ł
Ġå¤§ åľ°
Ġå¼ ¥
å· ¢
Ġ5 9
Ġèĥ½ æºĲ
éĶ Ĳ
Ġæ¸© æļĸ
Ġç»´ æĮģ
Ġä¸Ģ å¯¹
Ġæ» ļ
åĬ ²
Ġéĩĳ æĺŁ
éĴ Ļ
Ġç©¿ è¶Ĭ
Ġä¹ł ä¿Ĺ
Ġæ±Ł è¥¿çľģ
Ġä¸ĥ æľĪ
çĵ ·
Ġèħ °
ä¼ ¸
ĠåĨ ¥
Ġå¥³ çĶŁ
ĠæİĴ åĪĹ
çĽĽ é¡¿
éĥ ¡
Ġä¸Ģ è¾¹
ĠæĹł çº¿
Ġè¡Į é©¶
Ġåı· ç§°
Ġè½¬ åĮĸ
Ġæŀģ åħ¶
Ġåľº æīĢ
ĠåıĻ è¿°
Ġæ¼Ĥ äº®
å¸Ŀ åĽ½
ç¨ £
çºª å½ķ
Ġè§Ħ åĪĴ
ĠåĪ« çļĦ
Ġäºī å¤º
7 5
ĠéĢļ çĶ¨
ĠéĿĴ å²Ľ
Ġ197 9
Ġâ ħ
Ġä» Ķ
ĠæĹ¶ å°ļ
Ġçĭ Ħ
Ġä»¥ åįĹ
Ġèį£ èİ·
ç§ ģ
åł °
ĠçĶµå½± èĬĤ
çĽ Ĩåľ°
ĠåĬł ä»¥
ĠåĤ £
æģ© æĿ¥
Ġå¤ªå¹³ å¤©åĽ½
ĠèįĨ å·ŀ
Ġåı¯ è°ĵ
es t
å½¢ è±¡
ç¦ ħ
ĠéĤ® ç¼ĸ
Ġç«¥ å¹´
Ġæł· åŃĲ
Ġéĥ½ åŁİ
ĠæĻ¯ çĤ¹
Ġæİ¢ ç´¢
ĠæĺĨ èĻ«
Ġé«ĺéĢŁ åħ¬è·¯
äº ¦
Ġèİ İ
æ¬¢ è¿İ
åĲ ı
æĹ ģ
Ġå± ı
ĠéĻ ©
æŃĮ æĽ²
ĠæŃ¦ ä¾ł
Ġå¿ĺ è®°
åŃ Ł
Ġä¸ĸ äºº
åį« æĺŁ
6 6
ĠçĽ¸ ç»§
æµģ åŁŁ
Ġæµģ æĺŁ
Ġç¼© åĨĻ
Ġè¿Ļ åº§
Ġåħ¶ ä½Ļ
Ġéĵ ¸
Ġ16 0
Ġéª Ħ
ĠåĩºçĶŁ æĹ¥æľŁ
ä½Ĩ æĺ¯
å± Ī
Ġé¢ Ŀ
Ġå±± åľ°
Ġæ¶ Ĥ
Ġäºļ çĥŃå¸¦
Ġæ¸© æŁĶ
ĠæĶ¶ èĹı
Ġåĵ¥ ä¼¦
ĠåĽ° éļ¾
7 9
Ġåľ° å¸¦
ĠæĬ Ľ
ĠçŃī å¾ħ
Ġæ±ī ä»£
å¦ Ĩ
éĤ ®
Ġéĥ İ
Ġè°ĥ èĬĤ
æĸĩåŃ¦ å¥ĸ
ĠåºĨ ç¥Ŀ
Ġå¤§æ´ĭ æ´²
Ġä¸Ģ éģĵ
Ġç¼ ħ
çĳ ļ
ĠæĶ¯ æµģ
Ġåħĥ å®µ
Ġè®¾ åľ¨
éĤ ĳ
Ġæ¸¸ å®¢
Ġæ³¨ åĨĮ
è® ¨
æ³ ¼
Ġåĩº èī²
é¸ Ń
Ġåįİ çĽĽé¡¿
Ġçıį è´µ
ĠæĪ Ī
Ġåĩº åľŁ
Ġæ¡ Ī
ĠæĢ§ èĥ½
Ġç¿» åĶ±
Ġåı¯ æĥľ
Ġä»£ æĽ¿
ĠåĶĲ åĥ§
ĠéħĴ ç²¾
ĠèĤĮ èĤī
ä¸ ¸
å±± åİ¿
Ġåıĺ æ³ķ
ĠåĲİ ä»£
ĠéĽ ģ
Ġ5 4
ĠçĨ Ķ
å§Ĩ æĸ¯
Ġèŀį åĲĪ
ç» İ
Ġè¾ £
Ġæĭ ³
åĮĹ äº¬
Ġé»Ħ å¸Ŀ
7 8
Ġå¤§ è¿ŀ
æ° ¢
ĠåŃŁ åŃĲ
Ġæ®ĸæ°ĳ åľ°
Ġé©¬åħĭæĢĿ ä¸»ä¹ī
ĠäºĮ æĪĺ
Ġå¤§ å¥ĸ
Ġ5 000
åĢ ©
åł Ĩ
Ġå¥ĩ è°Ń
çª Ŀ
Ġæ¥ļ åĽ½
ĠåĲįèĥľ åĮº
ĠçļĦ ç¡®
Ġåģľ æŃ¢
ĠæĬĹæĹ¥ æĪĺäºī
çı Ĭ
Ġæİ¥ å£¤
Ġä¹¦ è®°
ĠæľĪ ä»½
ĠåĽŀ å®¶
ĠèĲ Į
Ġæ·± æ·±
ĠäºĮåįģ åĽĽ
Ġä¹ĭ ä¸Ĭ
ĠéĢ Ĩ
Ġ6 00
åıį åºĶ
è£ Ķ
Ġ194 5
Ġè¯ ļ
æ´ Ĺ
Ġè¯´ è¯Ŀ
ĠæķĻ åłĤ
å°Ķ æĸ¯
Ġæ°´ éĿ¢
Ġèµ· åĪ°
Ġæ¬ º
ĠæŃ£ æľĪ
ç¢ §
Ġå±ħ å£«
ĠçĲ ¼
Ġåĸ Ģ
Ġè¢« è¿«
Ġ8 00
Ġå¿ħ çĦ¶
ĠäºĮ æľĪ
Ġè¯Ħ éĢī
Ġä¸Ĭ å¸Ĥ
çŃ Ŀ
ĠéĢļ ä¿¡
æº ¶
ĠçĽ´ å¾Ħ
Ġåįĥ å¹´
ĠæĹ© å·²
ç£ ģ
Ġä¸ ¢
æľ ½
Ġèµ Ĳ
ä¸į åĲĮ
æģ º
åħ¶ å®ŀ
or d
ĠèĴĭ ä»ĭçŁ³
Ġä¾¦ æİ¢
é² ¸
Ġç¨ »
Ġä¸īè§Ĵ å½¢
æĶ¿ æ²»
ĠéĶ ¡
Ġåħ· å¤ĩ
er s
Ġåĭĩ æķ¢
ç °
Ġäº ¡
èľ Ĥ
ĠæĹĭ å¾ĭ
Ġè® ¢
Ġæ°ĳ åĽ½
ĠåĬŀ åħ¬
Ġw ww
c e
ĠæĸĩåĮĸ åĲį
ĠçĮ ´
Ġç¥ĸ ç±į
Ġè°ĥ æķ´
3 6
Ġå¤§ äºİ
Ġç¾İ èªī
Ġä¸ĭ éĻį
ä¼ł è¯´
Ġçº¬ åº¦
Ġè¥¿ åŁŁ
å¤ª åĲİ
ĠåĽº ä½ĵ
Ġä¸ľåįĹ éĥ¨
æĺ ı
Ġåĩ Ħ
ä½į ç½®
Ġä¼ł éĢĴ
Ġèľ ¡
Ġè·¯ çº¿
Ġç¼ĸ åī§
ĠæĢ» åĨłåĨĽ
Ġä¸į å¹¸
Ġï¼ Ķ
Ġå®¶ éĩĮ
åĺ ´
3 8
Ġå¹´ åºķ
Ġçº ł
èĬ ¹
Ġåħī çº¿
Ġç§ĺ ä¹¦
4 5
7 1
ĠæĪĲ æŀľ
Ġé£İ ä¿Ĺ
Ġèİ« æĸ¯ç§ĳ
Ġäºļ è¿Ĳä¼ļ
åįķ ä½į
Ġå®« æ®¿
ĠåĸĦ äºİ
Ġæĺ Į
éĽ ¯
Ġç½ĳ ç«Ļ
Ġèĩª æĪĳ
ĠèĬ Ŀ
ĠèĤ ł
Ġæ¸© å¸¦
æ® ĭ
åª ļ
ĠèĢ¶ ç¨£
å® ½
ĠåĲ Ĭ
ĠæĬ ĳ
æ¡ Ĳ
ĠäºĶ ä»£
æŁ ´
Ġ198 1
Ġç¦» åŃĲ
åº ļ
ä¸Ģ åı·
æĢ ¨
Ġåĩ ¶
æĸĩ å¸Ŀ
ĠçĥŃ çĪ±
éŁ ©
ĠçīĻ é½¿
é¦ ¨
Ġéĺħ è¯»
ĠåĵĪå°Ķ æ»¨
Ġåİ¦ éĹ¨
Ġä»¥ æŃ¤
ĠæĦı åĳ³
ĠéŃĶ æ³ķ
éŁ ¦
ĠèĪªå¤© åĳĺ
Ġçľĭ æĿ¥
ĠèĢģ åŃĲ
Ġä½ĵ æĵį
Ġè¾ĥ ä¸º
ä½ł å¥½
Ġè® ½
Ġå¹³ éĿ¢
ĠåŃĶ éĽĢ
Ġèį¯ çī©
éľ ĸ
Ġåľ¨ åĨħ
ĠæľĢ å¼º
ç¼ º
Ġè ©¹
Ġå¥³ æ¼Ķåĳĺ
çĥ ¦
Ġçģ« çĦ°
ä¸ ĳ
Ġæĸ ĳ
Ġè¿Ĳ æ²³
Ġèľ ľ
Ġç²® é£Ł
e w
Ġä¹Ł å°±æĺ¯è¯´
ĠçĻ¾ å¹´
Ġç§į ç§į
Ġt h
Ġè¯į äºº
Ġå¤§ èµĽ
Ġæµģ åĬ¨
ĠåĢ Ļ
ac k
ĠéĩĬ æĶ¾
ĠæľīåĪ© äºİ
Ġæ³ Ľ
ĠçĽ¸ åºĶ
æł¹ æį®
Ġéħį åĲĪ
ĠåıĻ äºĭ
ĠåįĹ æĺĮ
ĠåĬł éĢŁ
Ġæ±Ł æ¹ĸ
Ġå¤´ åıĳ
ä½ Ĳ
æĹ º
ĠåİĨ æĹ¶
Ġçº¢ åĨĽ
éĵ ĥ
Ġèĵ ¬
Ġæİ ªæĸ½
Ġå¼Ģ è¾Ł
Ġ8 5
ĠçĲĥ åľº
Ġé½Ĳ åĽ½
Ġé¸Ł ç±»
Ġæ² §
Ġå®ģ æ³¢
ĠäºĳåįĹ çľģ
è´ ¸æĺĵ
çİĭ æľĿ
Ġå§ ¿
ĠæĦı è§ģ
Ġåıį æĬĹ
Ġçķ ħ
å¸ ®
Ġé«ĺ æ¸©
Ġéĩĳ åº¸
Ġä¹Ĳ éĺŁ
å» Ĭ
è¿Ļ æĺ¯
ĠæĦ ļ
¤ éħĴ
Ġ 000
åĿ ŀ
Ġé»Ħ å±±
Ġåĳ¨ æģ©æĿ¥
Ġç¬¬äºĮ åįģ
ĠåħŃ åįģ
Ġç» £
Ġæ¼Ķ èīº
Ġç§ĳ å¹»
ĠåĽ¾ ä¹¦
é© ±
c l
Ġä¸Ģ ç±»
åº µ
Ġä¸º ä½ķ
ĠæĹ¶ åĪ»
ĠæľŁ å¾ħ
Ġæ³¢ åħ°
Ġæ¦Ĥ æĭ¬
Ġéĥ½ å¸Ĥ
Ġåįł åľ°
ĠçĬ¶ åĨµ
ĠåįĹæŀģ æ´²
Ġä¸Ģ è§Ĵ
ĠèĤ ©
éĵ ¾
æ¯į èĪ°
åĨ³ èµĽ
Ġçĵ ·
æ±Ł å¸Ĥ
çĸ «
Ġè§Ĥ æµĭ
Ġ17 9
Ġå®¢ ä¸²
Ġç¹ģ æ®ĸ
Ġæī¹ åĪ¤
Ġ ^
éĺ »
Ġå¦ ĥ
Ġç»į åħ´
ç¢ ±
Ġäºº æĢ§
Ġå¤§ åĬĽ
ĠæĻ ĵ
ä¸į èµ·
ĠèĬ ¦
é¹ ĥ
ĠèĪªç©º æ¯įèĪ°
ĠéĹ ²
ĠæĶ¹ éĢł
çĮ ´
Ġå»¶ ç»Ń
i p
Ġå¼ ¯
ç¨ »
çĮ ª
Ġä½ľæĽ² å®¶
Ġæ³ķ åħ°
ĠäºĶ åĽĽ
Ġä¸Ńåįİ æ°ĳåĽ½
Ġåħ¨ æĸ°
on g
ĠåĲ¬ è¯´
ĠåĪļ åĪļ
ä¿ĿæĬ¤ åĮº
Ġä¸Ģ äºº
Ġä¸ĭ åįĪ
Ġæ» ´
Ġä¾Ŀ éĿł
Ġéģ¿ åħį
Ġæ·¡æ°´ æ¹ĸ
å° ¿
Ġå¤§ çĲĨ
ĠåĲį å°Ĩ
ĠæĽ´ å¥½
Ġ197 0
åĲ¾ å°Ķ
ĠæĢ Ĵ
Ġéķ¿ æĺ¥
Ġåı¤ åīĳ
Ġäºļ åĨĽ
ĠæĲ ¬
è¿Ļ ä¸ª
Ġè¿Ķ åĽŀ
Ġå±± è¥¿çľģ
Ġå» ī
Ġçº§ åĪ«
èĥ ģ
ĠæĪĸ æĺ¯
ĠæĢĿ å¿µ
Ġåĭ Ĵ
Ġå§ĭ å»º
ĠæŁ¥ è¯¢
Ġç ¯
å¹´ æĿ¥
Ġåįģ ä¸ĥ
Ġåįł æľī
æł ı
ĠåİŁ æĸĩ
Ġå² Ń
ĠåĪ¶ çīĩ
æ¢ ¨
Ġè± «
ĠèģĮ åĬ¡
Ġå¹³ æĹ¶
Ġè½¬ åıĺ
Ġåĥ §
ĠæĭĴ ç»Ŀ
Ġå¤® è§Ĩ
t he
è± ļ
ĠçĽ´ èĩ³
Ġè¾¹ ç¼ĺ
ĠçıĬ çĳļ
Ġï¼ ĸ
åĿ ¤
éĺ³ åİ¿
Ġåį° åĪ·
å® ´
Ġå°ı èĤł
æĹı èĩªæ²»
ĠçĪ± å¥½
ĠéĻĨ åĨĽ
åĨ° æ´ĭ
a in
Ġæ Ĩ
åĽ½ éĻħ
Ġæĭ ĸ
19 5
ĠçĶ° åĽŃ
Ġçľĭ è¿ĩ
ĠèĬĤ å¥ı
Ġèĳ£ äºĭ
Ġäºº å£«
Ġç»ı çºª
ä¹ĭ æĪĺ
Ġä»¿ ä½Ľ
åĩ ı
Ġä»Ĭ æĹ¥
Ġç»Ļ äºĪ
Ġéģĵ çĲĨ
Ġ17 8
Ġâĳ £
ĠåĲķ å¸ĥ
Ġå®ĩ èĪª
æĿ ı
Ġçľ ī
Ġåīį è¿Ľ
ĠåĢ ¡
Ġå®ĭ æ±Ł
Ġä¸į åıĺ
é¡ ·
Ġä¸Ŀç»¸ ä¹ĭè·¯
l d
Ġä» °
Ġä¸ĸ åįļ
æĮ Ĥ
éħ ¶
Ġç»Ĩ èıĮ
Ġåħĭ éĩĮ
Ġåİ¿ çº§å¸Ĥ
ĠæºĲ äºİ
Ġä¸į è§ģ
Ġéĵ ħ
Ġæīĵ éĢł
ĠéĿĴ éĵľ
å Ĺ
Ġä¸Ģ æŃ¥
ĠäºĮ æĺ¯
çĪ Ĩ
ĠåĨĻ æĪĲ
åİĨ åı²
2 9
t r
èµ ¤
çĤ ¬
Ġæ·± åıĹ
çĮ İ
Ġæ¬¡ æķ°
ĠåŃĹ æ¯į
åıĺ åĮĸ
Ġç«Ł çĦ¶
Ġâĸ ª
Ġä¸Ģ ä¹Ŀ
ĠåĪĨ ç¦»
åĩ Į
Ġçģ ¾
Ġè¦ģ æĺ¯
Ġå¥½ åıĭ
Ġä¼ł åħ¥
Ġé¡ ½
Ġåħĥ å¸ħ
ĠæĢĿ èĢĥ
Ġå¨ ĺ
Ġç»Ŀ å¤§
Ġè¥¿åĮĹ éĥ¨
Ġä¸Ģ è·¯
ĠæĹ¥ å¸¸
éĤ ª
ĠæŀĹ å¿Ĺ
ĠèĢĥ è¯ģ
å ³»
Ġåħ¬ æ°ĳ
ĠåľŁ å£¤
Ġå¤ļ ä¹Ī
Ġæĸ¹ æ¡Ī
æĤ ²
Ġç¨ĭ åºı
Ġæ¿ Ĵ
æľ ±
Ġä¸Ģ æĹ¥
Ġç» ĩ
Ġå¤§ æĪĺ
ĠæĹł æľº
Ġæµ· åºķ
Ġç¥ŀ èĪŁ
æĤ £
å¸Ĥ åľº
Ġä¸¤ æĿ¡
Ġä¾ į
Ġé¦ĸ ä½į
Ġ9 8
é© ¼
ĠçīĮ åŃĲ
åŃ ķ
Ġä¸į å¤Ł
è´ ´
Ġéĺ ¶çº§
Ġè¾ Ĳå°Ħ
ĠæĶ¯ ä»ĺ
ĠåŀĤ çĽ´
Ġä¸ī éĥ¨
Ġå¤º åıĸ
---------------- ----------------
ç ¯
è¿ Ķ
çĲ ¶
ç½Ĺ æ²³
Ġåı· çłģ
ĠæĻ¯ è±¡
Ġæŀ «
éķ¿ åŁİ
çİĭ æĺŁ
ĠçĽ´ è¾ĸå¸Ĥ
Ġè£ħ é¥°
ĠçĬ¶ åħĥ
ĠåºĲ å±±
Ġé¦ĸ é¢Ĩ
ĠæĦı å¢ĥ
ĠåĿĲ èĲ½
Ġæ¡Ĥ æŀĹ
Ġåĳµ åĳµ
â ĳ
ç¥ Ģ
æ¡ ĵ
Ġèĳ ¬
æį Ł
Ġ9 9
ĠèĦ ī
Ġä¹ĥ èĩ³
åįģå¹´ ä»£
Ġä¼ ª
Ġä¸ī æ¬¡
Ġçİ° ä»»
è± «
Ġéĺ¿ éĩĮ
Ġå¥¥æĸ¯ åį¡
å¸ ½
å´ ĸ
4 3
Ġå¤© ä½ĵ
Ġæİ¥ çĿĢ
ĠèĹı æĹı
Ġèĩªæ²» åĮº
Ġä¸Ģ è¯´
å¸ Ĩ
Ġè¯ Ĩ
ĠæľĪ åŃ£
Ġé«ĺ åħ´
Ġæ· ĭ
Ġæľ¬ å±Ĭ
ĠæĦŁ æŁĵ
ĠæĢ§ åĪ«
ĠéĽķ å¡ĳ
Ġæģĭ çĪ±
Ġå¤§ èĦĳ
æĤ Ķ
Ġå¹² çĩ¥
éĨ ĩ
ĠæĦ ¤
Ġä¹Ķ ä¸¹
ĠåĽ´ ç»ķ
Ġåĵ² åŃ¦å®¶
å¥ Ķ
Ġæ¯ Ĺ
Ġåħ¨ å¸Ĥ
æ¯ ı
Ġé¦ĸ å±Ĭ
Ġçģ«è½¦ ç«Ļ
æĹ ±
Ġåĳ ĺ
Ġä¸¤ å²¸
Ġç² Ĵ
Ġç§ĭ å¤©
ĠéĿĴèĹı é«ĺåİŁ
Ġåį Ī
æĪĺ åĽ½
Ġ9 5
ĠåħŃ å¹´
ĠæĦ Ī
è¿ ¦
ĠæľĢ å¹¿
ĠçĶŁ çĲĨ
ĠéĤ ª
Ġ6 3
æĸ° è§ī
Ġå®ļ ä¹ī
ç¦ Ħ
Ġå§ĭ äºİ
Ġä¹¦æ³ķ å®¶
Ġéļ¶ å±ŀ
æĸ°è§ī ç½Ĺ
åº Ĳ
ĠåĲĮ çĽŁ
ĠæŃĮ èĪŀ
æĦ ¤
ĠæĦ ģ
èĢ ¶
Ġèĥ °
Ġè¿Ľè¡Į æĽ²
µ çĲ¶
Ĺ æĺŁ
Ġå¤§ æµ·
åİ ¢
Ġåīį èº«
ç² ¹
åĭ ĭ
Ġå©ļ ç¤¼
é« ĵ
Ġèµ £
ĠçĪ¶ åŃĲ
Ġåĵģ è´¨
Ġä¸Ĭæµ· å¸Ĥ
Ġåĳ½ ä»¤
é¾ Ł
ĠãĢ ı
Ġä¹ĭ ç±»
Ġåıĳ èµ·
Ġå°ı å§Ĳ
Ġå¤ļ æķ°
Ġ4 1
ĠåŃ¦ æ´¾
Ġå¹¿ éĺĶ
Ġçīĩ å°¾
Ġæº¶ è§£
4 8
Ġéĵ Ŀ
Ġè¶ħ è¶Ĭ
Ġä¸īåĽ½ å¿Ĺ
Ġï¼ ¿
ä¸» å¸Ń
Ġåįģ åŃĹ
ĠæĢ» äººåı£
èħ »
Ġè§Ĥ å¿µ
ĠåĲ »
Ġåį°åº¦ å°¼è¥¿äºļ
ĠæľĢ å¿«
Ġä¹ĭ ä½ľ
Ġå¼ł é£ŀ
èĬĤ çĽ®
è¯Ń è¨Ģ
ä» ĵ
Ġå¥½ åĲ¬
ĠéĢļ éģĵ
èħ ¹
ĠåķĨ äºº
ĠæģĲ é¾Ļ
Ġæ²Ł éĢļ
Ġ Ä
Ġåī ¥
é¥ ®
ĠåĦ¿ å¥³
Ġèīºæľ¯ å®¶
ĠæĴ ŀ
çīĻ åĪ©
ĠçŃ¾ çº¦
åħ¨ ä¹¦
ĠåįĹåĮĹ æľĿ
i z
ĠéĶ ħ
è´ ¡
ä¸Ń æĸĩ
Ġä½ĵ éªĮ
Ġå®ī è£ħ
Ġæ» ĩ
on e
Ġå®« å»·
ĠåĨ² çªģ
Ġèķ ´
Ġå·© åĽº
o g
Ġä»İ æĿ¥
ä¹ ĥ
æī §
Ġå°ı å°ı
Ġå¤© æīį
ä¸Ģ å¹´
Ġä¹ĭ éĻħ
ĠçĽ Ł
çĽ Ī
æĬ ķ
æģ Ń
Ġéĥ¨ éķ¿
ĠèĮ Ĥ
Ġç§¦ çİĭ
æĴ Ĵ
ĠèĶ ¬
Ġå®Ī æĬ¤
Ġæ° ®
Ġè¿ĺ ä¼ļ
å°Ķ åħ°
Ġåħī ç»ª
Ġä¾Ŀ æ¬¡
ç»ĵ æŀĦ
Ġä¿® æĶ¹
Ġæ¯« æĹł
Ġå¤© å¤©
Ġä¹Ŀ æľĪ
ĠçĤ¹ åĩ»
Ġï¼ Ĺ
ĠåĮĹ åĨ°æ´ĭ
ĠéĢī ä¸¾
ç¦ §
ĠçĪ· çĪ·
Ġå¼Ģ å¤´
ĠåĿ ĳ
Ġå¸Ĥ èĬ±
ĠæĻ¯ è§Ĥ
ĠèĴĻåı¤ æĹı
Ġæł¡ åĽŃ
Ġå¾ģ æľį
Ļ Į
Ġå¸ ħ
Ġæ°´ åĪĨ
Ġæ¼Ķ ç»İ
è ¥Ħ
Ġ6 9
èĳ µ
Ġé¢ģ å¸ĥ
ä¹ Ļ
æĸ ľ
ĠåĮĹ åįĬçĲĥ
Ġåĵª äºĽ
è´¯ ä¸Ń
b er
Ġå¾ ½
æĢ ľ
Ġåĩº åĲį
ç¬ Ľ
ĠçĤ ¼
Ġè¾¹ å¢ĥ
ĠåĲį äºº
Ġæ· Ģ
è·¯ åĨĽ
ç¼ ĵ
Ġæİ¨ è¿Ľ
Ġè ŀº
è¯ ¸
ä¸į åı¯
ĠåĨħ æ¶µ
Ġå¥½ çľĭ
èİ ¹
å ĦĴ
Ġæľī åĬĽ
Ġèĩ £
Ġæİ ©
Ġè¯Ĺ ä¸Ń
Ġé¡ ¿
ĠåĤ ¬
ĠæĻļ å¹´
Ġçļ ĸ
ĠåĽĽ åĳ¨
Ġåħ« æľĪ
Ġä¸ĸçºª æľ«
Ġä»ħ ä»ħ
Ġä¸Ģ æĸ¹éĿ¢
ĠçŁ³ çģ°
Ġæ¹ĸåįĹ åį«è§Ĩ
ĠåĮĪ çīĻåĪ©
Ġåľ° åŁŁ
Ġæĺİ æ¸ħ
çİĦ å®Ĺ
è§£æĶ¾ åĨĽ
Ġ6 6
Ġçĵ ¶
èĲ Ŀ
Ġç¬¬ä¸Ģæ¬¡ ä¸ĸçķĮå¤§æĪĺ
Ġæ´¾ åĩº
Ġé¥® æĸĻ
Ġèªī ä¸º
Ġèĩª è½¬
Ġåĩº åĵģ
Ġéħ ¿
ĠæŀĹ åĨ²
ĠæŁĲ ç§į
çĶµè§Ĩ åı°
Ġéļ¾ éģĵ
Ġ195 6
Ġé¢ĺ çĽ®
ĠæĹĹ ä¸ĭ
m m
Ġæī ģ
æ° Ľ
Ġæ°´ åĪ©
Ġå¤ĸ æĸĩ
Ġé² į
æ³¢ ç½Ĺ
ĠéĢı éľ²
ĠæŁı æŀĹ
Ġå¾ ªçİ¯
Ġåķ ¤éħĴ
æĭī æĸ¯
ĠèĩªçĦ¶ ä¿ĿæĬ¤åĮº
ĠçĹ ĩ
ĠèĴ¸ æ±½
èļ Ģ
Ġä»ª åĻ¨
¿ çĥĤ
ä¸» æķĻ
Ġä¿Ŀ éļľ
æħ Ī
Ġè£ħ ç½®
Ġè½½ äºº
ĠæĬĴ åıĳ
igh t
3 1
ä¹ ĺ
ä¼ ģ
åŁ Ķ
Ġæ· »
Ġ196 0
ĠèģĶåĲĪ ä¼ļ
Ġå¯Ĩ åĪĩ
Ġæī¬ å·ŀ
Ġåİī å®³
Ġå¤ ķ
ĠåĬł çĽŁ
ĠæĶ¶ å½ķ
Ġå¹³æĸ¹ ç±³
Ġéĩİ çĶŁ
Ġä»ª å¼ı
4 2
Ġéĺ Ĳ
æµ Ļ
æ°ĳ ä¸»
Ġéķ¿ è¾¾
ĠèĤ¡ ä»½
Ġåħ ½
ĠåĪ Ĭ
Ġæµ· åŁŁ
ĠåĲĪ åĲĮ
Ġæľ¨ æĺŁ
Ġå¢ĥ çķĮ
Ġå³ ¨
ĠåŃ£é£İ æ°ĶåĢĻ
è¯ ¦
æī £
ĠçĶŁ æ¶¯
Ġ4 000
Ġä¸ĭ æ¸¸
ĠåĽŀ å½Ĵ
Ġæ¡ Ĳ
Ġé¸ ¿
Ġå²³ é£ŀ
Ġç Ĵ
ĠãĢ İ
Ġè½¦ è¾Ĩ
Ġæľīæľº çī©
ĠãĢ Ĺ
Ġå½ Ŀ
Ġå± ¡
èĬ Ĵ
æ· ®
Ġå°ıè¯´ å®¶
Ġç»Ī æŀģ
Ġä¹¡ æĿĳ
p x
Ġä¸Ģ æĹ¦
æ² Ľ
ĠèĳĹ ç§°
Ġè®¤ çľŁ
ä¸ Ī
Ġäº Ľ
Ġå¤§ æ²³
ĠåĪĨ æķ°
Ġåıª ä¸įè¿ĩ
ĠçĪ± æĸ°è§īç½Ĺ
æº ¢
Ġé£İ éĽ¨
Ġæīĭ ä¸Ń
Ġç¿ ł
Ġé© °
ĠçĹħ æ¯Ĵ
Ġè¥¿åįĹ éĥ¨
.... ....
Ġæĭ ¨
ä¿ ĳ
ĠéĢī é¡¹
Ġè§Ĥ èµı
ĠæĿ¨ å¹Ĥ
Ġå¿ħ è¦ģ
ä¼¯ çī¹
éĵģ è·¯
Ġç±į è´¯
b l
Ġç¾İ ç§°
ĠæŃ¦ åĬŁ
Ġåįİ å¤ı
Ġæ¬¢ ä¹Ĳ
Ġè¾½å®ģ çľģ
æĭ Ľ
ĠæŃ£ å¥½
æĺŁ é©°
Ġåĺ Ľ
Ġä¸ī å³¡
ĠæĬĢ å·§
Ġæĺ¾ çĦ¶
Ġ195 0
Ġæ·Ģ ç²ī
s h
åħ Ķ
æĿ Ń
ĠæĪĲ åĲį
Ġåħ¬ äº¤
Ġçł ģ
å¤į åħ´
ĠæĪĺåĽ½ æĹ¶æľŁ
´ èĿ¶
æĸ ĳ
Ġ17 0
Ġ Ï
è¡ į
èį Ĵ
ĠåĤ ²
ĠæľĢé«ĺ å³°
å¸ ĺ
å¥ ķ
ĠèĬ ³
Ġæľ¬ è´¨
Ġåıį èĢĮ
Ġçģ« æĺŁ
Ġ197 4
Ġåľ°çĲĨ ä½įç½®
ĠæĤī å°¼
åĲ Ł
Ġå¾Ĺ çŁ¥
Ġå²ģ æľĪ
Ġè£ ģ
ĠæĽ² æĬĺ
åĪĽ ä½ľ
Ġç¿ħ èĨĢ
ĠçĶ Ħ
Ġå¼ ĺ
å· ·
å£ ¶
Ġæĥ³ èµ·
Ġä¸Ģ ä»½
ç§ Ĵ
éĺ Ģ
Ġä¸ľ é£İ
ĠåİŁ åĪĽ
ĠåĬł çĥŃ
ĠæĿľ é¹ĥ
Ġæ£Ģ æŁ¥
åĮ Ģ
Ġæł ½
ĠèĪ Į
Ġ10 8
Ġåİ» å¹´
Ġåįİ äºº
Ġèİ² èĬ±
e v
ĠåŃ¦ åİĨ
Ġæ¸ħ æĸ°
ä¾ł ä¼ł
Ġæ¸ Ń
Ġ9 6
Ġæ±ī è¯Ń
éľ ľ
Ġæ¶Ī çģŃ
3 7
ĠæĹ¥ çĽĬ
ĠåĲį å±±
åĽł æŃ¤
åģ ·
ĠæĶ¶ éĽĨ
Ġæľ ¯
ĠèĪ Ł
Ġ201 5
Ġç»Ī å¹´
ar t
i an
u p
Ġå¤© åłĤ
åł ª
Ġ15 00
èĽ ®
Ġ196 6
ĠèĮ¶ åı¶
ĠçĪ µ
Ġæķ´ çĲĨ
ĠéĺŁ åĳĺ
ĠæĥĬ äºº
ç£ Ĭ
Ġåħģ è®¸
Ġå¤§ åĽ½
ĠçĲ µçĲ¶
Ġæ» ĭ
ĠåıĤ æ¼Ķ
Ġèĭ±åĽ½ äºº
ĠéĺŁ ä¼į
å« ©
Ġä¸ĸçķĮ åĨłåĨĽ
Ġåıª å¥½
ç¨ Ģ
ĠæĽ´ æĸ°
ĠæĶ¹ è¿Ľ
æ· »
ĠåĽ¢ ç»ĵ
æĨ ¾
Ġä¸ŀ çĽ¸
ĠåĪĿ æŃ¥
éĻ Ħ
Ġæĭħ å¿ĥ
Ġå§ļ æĺİ
o k
Ġä¿ Ĭ
Ġåħ¨ çľģ
Ġåı¤ éĥ½
ĠçĶ° å¾Ħ
Ġç¦ ¹
ĠçĬ¹ å¤ª
çº µ
Ġä»ĸ äºº
Ġæ¸ ´
ĠåĲĦ æľī
Ġæ¶ ¦
çĶµ è¯Ŀ
Ġè¿ŀ è½½
ç®¡ çĲĨ
Ġåħ¥ éĢī
Ġä¸į ç®Ĺ
Ġå¤§ åİ¦
ä¸º æŃ¢
éĥ¨ éĹ¨
å°Ķ å¤ļ
ĠåŃ¦ ä¼ļ
ĠçĶ· åŃ©
Ġ195 4
Ġå®ģ å¤ı
Ġè¾Ľ äº¥
Ġæĺ ı
åĿ ĳ
Ġå¼ķ åıĳ
å° ¸
çİ ®
Ġé¢ Ĥ
å®ī çŁ³
æĿ¡ ä»¶
èĲ¨ åħĭ
a h
Ġå° ĺ
Ġå»¶ ä¼¸
ç³ Ĭ
Ġå¹¶ ç§°
ĠåĲį èĳĹ
Ġå»º äºİ
Ġ7 8
æ» ĭ
Ġæ¿Ģ çĥĪ
Ġé«ĺ å°Ķ
ĠæŃ£ éĿ¢
Ġåıį å¤į
ĠæŃ¦ æľ¯
Ġä¿¡ åı·
Ġè½° çĤ¸
æĤł ä¹ħ
ĠèıĬ èĬ±
ĠèĶ¬ èıľ
Ġâ Ĺı
ĠæĮ ª
Ġçľĭ çĿĢ
ĠèĢģ èĪį
ĠåıĹ ç²¾
æ¸ħ çħ§
åª Ľ
Ġå²© çŁ³
Ġæľ¬ ç§ĳ
ĠåĨ° å¿ĥ
èĽĭ çĻ½
æĹ ¬
Ġåħ¨ ç§°
Ġåı° åĮĹ
ĠæıŃ éľ²
Ġè¯ºè´Ŀå°Ķ æĸĩåŃ¦å¥ĸ
ĠåĲ¦ åĪĻ
3 9
Ġä¹ĭ æĦı
ĠåĽ½ äº§
é» Ľ
Ġéļĭ æľĿ
ĠæıŃ ç¤º
ä¸ĵ è¾ĳ
d ay
Ġçº º
ĠçīĽ é¡¿
èİ± åĿŀ
Ġä¸Ģ èº«
Ġå¹ ķ
Ġå°ı äºİ
ĠåĮĹ ç¾İ
æĸ¯ åŁº
Ġé©¬ ä¸Ĭ
Ġåī§ åľº
Ġæº ª
ĠåĿļ å¼º
Ġè¸ ¢
Ġçºµ æ¨ª
ĠæļĤ æĹ¶
Ġåİ Ħ
ĠéŁ© ä¿¡
Ġèĵ Ħ
Ġæī§ å¯¼
Ġé¡º åĪ©
çĨĬ çĮ«
Ġä¸» åľº
Ġè¥¿ æ¬§
Ġåħ¨ èº«
ĠåĮĹ æµ·
Ġå¹³ å®ī
Ġä¹¦ ä¸Ń
æ¸Ĭ æĺİ
ĠæŁĵèī² ä½ĵ
Ġä¸Ģ æĬĬ
å® ħ
Ġä¹ĭ åŃĲ
Ġä»¥ åĮĹ
æĭ ĵ
Ġå¼Ģ å¿ĥ
Ġç¬¬ä¸Ģ åı°
Ġè¿ŀç»Ń åī§
æī ®
Ġè¢ Ń
Ġæĭ Ĩ
ĠæŃĮ é¢Ĥ
Ġç¥ŀ éĽķ
Ġæĺ¾ èĳĹ
ĠéģŃ éģĩ
ĠçĽ¸ åıį
åĩ ¿
Ġçİ° æľī
ĠåĿ İ
Ġèī ĺ
ĠéĴ Ļ
al l
ĠéĢģ ç»Ļ
åħ Ĩ
Ġåĳ¨ æĺŁé©°
Ġå½±åĵį åĬĽ
Ġçľ¼ æ³ª
Ġæī§ æĶ¿
Ġå¤º åĨł
Ġå°ģå»º ç¤¾ä¼ļ
Ġæķ¦ çħĮ
ç¡ «
æĺĵ å³°
Ġçĥ ¤
Ġä»Ļ äºº
èķ ī
ĠéĻ¢ æł¡
Ġè®½ åĪº
Ġç§° å¸Ŀ
Ġc pu
Ġå°ĳ éĩı
Ġçī© ç§į
Ġä»» åĳ½
æ¯Ķ èµĽ
ĠéĴĪ å¯¹
ĠãĢ ĸ
ĠåİĨåı² æĤłä¹ħ
Ġä¸ĵ åĪ¶
Ġä½İ äºİ
ĠåĪ» çĶ»
ĠæĦ¿ æľĽ
ĠèĬĻ èĵī
å Ļ
Ġå¤ļ æł·
Ġåįĥ ä¸ĩ
20 14
Ġæľ« æľŁ
æ ©
ä» Ĺ
ĠçĽ Ĭ
æµ ħ
æĽ ¹
Ġä¼ł åĪ°
Ġåįı è°ĥ
Ġä¼¤ å®³
ĠåŃ¤ çĭ¬
Ġä»£è¡¨ä½ľ åĵģ
il l
7 2
Ġæķ ²
ç² ®
Ġæľª èĥ½
Ġç¡® è®¤
Ġ197 2
ĠåĲ Ł
Ġäºº éĢł
èī ¾
Ġéķ¿ å¾ģ
ĠåĲĪ å¹¶
Ġè¿ Ł
ĠåĽĽ æľĪ
æĦı ä¹ī
ĠéĴ ¦
Ġå·´ å°Ķ
ĠéĽĨ ä½ĵ
èĮ «
ĠçķĻ åŃ¦
Ġè¯Ħ ä¸º
Ġå°Ĭ ç§°
Ġè´¢ å¯Į
Ġå°Ŀ è¯ķ
Ġå ¦Ļ
.. .
çĽ® åīį
es s
åĲį èĳĹ
Ġå¹¿ æĴŃ
Ġæ°Ķ æ°Ľ
in e
Ġè·¯ ä¸Ĭ
å¾ĭ å®¾
æĵ ¦
Ġåħ¨ ä¹¦
ĠæĦı å¤ĸ
ĠçľŁ äºº
Ġp h
ĠåĽ½åĨħ å¤ĸ
ĠçĦ ļ
Ġ ____
èĤ ¢
Ġè¯Ĺ éĽĨ
ĠæĹłè®º æĺ¯
r y
Ġå¯¹ åºĶ
ĠçĽ¸ æĢĿ
ĠåĶĲ çİĦå®Ĺ
Ġäº§ çī©
Ġå®£ è¨Ģ
Ġå°Ħ æīĭ
Ġçıł æ±Ł
Ġé¸¦çīĩ æĪĺäºī
Ġåĩº å¤Ħ
Ġåı¤ ä»Ĭ
é©¬ æĭī
å¾· åĽ½
çĳ ¶
ç¬¬ äºĮ
ĠéĴ» çŁ³
Ġåľ£è¯ŀ èĬĤ
Ġæĭ Ķ
Ġä¸¤ ä¾§
ĠåĲį åįķ
ĠåĲĮ åĲį
Ġæ¶ Į
èĮ µ
Ġn g
Ġå¨ģ å»ī
Ġç¡« éħ¸
Ġå°ı å¥³
Ġé«ĺ è¾¾
èħ °
Ġèİ· å¥ĸ
Ġå¥ĸ é¡¹
Ġå°ļ ä¹¦
ĠåĬ¨çĶ» çīĩ
Ġæ¸Ĳ æ¸Ĳ
Ġå®° çĽ¸
Ġçīĩå°¾ æĽ²
Ġé ŀĭ
Ġä¸» æĿĥ
Ġä¸ī äºº
åĪĨ éĴŁ
Ġåħ´ èµ·
æ¦ Ħ
ter n
ĠæĪ· åı£
ĠæĹ¥ è®°
éĥ¨ éĺŁ
åĲĮ æĹ¶
ĠéĹ® ä¸ĸ
ĠåıĹ æ¬¢è¿İ
Ġæ°¨ åŁº
Ġä¸Ģ æł¹
Ġä½ Ĳ
Ġä¸Ń åįĹ
Ġä¸Ń ç§ĭ
çĶ ľ
Ġä¸į æ»¡
Ġæ³ ¼
Ġå±± å³°
ĠéĢļ è®¯
ĠäºĶ å²³
Ġå®¶ äºº
ĠæķĻ ä¼ļ
ĠèŃ¦ å¯Ł
Ġå®ĩèĪª åĳĺ
ĠæĪĳ çĪ±
ĠéĹ ¹
ĠåĢ ļ
Ġåįĥ éĩĳ
Ġæ¸¸ è§Ī
ĠçĤ¹ çĩĥ
Ġè¶³çĲĥ èµĽ
åĲĦ åľ°
Ġä¿Ŀ éĻ©
ĠçŃ¾ ç½²
çŃ ĭ
ĠåĮĹ å¹³
æĻ ´
ĠéĻĨ æ¸¸
Ġçİī ç±³
Ġç²¤ è¯Ń
Ġåľ° è¯´
æĺİ æĺŁ
Ġé»Ħ é¹¤
Ġåģļ åĪ°
ĠåĮħ åĽ´
ĠåĬŀ äºĭ
ĠèĤ¡ ç¥¨
Ġ19 12
Ġèı© èĲ¨
ä¹Ĳ åĻ¨
éª ļ
Ġåģļ æ³ķ
Ġæķ° åŃ¦å®¶
Ġæ» ķ
ĠéĴ¢ éĵģ
Ġæµĵ åº¦
Ġä¸ī çĻ¾
Ġéĵ ¾
Ġä¸ĩ åĲ¨
Ġå¹¿ ä¸º
Ġéľ ľ
èĭ± éĽĦ
å¥¥ è¿Ĳä¼ļ
ĠéĢĶ ä¸Ń
k m
Ġæľī æ²¡æľī
Ġæ² ¸
Ġ7 2
Ġæ°Ķ è´¨
Ġæĳ ĺ
èĽ Ļ
ĠèĿ ´èĿ¶
å°Ķ çī¹
Ġå¥½ å¥½
ĠèĥĮ åĲİ
è¯ µ
ĠæĪĳ è¦ģ
åħ¶ ä¸Ń
ĠåĨĽäºĭ å®¶
Ġéķľ å¤´
Ġé¾ Ł
ĠåİŁ äº§
Ġæį §
Ġç¬¬äºĮ éĥ¨
Ġè¿ľ è¿ľ
åĲī æĢĿ
Ġçº ¤ç»´
Ġå¯¹ æŃ¤
Ġç¥ ¥
Ġåħ± äº§
Ġä¼Ĭ æľĹ
Ġå¨ģ èĥģ
Ġå°ļ æľª
Ġéªĳ å£«
ĠæĸĩåĮĸåĲį åŁİ
é ŀĭ
èī² åĪĹ
ĠæĹł çĸĳ
ĠåİĨ ç»ı
Ġæĸ¹ è¨Ģ
å¤ª ç¥ĸ
Ġ195 5
æıĲ çĲ´
ĠæĿ¥æºĲ äºİ
Ġèı² å¾ĭå®¾
Ġå½¼ æŃ¤
Ġå¥ĭ æĸĹ
Ġ @
Ġç§ Ł
Ġè¿Ľ å£«
Ġå°ĳ æŀĹ
Ġåħ¥ ä¾µ
å® ¡
Ġæĸ° çĶŁ
Ġè¿ĩ æĿ¥
or ld
Ġéĥĳ å·ŀ
ĠèĢ Ĺ
æĿ¥ è¯´
Ġå§ ¬
éĽª èĬ¹
Ġå¥ł åŁº
Ġst yle
Ġæ°¯ åĮĸ
ĠæĪĸ è®¸
Ġæ°Ķ è±¡
ĠçĻ¾ ä¸ĩ
in a
Ġç½Ĺ è´¯ä¸Ń
Ġåĥı æĺ¯
Ġæł¡ éķ¿
Ġç«ŀ æĬĢ
u c
ĠéĻ ĩ
ĠåĬ¨ äºº
Ġéĵ¶ æ²³
Ġçºªå¿µ æĹ¥
ç³ ķ
Ġä¸Ń å¤ĸ
Ġéĺ ®
Ġè¿Ľ åı£
åĢ ¡
Ġåīį æľŁ
Ġæ°ĳ ä¼Ĺ
Ġäºĭ åĬ¡
é£İ æł¼
Ġ193 7
Ġå¸Ī åĤħ
åı ¬
ĠæŃ ¢
Ġèĩª æĿĢ
æº ¯
Ġæ¹¿ æ¶¦
7 3
Ġæŀ Ŀ
ĠæĹł éĶ¡
Ġå½¢ åĬ¿
ĠéĿĴ å±±
æĻ¯ è§Ĥ
Ġåħī åĲĪ
åĪĻ å¾Ĳ
Ġè¯ģ å®ŀ
Ġæ¨¡ çī¹
Ġæĵ ¦
ĠæįŁ å¤±
ik e
Ġå¼Ģå¹ķ å¼ı
Ġä¸Ģ å¥Ĺ
Ġ5 1
åŁİ åĮº
Ġä¹¦ éĻ¢
Ġ196 1
ĠçĽ¸å¯¹ è®º
ĠæĤł ä¹ħ
ĠåĪ ·
Ġç¾İ çļĦ
Ġçī¹ å®ļ
ĠåĨ³ å¿ĥ
äº ©
ĠæĿ ł
ĠæĬ «
æĸ¹ å½¢
ĠåĲĦ ç±»
åģ ¿
Ġä¹¦ ç±į
ĠéĢĤ çĶ¨
b y
Ġä¸Ĭ æ¸¸
Ġåħ¬ åŃĻ
Ġæĭ ĵ
ĠåĪ° å¤Ħ
Ġä»£ çĲĨ
èľ Ģ
Ġè¢ģ ç»į
Ġäº ¨
åĬ «
ĠæĪĲ å¹´
Ġåĩł åįģ
èĩ³ äºİ
Ġè£ ´
Ġåįĵ è¶Ĭ
çķ ı
Ġä¸» æķĻ
Ġä¸¤ èĢħ
Ġå¼ł åĽ½
Ġå°¼ ç½Ĺæ²³
Ġæ´ŀåºŃ æ¹ĸ
Ġä¸ĸåįļ ä¼ļ
Ġåıĳ æİĺ
Ġåħ¬ åħ±
Ġæ°´ éĩı
èĭ ĳ
Ġæ±ī åŃĹ
å°ĳ å¹´
Ġæģ ¨
Ġç¬¬äºĮ åŃ£
Ġæ¹ĸ äºº
Ġåħī è¾ī
Ġè´¢ æĶ¿
Ġä¸Ģ æĸ¹
æĸĩ æĺİ
Ġæ´» æ³¼
Ġåĵª åĦ¿
ĠéĢı æĺİ
Ġäºĭå®ŀ ä¸Ĭ
Ġåħ Ķ
Ġä¼ ½
Ġé» Ķ
Ġä¸ĭ åİ»
Ġè¿ĩ æ¸¡
Ġåįģ åĩł
Ġå·¥ åİĤ
Ġæ·± åİļ
ĠèģĶ æĥ³
Ġä»£è¡¨ æĢ§
æĳ ĩ
Ġæĸĩèīº å¤įåħ´
ç¾² ä¹ĭ
ĠåĮĸåĲĪ çī©
åĲīæĢĿ æ±Ĺ
è ŀº
è¿ Ł
ĠåįĹ æľĿ
ä¸ĭ æ¸¸
ä¾ ¨
åŁİ åİ¿
çī¹ åĭĴ
Ġåħĥ ä»£
è®¾ è®¡
ĠåĽ¾ çīĩ
Ġè¾ĵ åħ¥
Ġåıĭ è°Ĭ
Ħ æ¦Ħ
Ġèµ Ķ
ĠåĲĮ æĥħ
ĠåĬł æ²¹
Ġæīĭ æĮĩ
Ġä¹¦ åĨĻ
Ġå°ģ ç¥ŀ
ĠçĶ³ åĬŀ
Ġåī© ä¸ĭ
æĸ¹ ç±³
Ġå¤© åŃĲ
ĠåĪĨ æīĭ
å² ļ
éĩĳ å±ŀ
Ġç½Ĺ æĸ¯
Ġé¡º æ²»
Ġäºī åıĸ
Ġå¹³ åı°
é«ĺ ç¥ĸ
Ġé² ¸
éĽĨ åĽ¢
Ġåıĸ åĲį
Ġå®ļ å¾ĭ
Ġæ»¡ æĹı
Ġäºī è®®
Ġçĺ ¦
åı ł
åį ´
Ġæ¸ Ĺ
Ġä¸ĸçķĮ çºªå½ķ
Ġä½¿ äºº
èĮ ħ
å®ģ å¸Ĥ
ĠæķĪ åĬĽ
Ġè¿ĳä»£ åı²
Ġä¸Ģ ä¸¾
åİ Į
Ġåħ« è·¯åĨĽ
è¡Ģ ç®¡
æ±½ è½¦
å°ı å¹³
ĠåŁİ åĮº
in d
Ġå¨ ľ
Ġå¥ĩ ä¾łä¼ł
ĠåĤ »
Ġåħį è´¹
4 9
å¹ ½
Ġä¸ĸçķĮ åĲĦåľ°
ĠéĹ ¯
Ġåı¤ è£ħ
Ġçİĭ å®īçŁ³
èĬĤ æĹ¥
ĠæĶ¹ åĸĦ
æ£ ī
Ġç§» æ°ĳ
ĠçĶŁæĢģ ç³»ç»Ł
åı ¦
å®ī å¸Ĥ
Ġæİ¨ è¡Į
Ġä¼Ĭ æĭīåħĭ
è¢ į
ĠèĪ¬ çļĦ
Ġä¼ į
ĠâĹ İ
Ġä¸Ģ æĹ¶
Ġä¸Ģ åº¦
å¸ ľ
Ġæĺ¥ æĻļ
èģĶ éĤ¦
ĠçĲĨ å¿µ
ĠçĥŃ éĩı
Ġè¾¾ å°Ķ
ĠéŁ© æĦĪ
Ġè·¯ æĺĵ
Ġè§Ĩ é¢ĳ
Ġä¼¤ å¿ĥ
Ġç¥¨ æĪ¿
Ġæĸĩ çĮ®
ĠåŁº éĩĳ
Ġçģ« çĤ¬
ĠåıĹ ä¼¤
ĠåħŃ æľĪ
Ġä¸º æŃ¤
Ġæ¬ ¾
ç© ´
èĭ ¹æŀľ
ĠæıĲ åĲį
Ġæ¢ ¨
Ġå¨ ¶
Ġç¬Ķ åĲį
Ġé±¼ ç±»
Ġé»ĳé¾Ļæ±Ł çľģ
ĠåĬ ±
ĠåĲİ èĢħ
Ġè¥¿ é£İ
Ġç¬¬ä¸Ģ é¢Ĺ
åĲ §
Ġä¸º é¦ĸ
æł ĸ
Ġ19 00
ĠèĢģ å¤§
ĠåĨ³ è®®
ĠéŁ³ä¹Ĳ å®¶
Ġç¿ ģ
Ġ194 6
Ġé¹ ħ
ĠçĹ ´
å« ģ
Ġå¤§ æ¡¥
Ġä»¥ èī²åĪĹ
çĽ Ĩ
Ġ8 9
æ¶ ī
çĽ¸ åĲĮ
Ġå®ļ ä½į
ĠçĽĽ è¡Į
å¡ŀ ç½Ĺ
Ġä¸Ģæ®µ æĹ¶éĹ´
Ġå® ´
Ġæĭ ±
Ġå¼ł åŃ¦
Ġä¸ĥ å¤§
ĠåĤ ħ
Ġåįļ è§Ī
ĠæĹ¢ çĦ¶
Ġä¹ĺ åĿĲ
ĠèĴ¸ åıĳ
ĠæĹĭ è½¬
Ġå¤§ åĨĽ
è´ ¡çĮ®
ĠæıĲ åįĩ
ĠåĽŀ åĽ½
åĸ Ĭ
Ġ195 7
Ġç©¿ è¿ĩ
ĠæĪ¿ å±ĭ
Ġçİ© å®¶
Ġè¾Ľäº¥ éĿ©åĳ½
Ġæī ĳ
Ġå¤§ èĩªçĦ¶
Ġè¿Ļ åľº
å¼ ĺ
ĠçĻ½ é©¬
ĠæĹ© å°±
ĠæĿĥ å¨ģ
Ġæ¨¡ ä»¿
åį° åº¦
ĠèĪ° éĺŁ
åĨ ķ
æł ª
Ġä¼ł åªĴ
Ġé£İ åĳ³
Ġc ell
åįĥ éĩĮ
Ġç¢ İ
åĨ° åĨ°
èķ ĥ
o b
æ ¿
Ġä¸Ģ çķª
å®¶ åºĦ
è¡Į æĶ¿
Ġè¾ ¨
æ³ķ éĻ¢
Ġå¼ķ è¿Ľ
Ġ195 9
Ġ196 2
ĠéĿł è¿ĳ
Ġå° ¹
æ´ Ĵ
ĠåĽ½ éĺ²
Ġæ¼Ķåĳĺ è¡¨
ĠåĵĪ åĪ©
åħ¬ åħĥ
Ġå¥½ èİ±åĿŀ
éª Ĺ
Ġåıĸ æ¶Ī
æĴ ŀ
ç»ĵ åĲĪ
y ou
Ġè¯ ı
Ġä¹ĭ åľ°
ĠçĽ¸ çŃī
ä¾ł ä¾£
Ġéļĭ åĶĲ
ĠåİŁåŃĲ å¼¹
Ġæ¡£ æ¡Ī
Ĭ åŃĲ
ĠãĢ ķ
Ġè¾ ©
å»º çŃĳ
Ġè®¿ éĹ®
ĠåĲīç¥¥ çī©
ĠåħīåĲĪ ä½ľçĶ¨
Ġåį Ĵ
å¼ Ħ
è¾ ½
Ġè½ ´
Ġæīĭ è¡¨
ĠçĶ· æĢ§
æŁ ¯
æĦ §
ĠæĲŀ ç¬ĳ
ĠåĨ Ģ
éħ µ
æĹ Ń
ĠåĮĹ å¤§
ĠçŁ £
Ġåı² æĸĻ
Ġéĩĩ è®¿
Ġç¼ħ çĶ¸
¤ æµ·
´ åĦ¿
Ġåı ¹
Ġåľ° éĵģ
Ġæĭ Ł
Ġæ´ ¥
ĠæĿİ æĺĵå³°
Ġæ¹ ¾
Ġäºļ æ¬§
Ġç¡ ħ
Ġåįķ çº¯
Ġè½¬ ç§»
Ġè®º è¯Ń
Ġé¢ģ å¥ĸ
Ġç»ĥ ä¹ł
æĸ Į
ĠæĢ ¨
Ġæł ı
Ġåħ¨ è¯Ĺ
è¥¿ åħ°
Ġçī¹ æĢ§
çī¹ åĪ«
Ġå®£ åĳĬ
Ġ197 6
ĠçīĽ å¥¶
æ¤ İ
ĠèĹ ¤
Ġæ¶Īè´¹ èĢħ
ä¹ ¾
å°ģ å»º
ĠæĪĺ æľ¯
åĬł ç´¢
ĠéĻĨ ç»Ń
Ġåı£ åı·
Ġä½ĵèĤ² åľº
Ġå¤§ äºĭ
ĠæĶ Ģ
å±± å¤§
Ġå±± ä¸Ĭ
ĠåĲĪ çĲĨ
Ġçľ¼ åīį
ĠæŀĦ éĢł
ĠåĽ¢ éĺŁ
Ġä¸ĸ å®¶
Ġæĺİ å¤©
Ġé©¬ å°Ķ
æłĩ åĩĨ
Ġç¼º å°ĳ
çŃ Ĵ
Ġåĩº äºİ
åĩº çīĪ
Ġè¥¿ äºļ
æ¯ «
Ġæİ¨ å¹¿
Ġå© ī
Ġ197 5
Ġä¼łç»Ł èĬĤæĹ¥
Ġå¼Ĥ å¸¸
æĺ Ĩ
çº ±
Ġèĭ¥ å¹²
ĠæĤ£ èĢħ
ĠæĿİå°ı é¾Ļ
Ġæīį åįİ
ĠèĻ «
ĠéĨ Ĵ
ĠèĢ³ æľµ
ĠåĲĮä¸Ģ ä¸ª
Ġåı¦ä¸Ģ æĸ¹éĿ¢
Ġä¸İ åħ¶
å§ ¥
Ġå¦Ĥ åĲĮ
Ġä¸ĭ ä»¤
ĠçĪ± ä¸Ĭ
Ġåħ± åĴĮ
Ġèĭı æł¼åħ°
Ġè§£ çŃĶ
Ġ14 0
Ġï¼ Ŀ
åĩ Ŀ
Ġæĺİ çıł
ĠæŃĮ å£°
åıĳ å±ķ
ĠæĽ¼ èģĶ
Ġä¸ Ľ
Ġä¸Ģ çº¿
Ġå® Ļ
å±± åĮº
Ġæµ ¸
Ġä¸ª ä½ĵ
èĦ Ĭ
æ· ĳ
Ġå¾Ĳ å·ŀ
Ġ194 8
Ġ193 6
åŁĥ åıĬ
æĢ ĸ
Ġåħ¨ ä½ĵ
Ġ5 7
Ġ8 6
Ġå®ŀ çĶ¨
ĠèĢĥ æŁ¥
Ġè¶³ å¤Ł
Ġèħ ¿
Ġè´¹ çĶ¨
Ġæ·® æ²³
é³ į
æľ ĭ
Ġåī Ĭ
Ġåħ¬ è½¬
Ġä¸ĩ åħĥ
ĠéľĢ æ±Ĥ
Ġç¥Ń ç¥Ģ
Ġä¸Ģ åĳ¨
ĠäºĮ çº§
ç¨ ³
Ġè®¾ æĸ½
Ġè§Ĥ éŁ³
æ£ ł
æħ İ
Ġäº¿ åħĥ
Ġç´§ å¼ł
Ġåį± æľº
Ġèħ¾ è®¯
Ġç¥ŀéĽķ ä¾łä¾£
Ġæī ĩ
Ġå¥ Ī
Ġèµ Į
ĠéĤ µ
Ġå½ĵ ä½ľ
èĤ Į
æĹı èĩªæ²»åĮº
ĠéĿ¢ ä¸´
Ġç¨ İ
åŁº æĸ¯åĿ¦
Ġå¥ĩ çī¹
Ġå¤į æ´»
Ġåı¤ ç§°
ĠéĢļ ä¿Ĺ
Ġæī¿ æĭħ
Ġä¹ī åĬ¡
Ġå¤©æĸĩ åŃ¦å®¶
Ġåĵ¥ä¼¦ æ¯Ķäºļ
çķ Ķ
ĠæĬ ¬
Ġè¥¿ æĻĭ
Ġå¾Ī éļ¾
Ġçļĩ å¤ª
Ġæ³¨ éĩį
Ġå°Ĭ éĩį
ĠäºĴ èģĶ
a w
ĠæŃ£ ä¹ī
Ġä¹Ĳ æĽ²
Ġå®¢ æĪ·
Ġåľº æĻ¯
Ġè¯Ŀ åī§
Ġè¯¾ æĸĩ
ĠçĶĺèĤĥ çľģ
ĠåĨĴ éĻ©
Ġä¸į å¤ª
ĠåĽ½ åºĨ
ĠæĬ Ħ
ĠåĲį åı¥
Ġæľ¬ åĲį
ĠçĻ½ äºĳ
Ġm ar
Ġæ¾ Ħ
Ġå§Ĳ å¦¹
Ġèī° èĭ¦
ĠæĿİ æ¸ħçħ§
Ġçİĭ èı²
Ġä½ĵ ä¼ļ
Ġæ´» è·ĥ
Ġæ¿Ģ æĥħ
200 8
ĠæĹł å¥Ī
ĠæĦŁ äºº
Ġçĥ ¹
Ġä¸Ńåħ± ä¸Ńå¤®
b c
Ġæ² ¦
ĠæŃĮ è¿·
çĥ ·
å½ĵ çĦ¶
Ġåħ« å¤§
Ġä¿¡ çĶ¨
Ġçī©çĲĨ åŃ¦
Ġå¹» æĥ³
Ġä½ Ł
åĲį ç§°
Ġå¤© ä¸»æķĻ
ĠåĬł å¿«
ĠåĲĳ åīį
èķ Ĭ
èĬ ¦
Ġåĩ ¸
å¦ į
éģ £
Ġäººæ°ĳ æĶ¿åºľ
Ġ192 8
å¡ŀç½Ĺ éĤ£
ĠçĶŁ èĤĸ
Ġä¾ ł
ĠåĲĪ èĤ¥
Ġæ¯ĶèµĽ é¡¹çĽ®
Ġ25 0
Ġåı¸ æ³ķ
Ġå¾® åįļ
ĠèĲ½ åĲİ
ĠéĴ± å¡ĺ
Ġèµŀ ç¾İ
Ġä¼ĳ æģ¯
¬ éĹ´
ĠéĽ ı
ĠæĹł åı¯
ĠæŃ¦ æĺĮ
Ġèµµ åĽ½
Ġè¯ģ æį®
ĠéŃı åĽ½
æ¾ ľ
Ġåºŀ å¤§
Ġå¯¿ åĳ½
ĠæĮª å¨ģ
3 4
ĠåĬ ²
Ġæŀ ¯
æĮ ¡
çī¹ èī²
ĠéĶ ģ
åĽł æĸ¯åĿ¦
Ġåħµ é©¬
Ġåħ¶ åĲİ
èĪ ±
ĠèĪª æµ·
é¦Ļ æ¸¯
Ġè¾¹ çķĮ
ĠæĢĢ çĸĳ
ĠåĽ½ äºº
æ² §
Ġåĳ¨ è¾¹
Ġå¨ ĥ
Ġå¸ĥ é²ģ
å½ ª
ĠæľĪ åħī
Ġè¿ĺ åİŁ
Ġå·² çŁ¥
æ£ į
Ġè¿ĲåĬ¨ ä¼ļ
Ġç¢ ĺ
Ġè´Ŀ å°Ķ
Ġå°Ħ åĩ»
èļ ģ
ĠéĩįåºĨ å¸Ĥ
Ġæ §
ĠåįĹ ç¾İ
Ġ6 1
Ġå² Ĥ
çº¢ èī²
çª Ĺ
Ġéĺ² å®Ī
Ġå¸ Ń
ĠæĢ» ä½ĵ
Ġå¼ł æĿ°
Ġåħ³ å¿ĥ
åı¸ ä»¤
ĠèµĽ äºĭ
ĠåºŁ éĻ¤
e g
Ġæľ Ĺ
Ġè¯ ī
çº ¶
Ġç« ĸ
çĽ¸ å¦Ĥ
ĠåĲ´ åĽ½
Ġå¤©ä¸ĭ ç¬¬ä¸Ģ
ĠçŁ¿ äº§
Ġæ°¨åŁº éħ¸
Ġçł į
Ġç§ĳ æ¯Ķ
Ġè®¤ åı¯
ĠæĶ¾ åħ¥
ĠæĪĳçĪ± ä½ł
ĠãĢ Ķ
Ġä¸Ģ å£°
åħ ģ
ĠäºĶ æĺŁ
Ġä½ĵ è£ģ
Ġå¤ĸ çķĮ
ĠåĮ» çĸĹ
Ġå¾® ç¬ĳ
Ġæ®ĭ éħ·
Ġå¯Ĵ åĨ·
ĠæĶ¹éĿ© å¼ĢæĶ¾
ĠæľĢ æľī
ĠæľĢ åħĪ
Ġåĩ ¿
Ġå¤© é¾Ļ
Ġé«ĺ æīĭ
ĠåľĨ åĳ¨
ĠåĿĲ åľ¨
ç¾Ĭ ç¾Ĭ
Ġæ© Ħæ¦Ħ
ĠæĪĲ åĲīæĢĿæ±Ĺ
Ġæ²³ åı£
Ġä¸ĵ çĶ¨
ĠæŀĹ åĪĻå¾Ĳ
Ġæĭī èĲ¨
Ġåĩ¡ å°Ķ
ĠæĲº å¸¦
ĠéªĨ é©¼
¿ è½¦
å¸ ķ
Ġæī Ń
Ġé¦ĸ æĴŃ
Ġå®Ļ æĸ¯
ĠæıĲ åĢ¡
Ġè¡Ģ ç®¡
æħ °
Ġè´¢ äº§
Ġæ½ľ èīĩ
Ġåĵºä¹³ åĬ¨çī©
Ġå¹´ ä»½
ĠåĪĨ æĪĲ
Ġç²¾ ç¡®
Ġéª Ĺ
Ġèį· èĬ±
ĠæĿ ı
Ġæĸ° é²ľ
Ġæ°´ ç¨»
Ġæ¬§ ç¾İ
Ġa r
Ġéĺ² å¾¡
åı Ľ
Ġå¤§ èĥĨ
Ġä»¥ ä¸ľ
Ġå¿ Ļ
æĭī å¤«
ĠçĻ½ éĽª
Ġç©º åĨĽ
å¨ģ å¤·
ĠæĬµ æĬĹ
ĠåĤ¨ åŃĺ
Ġè®® ä¼ļ
ĠæľºåĬ¨ è½¦
ĠæĹł æķĮ
Ġå·¦ æīĭ
Ġd na
ĠåĲī ä»ĸ
Ġæł¼ æŀĹ
id u
Ġå·§ å¦Ļ
åĲ Ĳ
ĠéĿ ©
åĲİ æĿ¥
Ġéĺ İ
åįģ äºĶ
åħĭ åĬĽ
èį Ĩ
Ġä¸ĵ åĪ©
é¥ ¶
Ġå°ģ ä¸º
é£ŀ æľº
Ġå¸ĥ å±Ģ
ĠéĢĤ å®ľ
ĠéĤĵ å°ıå¹³
ĠæŃ ¼
ĠæĮ ½
Ġå®¶ ä¸Ń
Ġå¸Ĥ éķ¿
Ġé¹ °
Ġæİ Ģ
æ°´ éĩı
Ġæķħ å®«
å®Ŀ çŁ³
Ġè°¥ åı·
ä¸į åĪ°
Ġæµ· åĨħ
on d
Ġç§¯ ç´¯
ĠéĽĦ ä¼Ł
Ġä¹ī åĭĩ
ĠéĻįæ°´ éĩı
Ġå¥¥æŀĹåĮ¹åħĭè¿ĲåĬ¨ ä¼ļ
8 8
Ġä¸Ń æ¸¸
Ġä¸į è®º
ĠçŃ ĳ
ĠéĤ ±
æ¸ ł
æĻ °
ĠæĢ» åĨ³èµĽ
Ġæīĭ ä¸ĭ
Ġä¸¾ ä¸ĸ
ĠåħŃ ä¸ª
Ġåĭ ¿
Ġæ² ª
Ġåıĳ çĶµ
ĠåİŁ åŀĭ
éª ı
Ġä¿Ŀ åį«
ĠéŁ µ
åı¯ è§ģ
Ġé¥® é£Ł
Ġåģ¶ çĦ¶
Ġéº» çĥ¦
Ġä» Ģ
Ġä¸į å¿ħ
Ġå¤§ éĿ©åĳ½
00 00
Ġå°ı éº¦
Ġç±³ åħ°
Ġå¹½ é»ĺ
Ġé¢ģ åıĳ
Ġç¥Ŀ ç¦ı
s e
ĠæĪĲ äºº
Ġå¥³ çİĭ
Ġéħ ±
Ġå·´ åŁºæĸ¯åĿ¦
Ġåı¶ åŃĲ
Ġé¼ĵ åĬ±
Ġå³¨ çľī
æı ı
ĠçłĶç©¶ æīĢ
é© ¾
Ġåł Ĩ
Ġä¼ĳ éĹ²
ĠéĽķ åĪ»
Ġçĸ¯ çĭĤ
Ġ2 20
Ġç¼ĸ æĽ²
ĠæĬ¥ çº¸
Ġç¤¼ çī©
å´ İ
ĠéĻ¶ æ¸Ĭæĺİ
Ġåıĳ éħµ
ĠæĹł åĲį
Ġå°Ĩ æĿ¥
Ġè®¾ æľī
Ġæ¶Ī èĢĹ
Ġ196 4
Ġå¸Ī èĮĥ
ic h
Ġé¢ĳ çİĩ
Ġæ¸´ æľĽ
å µ
Ġå µ©
åį ī
Ġæĺ ł
ä¸į ä½ı
Ġç¡ ķ
Ġç©º åīį
Ġåįİ å±±
Ġåįł æį®
Ġå© Ĩ
ç¼ĸ çłģ
ĠæľĢ å°ĳ
èĥ½ åĬĽ
Ġç¬¬ä¸Ģ åĲį
Ġåı¤ å·´
æľº åħ³
Ġå·¥ åķĨ
ĠæĽ¹ éĽªèĬ¹
åħĪ çĶŁ
Ġæ¼ ı
ĠæĺĨ ä»ĳ
ĠæĹ¥ åĨħ
ä¸į ä¸Ĭ
Ġéĵ ĥ
Ġç¼ ł
Ġå·´ å¡ŀç½ĹéĤ£
Ġå¨ ĩ
Ġçº¸ å¸ģ
Ġæ© Ļ
Ġé»Ħé¹¤ æ¥¼
Ġèĥ İ
ĠæĪĺ åĲİ
ĠæŃ¦ æĿ¾
Ġåĩł ç§į
ĠæŃ¤ æ¬¡
an t
çĻ¾ å§ĵ
Ġ13 0
Ġä½ķ æĹ¶
ĠåĵĪ èĲ¨åħĭ
ĠåĪĹ å¼º
Ġå¯Ĩ çłģ
Ġçĩĥ æĸĻ
Ġå®¤ åĨħ
åı Ļ
Ġå¹´ åĪĿ
Ġäºº ä¸º
Ġå· ±
çŃ ¾
æ± °
è° ¦
Ġçľĭ æ³ķ
æ¸¸ æĪı
Ġæ» ¨
éĥ ĳ
Ġåıĳæĺİ èĢħ
Ġçħ İ
ĠæģĴ æĺŁ
ĠèĬ¬ åħ°
3 2
ĸ åŃĲ
åĨ ¤
Ġæµ ı
Ġæĸ° è¥¿åħ°
Ġ10 5
å£« æ¯Ķäºļ
Ġç¦ı å·ŀ
Ġ196 8
ĠéĽ· è¾¾
ĠæĪĴ æĮĩ
4 7
ĠåİĨ ç¨ĭ
Ġå¹¿ å·ŀå¸Ĥ
Ġæµģ éĩı
Ġçĭ¬ èĩª
Ġå¸Į çī¹åĭĴ
Ġçī©çĲĨ åŃ¦å®¶
ĠæĳĦ å½±
Ġ----- --
Ġä¸Ģ å±Ĭ
åĨ »
å¼ ¯
è¾ ħ
Ġå°ı åŀĭ
Ġå¥½ æ±ī
Ġèį Ģ
ĠæĦı å¿Ĺ
Ġåĩł å¤©
Ġæĥ³ æ³ķ
Ġå¢ŀ å¤§
Ġãģ ®
Ġä»Ķ ç»Ĩ
èĢ »
Ġåľ° å£³
éĺ ħ
æ¥ ł
Ġåĭ ĥ
ĠéĻµ å¢ĵ
Ġä¹ĭ åĨħ
Ġåº Ĭ
Ġé«ĺ ä½İ
ĠåĲĦ é¡¹
Ġå¤ĸ å½¢
Ġè¿Ĳ èĲ¥
ĠåľŁ è±Ĩ
è´µ å¦ĥ
ĠåĤ¨ éĩı
Ġä¹ ŀ
åŃ¦ æł¡
Ġç¬¬ä¸Ģ èīĺ
Ġåıĺ ä¸º
Ġåıĺ å½¢
éľ ī
Ġå®Ŀ è´Ŀ
Ġå²Ľ ä¸Ĭ
Ġåľº éĿ¢
ĠæĻº åĪ©
ĠåĨ Į
Ġæĺ ¼
Ġæĥ ¯
Ġä»£è¡¨ åĽ¢
ĠÃ ©
å¯ Ĥ
Ġæľ¬ åľŁ
åĬł æĭī
Ġè¯¸ å¤ļ
Ġé¸¡ èĽĭ
Ġè¯ºè´Ŀå°Ķ å¥ĸ
Ġåĩº å¸Ń
æĸĩ ç«ł
Ġä¸¤ åĽ½
Ġçģ ¿çĥĤ
Ġå¾Ĺ åĩº
Ġæµģ æ°´
éĵ º
ç¿ ħ
Ġn a
Ġçĥ ¦
ĠæĻ¯ çī©
Ġ196 9
Ġç¤¾ åĮº
Ġä¸Ģ å¤ľ
ç½ ķ
æ¡ Į
Ġæ¼« éķ¿
Ġå¹¸ è¿Ĳ
ĠçŁ¥è¯Ĩ åĪĨåŃĲ
ĠèĿ ī
Ġä¹īåĭĩ åĨĽ
s o
Ġä¸Ń ä¸ĸçºª
è¿ Ī
Ġå¯ ¸
ä½ľ ä¸º
ä½ľ çī©
Ġçİĭ ç¾²ä¹ĭ
Ġæľ¬ é¢ĺ
ç§ĳ æĬĢ
Ġæ¸© åĴĮ
ĠåĨ² åĩ»
ĠæĬĵ ä½ı
Ġä» ½
åį Ĵ
Ġé«ĺ äºİ
Ġä¸ľ éģĵ
Ġéĺ¿ æ³¢ç½Ĺ
Ġäº§ åľ°
è®¡ ç®Ĺ
Ġæ¨ Ĭ
ĠæĤ² æĥ¨
è¹ Ħ
çļ Ĩ
Ġç»ĵ è®º
èĮ Ħ
ĠåĨ° éĽª
Ġé¼ ł
Ġä¸į æĺĵ
Ġç¬ Ľ
è° ¨
Ġå»º éĥ½
ar d
å¾Ĵ çĶŁ
ĠæĳĨ èĦ±
Ġå«ģ ç»Ļ
Ġèº ²
å·¦ åı³
Ġè´ŀ è§Ĥ
ĠäºĴèģĶ ç½ĳ
æĪ ļ
Ġæ°ĳ ä¿Ĺ
Ġçģ« çĥ§
ĠèµĦ éĩĳ
Ġéģĵ åħī
éĽĨ æĿĥ
ĠåĴ ¬
ĠåĲĽ åŃĲ
Ġç»¼åĲĪ æĢ§
Ġä¸ĺ éĻµ
ĠæŀĹå¿Ĺ é¢ĸ
Ġå¼Ģ éĢļ
Ġç§° ä½ľ
ĠæıĲ éĹ®
ĠåĴ ¨
çĿ ¡
Ġå¨ģ å°¼æĸ¯
Ġå·¥ä¸ļ éĿ©åĳ½
Ġæĺ¥ç§ĭ æĪĺåĽ½
Ġå¤§ çİĭ
Ġå¤§ å¤«
æ±Ł æ¹ĸ
Ġé£İ çŃĿ
æ¶ ¨
Ġä¸Ńå¤® éĽĨæĿĥ
ĠåĩºçīĪ ç¤¾
ĠæģĲ æĢĸ
ĠæĤŁ ç©º
Ġæľī æĦı
Ġæľī è¶£
ä¸Ģ èĪ¬
Ġéķ¿ åŃĲ
Ġæ²¡ ä»Ģä¹Ī
Ġä¼ĺ è´¨
Ġå´ĩ æĭľ
Ġba idu
Ġä¼ļ åĳĺ
Ġä¼ļ è®¡
Ġè¯Ĺ è¯į
Ġåĩł ä½ķ
Ġå±ħ çĦ¶
20 10
ĠæºĲ å¤´
Ġå½© èī²
Ġåģ¶åĥı åī§
èŁ ¹
« èĬ¦
Ġä¸» åĶ±
Ġè´ ¬
å¨ Ł
Ġåįĥ åħĭ
Ġæ³¢ ç½Ĺ
ä¿Ĭ æĿ°
æĩ Ĥ
Ġæ£ī èĬ±
ĠéªĦ åĤ²
r is
Ġäºº åĿĩ
Ġå¤§ çĨĬçĮ«
Ġå¯¹ æĬĹ
Ġæį ī
Ġéĥ Ĭ
Ġè¯¥ åī§
Ġåħ´ å»º
ĠåĲ¯ åĬ¨
Ġå¤¸ å¼ł
ĠèĩŃ æ°§
Ġä¸ «
Ġæ¸© å·ŀ
Ġç»Ĩ èħ»
ĠåĨ° å·Ŀ
Ġæī© å¼ł
éŀ ħ
Ġå° ¸
Ġçĸ ²
Ġæ°¸ ä¹ħ
ĠèĽ ®
Ġé¹ ¤
Ġå°ıæĹ¶ åĢĻ
Ġå¹´è½» äºº
èĢĲ åºµ
Ġæ± ´
Ġä¸ľ åĲ´
Ġåı¤ è¯Ĺ
Ġå¤ĸ åı·
Ġæ²¿ çĶ¨
ĠæĹ¢ æľī
Ġä¸ŃåĽ½äººæ°ĳ è§£æĶ¾åĨĽ
Ġä¸Ń ä¸ľ
Ġå¤§ è¡Ĺ
ĠåĮ ¹
éĿ ¡
Ġæ°´ èĴ¸
Ġä»£ çłģ
éĴ §
ĠèĳĹåĲį ä½ľå®¶
Ġèµµ äºĳ
ĠèĻ ŀ
it y
Ġè ²
Ġä¸ ²
Ġå¾ Ħ
å§ ľ
åĶ ¤
Ġä¸ĩ å¤ļ
éª ¼
Ġçİ¯ ç»ķ
ĠèĪª æ¯į
Ġäº¿ ç¾İåħĥ
æĩ ¿
è¡ĮæĶ¿ åĮº
Ġï¼ ŀ
åĮ ¡
æ°Ķ æ¸©
Ġéģ ®
Ġåı² è¯Ĺ
Ġh tm
Ġæ·ĺ æ±°
Ġæµ·å²¸ çº¿
Ľ èµ·
Ġäº Ī
Ġä¸Ģ ç¾¤
èĢ ķ
ĠéĶ ®
Ġè§Ħ èĮĥ
ĠæķĻèĤ² å®¶
Ġä¸Ĭ å°Ĩ
Ġçī ¢
Ġé¢ ł
äºĭ ä¸ļ
Ġæ¼Ķ æĬĢ
Ġæ±ī ä¹¦
ĠçĲĥ è¿·
ĠæĬ¥ åĲį
6 9
Ġèĩª ä»İ
ĠåĪĨ å¼Ģ
èĪ Ĵ
ĠæĢ» åħ±
ĠèĢģ èĻİ
æ¶ Ĥ
ĠèĮ İ
Ġä¸¾ éĩį
ĠçĶ² éª¨
Ġæĸ° åħ´
ĠèĬ± æł·
éĿĴ å¹´
Ġè£ħ çĶ²
å¥¥ ä¼ļ
æĿĲ æĸĻ
Ġå¤ı æľĿ
Ġçĸ Ĩ
ĠéģĹ æĨ¾
Ġéħ¸ æĢ§
Ġè¥Ħ éĺ³
ĠåĢ¡ å¯¼
åŃ ¤
äºº å¿ĥ
Ġå¤§ éĹ¨
ĠçĪ± åĽłæĸ¯åĿ¦
èĲ §
ĠçĻ½ å¤©
Ġå®ī åºĨ
ĠåĲĳ å¾Ģ
çĳ Ļ
Ġèħ Ĭ
Ġå½Ĵ æĿ¥
Ġèĳ¡èĲĦ ç³ĸ
éĺ¶ æ®µ
Ġæ³ķåħ° è¥¿
ä¼ģ ä¸ļ
åĩºçīĪ ç¤¾
Ġè Ļ¾
Ġé ½¿
Ġå½ ĹæĺŁ
éĢ Ĩ
Ġè° ĵ
èĳ ±
ĠæĶ¶ è§Ĩ
Ġèĥ¡ æŃĮ
ĠæľĽ è¿ľ
ĠéĻ· åħ¥
ĠéĤ ¹
Ġç¥ Ī
ĠæĢ» æķ°
Ġèī ³
ĠçĽ´ çº¿
Ġæį Ĳ
åİĨ å±±å¤§
Ġå»ºçŃĳ çī©
ĠæµģåŁŁ éĿ¢ç§¯
Ġå® ¦
ĠåİŁ èĳĹ
è° ľ
Ġç½ ķ
Ġä¸ĩ çī©
Ġæµģ åħ¥
Ġåį± å®³
çłĶ ç©¶
Ġé©¾é©¶ è¯ģ
Ġå® Ľ
Ġ193 4
Ġè½» æĿ¾
ĠèĨ ľ
Ġéħ ¶
Ġç²¾ åįİ
ĠåķĨ æľĿ
Ġå¼ķ çĶ¨
Ġå¤ı å¨ģå¤·
çĴ §
Ġè§Ĩ è§ī
Ġå£® è§Ĥ
ĠéĨ ĭ
ĠåºĻ åı·
éľĨ éĶĭ
é¢ ĩ
Ġå®ļ éĥ½
åĽŀ å½Ĵ
éĹ» åĲį
Ġå®ľ æĺĮ
å¿į èĢħ
ĠåĴĮ å°ļ
Ġæĸ° ä¸Ģ
Ġç»Ł ç§°
æĴ ¼
äººæ°ĳ ä»£è¡¨å¤§ä¼ļ
ĠéĢģ åĪ«
ĠéĤ®æĶ¿ ç¼ĸçłģ
e x
ĠéĤ£ å¤©
ĠæŃ£ å¦Ĥ
èĥ Ģ
ĠçĪ± å°Ķåħ°
ĠèĪ ħ
ĠæĽ´ åĲį
Ġä½ĵ åĪ¶
ĠåĽŀ æĹı
ĠçĥŃ çĥĪ
çĹ ķ
Ġçº¿ è·¯
Ġè ²Į
Ġå¼Ģ æĭĵ
Ġ... .
éĩĳ é¦Ļ
ĠæŃ» åİ»
Ġç§ĳåŃ¦ æĬĢæľ¯
ĠéĿĻ èĦī
t o
Ġè¯ ĺ
ĠéĻ Į
æł¼ å°Ķ
æ· ³
ĠæĺŁ çĲĥ
ĠåĪĿ å¹´
Ġåħ´ å¥ĭ
æ¾ Ī
ĠæĹ¥åĨħ çĵ¦
ĠéĢ »
Ġæİ ł
Ġæ¯Ľ ç»Ĩ
Ġä¸Ńå¤® çĶµè§Ĩåı°
Ġ193 5
Ġ193 8
Ġä¸Ģ å¤Ħ
Ġä¸Ń å°Ĩ
ĠåİŁ æľī
Ġæķ° åįģ
èĮ ¹
Ġè£ Ĥ
Ġç«ĭ æ³ķ
ĠçĻ» è®°
ĠéŃĶ æľ¯
èĸ ª
Ġå³¡ è°·
Ġèİİ å£«æ¯Ķäºļ
Ġç¾İ åĨĽ
Ġå¤Ħ å¤Ħ
ĠæĢĢ å¿µ
Ġæµ ¦
ĠçĶµ æ±ł
Ġåħ« åįģ
Ġæĳ Ķ
Ġå¼ķ åĬĽ
Ġi i
Ġäº¬ åŁİ
Ġè½» è½»
éĹ ·
Ġ6 2
Ġå¤ª æ¹ĸ
Ġçĭ Ĳ
Ġ9 7
Ġc c
Ġä¼ĺ çĤ¹
ĠçĽĽ å¤§
Ġâĺ Ĩ
Ġä¸ī ä½į
Ġä¸¤ åįĥ
ä¸ĸ åĩ¯
é«ĺ å®Ĺ
ĠæĶ¹ ç§°
èİ ½
åı° å±±
Ġç¡ Ŀ
Ġåħ« å¹´
èĥľ åľ°
Ġè¯ķ é¢ĺ
Ġè±ª åįİ
Ġèµĭ äºĪ
Ġå°ıå¥³ åŃ©
6 1
ĠéĤ ¯
ĠåĮĹ ä¼Ĳ
Ġ6 7
èĥ ĥ
Ġç½ ļ
Ġé»Ħ æµ·
Ġé»Ħ æĺı
Ġç»ĵ æĻ¶
ç¥ŀ è¯Ŀ
ĠåķĨ æłĩ
Ġè½¬ æį¢
Ġ196 3
æĪĳ ä»¬
Ġç¬Ķ ä¸ĭ
Ġåŀĭ åı·
Ġåħ¬ åŃĲ
Ġå¹¶ æľª
Ġå±± åĮº
éĢŁ åº¦
Ġä¼Ĺ äºº
Ġè®º æĸĩ
Ġå·§ åħĭåĬĽ
ĠæľĽè¿ľ éķľ
Ġæ¸ ¤æµ·
Ġæµ· æ²Ł
Ġé»Ħ åľŁ
ĠéĩĮ ç¨ĭ
Ġç¼ ´
Ġæīĭ ç»Ń
éĽ¨ æŀĹ
Ġå®Ŀ çŁ³
Ġ196 5
Ġå´ Ľèµ·
Ġåĭĩ æ°Ķ
Ġä»ĺ åĩº
ĠçĹĩ çĬ¶
æ² ģ
Ġå°ı æıĲçĲ´
Ġå±± æµ·
èļ ķ
Ġin tern
ä» ķ
Ġä¸į æĦ¿
ĠçŃī åĪ°
Ġå½ĵ åĪĿ
Ġæĸ¹ ç¨ĭ
ĠæŁ ±
ĠéĢī æĭĶ
Ġç¬¬ä¸ī ä¸ª
ĠæĳĦ æ°ı
Ġä¸Ń åı¶
Ġç¥ ģ
Ġ9 2
Ġå¤ĸ éĿ¢
ĠåĨį åº¦
Ġè®¤ å®ļ
Ġéģĵ å®¶
ĠåĪĿ ä¸Ń
Ġçİ¯ ä¿Ŀ
Ġåİ¿ åŁİ
ä¸īè§Ĵ æ´²
Ġæ¸ħ æĻ°
ĠæİĴ çĲĥ
Ġåı£ èħĶ
Ġå¤§åŃ¦ çĶŁ
ĠèĲ¥ ä¸ļ
Ġå·¥ç¨ĭ å¸Ī
Ġä¸Ĭ åįĪ
Ġåĩº ä»»
ä¸į äºĨ
Ġé¡ µ
ĠæĸĩåĮĸ éģĹäº§
åħ¨ åĽ½
çļĦ æĺ¯
Ġåįİ ä¸½
Ġ195 3
Ġ22 1
ĠåĮĸåŃ¦ å¼ı
Ġä¸Ģ æĪĺ
Ġå¼ ĥ
ĠçĶŁ æ®ĸ
åįİ å±±
Ġä¾¿ åĪ©
ä¸ĩ éĩĮ
Ġè§ģ äºİ
Ġä¹Ķ æ²»
Ġå²³ éĺ³
Ġæ¡Ĥ èĬ±
Ġå¡ĳ æĸĻ
æĸ ¥
ĠåĽ½ åı·
Ġå¸ Ĳ
æ± ¡
Ġé¦ĸ æī¹
Ġçº¢ æµ·
Ġå¤į åĪ¶
Ġçĳ ¶
Ġé¢Ħ éĺ²
èĴĤ åĨĪ
ĠæĩĤ å¾Ĺ
ĠåĤ£ æĹı
6 4
Ġ #
Ġ Ç
Ġä» ĵ
Ġä¿ ŀ
Ġæĸ° å¹´
åĿ ª
ĠåİĨ æĿ¥
Ġç²¾ åŃĲ
Ġä¸ĥ å¹´
Ġä¹Ĳ ç«ł
æļ ®
Ġ195 2
ĠæĴŃ æĶ¾
Ġè´¯ ç©¿
Ġç¾İ åħĥ
æĮ ļ
Ġæ¡ Į
Ġåįķ åħĥ
Ġå´ ©
Ġçģµ æ´»
ĠåĨ ¶
Ġå¤§ ä½Ľ
ĠçĶµ ç£ģ
èĤ ©
Ġå¹³ æ°ĳ
Ġå¸Ĥ æ°ĳ
Ġæ¸© æ³ī
ĠçłĶ åıĳ
Ġæĭ¿ åĪ°
Ġæĳĩ æ»ļ
Ġåĩ ¹
Ġæ³ķ æĭī
Ġä»£ è°¢
Ġè®² ç©¶
Ġåħµ åĻ¨
Ġå¤ľ æĻļ
å¾ ªçİ¯
Ġéĺ ľ
æĸ¯ åĬł
èĥ ¤
Ġç¥ŀ åľ£
ĠåĲĪ ç§°
Ġäº¤ æ±ĩ
Ġåįİ è¯Ń
Ġä¸īåįģ åħŃ
Ġç¢± æĢ§
Ġè½°çĤ¸ æľº
è ¦Ĩ
Ġä¸Ģ ä¸ĩ
Ġå¤§ æī¹
Ġå°ı é¾Ļ
Ġè¥¿ æ´ĭ
Ġå¤© åºľ
ç¥ ¸
ĠåĶĲ å®ĭ
Ġæ´» åĬĽ
Ġæ£ ķ
ĠçĶŁäº§ åĬĽ
Ġå¹² åĩĢ
200 9
Ġå°Ħ éĽķ
Ġæ¡¥ æ¢ģ
Ġè±Ĩ èħĲ
Ġ19 11
Ġå± ¯
ĠåĪĨ å°ģ
Ġæ°´ æĻ¶
Ġæ²¡ æĥ³
Ġåīį éĶĭ
çĥ Ľ
ĠéĢł çº¸
Ġæµĵ éĥģ
Ġåħ° å·ŀ
Ġå¤©çĦ¶ æ°Ķ
Ġä¸ Ļ
Ġä¸» ä¹ī
ĠåĽĽ éĿ¢
ĠéĢļ çŁ¥
éģ Ń
Ġå®Ŀ å®Ŀ
ĠæĤ² ä¼¤
Ġç¹ģ åįİ
Ġâ Ĵ
Ġå¹ ħ
èµ ł
Ġ8 7
åı¯ ä¹Ĳ
Ġæ°¢ æ°§åĮĸ
ĠæĻ¶ ä½ĵ
Ġ19 20
ĠçĶŁ åīį
ĠåįĹ éĺ³
Ġè¶ ģ
Ġå¸¸ è§Ħ
Ġç»Ĩ èĬĤ
ĠçĬ¯ ç½ª
e p
l y
Ġä¸į æĢķ
Ġå¾Ī å°ı
ĠéĹ °
Ġå¹³ è¡Į
Ġçļĩ å®«
åħµ æ³ķ
ĠèĪª è¡Į
ĠçĪ±æĥħ æķħäºĭ
Ġéĺ´ éĺ³
å µ©
ĠçĽ ²
Ġæŀ £
Ġæ³ķ å®ļ
Ġè®° è¿°
Ġæ¶Ī éĻ¤
Ġæł¹æį® åľ°
Ġåº¦ åģĩ
Ġå·® åĪ«
Ġ192 7
ĠéĢĢ åĩº
Ġå¥¶ å¥¶
ĠèĤĿ èĦı
ĠæĴ° åĨĻ
Ġä¾Ŀ æĹ§
å·´ é»İ
èģ ĺ
Ġç¥ĸ çĪ¶
çª Ħ
Ġ36 0
çī¹åĪ« è¡ĮæĶ¿åĮº
9 8
ī èİī
å¤ļ æķ°
ĠæĮĩ ç¤º
Ġç¥ŀ ä»Ļ
ĠèĬ± çĶŁ
ĠæĬĢ èĥ½
Ġå¹² éĥ¨
åĳ¨ å¹´
ĠåŃĲ å¥³
Ġf r
åĥ ļ
ĠåĩĮ æĻ¨
Ġå½Ŀ æĹı
åį ¦
Ġæĸ° åŀĭ
ĠæĿİ æ¸Ĭ
å°ı å®Ŀ
Ġçī¹ ç§į
ĠæĦŁ è°¢
Ġæ½ ĩ
æ¦ ´
9 5
è´ «
ĠæĿİ éĢ
Ġçľĭ èµ·æĿ¥
ĠåŃ¦ ç§ĳ
Ġçļĩ ä¸Ĭ
Ġäºĭ è¿¹
ĠåıĤ è§Ĥ
Ġåıĸ ç»ı
Ġç¼ĸ åı·
Ġåįĩ é«ĺ
Ġæĺ¥ç§ĭ æĹ¶æľŁ
ĠçĿ¡ è§ī
Ġè´µå·ŀ çľģ
Ġéĥģ éĩĳé¦Ļ
Ġè ªĵ
Ġåľ° åĲį
çĽ Ĵ
ĠæĹł æĥħ
Ġè½ ©
åĵģ çīĮ
Ġéĩĳ åĪļ
ĠåĮĹäº¬ å¤§åŃ¦
å¤ª å¹³
åŁº äºļ
Ġé¾Ļ éĹ¨
ĠåĴ ½
ĠæĬķ ç¥¨
ĠæĤ¨ å¥½
Ġè¢ģ ä¸ĸåĩ¯
Ġäºº æł¼
Ġå¸ Ĩ
Ġåıĳ åħī
åĬ¨ åĬĽ
éĩĮ äºļ
Ġè¯´ åĩº
Ġéļ ľ
ç¥ŀ ç»ı
Ġèº« ä¸ĸ
Ġäº¤ å¾Ģ
Ġäºļ åİĨå±±å¤§
ĠæĿ¨ è¿ĩ
Ġä¹Ĳ åºľ
ç¦» åŃĲ
Ġæł¼ å±Ģ
è¿ŀ æĿ°
Ġæĸ½ èĢĲåºµ
Ġä¸į åĪ©
Ġå¥ ¸
Ġåı¯ çĶ¨
Ġåħ¨ å¹´
Ġæ°´ ç³»
è· ¨
ĠéĩĮ æµ·
åķ ¸
ĠæĿĢ äºº
Ġèĭ±éĽĦ ä¼ł
Ġèµı æŀĲ
Ġå¯ĵ è¨Ģ
ĠåĲīæŀĹ çľģ
6 5
Ġï ¿
åī Ĭ
Ġèĩª ä¿¡
ĠåĪĨ äº«
Ġéķ¿ æĹ¶éĹ´
Ġä¸ĭ è¾ĸ
Ġæ³ķ è¯Ń
Ġæ¸ħ åįİ
æ¶ ©
Ġè¿ĳ å¹´æĿ¥
ĠåĵĪ åĵĪ
å·² æľī
Ġèĳ£äºĭ éķ¿
ĠæīĢ çĶ¨
ĠåĨĻ éģĵ
åı° æ¹¾
Ġå£° ä¼ĺ
Ġè¯į æĽ²
ç²¾ ç¥ŀ
ĠçĬ¹ å¦Ĥ
ĠåĽ½åľŁ éĿ¢ç§¯
ĠåĲİ è£Ķ
Ġç¬¬ä¸Ģ åº§
Ġè¿Ľ ç¨ĭ
Ġéĺ¿ å§Ĩ
Ġb o
Ġè¶³ ä»¥
ĠåĿļ å®ļ
Ġæ¾³ æ´²
äºº å¤§
ĠæĿ Ł
ĠæĹ¶ åħī
ĠçĶŁ å¹³
æģ Ĳ
Ġæľ¬ åľ°
å¦Ĥ æŃ¤
on t
å®Ŀ çİī
ĠåĬŁ æķĪ
ĠâĹ Ĩ
ĠéļĨ éĩį
4 1
u d
ä¸º äºĨ
Ġä¸» å³°
æĬ ļ
Ġå¥½ è¯Ħ
ĠåħĪ ç§¦
Ġäº¤ ç»Ļ
ĠåĮħ è£ħ
Ġç¬¬äºĮ ä½į
Ġç¼ĸ å¹´
Ġåħ¥ æµ·
ĠçķĻ åľ¨
Ġå®ŀéªĮ å®¤
Ġç¦ģ æŃ¢
ĠåĲĲ èķĥ
Ġä¸ľ äºļ
Ġä¸¤ éĥ¨
Ġ6 000
Ġè¯Ĺ æĸĩ
Ġä½¿ èĢħ
Ġç§ĳ çłĶ
Ġç§¦ æ±ī
Ġa m
Ġæĳ §
Ġä» ĩ
Ġæł ĸ
ĠçĽ¸ ç»ĵåĲĪ
Ġå¥³ åıĭ
ĠåŁİ éķĩ
Ġé¡ ¶çº§
Ġæ°¸ æģĴ
Ġè·Ł çĿĢ
ĠåĿĩ åĮĢ
Ġéķ ¶
Ġæ°´èĴ¸ æ°Ķ
e f
è ¥
ĠåĲ ĵ
Ġä¸Ń åĮ»
ç§ Ł
ĠåŃ ķ
åĵ Ń
ĠåĪĨ åĮĸ
Ġéĩį éĺ³
ĠéĿ¢ åĲĳ
ĠçĻ¾ éĩĮ
ĠçĽĽ ä¸ĸ
Ġè°¢ éľĨéĶĭ
Ġä¸į åģľ
å¤§ æ¡¥
Ġåı¯ è¾¾
Ġåĩº åİ»
Ġc n
ĠéĹ¨ æĪ·
ĠçĶ² åįĪ
ĠèĦ± ç¦»
ĠæħĪ ç¦§
Ġå±ł èĭı
Ġçģ«å½± å¿įèĢħ
ç ĻĮ
Ġè¿Ļ ç¯ĩ
è° ģ
æĢ§ è´¨
Ġåĸ Ĭ
Ġçł ĸ
Ġåĩł æ¬¡
Ġa p
Ġå·¥ä½ľ äººåĳĺ
Ġåľ£ åľ°
Ġæ²» çĲĨ
ĠæĹģ è¾¹
ĠåĴ¨ è¯¢
Ġä¸ŃåĽ½ éĺŁ
è¾ ¨
Ġæ°´ ä¸Ĭ
Ġå»º å®ī
ĠèĦ į
Ġé²ģ åĽ½
Ġå®¢ è¿Ĳ
Ġå´ĩ é«ĺ
Ġå¡ŀ å°Ķ
ĠçĥŃå¸¦ éĽ¨æŀĹ
Ġè´ ¡
ĠæĹł æ¯Ķ
Ġè¿Ľ èĢĮ
Ġèµ· ä¼ı
ĠèĤ ļ
Ġæ¬§ äºļ
Ġä¸ĥ ä¸ª
Ġä¾¿ å®ľ
ç¢ Ĺ
ĠæİĴ åĩº
Ġæ¯Ľ ä¸»å¸Ń
Ġo h
Ġæµİ åħ¬
Ġæ·±åľ³ å¸Ĥ
ä¸ ķ
Ġå¥¥ çī¹
Ġè§Ĥ çľĭ
Ġå¨ģ å°Ķ
ĠæŃ¥ è¡Į
ä¼Ĭ å£«
ĠçĨŁ çŁ¥
Ġåıĭ å¥½
ĠåŃĻåŃĲ åħµæ³ķ
é©¬æĭī éĽħ
è®¡ç®Ĺ æľº
6 2
ĠæīĢ ä½ľ
Ġè®° ä½ı
çĵ £
ĠåľĨ å½¢
Ġåĺī å®¾
Ġéģ¥ è¿ľ
Ġåľ° çĭ±
Ġé«ĺ æł¡
Ġæµģ æ´¾
Ġè± ¹
Ġå¤Ħ åľ¨
Ġéª Ĥ
Ġæ·» åĬł
Ġä¸Ń æĹ¥
ç» Ĵ
å¥ ¹
Ġæĺ Ķ
ä¸Ń å¤ĸ
éĩĮ æľ¨
æ°´ å¹³
éĻµ åħ°
ĠæŀĦ æĢĿ
ĠçĹħ äºº
Ġå¼Ģåıĳ åĮº
Ġåħį çĸ«
åĬ ª
æŃ ĩ
çĲ ¦
ĠéĤ ¢
ĠåĪĨ éħį
Ġè° ľ
åħĭ å°Ķ
Ġå®ī å¾ĴçĶŁ
Ġæµģ æµª
Ġæķ° çĽ®
ĠçĻ¾ èĬ±
ĠåĢ¾ åĲĳ
Ġæ¤į æłĳ
Ġå¥ ¢
èĲ Į
Ġæĺİ äº®
ĠåĨĽ åĽ¢
Ġç»Ħ å»º
ĠéĶ »
an s
ĠéģĹ è¿¹
Ġéª¨ éª¼
Ġå£ģ çĶ»
ĠæĦıåĳ³ çĿĢ
ĠæĿł æĿĨ
i o
ĠéĢļ è¡Į
ĠçĻ¾ åĲĪ
ĠèĩªçĦ¶ çķĮ
æī¿ æģ©
èĸ ¯
ä¸ Ľ
Ġä¸Ń äºļ
Ġå¯¹ è¯Ŀ
Ġä¸ī å¤©
Ġæĸ° åįİ
ĠåĶ ®
ĠçĻ½ è¯Ŀ
èĮ ľ
èģĶ åĨĽ
Ġç»Ĩèĥŀ æł¸
Ġæī¿ è¯º
Ġå»¶ éķ¿
ĠéŁ¦ å°ıå®Ŀ
p s
Ġæ ħ§
Ġä¸Ģ æ¬¾
Ġå°± è¯»
å½ ¤
Ġé«ĺ æ½®
Ġç¬¬ä¸Ģ ä»»
Ġä»İ æľª
Ġå°Ĩ ä¼ļ
Ġéĩĳ èī²
å¸ĥ å°Ķ
Ġa c
Ġåį° å°¼
Ġç§į æĹı
èĭ± åĽ½
Ġ193 9
Ġåĥ µ
Ġæ¯Ĺ éĤ»
ĠåĨ »
ĠæĹ¥ æľĪ
æĸ¯ æĭīå¤«
Ġå¹³ å®ļ
èĦ Ĩ
Ġåįı åĬ©
ĠçĿ ¿
Ġæµĭ å®ļ
æĤ¨ å¥½
ĠéĢ» è¾ĳ
Ġ un
æŀ «
Ġä¸ī åĪĨ
èĪ ħ
éķ¿ æ±Ł
ä¸į è§ģ
ĠçĶ¨ éĢĶ
Ġè¯Ĺ ä½ľ
ĠæıĲ åīį
æ¢ ĵ
çĶµ æ±ł
åł ¤
æŃ¦ åĻ¨
ĠçīĽ èĤī
ĠéĶĢ éĩı
ĠèĬŃ èķ¾
ĠæĹłæľº çĽĲ
ĠæĪ Ĭ
Ġå¼ ĵ
è¾ ķ
ĠéĿ ĸ
Ġå¤ª å®Ĺ
è¶ ĭ
Ġæģ Ń
ĠåĲĳ ä¸Ĭ
ç¡ ķ
Ġç½Ĺ çº³
ĠæŀĹ ä¿ĬæĿ°
ĠæĹ© å¹´
Ġæ¬¡ å¹´
ĠæĹ¥ çħ§
Ġå°ı èĭ¹æŀľ
Ġä¸ī åįĥ
Ġç»ı åº¦
æ¶ ħ
Ġç§¦ åĨĽ
Ġèģļ å±ħ
åį §
Ġé£İ æĥħ
Ġä¸ĵ èĳĹ
ĠçĽ´ åįĩ
ĠæĶ¾ å¤§
Ġç»§ ä½į
èĢĥ è¯ķ
Ġåŀ Ħ
Ġçºº ç»ĩ
ĠåĪ ®
ĠæĹł ç©·
Ġéĩį å¤į
Ġå¥½ å¤ļ
Ġ194 7
Ġå¯Į è´µ
Ġæł¡ åĮº
ĠçĽĳ çĿ£
7 7
Ġä¸Ĭ æ¼Ķ
å¾ Ī
å§ ¨
Ġä¸ĸçķĮ è¶³çĲĥ
Ġé«ĺ å¤§
ĠæĹł æīĢ
Ġé¥ ²
Ġä¸ĩ åįĥ
ĠæıĲ ç¤º
Ġæ¶ µ
Ġåħ¨åĽ½ äººæ°ĳä»£è¡¨å¤§ä¼ļ
Ġå¤Ħ å¥³
Ġè½¬ æĬĺ
Ġç¬¬ä¸ī æ¬¡
Ġå®¢ äºº
åįı ä¼ļ
åŃ ľ
Ġå· ¢
Ġå¤© å±±
çĤ Ļ
çİ° ä»£
Ġå¤ª ä¸Ĭ
ĠèĳĹåĲį è¯Ĺäºº
Ġçĸ ¼
Ġä¿® çŃĳ
ĠæĹĹ å¸ľ
Ġé¢ĳ éģĵ
å°Ķ å¾·
Ġç¥ŀ åĨľ
åĻ¨ å®ĺ
Ġæ¢¦ å¹»
Ġåº¦ è¿ĩ
ĠæĢĢ åŃķ
Ġæµĵ åİļ
Ġç§ĺ é²ģ
Ġå¯ĵ æĦı
Ġ ì
Ġæĸ Ļ
Ġä¸Ģä¸ª æľĪ
æµ· æĭĶ
æ¹ Ľ
Ġåįķ æĽ²
åĥı å¥ĸ
Ġä¸įä»ħ ä»ħ
Ġçħ¤ çĤŃ
Ġèī° éļ¾
Ġæĸĩçī© ä¿ĿæĬ¤
Ġå¯ Ł
å°Ķ æĳ©
è° £
æģ ¼
ĠåĲĪ æ³ķ
åı¤ ä»£
ĠåĮº åĪĨ
Ġæī¹ è¯Ħ
ĠéĦ ±
Ġåħ¶ éĹ´
Ġè¥¿ æĸ½
Ġç¬¬ä¸Ģ æŀļ
Ġéĩĳ é¹°
èİ ĵ
Ġåįķ çĭ¬
Ġåı³ æīĭ
Ġå½© èĻ¹
Ġä¸Ģ ä¸Ģ
Ġä¸į è¡Į
Ġåıĳ éŁ³
ĠèĢĮ æĿ¥
Ġå°ı åĵģ
Ġéķ¿ å¯¿
ä¸½ èİİ
ĠæĶ¶ å¤į
Ġè¶³çĲĥ è¿ĲåĬ¨
Ġç«¯ åįĪ
Ġéļľ ç¢į
å ļ
Ġå± ¥
Ġåħ¨ æĸĩ
Ġçİ° å·²
æĹ¥ æľ¬
ç¤ ģ
Ġæľ¬ èįī
Ġæ·± æĥħ
Ġæ³ķåĽ½ äºº
Ġä¹Ĳ è§Ĥ
æĺ¥ ç§ĭ
ĠçĻ» åŁº
ĠåĪĹ ä¼ł
Ġå¤« å¦ĩ
ĠåĲ¯ èĴĻ
Ġè¿ģ éĥ½
Ġå¾Ĵ å¼Ł
Ġåħĥå®µ èĬĤ
ĠåĬŀäºĭ å¤Ħ
å® °
å¼ ĵ
Ġå§ ¨
Ġç¦» éªļ
ä»· åĢ¼
Ġåı¶ ç»¿
æĻº æ·±
Ġåģĩ å¦Ĥ
Ġå¯º åºĻ
ĠåĨľæ°ĳ èµ·ä¹ī
Ġéľĩ æĴ¼
Ġz h
Ġä¸īéĥ¨ æĽ²
æ»ĭ çĹħ
Ġä¸į èĤ¯
Ġè¿Ļ ä»¶
ĠæĹ¶ ç©º
é¢ ł
Ġçİ° ä»Ĭ
ĠåĨĽ å®ĺ
Ġä»Ģä¹Ī æł·
ĠåıĮ æīĭ
ĠæĻ® åıĬ
ç»´ åŁĥ
åħ« æĪĴ
Ġå¸ĥ æĭī
or g
© çĽ®
Ġä¹ĭ æŃĮ
Ġä»¥ å¾Ģ
èĤ ¿
åı¤ è¿¹
Ġçº¦ å®ļ
ĠåĮ» èį¯
ĠæĿ° åħĭ
ĠæģĲ æĢķ
Ġå±Ĥ æ¬¡
Ġé³ Ħ
Ġä»£è¨Ģ äºº
çĲ ¼
Ġä¸» æīĵ
Ġæ¸ Ŀ
ĠåįĹ æĸ¯æĭīå¤«
Ġå½ĵ å¤©
Ġ16 8
åħ« éĥ¨
Ġç«ĭ ä½ĵ
Ġ192 1
Ġè·³ èĪŀ
æ£® æŀĹ
Ġç½Ĺé©¬ å¸ĿåĽ½
Ġåħ±äº§ ä¸»ä¹ī
Ġåįļè§Ī ä¼ļ
å¯ ħ
Ġç»ı çº¿
Ġé£İ æµģ
ĠæĶ¶ ç¼©
ç£ ·
Ġå»¶ å®ī
Ġæ¯« ä¸į
Ġä¾ĭ åŃĲ
Ġä¸»æķĻ ç»ĥ
ĠåľĨåĳ¨ çİĩ
è Ļ½
è¡ ·
Ġæ°´ åŁŁ
Ġå² Ĺ
Ġæīĭ æŀª
ĠæŁ ¬
Ġç¼ĸ åĨĻ
ä¼¦ æķ¦
ç§Ģ åħ¨
Ġé¢ĳ ç¹ģ
Ġba ike
ĠåĽ¾ä¹¦ é¦Ĩ
é»Ľ çİī
Ġåħµé©¬ ä¿ĳ
ĠæľĢ ç¾İ
ĠæĹ¶ è¾°
Ġä»İ ä¸Ń
Ġ7 00
ĠåĿ ¡
Ġé»ĳ äºº
Ġè¾ĵ åĩº
æĭ³ éģĵ
æ²« èĭ¥
ĠçĪ¬ è¡Į
ĠåĨ¥ çİĭæĺŁ
m an
Ġè¿ĺ çıł
Ġæ³ķ è¥¿æĸ¯
æº ĥ
éĴ ¦
ĠéĢī ç§Ģ
Ġä¿¡ å¥ī
Ġç¡® åĪĩ
Ġ194 0
èķ ´
µ ç§°
Ġåľ° ä¸»
Ġè¥¿ åİ¢
Ġéĩĳ éĻµ
ĠæĦŁ æħ¨
æ» ¤
ĠçŁ³ å®¶åºĦ
Ġå¹³åĿĩ æ°Ķæ¸©
Ġç´§ å¯Ĩ
b o
Ġå¤§ çīĩ
ĠåįĹ å²¸
åĨĽ åĮº
Ġèĭ± åĭĩ
Ġç® Ń
é¦ĸ åħĪ
åĸ ī
ä¿¡ æģ¯
Ġå¥ĸ çīĮ
ĠèĲ¥åħ» çī©è´¨
Ġè´Ń çī©
Ġæ¿Ĵ ä¸´
Ġä¸Ģ åĲĮ
æ³ £
çĦ¶ èĢĮ
Ġå¹¶ äºİ
èĤ Ŀ
ĠæľĿ éĺ³
é¹ Ĭ
Ġç¼ĸ åĪ¶
éĨ ĭ
Ġæĳ© æĵ¦
Ġä¸Ń æĺ¯
Ġå¤§ äºº
åİ ī
è´ ¾
Ġèµ ĸ
Ġä¸ī çº§
Ġé¥ ¥
Ġå¤ĸ è¡¨
Ġ12 00
Ġé»ĳ æµ·
Ġèı ł
Ġçĸ Ĺ
Ġèģļ éĽĨ
çĤĻ äººåı£
r a
Ġä¸į è®©
åŃ¦ ä½į
æĺİ åĽŃ
æ±Ł åł°
Ġçī¹ äº§
Ġåĸ »
ç¼ Ŀ
ĠåįĬ ä¸ª
Ġè®¾è®¡ å¸Ī
ĠæŃ¥ æŃ¥
Ġè°Ī åĪ¤
ĠæĬĳ åĪ¶
æĪ Į
ĠèĢ Ģ
ä¸» è¦ģ
æľ¬ å±±
ĠçĶµ åİĭ
Ġæ°´ æ·±
Ġåıį åĬ¨
Ġåĸľ é©¬æĭīéĽħ
Ġå·¨ æĺŁ
ĠèģĮ ä½į
ĠæĿ° ä½ľ
ĠæĪ¿ åŃĲ
å§ĵ åĲį
ĠèĦį çĤĻäººåı£
Ġä¸Ĭ ç½ĳ
è® ¼
ĠåįĹ ä¸ĭ
Ġæµ· è´¼
Ġåı¤ æĹ¶
ĠåĢ º
ĠèĬ± åįī
ç§ĳ åŃ¦éĻ¢
è¿ª çĶŁ
Ġæ© ¡
Ġç§Ģ ä¸½
åħĦ å¼Ł
Ġåıĳ çĲĥ
åŁ ł
Ġåħ¨ éĽĨ
Ġèĳ ±
ĠæĢ» éĩı
æį ī
æł¼ æł¼
ç¾ ŀ
é¸ ¯
Ġéª Į
æĴ °
èĿ ł
æª ¬
Ġé»ĺ é»ĺ
q u
º åŃĲ
çī ¢
Ġåİ ¨
Ġåľ° è²Į
Ġå¤© çĶŁ
Ġéķ¿ å¾Ĺ
ä¹ĭ éĹ´
å¤Ħ çĲĨ
Ġç²¾ å¿ĥ
Ġåħī èį£
Ġæļ ®
Ġäº¬ å¸Ī
Ġé¢Ħ éĢī
Ġäºļé©¬ éĢĬ
Ġæ²¡æĥ³ åĪ°
Ġä¸» ç®¡
ĠåŁ Ł
Ġæŀ ¢
ĠæĢ» ä¹ĭ
ĠåĲĪ éĢĤ
ĠçĲĥ æĺŁ
Ġé¸ ³
Ġä¹Ŀ å¹´
Ġ197 1
Ġæİ¢ æµĭ
Ġæĺ Ĥ
å¤ĸ çº¿
ĠæĮĩ æķ°
ĠåĨį ä¹Ł
ç§ĳ æĸĩ
Ġåľ£ ç»ı
Ġçºª å¹´
Ġæ°¸ ä¹Ĳ
Ġç¬ĳ åĤ²
æĪĪ å°Ķ
Ġéŀ Ń
Ġæł½ åŁ¹
Ġç¬ ¼
Ġ19 18
ĠæĹ¥ åīį
è¾ ©
æĥ §
é¢ Ī
Ġåı¤ åŁĥåıĬ
åĬł åĵ¥
æ· ¹
Ġä¸ĸçķĮæĿ¯ èµĽ
Ġå¤´ ä¸Ĭ
Ġå¥ĸ æĿ¯
Ġåħµ åĬĽ
èĨ ı
ĠçĹħ éĢĿ
ĠçĽĳ çĭ±
è¾Ī åŃĲ
Ġè©¹ å§Ĩæĸ¯
ĠæİĢ èµ·
åĲ »
ĠæĪĲ æľ¬
ĠåįĹ å²³
ĠçĶµ åĬ¨
Ġè· Į
Ġåīį èĢħ
Ġç§° èµŀ
Ġæķħ æĦı
Ġæ±Ł å±±
ĠæĢĿ ç»´
Ġæ¸¸ åĩ»
èĿ ī
ad ding
Ġèĩª ä¸»
ĠåĬ¨ èĦī
Ġåħ¨åĽ½ äººå¤§
Ġç´« èī²
Ġå£® ä¸½
Ġåı¥ åŃĲ
Ġè¡¡ å±±
Ġè¿Ļ é¡¹
Ġéĩĳ æĽ²
Ġå¤ª çĻ½
Ġç§° è°ĵ
æ¶ Į
çĮ ¿
ĠåĴ ±
Ġè½¦ åŀĭ
Ġ193 2
Ġæ²ī æ·Ģ
ĠæĮ¯ åĬ¨
Ġæ ª
Ġä¸Ģ åı·
Ġä¸Ń è¯´
Ġä¸į æľ½
å° §
Ġä¸º æŃ¢
Ġå°ı å¿ĥ
Ġæ´ ģ
ĠåĪĺ å½»
Ġæ²³ ä¸ľ
ĠéĿĴ èĽĻ
ĠæŃ» ç¥ŀ
ĠæĿ¨ è´µå¦ĥ
Ġåı¦ æľī
Ġæł¼ éĻµåħ°
åŀ Ĥ
ation al
ĠèĦĬ æ¤İ
Ġå¤ ·
Ġè¡ ¬
æ¸ ´
Ġè´ ®
ĠåĮĹ æ´ĭ
Ġå®ŀ è´¨
Ġèĩ³ æŃ¤
Ġæ±Ł ä¸ľ
Ġè§Ĥ åħī
Ġä¾¿ äºİ
Ġä¸»é¢ĺ æŃĮ
Ġå¸ĮèħĬ ç¥ŀè¯Ŀ
æµ© çī¹
ĠçĮª åħ«æĪĴ
Ġæ¨± èĬ±
Ġå®³ æĢķ
· åŃĲ
ĠæĹ º
Ġ7 1
ĠäºĶ è¨Ģ
Ġå·¨ èĳĹ
ĠèĻİ éĹ¨
ĠæĿ¯ èµĽ
Ġæ¬§éĺ³ ä¿®
ç§ĳæĸĩ ç»Ħç»ĩ
Ġâ ī
Ġä¸Ń ä¸ĭæ¸¸
ĠçŃī åĽ½
Ġé©¬ å¾·éĩĮ
Ġæ» ©
Ġåı² åŃ¦
Ġé©± éĢĲ
Ġåı¯ æĢľ
Ġæĺ µç§°
ĠæĪĲ ä¹¦
Ġå¤ļ åħ¬éĩĮ
Ġå¤ª å®Ī
Ġ9 1
Ġ11 5
èĳ £
ĠçŁ ®
å¤ª çĭ¼
ĠåįĬ å¾Ħ
ĠçĻ» åľº
ĠèĮĥ åĨ°åĨ°
æľĹ çİĽ
Ġä¸Ģé¦ĸ æŃĮ
ĠæĴ¤ éĶĢ
ç©Ĩ æľĹçİĽ
Ġæ¢µ èĴĤåĨĪ
æģº å¨ģ
0 3
ĠåĬ «
ĠæĬ ¹
å½ ¼
ĠæĻ ı
Ġæı ¡
Ġåħĥ æĹ¦
ĠæĤ Ħ
Ġå°ĳ å°Ĩ
Ġé¢Ĩ åħĪ
Ġå¼ķ å¯¼
Ġæ°¸ ä¸į
Ļ èĿł
åĬ £
åº Ł
Ġ19 19
Ġç¬¬ä¸Ģ æĿ¡
ĠæĹł ä¸į
ĠåĨħ æľī
ĠæĬĬ æı¡
Ġæ¼Ķ ä¹ī
å¯¼ å¼¹
Ġè½¬ åĬ¨
Ġèµ° è¿ĩ
Ġè¯Ń æĸĩ
Ġ197 7
ĠåĪĹ å®ģ
Ġè¯· æ±Ĥ
Ġçħ§ é¡¾
ĠåĢŁ åĬ©
Ġåĺī åħ´
Ġçŀ ¬éĹ´
Ġï¼ ľ
Ġå¤ļ éĥ¨
Ġå¦Ĥ æĿ¥
ĠåĲį ä¹ī
ĠåŁİ å¢Ļ
Ġèĭı ä¼Ĭå£«
åĸ Ģ
æµ© çĦ¶
Ġtv b
Ġé©° åĲį
ĠåĮĹ éŃı
ĠåĲį è¨Ģ
Ġè¯Ĺ ç¯ĩ
ĠäºĮ çĻ¾
ĠæĪĺ è´¥
Ġæ³ķ éĻ¢
ĠæĶ¶ åĪ°
Ġèİ·å¾Ĺ èĢħ
Ġäººçī© å½¢è±¡
Ġå¥ĩ æĢª
Ġ193 1
Ġå¤©é¾Ļ åħ«éĥ¨
åĲ ķ
Ġå¤§ åĶĲ
èĻ ı
Ġç®Ģ çĽ´
Ġåħ¥ åħ³
ĠåŃĺ åĤ¨
æ³Ĭ å°Ķ
d p
äº ¨
æĭ ±
Ġæ´ Ĵ
Ġæı ´
ä¿ ±
ĠåĲĦ å¤§
å½± åĵį
ĠçĶ· çĶŁ
Ġäº¤ åıī
Ġçĭ¬ åħ·
ĠéŃ Ĥ
ä¼¯ åĪ©äºļ
Ġäº² åĪĩ
Ġè¯º åŁºäºļ
ed ding
Ġèĩ´ åĬĽ
è¸ ı
ĠæĤł æĤł
Ġå µ
Ġä¸Ģ ç»Ħ
Ġå¤§ æ±Ł
Ġä¸ĭ è½¦
Ġè½ ¿è½¦
Ġé¦ĸ å¸Ń
ĠæĮĩ åįĹ
å®ī åİ¿
Ġs p
èĥľ åĪ©
Ġä¸Ńå¤® åĨĽ
ĠæŁĲ ä¸ª
Ġè¡Ĺ å¤´
Ġå¹³åĿĩ æµ·æĭĶ
ĠéĢĢ å½¹
Ġæľī å®³
ĠåĽ½ ç«ĭ
Ġå¤ļ ä¸º
Ġå¼Ģ èĬ±
Ġéĩĳ éĴ±
Ġåĳ¨ æľĿ
æ£ µ
æĹł å¿Į
Ġä¼ĺ è¶Ĭ
æļ Ĥ
Ġ197 3
Ġæ´ª ç§Ģåħ¨
ĠéģŃ åıĹ
Ġå®ı ä¼Ł
Ġç½ķ è§ģ
6 7
Ġå¤§ ä¸º
æ° ¨
ĠæĽ Ŀ
é¢ Ħ
ĠåĶ ¤
ĠéĿĴ å°ĳå¹´
éĤ Ģ
Ġå§ĭ ç¥ĸ
Ġv s
ĠæŁ¥ çľĭ
ĠåĽ½æ°ĳ æĶ¿åºľ
éĶ¦ èµĽ
éŀ ł
ĠåĪ ł
ç¥ ł
ä¸į å¾Ĺ
æĢ§ æ°ĶåĢĻ
Ġæ¼Ķ åĮĸ
æŁ Ħ
Ġåı² åŃ¦å®¶
ĠçĮ ¿
çº¢ åĨĽ
Ġåħ¸ èĮĥ
Ġæ¯Ľç»Ĩ è¡Ģç®¡
ä¼ ª
èµ ´
Ġåı¤ è¿¹
ä¹ĭ å¤Ħ
Ġå¤ĸ è§Ĥ
éĢļ éī´
Ġæ»¡ æ´²
ĠäºĮåįģ å¹´
Ġçıį æĥľ
Ġé¢ĦéĢī èµĽ
åĮ Ļ
Ġè¥¿ çĵľ
Ġè´ ¦
Ġ7 9
æ²» éĢļéī´
èĲ ±
an k
æĮĩ æĮ¥
ĠéļĲ å±ħ
ĠèľĢ åĽ½
Ġæ·® åįĹ
ĠåĨħèĴĻåı¤ èĩªæ²»åĮº
Ġå¥´éļ¶ åĪ¶
Ġè¿ĺçıł æł¼æł¼
į éģ¥
Ġå° ī
Ġäºº å¿ĥ
Ġå¤§ å²Ľ
Ġå¤§ éĹ¹
ĠåĲį åĪĹ
å·ŀ æ¡¥
Ġæ· ³
èĥ ¸
ä¼ł ä½ĵ
ĠæŃ¦ æŀĹ
èĮ İ
èģĶ åĲĪ
ĠèĦ ¾
ĠåŃĹ åŃĲ
ĠçĻ» é«ĺ
Ġå£® æĹı
Ġä¸ľéģĵ ä¸»
è Ļ¾
Ġå¤§ è¡ĮæĺŁ
Ġä¿ ¯
Ġå¼Ģ åħĥ
Ġç¬¬ä¸Ģ æī¹
ĠäºĮ èĢħ
ĠåŃ¦ åĲį
Ġæº ¥
Ġæ³¨ éĩĬ
åį« çĶŁ
Ġæİ¢ éĻ©
Ġè·¨ è¶Ĭ
ĠåŁ¹ è®Ń
ĠéĿĴæµ· çľģ
ä¸ ŀ
Ġè¯ Ľ
Ġæĥ ©
ĠäºĮ åı·
ĠèĮ «
Ġå¯¼ å¸Ī
Ġæ²ī é»ĺ
as s
Ġæĥħäºº èĬĤ
Ġæĺ¨ å¤©
åı¦ å¤ĸ
åĽŀå½Ĵ çº¿
ĠéĦ± éĺ³
Ġç» ļ
Ġå· ħ
Ġä¸» è§Ĥ
Ġéķ¿ çº¦
Ġéĩį å»º
Ġè· ĥ
Ġå¥³ ä¸»
ĠæĿİ è¿ŀæĿ°
Ġè¿ĩ äºİ
Ġåīį æıĲ
Ġå¥½ åĩł
äº§ ä¸ļ
Ġèį ¡
ĠèµĦ æ²»éĢļéī´
ĠåĨ³ æĪĺ
èģ Ĭ
ic k
ou n
èĹ »
Ġè¹ ´
æ¯ķ ä¸ļ
Ġäºļé©¬ åŃĻ
Ġåı¯ éĿł
Ġè¥¿ å¾·
å¤ļ å½©
ĠåĿ ł
Ġä¸ĩ ä½Ļ
ç»Ł æ²»
ĠçĶ· æ¼Ķåĳĺ
Ġm p
Ġä¼ĺ èī¯
ĠçĻ» å±±
ac h
Ġå¾ĭ å¸Ī
ĠåĢļ å¤©
Ġè ĺ
Ġå±± é¡¶
ĠéĢļ åı²
ĠæĮĩ å®ļ
ç¼ Ģ
æ¯Ķ ä¼¦
Ġå®ļ å±ħ
ĠåľŁ æĺŁ
Ġ196 7
ĠæĻº èĥ½
Ġè¿· äºº
Ġçģ¾ éļ¾
ä¸Ńæĸĩ åĲį
a e
n o
å· ¨
Ġä¸ĸ ç§°
Ġéķ¿ éĢĶ
Ġæ¸ħ æ°´
Ġåĵª ä¸Ģ
Ġèµµ æľ¬å±±
æĪ· æĻĵ
Ġçº¿ ç´¢
Ġæī© å±ķ
Ġéķ ģ
Ġæ£Ģ éªĮ
Ġä¸ĩå¹³æĸ¹ ç±³
Ġå¨ĥ å¨ĥ
ĠåĽ ļ
Ġå¼Ģ ç«¯
ä¿ ©
è´¨ éĩı
Ġçī© åĵģ
ĠçŃĶ åºĶ
Ġéĺ¶ æ¢¯
Ġ189 6
Ġèī¾ æ»ĭçĹħ
åĸ» æĪ·æĻĵ
å£® æĹıèĩªæ²»åĮº
Ġè¾¾å°Ķ æĸĩ
èĻ½ çĦ¶
Ġå¹ Ĥ
Ġ8 000
éĴ ¾
ĠåĮĸ å¦Ĩ
åįķ æīĵ
Ġè§ģ éĿ¢
æĸĹ äºī
çħ ¤
Ġç¬ĳåĤ² æ±Łæ¹ĸ
ĠåĪ° æĿ¥
äºĭ åıĺ
æĮ ī
å®ī éĹ¨
Ġåģļ æĪĲ
Ġå®¶ åĸ»æĪ·æĻĵ
ĠéĢī ä¸Ń
Ġèµ° è¿Ľ
æĴ ĳ
200 6
Ġä½ĵèĤ² è¿ĲåĬ¨
Ġå¤ķ éĺ³
ĠåŀĦ æĸŃ
Ġä¸Ģ è§Ī
ĠåĪĺ æģºå¨ģ
Ġæİ¨ å´ĩ
ĠæĶ¾ åģĩ
Ġå¼ķ äºº
Ġç¿ ¼
ĠåĽ¾ å½¢
Ġå© ´åĦ¿
Ġå¾Ģ äºĭ
Ġè·³ æ°´
Ġèĭ¦ éļ¾
ĠéĽķ åĥı
ĠéĻĮ çĶŁ
¦ å¨¥
Ġè¾ °
ä½ĵ ç³»
ç¥ ¯
æŃ¤ ä¹ĭ
éĩĳ å±±
ĠåĨį è§ģ
ĠéĶ Į
åģ ı
Ġç»´ åĲ¾å°Ķ
Ġçıł ç©ĨæľĹçİĽ
a a
Ġå¾ Į
Ġåħ¬ åİĨ
Ġåįģ ä¸ĩ
ĠåĲ´ æī¿æģ©
Ġèµ° ä¸Ĭ
Ġç»Ŀ ä¸į
ĠæĿľ çī§
ĠèĶ º
ĠæĶ» æīĵ
Ġèĩªè¡Į è½¦
Ġè²Į ä¼¼
c om
ç ĥ¨
Ġåľ¨ çº¿
æµ ´
ĠçĽ¸ éĤ»
Ġæĸ¹ éĴĪ
Ġåķ ¥
Ġçķ ľ
ĠåĮĸ èº«
Ġåī§ ç»Ħ
èĨ ĳ
ĠæıŃ å¼Ģ
åŀ Ĵ
ĠçĶľ èľľ
ĠåıĶ åıĶ
Ġäºº ç§į
Ġè¯Ĺ åľ£
æŀľ æłĳ
ĠæĴ ķ
Ġä½ķ å¤Ħ
çŁ ĽçĽ¾
Ġä¼ģ åĽ¾
Ġæµĭ è¯ķ
æ°ĳä¸» ä¸»ä¹ī
Ġäº¨ åĪ©
Ġæĺ¼ å¤ľ
© åºı
Ġä¸Ģ èĤ¡
Ġe n
åİ ĺ
Ġä¸ĩ ç¾İåħĥ
éĹ¨ åħ³
èģĶ èµĽ
å®Ĺ åħĥ
Ġåĵ² çĲĨ
ĠæĲŃ æ¡£
åŁĶ å¯¨
Ġä» ķ
å¾ ª
Ġæīĵ ç®Ĺ
Ġæ¬§ åħĥ
åĲĳ ä¸ľ
ĠåķĨ åĬ¡
Ġéļı æĹ¶
Ġæľª çŁ¥
èģ ª
Ġ23 0
Ġäºī è®º
ĠåĴ¸ éĺ³
ĠæİĴè¡Į æ¦ľ
Ġé¡½ å¼º
ĠæĪ ļ
æĪ ª
æł ĭ
ĠæĹł èī²
Ġå¹³ å¸¸
ĠåĬ¨ æ¤įçī©
Ġç²¾ ç¾İ
Ġé²ģ æĻºæ·±
Ġåį¡ åį¡
ĠéĢı è¿ĩ
Ġç§ģ äºº
Ġéĺ¿å§Ĩ æĸ¯çī¹
6 3
Ġäºº äºº
Ġä»¥ è¥¿
Ġåı¯ åı£
Ġéĺ Ķ
å¾· éķĩ
Ġæ´» åŃĹ
Ġé© ´
u g
ĠåĽ½ æľī
ç½ ©
ĠéĢļ å¾Ģ
Ġå·¥ åĨľ
åĬł å°Ķ
Ġå½± åŃĲ
ç² ±
Ġäº² äºº
ĠèĽ Ļ
Ġåį¡ å°Ķ
æŀ¢ çº½
Ġè¾£ æ¤Ĵ
å¥ķ è¿ħ
Ġåħ ®
Ġä¸Ģ æŀļ
Ġä¸Ń æ¯Ĵ
Ġ19 17
åįģ åħŃ
Ġåħ³ ä¸Ń
ĠèĤ ²
å½ĵ æĹ¶
Ġæ¸¸ äºº
ĠæĶ¶ è´Ń
Ġf e
ĠåľĨ æĺİåĽŃ
Ġæłĳ æľ¨
å« £
´éļ ı
çĳĻ æ²³
æ³ »
ĠæĢ» åı¸ä»¤
æº ī
ĠæĽ¾ ä»»
Ġå®ĺ åĲı
Ġå¾·åĽ½ äºº
Ġè¾ħ åĬ©
ĠèĬĿ åĬłåĵ¥
åŃĲ æ¤įçī©
æ³ķ åĽ½
Ġå¥³ æŃĮæīĭ
Ġçł Ĥ
Ġåī§ ç§į
Ġå¦ ¥
Ġå®Ŀ è´µ
ĠéĹ¨ ç¥¨
Ġæ¸©åº¦ è®¡
Ġæ³ī å·ŀ
Ġå®ĺæĸ¹ è¯Ńè¨Ģ
ĠéĢĶ å¾Ħ
Ġé»İ æĺİ
p l
Ġæ² ¼
Ġæ² ¾
Ġå¸ ½åŃĲ
Ġæĸ° çīĪ
ĠåĽĽ ç§į
å© ´
Ġæ´» çĿĢ
Ġå¹² æĹ±
ĠæĿĢ å®³
ĠæĽ² çĽ®
Ġæĸ¯ çī¹
Ġæī¿ å¾·
Ġåľº åľ°
Ġçģµ æĦŁ
Ġåİĭ ç¼©
Ġå¥Ķ è·ĳ
Ġåµ© å±±
ĠçĶ²éª¨ æĸĩ
ķ å¤´
Ġå¤§ è´¥
Ġå°ı åĲĥ
Ġåº ļ
Ġå·¥ èµĦ
Ġèį Ķ
ä¸ī å¹´
ĠèĤ ĥ
Ġç¬¬äºĮ å¹´
çĭ ¸
Ġæĳ ¸
æĦŁ æĥħ
Ġâĳ ¤
Ġç£ ħ
Ġå°¼ æ³Ĭå°Ķ
Ġå®¡ ç¾İ
Ġéĺµ å®¹
Ġå° §
Ġå¤§ åĲĮ
å¥ İ
æ² ¿
Ġçº ¹
Ġ9 60
Ġæ¢ ¯
ĠæĶ¹ èī¯
Ġå¦Ĥæŀľ è¯´
Ġå¢ŀ å¤ļ
ĠæĿĢ æīĭ
ĠéĥŃ æ²«èĭ¥
Ġå±ł é¾Ļ
Ġå¼łåŃ¦ åıĭ
Ġå¤§ åĲį
Ġè¥¿ éĹ¨
Ġ... ...
Ġèĳ «èĬ¦
çī¹ åħ°
Ġç²¾ çģµ
Ġå¸¦ åĬ¨
Ġä¹Ŀ å·ŀ
Ġä¾Ŀ æ³ķ
ĠåŃĲ åŃĻ
Ġæº¶ äºİ
çĬ ģ
Ġ190 4
ĠåºĦ åŃĲ
Ġæģĭ äºº
ĠèĢķ åľ°
Ġå¤§ æĺİ
Ġä¸» æµģ
Ġæ± Ŀ
Ġé«ĺ å°ļ
Ġæĥ ¹
ĠäºĮ æ¬¡
Ġ11 9
ĠæĺŁ ç©º
Ġè£ ¸
Ġå·¨ äºº
Ġ21 0
ĠçŁŃ æļĤ
ç¦ ½
Ġæĳ© å°Ķ
ĠæĪĲåĳĺ åĽ½
Ġæķ£æĸĩ éĽĨ
ĠæįŁ å®³
Ġä¾µçķ¥ èĢħ
Ġå½¼ å¾Ĺ
èµ Ĳ
ä¸į å¼Ģ
Ġè¿ĩ æ»¤
ĠæĮĩ æłĩ
Ġ192 4
æĶ¹ éĿ©
Ġäº¤çķĮ å¤Ħ
Ġçłģ å¤´
ĠèĶº çĽ¸å¦Ĥ
7 4
Ġä¸Ń å°ı
æĢ İ
Ġéķ¿ çĶŁ
Ġæ°´ åºĵ
åĪ© çķ¥
Ġè¿Ĳ ç®Ĺ
Ġ12 5
Ġæ±ī ä¸Ń
Ġå®Ŀ çİī
Ġ194 1
Ġè¾½ éĺĶ
ĠèĿ ĻèĿł
ĠèĻļ æŀĦ
å¿ħ çĥĪ
2 000
Ġä¸Ģ æĸĩ
ä¸Ń åįİ
Ġä¿ ±
æĸ¹ æ³ķ
Ġå¤ĸ ä¼ł
çł ĸ
ĠæŀĹ é»Ľçİī
Ġä¹Ĳ åĿĽ
Ġåį¡ æĭī
ĠåĹ ľ
Ġåī² æį®
Ġé«ĺå°Ķ åŁº
æľ Ķ
Ġä¸Ģ æµģ
Ġä¸į å°½
æĭ ¾
æµ ĳ
Ġå¤ļ ç±³
Ġæĸ° å¨ĺ
Ġçļĩ é©¬
Ġå¿ĥ çĽ®
Ġæ±ī åŁİ
Ġé² ¨
Ġè·Ł éļı
Ġç©¿ çĿĢ
Ġåİĭ è¿«
Ġè®® è®º
é¼İ è®°
ĠèħĲ è´¥
Ġåħ ĳ
Ġä¸Ģ è¡Į
å¼ ¥
æ² Ĥ
ĠæĻ ¨
ĠåĨħ å¤ĸ
Ġå¹³ åĩ¡
ĠåĲĦ çľģ
æķĻ ç§ĳæĸĩç»Ħç»ĩ
ç½Ĺ é©¬
Ġn o
ĠæĽ¹ ä¸ķ
ĠæĻ® éĻĢ
ç¬¬ å®ī
ç¦ º
Ġä¾§ éĿ¢
Ġéĥ½ æ±Łåł°
Ġéķ¿ æ²³
ĠæŃ£ ç»Ł
Ġå¤ª å¤ļ
ĠçĪ± è¿ªçĶŁ
Ġ8 1
æĻ¯ çĤ¹
Ġç»Ł å¸ħ
åºĶ è¯¥
Ġäº² çĪ±
Ġè¯· éĹ®
ĠèĶ ·
Ġç©Ĩ æĸ¯
åįĳ æĸ¯
Ġå¬ ´
ĠæµģæĺŁ éĽ¨
Ġcc tv
ĠçĽ´åįĩ æľº
a i
ĠéĤ ¦
Ġåħ¬ é¡·
ĠçĶµ çģ¯
äºĶ å¹´
Ġèīº åĲį
200 3
Ġåįĩ çº§
ĠæĦ ī
Ġè§£æĶ¾ åĨĽ
ä¾Ŀ æŀĹ
Ġå½ĵä»Ĭ ä¸ĸçķĮ
ĠæŁ¬ åŁĶå¯¨
Ġæº¥ ä»ª
r i
ç Ģĳ
Ġè ŀ
Ġåı ł
Ġå¹´ çºª
ĠçĪ ª
ĠçĽ¸ æľº
Ġæ°´ æĺŁ
ĠèĬ Ĵ
Ġå¼ł è¡¡
Ġå¤į åħ´
Ġç¥ĸ å¸Ī
Ġ193 3
ĠåįģäºĮ æľĪ
æĹıèĩªæ²» å·ŀ
ĠæĮ £
ĠæŃ¦ å¸Ŀ
ĠçĲĨ äºĭ
ĠåŃĻ èĨĳ
Ġç»Ī èº«
ĠåĲĥ é¥Ń
Ġå®Ĺ æĹ¨
Ġèİ« æīİ
Ġéľ¸ çİĭ
Ġå°º å¯¸
9 6
Ġé ŀį
Ġä¸Ģ åı£
Ġä¸Ń è¥¿
Ġä¹ĭ ç¥ŀ
ĠæĹ¥ ä¸º
Ġä¿ ĺ
ĠæĿ¥ åİĨ
Ġä¾ Ħ
Ġè¡¨ æĥħ
åĨħ äºļ
åİŁ åĽł
ĠæĶ¿ åıĺ
ĠåħĪ é©±
ĠçĽ´ å°Ħ
çŁ¥ è¯Ĩ
Ġæ¸¸ è®°
Ġæ¥ ·
Ġä¾Ŀ èµĸ
Ġéļ¾ å¿ĺ
æĳ ¸
ĠåĿļ åĨ³
å¡ŀ å°Ķ
æ®ĸ æ°ĳ
Ġåıĭ äºº
Ġæ¤ Ń
Ġå¼łå®¶ çķĮ
Ġç§ĺä¹¦ éķ¿
å¸ ĸ
åĬĽ éĩı
Ġæµ· æ¹¾
ĠæĢ» çĿ£
Ġé¥ ¼
Ġèº« ä¸º
å°¼ é»ĳ
æĤ ¬
ĠçĥŃ æĴŃ
ĠåħŃ å¤§
ĠåķĨ éŀħ
ç¢ Ł
ĠçīĪ åĽ¾
Ġå±ķ è§Ī
ĠæķĪ åºĶ
Ġç»¼ èīº
æ³° å±±
ĠèľĢ æ±ī
Ġé¼ĵ èĪŀ
Ġå¯¹å¤ĸ å¼ĢæĶ¾
Ĩ æĭ³éģĵ
Ġå¾Ī å¼º
ĠäºĮ åŃĹ
Ġæķħ ç§°
ĠéĴ ī
ĠæķĻ æĿĲ
Ġç²¾ åĵģ
çļĩ åĲİ
æ¼ ı
Ġåį¡ éĢļ
Ġé½Ĳ åĲį
Ġè¯ķ ç®¡
ĠåĪļ æŀľ
Ġèļ ĬåŃĲ
Ġå¥³ç¥ŀ åĥı
Ġå¤ Ł
Ġe x
æģ °
ĠèĢģ çĻ¾å§ĵ
éĶ Ī
ĠæıĲ äº¤
æĶ¿ çŃĸ
Ġåģļ å¥½
ĠéĶ ĭ
Ġç¾ Į
Ġå¨ Ħ
Ġåį° ç¬¬å®ī
ĠæĽ² åŃĲ
åįļ çī©é¦Ĩ
ĠæİĮ ç®¡
Ġè¿İ æİ¥
æĺŃ åĲĽ
ĠèĭĹ æĹı
Ġè¿Ħä»Ĭ ä¸ºæŃ¢
å ¦ĸ
Ġä¸ľ åĳ¨
ĠæĢ» è£ģ
Ġ7 4
Ġé¥ ¶
æĦı å¿Ĺ
Ġä»» æľŁ
Ġç¾ ŀ
Ġé¦Ļ èķī
Ġç©º è°ĥ
Ġè¾¾ æĪĲ
ĠæİĴ éĻ¤
Ġè¿½ éĹ®
Ġé¸³ é¸¯
Ġçıłç©ĨæľĹçİĽ å³°
Ġä¸Ģ æŀĿ
ĠéĢ Ĵ
çī¹ åĮº
Ġc l
ĠéĶ Ĳ
Ġç§¦ å²Ń
ĠéĢī çĶ¨
Ġå¤§ æľ¬
ĠæĪĳ ä¼ļ
æĭ ¼
ä¸Ĭ åİ»
Ġä¸ľ å²³
ĠçĽ¸ å£°
åİŁ åŃĲ
Ġèº« æĿĲ
Ġæīĭ éĩĮ
Ġçģ« èį¯
Ġéĥ Ŀ
Ġçľģ åĮº
Ġç«ĭ åĪ»
Ġ194 2
Ġæ¿Ģ åĬ¨
ĠåŃŁ æµ©çĦ¶
è´£ ä»»
Ġåĺī åºĨ
ĠéļĲ èĹı
Ġé¹¿ é¼İè®°
Ġæ³¡ æ²«
Ġæµ·åĨħ å¤ĸ
Ġæľ µ
ĠèĢĮ åĲİ
Ġæ°´ æµģ
åħĭ åħ°
Ġç»ĵ å°¾
ĠçĻ½ éĩĳ
ĠçľŁ çĲĨ
éľ į
çł Ĥ
Ġå¾· åĨĽ
ĠçĥŃ è¡Ģ
Ġåįİ ä¾¨
çĽ¸ æľĽ
Ġå®ĺ èģĮ
Ġè´¾ å®Ŀçİī
Ġå¿Ĺ æĦ¿
ĠçĪµ å£«
Ġä¸Ģ æĽ²
Ġèµ ļ
æµ ĵ
ĠæĮ ¤
ĠæĻ Ĵ
Ġéĩį åĬĽ
ĠçĲ ī
ĠåİĨåı² åŃ¦å®¶
çŁ³ åĻ¨
ĠçĥŃ éĹ¹
ĠæĶ¾ å°Ħ
Ġèµ° çº¢
Ġèµµ åĮ¡
Ġç±» åĪ«
Ġw orld
Ġæ¥¼ ä¸Ĭ
Ġå¿½ çĦ¶
ĠèģĬ æĸĭ
Ġå¥łåŁº äºº
åİ ¥
æ³ Ħ
ä»¥ ä¸º
æĸĩ åŃĹ
Ġè¿Ľ åĨĽ
ĠåĨħ éĺģ
åĶ ĩ
äº¤ éĢļ
Ġæ²¿ çĿĢ
æĶ¶ åħ¥
Ġå§ĵ æ°ı
Ġæĳ© æīĺ
å¼ĥ çĸ¾
Ġå¿½ å¿ħçĥĪ
Ġä¸Ģ ä¼ļ
Ġä¼ ´éļı
å¥ ĳ
ĠäºĶ çĻ¾
ĠåĪĽ ä¸ļ
Ġp s
Ġä½Ľ åĥı
éĹ® é¢ĺ
ĠçĽĽ åĶĲ
Ġå°½ éĩı
Ġé¢Ħ æµĭ
200 4
Ġç¼º çĤ¹
Ġç«ŀ èµĽ
Ġå¯º éĻ¢
Ġä¼ı å°Ķ
Ġå¤§ ä½ĵ
ä¸Ģ ä½ĵ
ä½į äºİ
Ġå±± åŁİ
Ġä»£ åı·
éľ Ħ
çł ļ
ĠçĻ¾ åĪĨä¹ĭ
Ġè¿ĳ æĹ¥
ĠåŃĶ æĺİ
Ġä¿ĥ ä½¿
Ġå¹¿è¥¿ å£®æĹıèĩªæ²»åĮº
Ġä¸§ å¤±
Ġèĩ´åĬĽ äºİ
æ®ĸæ°ĳ åľ°
ĠåĮ Ĩ
åŁ ĭ
Ġè¥¿ å²¸
Ġé«ĺ æĸ°
Ġåħ¨ åĲį
ĠåİĨ æ³ķ
Ġå¤ª çĽĳ
Ġ7 3
èı ĩ
Ġè½¬ åĲĳ
èĽ Ľ
Ġè¯Ŀ é¢ĺ
Ġèļ Ĥ
ĠèĦ¸ ä¸Ĭ
è·Ŀ ç¦»
Ġè´« åĽ°
Ġç²Ĵ åŃĲ
m a
u b
Ġç ĥ½
Ġä¸Ģ å¤´
Ġä¸Ģ æĹ¶æľŁ
è¿ ½
é£ ĺ
éĴ Ĺ
çĥ ¯
ĠèĴ Ĥ
Ġ16 5
Ġéļı ä¾¿
éĥ ¸
çĿ ¹
çŁ ©
çĴ Ĳ
Ġæ²ī éĩį
ĠçĦ ī
èĹ ©
Ġæħķ å®¹
Ġçļĩå¤ª æŀģ
Ġä¸į è¯¦
ĠåĽ½ éģĵ
ĠéĻ ¡
ĠæĮ ¡
ĠåįĹ éĢļ
åĪ© æĸ¯
Ġåħ« ä¸ª
ĠæĶ¶ èİ·
ĠåįĬ çĲĥ
Ġè¿ľ ç¦»
ĠæĶ» åįł
å¥ı æĽ²
Ġäº« å¹´
Ġå±Ģ éĻĲ
Ġé¡¶ å³°
Ġä¸į ä¸º
Ġç» ĳ
Ġé«ĺ è¶ħ
éļ ¶
ĠæĶ¾ åĩº
Ġi p
èĵ ¬
Ġæ´ª æ°´
Ġ190 5
Ġå½ķ åĪ¶
ĠçĨĬ çĮ«
ĠèĤ¾ å°ı
ĠåıĹç²¾ åįµ
ĠæĿİéĢ µ
ĠæĹ¥ æĻļ
Ġåĩº åħ¥
Ġåĳ¨ åĪĬ
Ġå¤ĸ æĿ¥
ĠåĲĳ ä¸ľ
Ġéĵ¶ æĿı
Ġä¸¥ è°¨
éŁ ¶
Ġç¤¼ ä»ª
Ġç»Ŀå¤§ éĥ¨åĪĨ
ĠéĦ±éĺ³ æ¹ĸ
0 4
é ĥŃ
Ġä» ¶
Ġå¥ ´
Ġå°ı å²Ľ
Ġæĸĩ ä¸Ń
Ġå¼Ģ åĲ¯
ĠçĶ¨ ä»¥
Ġs bs
ĠçĲĨ æĢ§
Ġä¸ĥ è¨Ģ
æ£ £
ĠæĽ¹ æ¤į
ä¸ĸçķĮ ä¸Ĭ
Ġåı°æ¹¾ çľģ
Ġçĳ °
Ġé¢Ħ è¨Ģ
Ġçºªå¿µ é¦Ĩ
ĠéĽĨåĽ¢ åĨĽ
+ +
Ġä¸į ç¦ģ
å¤§ æŀĹ
Ġå· į
Ġåľ° è¡¨
å½ ¬
å¯ ĩ
Ġå¤© é¹ħ
Ġçİĭ åĬĽ
Ġæ¯ı åĳ¨
ĠæĶ¹ æĪĲ
ĠéĻĪ å¥ķè¿ħ
ĠæĻļ æľŁ
Ġä½ĵèĤ² é¦Ĩ
Ġåįĩ èµ·
Ġèıľ ç³»
è¥ Ł
Ġåį ĳ
Ġ19 13
ĠåĲİ åį«
ĠæĿ¥ è®²
ĠåĨħ åŃĺ
å¾· å°Ķ
Ġæ°Ķ åĳ³
Ġç¬¬äºĮ å±Ĭ
Ġè®¾ å®ļ
ĠèµĽ åĮº
ĠæŁ³ å®Ĺåħĥ
Ġé¦ĸæŃĮ æĽ²
å¯¨ æ²Ł
Ġä¸Ģ åĲĳ
Ġä¸» å¯¼
ĠçĶµ åĬĽ
Ġæµ· æ»¨
éĩį è¦ģ
Ġb r
Ġä¹Ŀ æ±Ł
ĠåįĬ æ®ĸæ°ĳåľ°
Ġå¹² æµģ
Ġå« ¦å¨¥
æıĲ é«ĺ
5 8
æ± ¡æŁĵ
Ġåħ¬ ä¼Ĺ
Ġæĭ ¯
ĠåįĹ åįĬçĲĥ
ĠçĽ¸ å·®
äº§ éĩı
Ġæµģ éĢļ
an n
Ġä¹Ŀ é¾Ļ
Ġæ³ķåĽ½ å·´é»İ
Ġå¸ĥ è¾¾
æ¸© åº¦
Ġåı£ åĳ³
ĠÃ ł
Ġäº¿ å¹´
Ġæ¿Ģ åĬ±
ĠçĶ² çĬ¶
Ġçīĩ å¤´
æĩ Ī
Ġå¡« è¯į
Ġç¼ĵ æħ¢
ĠåĻ ª
ĠäºĶåĽĽ è¿ĲåĬ¨
ĠéĶ» çĤ¼
e ar
æ± ¶
Ġæĸĩ åĿĽ
ä¸į çŁ¥
ç¬ ¼
ĠåĨĽ éĺĢ
Ġæĥħ æĢĢ
ĠçĻ¾ å®¶
Ġæ´» æĢ§
Ġç¦ı çī¹
Ġåİ¿ çº§
Ġåħħ è¶³
Ġé¥® éħĴ
è°ĭ éķ¿
Ġçĸĳ éĹ®
Ġå¤§å°Ĩ åĨĽ
Ġè¥¿åİ¢ è®°
Ġä¸į é¡¾
Ġäºº åĬĽ
ĠåĲİ æ±ī
Ġå¼Ģ åĩ¿
ä¸ĭ åİ»
Ġéķ¿ æĸ¹å½¢
ä¸ī å§Ĳ
ç¾İ äºº
éª ¤
å³ Ļ
Ġæ²³ è¥¿
Ġåı· åı¬
Ġé»ĳ çĻ½
èģĶ çĽŁ
çļĦ æµ·
æŁ Ĳ
çĽ¸ æľº
Ġèµ° åĩº
Ġæŀģ ç«¯
Ġå¢ŀ æ·»
Ġåħĭ æĭī
en d
Ġ194 4
Ġç»Łæ²» éĺ¶çº§
Ġæ¿Ģ ç´ł
Ġ192 3
Ġ192 9
Ġä¾Ľ åºĶ
Ġéĺ¿æĭīä¼¯ äºº
Ġè¿ª æĭľ
Ġè½° åĬ¨
Ġæµ·åįĹ çľģ
ĠçĬ¹å¤ª äºº
Ġè¯ Ĭ
Ġå¯¹ èģĶ
Ġæ¸ ł
ĠåĮĹ æĸĹ
ĠåĮĹ å²¸
æĽ °
ä¹ĭ å¹´
Ġå¹¿ ä¹ī
Ġ9 3
ĠåĨĽ åĮº
Ġæľį å½¹
æķĪ åºĶ
Ġå¡Ķ éĩĮæľ¨
ĠèĶ¡ ä¾ĿæŀĹ
Ġä¼´ å¥ı
Ġä¼½ åĪ©çķ¥
Ġè¹´ éŀł
Ġå¤§ åħ´
Ġä¸» ç¼ĸ
ç¨ ½
Ġæķħ å±ħ
Ġçº¢ ç»Ĩèĥŀ
Ġæİ¥ åĬĽ
åĶĲ æľĿ
ĠåŃŁ åĬłæĭī
Ġå°ģå»º çİĭæľĿ
æ°§åĮĸ ç¢³
Ġä¾µ åįİ
æĭ¿ é©¬
Ġæ¶² æĢģ
ĠèģĶåĲĪåĽ½ æķĻç§ĳæĸĩç»Ħç»ĩ
Ġè¥¿å®ī å¸Ĥ
Ġå¤ĸåĽ½ äºº
Ġan d
Ġèĩªåı¤ ä»¥æĿ¥
Ġå¡ŀå°Ķ ç»´äºļ
y s
§ éģĵ
çŃ ¹
Ġåıĳ ç¥¥
è´ ±
ä»£ è°¢
åĩ ½
çİĭ åĽ½
Ġä½į å±ħ
ĠåĨį çİ°
æ´ĭ èĪ°
Ġç¬¬äºĮ å¤©
Ġçª Ŀ
Ġåıĳæĺİ å®¶
Ġæľį é¥°
ac e
Ġå°Ĭ æķ¬
Ġä¼¼ çļĦ
Ġå½ķ éŁ³
ĠæŃ¦æ±ī å¸Ĥ
ĠåĲ¦ å®ļ
ĠçģĮ æºī
ĠåıĽ ä¹±
Ġç»ıçºª äºº
Ġç¼ĸå¹´ ä½ĵ
åĮ Ĩ
å± ł
Ġä¹ĭ åĲį
Ġæ² Ĳ
éĹ ª
Ġæ¸ Ĭ
ç§į äºº
ĠçĪ± äºº
ĠçĽ´ è§Ĵ
Ġæ°Ķ æģ¯
å·¥ åħ·
ĠçĲĥ è¡£
Ġä¹Ŀ å¤§
å» ĵ
Ġç»Ī çĤ¹
ĠæľŁ éĻĲ
Ġè®º è¯ģ
Ġä¸īåįģ å¹´
Ġå®ł çī©
Ġè¤ Ĵ
Ġæ¸Ĺ éĢı
Ġç½Ĺçº³ å°Ķå¤ļ
ĠåĪ ¹
Ġå¤§ ç¦¹
Ġä¸Ĭ ç©º
ĠçĪ ½
ĠæĢ» ç§°
Ġæľ¬ æĸĩ
Ġåħ³ èĬĤ
ĠæĦŁ åı¹
èİ ŀ
Ġå±ŀ æĢ§
ĠçŁ³ æ¦´
ĠæĻ¯ å¾·éķĩ
Ġè®º è¿°
Ġåħ° äºŃ
ç»¿ èī²
ĠæĬĺ å°Ħ
ĠèĨ ¨
ĠèŁ ¹
Ġæķı æĦŁ
Ġç©Ĩæĸ¯ æŀĹ
e o
è ªĵ
Ġå¼ §
Ġåĳ Ĩ
Ġå¤ª åı²
ĠæĪĺ ç»©
Ġçº¢ æĹĹ
ĠæŃ¦ èīº
Ġç»ĦæĪĲ éĥ¨åĪĨ
Ġå« Į
Ġæĸ½ å·¥
Ġåį§ é¾Ļ
Ġæ¡Ī ä»¶
Ġä»¥ ä¾¿
Ġä¸ľ åĿ¡
Ġ8 3
ĠåĨĽ éķ¿
ĠçŁ³ åĪ»
Ġç¬¬ä¸ī ä½į
ĠåĢŁ éī´
Ġé¢Ĺ ç²Ĵ
æĹħ æ¸¸
Ġè¡ĮæĶ¿åĮº åĪĴ
Ġå§¿ æĢģ
ä¼ ŀ
åľ° çĲĥ
Ġå¤© èµĭ
Ġæ°´ éĵ¶
ĠåĨħ æĪĺ
Ġèį §
Ġåĳ¨ å²ģ
ĠçŁ³ çªŁ
ĠçĹ ķ
è§Ħ åĪĻ
Ġåŀ ĥ
ĠçİĦ æŃ¦
Ġç»Ŀå¤§ å¤ļæķ°
Ġä¸Ńç§ĭ èĬĤ
Ġå®¦ å®ĺ
Ġä¸Ģ çıŃ
Ġä¸į æĪĲ
ä¸Ģ ä¸ª
äºİ ä¸ĸ
çķ ľ
æī «
Ġæ³ ¸
åĢ º
Ġåĸ ĩ
Ġæķ° çĻ¾
æĤ Ħ
åķĨ éļĲ
éĤ£ ä¹Ī
Ġæ£Ģ æµĭ
ĠâĹ ĭ
Ġè¶ĭ åĬ¿
Ġå·ħ å³°
é Ħ
åľ ¾
Ġæľī è¿ĩ
Ġèĩª å¹¼
Ġé«ĺ èĢĥ
Ġèĭ± æ³ķ
Ġé©¬ èµĽ
ĠçľŁ çĽ¸
Ġc a
Ġæ® Ĭ
çĨ ¹
æ¼ ĵ
ä½Ļ å¹´
ĠçĶ° æ±ī
Ġå°¾ å·´
æĸ ©
Ġä¸į åıĬ
æĺ ¼
ĠæĹ¥ åĲİ
Ġåĳ Ĳ
ç© Ĺ
Ġæľ¬ çºª
Ġä¿Ŀ ç½Ĺ
åħ³ äºİ
ĠèĮ īèİī
çĳ ¾
ĠæĶ¯ æĴĳ
Ġéķĩ åİĭ
é»Ħ èī²
æ°¨ éħ¸
Ġæ ¾İ
Ġç °
Ġåľ¨ ä¸ĸçķĮä¸Ĭ
æĭ ¨
èĪ Į
ä¸į æ¸ħ
Ġè¦ģ è¯´
Ġ6 18
Ġæ¯ı å½ĵ
ĠéĿ¢ è²Į
äº¤ æµģ
éĺ¿ æĭī
ĠçĮ® ç»Ļ
æĵ İ
Ġæľ´ ç´ł
Ġåı¶ç»¿ ä½ĵ
Ġèĭıä¼Ĭå£« è¿Ĳæ²³
åĲ Ĵ
ĠéĢ ¢
Ġè° ¦
è· ĭ
ä¹ĭ åľ°
æŁ ľ
Ġåľ£ äºº
Ġå¯Į äºİ
200 7
Ġç´§ ç´§
Ġæ®ĭ çĸ¾
Ġåĭĩ å£«
Ġç«¯åįĪ èĬĤ
ĳ «
Ġè¿Ļ åĿĹ
è¡ «
Ġä¹ĭ æīĭ
Ġä¸ľ æ¬§
Ġç¾İ é£Ł
Ġç¥ ¸
Ġä¸ª åĪ«
ĠæĪĺ åĪĹ
ĠåĿ Ł
Ġ10 1
ĠéĴ ĵ
ĠçĤ «
Ġä»» æĦı
Ġåħ« ä»Ļ
Ġç¿ ¡
è®¾ å¤ĩ
Ġéļ¾ å¾Ĺ
ç¥ĸ åĽ½
Ġå¸Ī çĪ¶
Ġè¾½ ä¸ľ
Ġæ·· ä¹±
ĠçĪ±åĽ½ ä¸»ä¹ī
Ġéĺ¿å°Ķ åįĳæĸ¯
æĹıèĩªæ²» åİ¿
Ġæĭ¯ æķĳ
ĠåĨ Ī
Ġåħ¨ å®¶
æĮ Ŀ
Ġæ±ī äºº
Ġå·´ æĭ¿é©¬
ĠéĻ¤ åİ»
Ġè¿ľ åı¤
çħ ľ
Ġ36 5
Ġæ© ĺ
bs p
Ġè¯± æĥĳ
Ġç¥ ł
ç«ĭ æĸ¹ç±³
Ġ8 4
Ġèİ º
ä¸ľ åįĹ
ĠåĿ Ŀ
ĠæĽ´ æį¢
ĠæĮĩ åĲĳ
çĸ ı
Ġåįİ ä¸ľ
Ġå·¦ ä¼ł
ĠåıĮ éĩį
ç»´ å¥ĩ
ĠåĬŁ ç»©
ç¬¬ ä¸ī
Ġæ²¹ çĶ»
Ġåıĭ æĥħ
Ġå½ķ åıĸ
ĠçĦ¦ çĤ¹
ĠçŃĸ åĪĴ
ĠéĺĲ è¿°
w edding
Ġçļ ±
Ġäºº å¤§
Ġä»¥ åĨħ
ĠçĶµ èį·
Ġä¸ĭ åįĬ
ĠåĲĦ çº§
ĠåĨĻ æĻ¯
èĢĮ åĩº
Ġåĩł åįģå¹´
ç±³ å°Ķ
ĠéĻĪ åĪĹ
Ġå¸Ĥ å§Ķ
ĠæĺŁ åħī
ĠåĮĸ å·¥
ĠæĲ ħ
Ġå¥ĸ éĩĳ
Ġæ¸¯ æ¾³
Ġå±Ģ éĥ¨
èĥĮ æĻ¯
Ġå²³éĺ³ æ¥¼
å¤ªå¹³ æ´ĭ
Ġä¸Ģ ä¸ĸ
çº Ĥ
Ġå¯ ¨
Ġéĺ ģ
Ġè· Ĩæĭ³éģĵ
Ġ9 00
ĠåŁº äºİ
æµģ æ°´
Ġæīĭ æľ¯
ĠåĨį çĶŁ
Ġ16 00
Ġè·¯ åı£
Ġéļı ä¹ĭ
Ġç»Ĩèĥŀ èĨľ
Ġä¼¤ æĦŁ
åĵĪ æĭī
ĠÐ °
Ġåĳĺ å·¥
Ġä¸į éļ¾
Ġä¸ľ ä¸´
Ġä¼ł ä¸ĸ
ĠçľŁ æĮļ
Ġm m
ĠèĻ ¹
Ġé²ģ çıŃ
Ġéľĩ æĥĬ
ĠçŁ¥åĲį åº¦
Ġéģį å¸ĥ
Ġå¥¥çī¹ æĽ¼
9 2
Ġèĭ ¯
Ġå¥½ åĲĥ
Ġæ¸ħ æľ«
å¨ ħ
Ġæ²³ æ°´
é£İ åħī
ĠåĮĹäº¬ çĶµå½±
ĠæĽ¹ æł¼
é© ¹
Ġçľ¼ éķľ
Ġéª¨ å¤´
Ġéģ¿ æļĳ
Ġéªĳ åħµ
ĠæľīæĹ¶ åĢĻ
ĠâĪ ¶
Ġç¤º èĮĥ
ĠèµµåĮ¡ èĥ¤
Ġä¸Ģ ç¬Ķ
ĠæĹ¶ èĬĤ
Ġå°ı è¡ĮæĺŁ
Ġä¸ī ä»£
Ġåħ¬ åĬ¡
Ġå¤ļ çĳĻæ²³
Ġè¿ĩ å¤ļ
æīĭ æľº
åŁº ç¡Ģ
ĠåĵĪ éĽ·
è®¤ ä¸º
Ġæ²ī ç§¯
Ġ192 5
Ġåĩı è½»
Ġç¬¬åįģ äºĮ
Ġè¿Ī åħĭå°Ķ
ĠåĽ Ĭ
Ġä¹ĭ æģĭ
Ġä¸ĸ éĹ´
Ġå¯¹ ä¸įèµ·
Ġæł ª
ä¿ ĥ
çİĭ åŃĲ
ĠåºĶ æľī
å© ¿
ç»´ åĲ¾å°Ķ
ĠéħĴ æ³ī
Ġä¹¡ éķĩ
Ġéĺ³ åİĨ
Ġæ¶² åĮĸ
Ġå·¡ æ´ĭèĪ°
Ġæµ·åįĹ å²Ľ
éķ ĳ
Ġåįłåľ° éĿ¢ç§¯
Ġæ³¢ç½Ĺ çļĦæµ·
Ġè² Ĥ
Ġæİł å¤º
Ġæ ¦Ĩ
Ġå¹´ ä»ħ
Ġå¤§ å¸Ŀ
Ġå¤§ åĵ¥
å½ °
Ġæ³ Ħ
Ġæĸĩ éĽĨ
å°Ķ åĵĪ
èĤ ´
Ġè¿ĩ åĲİ
Ġåīį æĿ¥
Ġæľ¬ åĽ½
ĠæĮĩ ä»¤
å¨ ²
ĠåĪĽ æĦı
Ġå¸¸ çĨŁ
Ġåĭ ĭ
ĠæĻ¯ æ³°
Ġæĸ¯ å¤§æŀĹ
Ġæ´¾ éģ£
ĠæĶ» åħ¥
ĠæĻº åĬĽ
Ġåįģä¸ī å¹´
Ġè¿« ä½¿
ĠèĮħ çĽ¾
Ġèµł éĢģ
Ġåŀĥ åľ¾
ĠæĹ¥ èµ·
Ġåĩ ½
ĠçĶµ ä¿¡
ĠæĿİ å®Ĺ
æł¼ æĸ¯
Ġéħ ¥
an c
Ġç»Ĩ èĩ´
Ġçİ¯ çĲĥ
Ġçľ¼ ä¸Ń
Ġé±¼ éĽ·
Ġæ¨¡ åŀĭ
Ġ192 2
ĠéĽ¨ æŀľ
Ġ189 4
Ġæĩ Ĵ
ĠéĻ¢ å£«
Ġæµı è§Ī
ĠéĤ¯ éĥ¸
ĠçĶ²çĬ¶ èħº
Ġåıĳç¥¥ åľ°
b r
f or
Ġé«ĺ è´µ
Ġçİĭ æĺŃåĲĽ
Ġé£İ æļ´
Ġæĥħ å½¢
Ġå·¥ä½ľ èĢħ
Ġè½¦ ç«Ļ
Ġæł¸ åĬ¨åĬĽ
Ġãĥ ¼
Ġèŀį åħ¥
Ġæ¯ģ çģŃ
Ġçķħ éĶĢ
Ġåī¥ åīĬ
Ġèİ«æīİ çī¹
å¤§ å¸Ŀ
Ġå¿ Į
Ġç¬¬ä¸Ģ æĶ¯
Ġæ¯ı æĹ¥
Ġè®¤ è¯ģ
èİ º
Ġèĭı ç»´åŁĥ
å¡ «
æ· ĩ
é¦ĸ æŃĮ
Ġä¿¡ å¿ĥ
Ġä¹Ĳ åĽŃ
ĠåĬŁ çİĩ
Ġæ³° æĪĪå°Ķ
Ġé¢Ħ è®¡
ĠéĽª èĬ±
ĠåŃ£ åĨĽ
Ġåįģä¸Ģ æľĪ
Ġç»Ń éĽĨ
æĲ ı
ĠæľĢ è¿ľ
æĪ ĸ
Ġ19 15
Ġä½ľ æĸĩ
Ġå¥½ å¤Ħ
Ġä¼ł æŁĵ
Ġé»Ħ æ¢ħ
åı£ å¸Ĥ
Ġçĭ ł
Ġé£İ éĿ¡
æķ° åŃĹ
Ġæ±ī é«ĺç¥ĸ
Ġçī© è¯Ń
Ġ13 00
å·Ŀ åİ¿
ĠæĸĩåŃ¦ ä½ľåĵģ
Ġ25 00
20 11
ĠåĪĹ è½¦
ĠçĨ ı
ĠéĢĤ å½ĵ
Ġè´µ å¦ĥ
ĠçĬ Ģ
Ġå§Ķ æīĺ
ĠéĽ· éĶĭ
Ġéĩİ èĽ®
Ġæ¨ª è·¨
Ġè¯ĳ åĲį
ĠéĻ¢ éķ¿
Ġè®¨ åİĮ
Ġç¼© å°ı
Ġå¤©æĸĩ åı°
Ġèµ¤å£ģ ä¹ĭæĪĺ
ĠæĪĺåĪĹ èĪ°
Ġç Ļ
Ġè¢ ĭ
Ġè¥¿ ä¼¯åĪ©äºļ
Ġéķ¿ çŁŃ
Ġé¢ Ī
Ġè¯Ĺ æĦı
Ġå·¥ èĹ¤
å¨ ±
ĠåĶĲ äºº
Ġæ²³ éģĵ
Ġäº¤ æĽ¿
Ġè¶Ĭ å¤§
ĠåĽ¾ ä¸Ń
ĠåĤ į
Ġéĺ´ è°ĭ
ĠæŃ¥ åħµ
æ¾ Ħ
Ġç£ģ åľº
Ġæ£Ĵ çĲĥ
Ġäºļæ¬§ å¤§éĻĨ
Ġç¡ķ å£«
ĠæĹ ±
Ġä¸į æŃ¢
Ġå°± è¡Į
Ġèĩ Ĥ
Ġ3 50
Ġè¥¿ æĺĮ
Ġå¤ļ äºº
Ġä¸¤ åıª
ĠçĶµ æºĲ
ĠæĹł åħ³
Ġæ°´ æ³¥
Ġæµ· æĪĺ
Ġä¼ł è¾ĵ
ĠèĢģ æĮĿ
åĨħ å®¹
è£ ³
ĠèĮ ±
é¸ ¦
ĠéŁ© éĿŀ
Ġæľ± å¾·
Ġé¦Ļæ¸¯ çĶµå½±
äººæ°ĳ æĶ¿åºľ
éļĨ åŁº
åĭĴ æĸ¯åĿ¦
Ġç§ĭ åŃ£
ac ing
Ġåħ¬å®ī å±Ģ
ĠçŃ¹ å¤ĩ
Ġæį· åħĭ
ĠèĦĬæ¤İ åĬ¨çī©
ĠçİĭåĬĽ å®ı
Ġ __
Ġå¤© æĸĩåŃ¦
Ġåħ¨ æĺ¯
éª Ĥ
Ġå¼º çĽĽ
çĮ ©
ĠæĲ ı
çĿ ¿
Ġåħĭ ç½Ĺ
Ġ195 1
Ġå®¹ éĩı
is t
ĠæĥĬ åĸľ
ĠæĪ¿ éĹ´
ĠåĢ¾ æĸľ
Ġéļ¶å±ŀ äºİ
Ġä¸į å®ľ
äºº å£«
Ġæ± ¡
Ġå¤© å®īéĹ¨
Ġæ°´ èĥ½
Ġæ³ķ åħ¸
Ġéĺ¿ åĵ¥
ĠçľŁ å¿ĥ
Ġæ¯ı ç§Ĵ
ĠæŃ¤ åīį
ä»ĸ ä»¬
çº³ æĸ¯
ĠæĹħæ¸¸ åĮº
æľĢ æĹ©
Ġæ½® æµģ
ĠæĦ¤ æĢĴ
Ġä¸Ń èį¯
ĠçĶµ è·¯
Ġå¤ª æŀģ
Ġå¥½ è±¡
éļ Ļ
Ġéĺ¿ å¯Į
Ġåĩł ä½į
Ġå®ļ åĲį
ĠåĽ¾ åĥı
Ġå®¹ çº³
Ġä¹¾éļĨ çļĩå¸Ŀ
Ġèĥļ èĥİ
Ġå±łé¾Ļ è®°
Ġä¸Ģ èīĺ
Ġåį ¿
è¡ ¬
ĠçŃ ·åŃĲ
åĩ Ń
ĠçĶ¨ ä½ľ
Ġæ¯ı éĢ¢
ĠåĨĽ äºº
Ġåĩł çĻ¾
æ¢ Ń
Ġåįķ ä¸Ģ
åĪĹ é¢ł
Ġåħĭ æľį
Ġå®Ŀ é©¬
é¼ »
Ġçİ°å®ŀ çĶŁæ´»
Ġçİĩ åħĪ
éĢı éķľ
Ġéľ² åĩº
Ġæ¤Ń åľĨ
åĪĨ æŀĲ
Ġæµ· éĩĮ
ç¤ ´
Ġæ¶ ¨
Ġçģ« çĤ®
Ġä»» èģĮ
Ġæ°ĳæĹı èĭ±éĽĦ
Ġåı¯èĥ½ æĢ§
ĠèĹı ä¹¦
as t
ĠåĩĿ åĽº
èĶ ½
µ ®
Ġä¸Ģ éĺµ
Ġåİ ħ
èĬ ¯
ĠçĽ¸ éģĩ
Ġå¥³ çľŁ
åħ¸ ç¤¼
Ġå½Ĵ å±ŀ
Ġå°¼ åħĭ
ĠçģŃ ç»Ŀ
ĠæºĲ èĩª
Ġ190 8
Ġè¿İ æĿ¥
Ġèħ¹ åľ°
åį± æľº
Ġæ²ĥ å°Ķ
ĠæĮĸ æİĺ
ä¼ °
åĪ© çĶ¨
ĠæıĲ èµ·
Ġå®ī éĿĻ
Ġå®Į ç»ĵ
ĠæľĿ æĶ¿
Ġè¯¸ä¾¯ åĽ½
ĠæķĻå¸Ī èĬĤ
1 00
Ġå°ı éķĩ
åľ° äºļ
Ġæ¸ ²
ç§° ä½ľ
ĠäºĮ ä¸ĸ
éħ ±
ĠåĽŀ åİ»
çĭ Ħ
éģ Ĥ
Ġå®Ŀ åºĵ
ĠèĥĮ éĿ¢
éĿĴ å¤©
ĠéĽª å±±
Ġå·´è¥¿ éĺŁ
ie w
Ġå¦ĥ åŃĲ
l and
Ġ19 14
çĶŁ æ¶¯
Ġçº £
Ġåĩº éģĵ
Ġåĵ İ
ĠåĽĽ ä½į
Ġ7 7
ĠåĲĦ æĹı
Ġæ±½ æ²¹
ĠçĽĽ å¼Ģ
Ġè¯ķ åĽ¾
Ġæ¢ħ è¥¿
Ġè°¢ å¨ľ
Ġå« ©
ĠçĶµåŃĲ è®¡ç®Ĺæľº
Ġä¸Ģ æľµ
Ġè¶ £
ç© ¹
Ġèĥ ĸ
ĠæĽ´ å¤§
Ġå¤ĸ éĥ¨
çŁ³ çªŁ
ĠæĿ¨ æŁ³
Ġå¼ķ åħ¥
Ġæľ± æ££
ĠåĨ¬ èĩ³
Ġå¾ħ éģĩ
Ġé¾ ļ
Ġæĭīä¸ģ ç¾İæ´²
Ġä¸ĩå¹´ åīį
Ġåī§åľº çīĪ
Ġå¼łåĽ½ èį£
Ġä¸Ģ æ°§åĮĸç¢³
Ġè¿Ļ æ®µ
ĠåĲİ å®«
Ġå¤© åĲİ
Ġåı¤ æĸĩ
Ġä½ĵ æ¸©
Ġæ·± æ²ī
Ġç²¾ éĢļ
åĬŁ èĥ½
Ġç»´ æĸ°
Ġæ²Ļ çī¹
Ġå» ĸ
Ġè¯ģ åĪ¸
Ġç´« å¤ĸçº¿
Ġå¾Ģ æĿ¥
Ġ192 6
Ġå¯Ħ æīĺ
ĠçĤİ çĥŃ
ĠèļĤ èļģ
å° ¤
Ġæĸ° æĸĩåĮĸ
ĠæĿİ åķĨéļĲ
å¹³ åİ¿
ĠèĤ ĩ
Ġæ¹ Ľ
Ġæķ° çłģ
Ġa d
Ġç¦» åĪ«
Ġéļ¾ åº¦
ĠæĬĹ åĩ»
Ġå®ģ éĿĻ
Ġè¾Ľ å¼ĥçĸ¾
Ġéĺ» æŃ¢
ĠçŃĸ çķ¥
³ å¦ĩ
åĨ Ĵ
éĢ ĥ
Ġå°ı åĲį
åŃĹ æ¯į
Ġ11 8
Ġä»Ĭ å±ŀ
Ġå¼º åº¦
ĠåĲ´ çĶ¨
ĠåĲ« èĵĦ
é© »
ĠèĿ ¶
Ġåºķ éĥ¨
Ġé³ ŀ
ä¿Ħ ç½Ĺæĸ¯
ĠæĳĦæ°ı åº¦
ĠçĹķ è¿¹
æ° ¯
ĠçĽ Ĩ
ĠåĽ½ ä¼ļ
Ġè¥¿ å¤ı
ĠåİĨ ä»»
Ġæīĭ å·¥ä¸ļ
Ġå·´ åĭĴæĸ¯åĿ¦
ĠéŁ³ èī²
Ġåħī èĬĴ
Ġéļı æĦı
Ġæ²Ļ æ»©
ĠäºĮåįģ ä¸ĸçºª
ĠèĲ¥ éĢł
Ġèĩ´ ä½¿
Ġå¥Ķ é©°
Ġç³ ¯
å¤©ä¸ĭ ä¹ĭ
ĠæŃ¦ä¾ł å°ıè¯´
ĠèĴ¸æ±½ æľº
Ġåĥµ å°¸
· æ¬¾
ĺ èĽĽ
ĠåĽ½ åĲį
ä»¥ åĲİ
Ġè¢« ç§°ä½ľ
Ġé«ĺ åİĭ
Ġæĭ ¾
Ġä¸¤ æłĸ
ĠçĽ¸ çĪ±
ĠèĬ ľ
ĠæĿİ éļĨåŁº
ä¸ī åĽ½
é¸ ¥
Ġéª ļ
ĠçłĶç©¶ çĶŁ
é²ģ çķª
è¿Ļ äºĽ
Ġæī¿ åıĹ
åĵĪ å°Ķ
Ġæ°ĳéĹ´ ä¼łè¯´
ĠçŁ¿ çī©
Ġåįģä¹Ŀ ä¸ĸçºª
Ġï¹ Ĳ
ĠäºĪ ä»¥
Ġå°ıé¾Ļ å¥³
Ġäº ©
åĨ Ģ
Ġåİ Į
Ġ19 16
è´ ¦
ĠéĤ£ å¹´
ĠåĲĮ æŃ¥
Ġåĸ Ĥ
ĠåĬł åĪ©
ĠéŁ³ è¯ĳ
Ġå¥ĩ è§Ĥ
Ġå®ĺ åĥļ
en g
Ġè£ħ æľī
ĠéĹ´ æİ¥
ĠæĿĤ äº¤
çĶµè§Ĩ åī§
Ġèħ¹ éĥ¨
ĠçĻ¾ç§ĳ åħ¨ä¹¦
Ġè¢Ń åĩ»
æ² Ī
Ġå°ı æķ°
è¿ĩ æĿ¥
ĠæĻ ģ
ĠåĲį å½ķ
ĠåĨį è¯´
ĠçĽ® å½ķ
ĠéĢł å°±
Ġå¸ĥ æľĹ
Ġå¤´ éĥ¨
åĺ Ľ
Ġå·® è·Ŀ
ĠçĶ² çĥ·
Ġåįĩ ç©º
Ġçº¯ æ´ģ
Ġåħ¼ ä»»
Ġ189 8
ĠåŁ¹ èĤ²
ĠåĴ¸ æ°´
åĹ £
Ġèŀº æĹĭ
ĠåİŁäº§ åľ°
åĪ ¹
Ġäºº ç¾¤
Ġä¹ĭ è°ľ
éĺ ľ
å¤ļ åĪ©äºļ
Ġéķ¿ ä¹ħ
Ġå¥³ å¨²
ĠåŁİ åł¡
Ġæľ¬ æĺ¯
éĶ ¤
Ġè®¤ åĲĮ
è¿Ľ åĪ¶
Ġç¬¬ä¸ī åĲį
è¿Ļ ç§į
ĠéĻį éĽ¨
Ġéº¦ åħĭ
åĲĦ æł·
çº¬ åº¦
è¿ĺ æľī
Ġå¤ĩ åıĹ
ĠçĸĨ åŁŁ
Ġç»ļ ä¸½
Ġè¯ ł
ĠçĪ ¹
ĠåĮĹ éĿ¢
Ġå½ĵ åīį
Ġå¤ª ç¥ĸ
Ġåīį å¤ķ
æŃ¤ å¤ĸ
ĠäºĶ è¡Į
éħ ¬
æĭī å®«
ĠéŁ ¶
ĠèĦ Ĩ
Ġå¸¦ åĽŀ
ĠåħŃ åĽ½
Ġæľª å©ļ
ĠæĻļ ä¼ļ
ĠæĿĤ æĸĩ
åĲĦ åĽ½
ĠéĹª çĶµ
ĠåĹ ĵ
ĠåĲįèĥľ åı¤è¿¹
Ġæłı çĽ®
Ġå³¨çľī å±±
ĠåĪĨ æĺİ
Ġæ°´ çĶµç«Ļ
ä¸į åĩº
Ġå¤ª è¡Į
Ġæĸ¹ ä½į
Ġ8 2
èĲ ĥ
åĪ¶ åĵģ
Ġç¼ Ŀ
Ġå¿ĥ æĢģ
Ġæīĵ åį°
ĠåĬ¨ æĢģ
Ġè¡Į ä½¿
ĠèĬ± å²Ĺ
è®¡ åĪĴ
Ġç§¦ çļĩ
Ġä¹¦ çĶ»
ĠçĥŃ éĹ¨
Ġä¿¡ ä»»
Ġéħį è§Ĵ
Ġé²ľ èĬ±
Ġçº¯ ç²¹
Ġè±ª æĶ¾
ĠéĹŃ å¹ķ
ĠåĨ ¤
Ġæĸ Ĳ
ĠæľĢ åįĹ
Ġä¸Ĭ å±Ĥ
æĺ §
ĠçĶŁ æ°Ķ
Ġä¸ĭ å±ŀ
Ġåı¤ å»ºçŃĳ
Ġé¦ĸ å¼ł
æĪĺ å½¹
Ġ9 4
èĩª æĪĲ
Ġèĭ±åĽ½ ä¼¦æķ¦
Ġæ¬§æ´² æĿ¯
Ġä¾Ŀ å±±
ĠçŁŃ çŁŃ
ĠéŃĶ å¥³
ĠåĲ¯ åıĳ
Ġèļ ķ
å¹³æĸ¹ åħ¬éĩĮ
Ġä¼¯ çĪµ
Ġèĩªæ²» åİ¿
lo v
Ġ----- -
Ġæħķ å°¼é»ĳ
Ġå»ī é¢ĩ
ç»´åĲ¾å°Ķ èĩªæ²»åĮº
Ġæ¸² æŁĵ
Ġä¸Ģ è¾ĪåŃĲ
Ġåħ¬ å¹³
æ³ķ è¥¿æĸ¯
ĠçĶ¨ å¿ĥ
ç»ı çĲĨ
Ġçİĭ ä½į
Ġåīį äºº
ĠéĢļ è½¦
å³ ª
Ġæ¬§ çĽŁ
Ġå¸Ĥ è¾ĸ
Ġæ¹ĸ éĿ¢
Ġæİ¥ æĶ¶
Ġè¶ħ äºº
ĠæĢ§ çĬ¶
Ġç½Ĺé©¬ å°¼äºļ
Ġå¿ĥçĲĨ åŃ¦
æ½ľ èīĩ
ĠåħĭéĩĮ æĸ¯
5 6
ĠæĪĲ åĥı
Ġåº ¶
Ġæĸĩ æŃ¦
ĠéĴ ¾
ĠåĲĪ æł¼
çĶµ åĻ¨
Ġèµµ å·ŀæ¡¥
Ġå¾® æ³¢
Ġä¸ļ ä½Ļ
çĦ ¦
Ġé¤Ĳ åİħ
ĠæĹ¥å¸¸ çĶŁæ´»
Ġæŀ¢ çº½
åĪ ĥ
Ġä¼ Ļ
ĠåĪĨ æĶ¯
Ġè° Ĳ
Ġéĩĳ åįİ
Ġçİĭ åĭĥ
Ġå±± ä¸Ń
Ġå² ·
Ġåıį æŃ£
Ġåıĳå±ķ åı²
ĠçĽ® åħī
Ġä¼ĺ éĽħ
20 12
Ġå¤ľ éĹ´
Ġé²ľ åįĳ
ĠèĪĴ éĢĤ
ĠåĴ¸ ä¸°
Ġæ°¢ æ°Ķ
ĠæĬµ è¾¾
ĠåŁŁ åĲį
ĠèĶ· èĸĩ
Ĵ å¤´
Ġä¸Ģ æīĢ
å¥ ¸
èĬ Ļ
Ġèĥ½ åĲ¦
Ġçľĭ ä½ľ
æ²³ åĽ¾
Ġæµģ çķħ
Ġåħĥ è°ĭ
ĠèĬ± åĦ¿
Ġå·´ æĭī
Ġå·´ éĩĳ
in k
ĠæĹ© ä¸Ĭ
Ġæ½ Ń
Ġå¤į ä»ĩ
ĠéĻĦ å±ŀ
it h
Ġå« ī
Ġä½ı æĪ¿
Ġä¸ģ é¦Ļ
ĠçĭĤ äºº
ä¸ §
å± ĳ
ä¸Ĭ æ²³åĽ¾
Ġä¸Ģä¸ª ä¸ª
Ġæĸ° æľĪ
ĠåĽĽ åºĵ
Ġå¥³ æľĭåıĭ
Ġçİĭ å®¤
æ±Ł åİ¿
æŃ¤ åĲĮæĹ¶
å£« é¡¿
Ġè¡Į èµ°
ĠçĽ´ è¾¾
Ġèİ· èĥľ
ĠçĻ¾ åĪĨ
Ġä¸ĥ åı·
Ġä¸įåĲĮ äºİ
Ġèħ Ķ
Ġå´ ĸ
Ġæ°¢ å¼¹
Ġè¡° èĲ½
Ġä¸ĩéĩĮ éķ¿åŁİ
ĠåĮĹäº¬çĶµå½± åŃ¦éĻ¢
é ¬
é ĳ«
Ġï¼ ĭ
Ġä¸Ģ çŃī
Ġä¸Ģ åĪ»
Ġæī Ķ
Ġå¤§ åħ¬
Ġå¤§ éĺŁ
å¤§ å¤«
ĠåĽ½ åĲĽ
ĠæĹ¥ æĸĩ
åĲį è¯į
ç« ŀ
Ġç¾İ æĻ¯
ĠçĶµ éĺ»
ĠåĲį ç¯ĩ
æĬ ¼
Ġ20 6
ĠèĢģ é¼ł
ĠäºĶ åı°å±±
Ġæİ¥ ä¸ĭæĿ¥
Ġä¹Ĳ å±±
Ġåī§ ä½ľå®¶
åº· çĨĻ
Ġæī§ çĿĢ
Ġæłĩå¿Ĺ æĢ§
Ġçıł æµ·
Ġå¹¼ å¹´
Ġæ¨± æ¡ĥ
Ġéŀ ł
ĠåĬŀåħ¬ å®¤
Ġæ·ĭ å·´
ä» Ĩ
Ġä¸Ń æŀ¢
å¹´ äºº
Ġå¯¹ å¾ħ
ĠåĪĨ æķ£
åĮĸ åŃ¦
æ¡ ¶
çİĭ éĺģ
Ġç§ĳ çĽ®
èĩ³ ä»Ĭ
Ġå¼º è¿«
é¸ ½
åĸ ĩ
Ġåī§ çĥĪ
ĠåįĬ å¹´
ĠèĴĻ å¨ľ
è§Ħ å®ļ
æ¿Ģ ç´ł
æ¡ĵ åħ¬
å°ĶåĵĪ èµ¤
Ġéĺ¿å¯Į æ±Ĺ
è ł
ç» ³
çº ¤ç»´
Ġä»¥ èĩ³
Ġåħ¨ æĺİæĺŁ
æĽ ¦
åĲĪ ä½ľ
Ġåĳ¨ éķ¿
ĠæŃ¤ äºĭ
Ġå¸¦ ç»Ļ
Ġåı² å®ŀ
Ġæ¼ ł
Ġä¾Ŀ çħ§
Ġåı°æ¹¾ å²Ľ
Ġæł¸ æ½ľèīĩ
å¯Ĩ åº¦
ç£ ħ
Ġé»Ħæ²³ æµģåŁŁ
Ġäº® çĽ¸
Ġç¯ ¡
åİĨåı² ä¸Ĭ
ĠÄ ģ
ĠåĵĪèĲ¨åħĭ æĸ¯åĿ¦
Ġä¸Ģ åĽ½
Ġæľī åı²
Ġå°ı äºº
Ġåĩº å¸Ī
æ¸ Ŀ
Ġåħ¬ çº¦
æµ Ĭ
ĠåįĹ å±±
ĠåĶ ¾
Ġå¥³ ä¸Ģåı·
ĠéĴ ł
Ġæĥħ è¶£
ĠéĻĪ å°ı
å°¼ è¿ª
Ġn bsp
Ġéļ¾ è¿ĩ
Ġåĺ ²
Ġä½Ľ ç½Ĺ
ĠäºĮåįģ äºĮ
ĠåĽĽå¤§ åĲįèĳĹ
Ġçīĩ ä¸Ń
Ġèĳ£ åįĵ
çĭ¬ ç§Ģ
ĠçĽĳ åĪ¶
ĠæĲŃ éħį
çĺ ¤
b e
ä½ Ĺ
Ġä¸į è¿ľ
çĲ ħ
ĠåĮĹ åĽŀå½Ĵçº¿
æĸ¯ é¡¿
ĠåįĹ ç«¯
ĠåİĨ å±Ĭ
åįģ åĽĽ
Ġæ¸ħ çľŁ
ĠæıĲ è®®
ĠåĪĺ è¯Ĺ
ĠçĶ· åıĭ
ĠæķĻ çļĩ
Ġä»Ĭ åĲİ
åĴĮ æµ©çī¹
Ġä¼Ĭ åĪ©
Ġå¾® çĶŁçī©
ĠèµĽ åľº
Ġç´« ç¦ģ
ĠèĴĻåı¤ äºº
Ġæ¿ ®
a f
Ġæľī çĶ¨
æŀ £
ĠçĽ Ī
ç« ¿
Ġå¤© çľŁ
Ġé£İ è½¦
Ġé©¬ è¶ħ
Ġè¿Ĳ è½½
Ġæ® ī
Ġé¸ ½åŃĲ
ĠåŃĻ æŃ¦
Ġçºª ä¼łä½ĵ
ĠéģĹ äº§
Ġä¸´ æ²Ĥ
Ġäº¬ æĿŃ
200 2
æĭľ æĹ¦
æª Ģ
Ġçº² é¢Ĩ
Ġé©¬æĭī æĿ¾
Ġè¯Ĩ åĪ«
ĠåĬ± å¿Ĺ
Ġæľ Ķ
ĠæľĪ é¥¼
çĽ ²
Ġè¡ Ķ
ĠéĤ£ è¾¹
Ġæµ· éĻĨ
Ġéĵ Ń
å¸¸ å§Ķä¼ļ
Ġæīĭ å·¥
Ġå¾· æĦıå¿Ĺ
Ġåįķ è´¨
Ġç¢ Ĺ
èĪŀ æĽ²
æ½ ĩ
Ġä¸´ åºĬ
Ġå¨ģ åĬĽ
æĻĵ æĺİ
Ġç¬¬åįģ ä¸Ģ
ĠèģĮä¸ļ çĶŁæ¶¯
ĠæĺŁæľŁ æĹ¥
ĠåįģäºĶ å¹´
i le
ĩ æĮĩ
Ġè¥¿ å¤©
Ġæµ· è±ļ
ĠåĽĽ åı¥
åĬł åĪ©äºļ
ĠæŃĮ åĲį
Ġèİ· åıĸ
å¯¼ æ¼Ķ
Ġè¶³ åįı
ĠçĽĽ äº§
Ġä»ĭ äºİ
ĠæĤ¬ æĮĤ
Ġæĭ¼ éŁ³
Ġå±ĭ é¡¶
Ġè¿ĽåĮĸ è®º
Ġçĥ¦ æģ¼
Ġä¸Ńå¤®åĨĽ å§Ķ
u e
å® ł
ä¸į ä¸Ģ
ä¸į åıĬ
Ġæµ· éĿ¢
æĬ µ
Ġéĩĳ åĥıå¥ĸ
ĠæĿİ æĸ¯
Ġå¾Ĺ ä¸»
éĶ ¥
åĴĮ å°ļ
Ġæİ¨ çĲĨ
ĠèĬĤ æ°Ķ
Ġè¯¥ ä¹¦
Ġåł ¡
æ´Ľ åħĭ
Ġéĺ¿æĭī æĸ¯åĬł
ĠåĪ¶çīĩ äºº
Ġç½Ĺæĸ¯ ç¦ı
Ġä¸¾ä¸ĸ éĹ»åĲį
Ġè¯ł éĩĬ
åĲ ŀ
Ġå¤§ æ¥¼
ä¸Ģ èµ·
Ġå¯¹ éĿ¢
Ġå¼Ģ å·¥
ĠåĨħ åľ¨
çĪ ¹
ĠéĢļ ç§°
ç¨ ¼
Ġm g
ĠéŁ© åºļ
æľį åĬ¡
Ġæī© æķ£
Ġå°ĳæŀĹ å¯º
Ġè½© è¾ķ
p adding
s on
Ġé ¥¿
Ġä¸Ń çŃī
Ġç» ¥
Ġå¯ ¡
Ġä¸ľ è·¯
ĠåĲį çīĮ
Ġä½¿ åĳ½
ĠèĪ Ĩ
Ġå² ±
éħ ĭ
ĠåıĤ çħ§
Ġå¸Ĥ ä¸Ńå¿ĥ
Ġåıĸ æĿĲ
ĠçĻ» æľĪ
Ġåĳ½ ä¸Ń
Ġåħ´ çĽĽ
Ġç¾¤ ä½ĵ
ĠæĤ² åĵĢ
Ġæŀľ çĦ¶
Ġè´§ çī©
ä»² æ·¹
å¾® éķľ
ĠæĹ ¨
Ġè¿Ļ å¤©
Ġæ² Ľ
éĿ ĵ
Ġé«ĺ æ¥¼
Ġå¦Ĥ æĦı
ĠçĽ¸ æľĽ
åĢ ¾
ĠæıĲ éĨĴ
Ġå´ Ń
Ġæ¨¡ æĭŁ
Ġå¾ģ æĪĺ
ĠåĲ¯ ç¤º
ĠæĻ®éĢļ è¯Ŀ
Ġè¯¾ ç¨ĭ
Ġç¢° æĴŀ
Ġæ¸ħæĺİ ä¸Ĭæ²³åĽ¾
sp acing
Ġä¸ĥåįģ äºĮ
Ġèķ´ èĹı
ç¡« éħ¸
Ġcell spacing
Ġæĺ¯ éĿŀ
Ġä¸Ģ åĽŀ
Ġä¸Ń åįĪ
Ġç» ¯
Ġå¤§ åį«
Ġè¿Ļ æĿ¡
ĠåįĹ éĿ¢
Ġå°±æĺ¯ è¯´
ĠæĢ» æĮĩæĮ¥
ĠèĪ ľ
äºļ æ´²
ç¼ ļ
Ġs m
åĽĽ åĨĽ
Ġåħ« åį¦
Ġæŀģ å°ĳ
æı Ĵ
at e
Ġå®½ åº¦
Ġç´ł è´¨
Ġæ¼«çĶ» å®¶
Ġè¯ĳ æĸĩ
Ġéľĩ åĬ¨
Ġç»ĺ åĪ¶
Ġåĩ¯ å°Ķçī¹
Ġæģ° æģ°
Ġä¸į çĦ¶
è¯ Ĭ
Ġæľī æ¯Ĵ
ĠæĹ¶ èĢĮ
Ġåħ¬ çīĽ
Ġåħ¨ èĥ½
Ġèĭ± åĨĽ
ĠæĪĺ ä¹±
Ġéģĵ å£«
Ġæ¸© å®¤
ĠæĴ ĳ
Ġäº² çİĭ
ĠåĲ¸ è¡Ģ
Ġo p
ĠåĮĸåŃ¦ æĢ§è´¨
Ġé¥® çĶ¨
æ²Ł æ¡¥
Ġå¤§æ°Ķ å±Ĥ
h er
Ġä¸Ģ åī¯
ĠåĲ ı
Ġç¬¬ä¸Ģ ä»£
ä¿ Ĳ
Ġå¾Ĺ æĦı
Ġäº§ åįµ
çĶµ èĦĳ
Ġæİ¥ åĪ°
è®¾ æĸ½
æĪı åī§
Ġæł¼ æł¼
ĠÃ ¡
Ġåħµ æ³ķ
Ġä¼ģ é¹ħ
ĠçĹħ æŃ»
ĠæĥĬ å¿ĥ
ĠåĳĬ åĪ«
ĠåĬª å°ĶåĵĪèµ¤
ĠæĪĺæĸĹ æľº
Ġäºķ åĨĪ
Ġçª¦ å¨¥
Ġå°ıå°ı çļĦ
Ġç» ®
Ġå¤§ æ¸ħ
Ġçº ¤
ĠçĽ¸ éĢ¢
Ġå¹³ éĿĻ
Ġ7 000
è¿Ĳ è¾ĵ
Ġçļĩ ä½į
Ġç¥ŀ æĽ²
Ġæĥħ ä¾£
å¿Ĺ æĳ©
Ġæŀģ åħ·
å±ħ å£«
Ġç¡® ä¿Ŀ
Ġç«ĭ æĸ¹
ĠåĲ¸ åıĸ
ĠåĬ³åĬ¨ èĢħ
ĠæĪ· ç±į
Ġéģµ ä¹ī
Ġèĥ° å²Ľ
ĠæīĢ èĳĹ
çĤ ³
Ġéķ¿ çĻ½
Ġå¾Ī éķ¿
ĠäºĮ èĥ¡
ĠæĢ» ä¼ļ
Ġå·¥ åĮł
Ġæĺİ æľ«
å¼Ģ åıĳ
Ġc m
Ġæĺ¥ åŃ£
Ġéĩįè¦ģ æĢ§
Ġçĥ ĺ
Ġåĭ ī
ĠæĬĢ èīº
20 13
Ġg dp
Ġæ¿Ģ åıĳ
200 5
ĠåĪ» èĭ¦
åĲ¯ è¶ħ
um p
çĺ ¦
ĠæľºåĻ¨ äºº
ĠæĥŁ ä¸Ģ
Ġçľĭä¸į åĪ°
Ġæ¾Ħ æ¸ħ
Ġä¿¡çĶ¨ åį¡
Ġé³Ħ é±¼
Ĵ éºŁ
Ġä¸Ģ å°ı
è® ³
Ġæµ £
åĪ© ä¼Ł
ĠæŃ£ è§Ħ
Ġéĩĳ çĲĥ
Ġçİĭ ä¹ĭ
çļ ĵ
Ġå² ĳ
ĠåĪĺ ä¼¯
åħ° åį¡
ç¬ ĭ
ĠéĿŀ åĩ¡
è£ ¹
Ġè§£ ä½ĵ
Ġè®¡ éĩı
ĠæĹħæ¸¸ èĥľåľ°
ĠèĶ ļ
Ġäº¿ åĲ¨
Ġéģĩ è§ģ
ĠéĻ¶ çĵ·
th er
Ġå¡« åĨĻ
ĠâĪ ©
Ġé¼İ çĽĽ
ĠéĴ±å¡ĺ æ±Ł
Ġä¸į åĲĪ
Ġä¸ĸ è´¸
Ġåĩº åĶ®
ĠæĮ «
Ġç¬¬ä¸Ģ åŃ£
ĠæĹł æĦı
Ġçī¹ å¤§
ĠæŃ¤ ä¹¦
Ġåįĥ ç§ĭ
Ġåĺ İ
Ġä¹Į åħĭåħ°
Ġg r
¤Ĳ èī²
Ġæ½® æ±
Ġæ¼Ĥ æµģ
Ġæ¹¿ åľ°
ĠæŁĶ éģĵ
Ġä¸Ģå¤§ æī¹
Ġæ¤ °
å§ĳ å¨ĺ
ĠèģĤ èĢ³
ĠèĪŁ å±±
Ġé»ĦåľŁ é«ĺåİŁ
Ġäºļé©¬éĢĬ æ²³
g in
Ġä¸Ģ åĩº
åº ¶
ä¸Ģ åº¦
Ġä¹ĭ å¿ĥ
æ´ ±
éĹ ¸
è½ °
Ġå¤© éĹ¨
Ġè¿Ľ åİ»
Ġé»Ħ æŀľæłĳ
Ġæ°ĳ äºĭ
Ġ10 4
ä¸ī å³¡
Ġæĥħ æĬ¥
å³ ¨
Ġåıĺ éĿ©
åı¸ é©¬
ĠçĶ» ä¸Ń
Ġæł¼ å¼ı
ĠæĿŃ å·ŀå¸Ĥ
ĠæĲľ éĽĨ
Ġæĭľ ä»ģ
ĠçªĹ åı£
Ġå¼¯ æĽ²
Ġæ»ķ çİĭéĺģ
æĢİ ä¹Ī
Ġæľīåı² ä»¥æĿ¥
å¾ Ļ
çŃĶ æ¡Ī
Ġè¾ Ĩ
ĠåįĹ è·¯
Ġç¬¬ä¸Ģ è¾Ĩ
æĹ¥ æĬ¥
Ġå§ Ĭ
èį «
ĠåĨĽ å¸Ī
Ġç±³ çī¹
ĠéĿŀ æ³ķ
ĠçĤ ī
çĶµ åŃĲ
Ġåĵª ä½į
åı¯ ä»¥
Ġè§ģ è¯ģ
ĠèĪŀ æĽ²
Ġ28 0
ĠçĶŁçī© ä½ĵ
us ic
Ġè½® èĥİ
Ġæĸ°çĸĨ ç»´åĲ¾å°Ķèĩªæ²»åĮº
ĠèĦļ ä¸ĭ
Ġæ±ĩ éĽĨ
ĠéĩĬ è¿¦
Ġå¥ı é¸£
ĠèĴĻå¨ľ ä¸½èİİ
Ġï¼ Ĥ
Ġåľ¨ åİĨåı²ä¸Ĭ
Ġä¸į èī¯
Ġå¤§ ä¸ļ
Ġä¹ĭ åĪĿ
ĠçĶŁ èĤ²
Ġä¸¤ å±Ĭ
Ġè· µ
ĠçĶ¨ äºº
æŁ ¿
ĠåķĨ è´¸
Ġç»Ŀ æľĽ
ĠçĻ» å½ķ
é²ģ æľ¨
Ġ194 3
Ġè¾¹ çĸĨ
Ġ100 00
ĠåĽ½æ°ĳ ç»ıæµİ
èı² å°Ķ
un g
ç¦¹ éĶ¡
Ġç¢° åĪ°
æĿ ĸ
æ² ª
Ġåħ¶ ä¸º
Ġä¿ ©
å¤ļ çº³
ä½ĵ åĪ¶
ä¸» æ¼Ķ
ĠçĶµ åı°
åįģ ä¸Ģ
èĢĮ ä¸į
æµģ ä¼ł
ĠåĨ³ ä¸į
ĠåĲ´ åĵ¥
ĠæĹ© æĻ¨
ĠèĪª çº¿
ç¬¬ æĸ¯
Ġg o
Ġå¸® åĪ°
Ġæ´Ĺ è¡£
Ġæ¶ĪåĮĸ éģĵ
Ġæļ´ éľ²
ĠçĿ¡ çľł
Ġçģ«ç®Ń éĺŁ
Ġçº¬ çº¿
Ġé¼» åŃĲ
Ġâħ ¡
Ġç¥¥ åŃĲ
Ġç¡Ŀ éħ¸
é²ģæľ¨ é½Ĳ
çī© çĲĨ
Ġä¸ī æĺ¯
Ġä»İ åīį
ĠéĢļ åķĨ
ĠåĨĽ èĪ°
Ġè®¾ æĥ³
Ġçī© èµĦ
åİ» çĹħ
Ġæķ´ æķ´
ĠæĢĿæĥ³ æĦŁæĥħ
Ġçľ¼ çľĭ
Ġæł¸ æŃ¦åĻ¨
åķĨ æłĩ
Ġå¥ĸ åĬ±
ou r
Ġåīĳ æ¡¥
Ġæ°ĳä¸» éĿ©åĳ½
ĠæħĪ åĸĦ
Ġè¿« å®³
ĠåĢĻ éĢī
ĠèĮ« èĮ«
Ġäºº ä¸ĸ
åĮ ª
ĠæĿ Ĩ
Ġä¸Ĭ åįĬ
ĠæĪĲ ä»½
ĠåĪĨ è¡Į
åĪĨ è£Ĥ
Ġåįģ ä¸ª
Ġéļ §éģĵ
åĶ ¯
Ġå®Į å¤ĩ
Ġæ²³ è°·
ĠçĻ¾ äºĭ
åĲĳ ä¸Ĭ
Ġå¤ı ä¾¯
å®ģ åİ¿
Ġç»Ŀ åı¥
Ġå®¢ å®¶
ĠÃ ¬
ĠåĨ² ç§¯
Ġçħ§ å°Ħ
ĠæķĪ çİĩ
ĠåĲĲ é²ģçķª
Ġå·« å±±
æĤ² é¸¿
çī¹åħ° å¤§
a z
Ġä¸Ĭ å¤©
ĠéĢ įéģ¥
ĠæĬ ¼
åĬ¨ ä»ª
Ġæ³ Ĭ
Ġè¥¿ è¾¹
å¤© ç¥¥
ä¿ Ń
Ġå¥½ çİ©
Ġæ¹ Ħ
Ġæµģ æ³ª
Ġè¯¥ åĽ½
æ¨ ±
Ġi m
Ġè®º åĿĽ
ĠéĽ¨ æ°´
Ġå®¡ åĪ¤
Ġç§ĳä¸¾ åĪ¶åº¦
Ġæ¬º éªĹ
ĠçĽŁ åĨĽ
Ġå¸Ĥè¾ĸ åĮº
t on
ĠåĮ ¡
éĻ ĭ
Ġä¸ī é¡¾
å¹³ éĿ¢
ĠéĿ¢ åĮħ
Ġä¿Ŀ åĬłåĪ©äºļ
ĠåĢ ª
ç¥ĸ åĲį
Ġå¸ĥ å°Ķ
Ġå» ¿
Ġéħį ç½®
ĠéĻį èĲ½
Ġæ½ľ åĬĽ
os s
ä¼Ĳ åħĭ
Ġæ»ļ æ»ļ
Ġå¤§æľ¬ èĲ¥
Ġäºº éĢī
Ġç§ ©åºı
çķ ´
çĶŁ äº§
Ġåı¯ åı¯
Ġå°ı åŃĲ
Ġæ³ķ å®¶
Ġéģ £
ĠåĨĻ è¯Ĺ
Ġå®ī å®ļ
ĠåĶĲ è¯Ĺ
ĠéĿ¢ ç²ī
ĠéĽĨ åĲĪ
çĻ½ èī²
Ġs c
ĠèĥĮ åıĽ
Ġéĺ² æ²»
æ´Ľ ä¼Ĳåħĭ
çĦ ķ
Ġé¡¾ æĭľæĹ¦
Ġä¸ŃåĽ½äººæ°ĳ éĵ¶è¡Į
Ġå±ı å¹ķ
Ġå¸Ĩ èĪ¹
éĺ¿æĭī ä¼¯
9 4
e e
t c
Ġä¸Ģ éĹ¨
Ġä¸Ģ åŃĹ
çº º
Ġå¤ļ è¾¾
Ġæ°´ èµĦæºĲ
Ġä¼ł è®°
ĠäºĶ è§Ĵ
ĠæĮĩ çĶ²
ĠåĨ· åį´
ĠèĪ¹ åıª
èĵĿ èī²
Ġæķ¢ äºİ
Ġçīĩå¤´ æĽ²
Ģ å¸Ŀ
Ġä¸Ģ åıĮ
Ġä¸Ĭ æĸ¹
ä¸Ģ èı²
ĠéĢ ¾
Ġèĩª æŃ¤
éĥ¨ éķ¿
Ġæµ ´
Ġä¸ľ èİŀ
ĠåįĹ åĶĲ
ĠåĽĽ äºº
Ġå°Ĩ è¿ĳ
ĠæĿİ èĩªæĪĲ
Ġè¿ĩ å¹´
ĠçĻ½ éĵ¶
Ġæ¸ħ åĨĽ
æ¶ ¤
Ġçº¢ è±Ĩ
å¢ ħ
ĠçĶ· ä¸Ģåı·
è£ ¤
Ġç²¾ æ¹Ľ
æ· ĭ
Ġ13 5
Ġäºĳ è´µ
ĠéĻ¤ å¤ķ
Ġéĥĳ åĴĮ
éĿĻ èĮ¹
ĠæĢİä¹Ī æł·
åį° åĪ·
å¸Į éĩĳ
ĠåºĦ ä¸¥
Ġæ¦ ´
Ġæ°ı æĹı
Ġçĥ½ çģ«
p o
Ġä¸ĸ éĶ¦èµĽ
åĬ¨ èĦī
ĠéĤ ĳ
Ġæ³ Ĺ
ĠåĮĹ æ¬§
ĠåįĹ äºļ
æĮ º
èĥ ¥
ĠåŃ¦ å£«
ĠæĢ» éķ¿
éĴ Ĭ
çı Ģ
åħ¶ é¡¿
Ġè¿ĳ ä¼¼
Ġä½ķ ä»¥
ĠéŃı æĻĭ
ĠéĴŁ è¡¨
tt om
Ġæĵ Ĵ
ĠæģĴ å±±
Ġçĵ· åĻ¨
Ġæ°® æ°Ķ
Ġé²¨ é±¼
p r
è¾ Ļ
Ġä¸ĸ ä¸Ĭ
Ġåı¯ æĢķ
Ġå°ı ç±³
Ġåĩ ĭ
Ġå¹¶ åĪĹ
ĠçĽ¸ è¿ĳ
Ġå¹³ åĿ¦
Ġæķħ éĩĮ
ĠçĽ´ ç«ĭ
ĠæķĻ ä¸»
Ġæ¬§ åĨł
Ġé£ŀ ç¿Ķ
ĠåĲ¬ è§ģ
Ġåħ¸ ç±į
Ġçıł å®Ŀ
åĨľ ä¸ļ
Ġæ»ĳ éĽª
èĮħ åºĲ
Ġ Å
ĠåĬ ¡
Ġåĩº å®¶
Ġå¯¹ ç§°
æł¼ éĩĮ
Ġçļĩ å®¤
Ġçģ« æĬĬ
Ġå¼º åĮĸ
æĤ į
ĠæĶ¶ è´¹
Ġç¬¬ä¸ī éĥ¨
Ġè¾¹ å¡ŀ
ĠèµĽ è½¦
Ġå« ¡
çĬ ¹
Ġåı¸é©¬ æĩ¿
ç§¦ å§ĭçļĩ
Ġèļ Į
Ġç¯® æĿ¿
Ġé¥Ń åºĹ
ĠæĪĬ æĪĮ
ł æª¬
Ġæĸ ĭ
æ² ¸
Ġèĭ Ķ
Ġåº Ń
æĻ ĸ
ĠåĶ ĩ
åĿ ·
æĥħ èĬĤ
Ġé¦ĸ å°Ķ
ĠæĢ» ä¹¦è®°
ĠåĬł æ·±
ĠæĶ¿ åħļ
Ġä¿Ŀ å®Ī
Ġæ±Ł æµĻ
ĠæŃ¤ å¤Ħ
Ġç²¾ èĩ´
åı¤ æĭī
Ġæ½ į
Ġæĭī å¼Ģ
ĠéĻĨ ä¸Ĭ
Ġæľ¨ åħ°
Ġæİ¢ è®¨
ĠçĿ £
Ġåħ° èĬ±
ĠåĪº æĿĢ
ĠçłĶåĪ¶ æĪĲåĬŁ
Ġä¹Ŀå¤§ è¡ĮæĺŁ
Ġè¿Ļ çĤ¹
Ġåıĳ æī¬
Ġæµ ĩ
Ġæ°´ æºĲ
Ġæµ· å¹³éĿ¢
ä¹ĭ åĽ½
Ġ18 40
ĠåŁº å¾·
ĠçľŁ è¯ļ
ĠæŃ¦ å½ĵ
ĠèĲ Ŀ
Ġé¦Ļ åĳ³
Ġè¯¥ çīĩ
Ġå¥ĩ ç¼ĺ
Ġå¤± æľĽ
Ġè¯į è¯Ń
Ġæł¸ çĶµç«Ļ
Ġçªģ åĩ»
ĠæīĢæľī äºº
Ġæĭ¥ æĬ±
çĹ ´
ĠåĽĽå·Ŀ çĽĨåľ°
Ġæ¨¡ æł·
Ġæľ« ä»£
ĠåĪº åı²
åĸľ åī§
ĠçĥŁ èįī
Ġæ³ī æ°´
Ġåĩ¯ æĹĭ
Ġåĭ¤ å¥ĭ
Ġæ²¦ ä¸º
ĠæĽĿ åħī
ĠåĮĨ åĮĨ
p e
s k
Ġå¤§ ä½¿
éĩ ľ
Ġä¹Ł å¥½
Ġä¸ī æ±Ł
Ġåħ¨ ç¨ĭ
Ġçİ° ä¸º
æ°´ èĬĤ
Ġèĥ ¤
Ġæĺİ å¹´
ĠæŃ¦ åĬĽ
Ġæ¹ĸ æ°´
Ġa t
ĠæĿľ åº·
ĠçĽĽ åĲį
Ġä»¤ çĭĲ
åįı åķĨ
åŀ £
Ġä¹± ä¸ĸ
Ġå¥ĳ ä¸¹
ĠçĮ´ åŃĲ
ĠåĴ¸æ°´ æ¹ĸ
Ġä¸Ģ æ´¾
Ġä¸į æĺİ
Ġå¤§ åľ£
åľ° å¸¦
åľ¨ ä¸Ģèµ·
ĠçĽ¸ è§ģ
ĠåĲĪ ä¼Ļ
Ġçģ« æŁ´
æ¥ Ĥ
ĠçŁ «
Ġç¼ĸ çºĤ
çģ« å±±
ĠæĶ¯ æŁ±
Ġå¸ĥ èİ±
Ġä¸Ńå¤® æĶ¿åºľ
Ġi t
ĠåĢŁ åı£
Ġæ²¹ çĶ°
Ġä¸¹ å¿ĥ
Ġåģľ è½¦
ĠåĪĴ å½Ĵ
æķ¬ æĺİ
ĠåĪĳ äºĭ
Ġåıĳå¸ĥ ä¼ļ
........ ........
ĠèĪĮ å¤´
Ġbo ttom
Ġå¥ıé¸£ æĽ²
a o
ç Ģ
Ġä¸Ģ å¿ĥ
Ġä¹ĭ ç¾İ
å®¶ æĹı
ĠåĽ½ å¾½
Ġé«ĺ ç¥ĸ
ĠåĮĹ éĿŀ
Ġæĥ ľ
å°Ķ é¡¿
æĥħ åĨµ
Ġéĩĳ é¢Ŀ
Ġçİĭ èİ½
Ġä¼ł åĩº
Ġé©¬ åħ¶é¡¿
Ġå®ī ä¸ľ
æ±ī åį¿
Ġä¹¦ åĲį
Ġæİ¨ æµĭ
ĠæĹħ å®¢
Ġè¿ľ å¾ģ
Ġå¤į åĲĪ
Ġè¿½ æº¯
éŁ §
Ġæ¨ª è´¯
Ġä½ı å®ħ
åĨ² ä¹ĭ
Ġ189 5
ĠèĲ¨ æĭī
Ġåº·çĨĻ çļĩå¸Ŀ
ĠæİĪ æĿĥ
Ġéĺ» æĮ¡
Ġå¿§ éĥģ
ĠçĥĪ å£«
m b
è ¤
Ġé «
å¸ Ĳ
Ġåĩº ä½¿
Ġåħ¨ æ°ĳ
ĠçĽ¸ è¯Ĩ
Ġæ¬ ł
Ġåīį çº¿
Ġè¡¨ çļ®
æĹ¥ èĳµ
åįģ åħ«
Ġä¼ł æī¿
ĠçĻ½ å¤´
Ġæ¸ħ æ´ģ
Ġä½ĵ åŀĭ
ĠåĪĺ ä¸īå§Ĳ
Ġæ¯ı æľĪ
Ġåĸľ æĤ¦
Ġç²¾ åĬĽ
ĠèĮ Ħ
ĠæŁ łæª¬
ĠåįĬ å°ģå»º
Ġèľ ĺèĽĽ
Ġæ¨¡ ç³Ĭ
Ġåĩ¡ æĺ¯
ĠæĽ¿ ä»£
Ġçķª èĮĦ
æİ¨ èįĲ
ĠåĵĪåĪ© æ³¢
ĠéĹ° å¹´
Ġç¿¡ ç¿ł
Ġç ¼Ķ
Ġå® ħ
Ġä¹ĭ åĽ½
ĠæīĢ å¾Ĺ
å¤© å¤§
Ġå¼Ģ éĩĩ
Ġä»İ ä¸į
Ġä¾ Ĺ
Ġæ· ¹
Ġäºļ çī¹åħ°å¤§
Ġåı² å®¶
Ġå°ģ éĹŃ
å¤į æĿĤ
ĠæĹħæ¸¸ æĻ¯çĤ¹
ĠçĶŁåĳ½ åĬĽ
ĠåĽº æĢģ
ĠåĮĸåŃ¦ åıįåºĶ
Ġç¬¬äºĶ å±Ĭ
Ġè·ĳ è½¦
ĠåĬ© çĲĨ
Ġéī´ å®ļ
ĠèģĶéĤ¦ å¾·åĽ½
Ġåı¸ä»¤ åĳĺ
Ġç³¯ ç±³
ĠåĽĽåºĵ åħ¨ä¹¦
Ġä¸Ń ä¹¦
è¯ ĥ
åŃĲ çīĻ
Ġå°± è®©
Ġå¤© çļĩ
ĠåĮĹ ä¸Ĭ
æĻ ĥ
ĠéĤ£ ä½į
ĠåĲį è¯į
Ġè° ¨
Ġæ· Ħ
Ġæ°ĳ æĶ¿
Ġå®ī éĺ³
å¢ Ł
Ġæīĵ æŃ»
åı· çłģ
Ġ11 7
Ġé¾Ļ å¤´
å¡Ķ å°Ķ
Ġæ³¢ å£«é¡¿
Ġå®Ĺ æĿİ
å³¡ è°·
Ġå°Ħ çº¿
ĠçģŃ çģ«
Ġäº« èªī
ĠæļĹ ç¤º
ĠéĿĻ æŃ¢
Ġçİ» åĪ©
Ġåºı å¹ķ
ĠåįģæľĪ éĿ©åĳ½
Ġå²Ń åįĹ
ĠÏ Ģ
å°Ķæĳ© æĸ¯
ĠåĳĲ åĸĬ
Ġåħ¬åĬ¡ åĳĺ
Ġåĩ¯å°Ķçī¹ äºº
0 9
å® Ľ
Ġä¸į åłª
Ġä¸Ĭ åı¤
æŃ §
Ġä¸ĸ ä»£
Ġä¸ī æ¯Ľ
Ġé»Ħ èĬ±
åıĳ æĺİ
ĠçľŁ åĲį
Ġå¼º åĽ½
Ġb y
Ġ14 00
ĠçĤ¹ çĲĥ
ar e
æ²Ļ æ¼ł
è§Ħ åĪĴ
Ġåħ¸ éĽħ
Ġåĳ¼ åĴĮæµ©çī¹
Ġåģ¶ å°Ķ
Ġå¤©æ´¥ å¸Ĥ
Ġè´Łè´£ äºº
Ġèĭį ç©¹
ĠèĤ¥ æ²ĥ
Ġçī¡ä¸¹ äºŃ
éľī ç´ł
Ġæĸ¹ç¨ĭ å¼ı
äºº ä»¥
æĪ İ
Ġæ° Ł
æĪĲ ç»©
åĩº èĩª
ĠåĪĨ è¾¨
Ġæ°´ è§£
æł¼ åĭĴ
æĶ¿ åįı
Ġå£ ¶
Ġåħī åŃ¦
åĭ ¾
Ġè¡Ģ ç»Ł
Ġé© ¼
Ġå» Ĭ
ĠçĽĽ åħ¸
Ġå·¥ä¸ļ åĮº
ĠéĥŃ éĿĸ
ĠÐ ¸
æľĢ å¤ļ
Ġéĺ¿æĭīä¼¯ åįĬå²Ľ
Ġå¦ĸ æĢª
Ġé¼» ç¥ĸ
Ġæ·ĭ æ¼ĵ
Ġè£ģ åĪ¤
Ġä¸Ĭ æĿ¥
Ġä¸Ĭ æł¡
Ġç¬ ¨
Ġå¤ļ å¤Ħ
Ġéķ¿ æģ¨
Ġéĵ Ĥ
è¡¨ æ¼Ķ
ĠçĻ½ åıĳ
Ġæµģ éľ²
å»º è®¾
Ġæĥ³ åĥı
ĠåķĨ ä¸ĺ
æŃ¦ çİĭ
Ġå®ĺ åľº
ĠåŃĲ å¼Ł
ĠæĽ² è°ĥ
ĠèĵĿ é²¸
ç»Ŀ åı¥
Ġèİ± èĮµ
ĠäºķåĨĪ å±±
Ġä¸Ģ æīĭ
Ġæ± ŀ
Ġè¥¿ è·¯
èĤ Ĩ
è° ħ
Ġè¯Ĺ ä»Ļ
èĭ į
ä¹ĭ ä¹±
ĠåĨĻ æ³ķ
ĠåĨĻ ç»Ļ
Ġæīĵ åħ¥
Ġä½ľèĢħ ç®Ģä»ĭ
ĠåŃĹ æł·
Ġç»´ å¤ļåĪ©äºļ
is s
Ġçıį ç¨Ģ
Ġéľį åİ»çĹħ
ĠåķĨä¸ļ éĵ¶è¡Į
ĠèĹ ©
ç µ®
Ġä½ľ ä¸ļ
Ġä¸» æĪĺ
èĬ ¸
ĠæĹł è¾¹
ĠåĨĻ å¾Ĺ
ĠèĬ± æľµ
Ġç¿ Ł
Ġè¯¸ å¦Ĥ
ä¸ĥ å¹´
ĠéĢĢ ä½į
Ġåĩı å°ı
ĠçĤİ å¸Ŀ
éĻĪ ä»£è°¢
Ġå®¾ é¦Ĩ
ç° §
ĠçĪ±å¥½ èĢħ
Ġ us
ĠæĹ¶ ä¸º
Ġä¸ī åĪĨä¹ĭä¸Ģ
éĽ į
Ġåħ¬ å¼ı
ä½ĵ çİ°
Ġç¾İ å¦Ļ
Ġæĸ° å»º
Ġçľĭ ä¼¼
ĠçľŁ ç©º
Ġåĩł åįĥå¹´
åĸ Ŀ
Ġåħµ ä¹¦
Ġå°¼ æĹ¥
éĿ©åĳ½ åĨĽ
æĻļ ä¼ļ
Ġä¹ĥ æĺ¯
Ġèĳ¡èĲĦ éħĴ
ĠæĮĳ éĢī
Ġå¯Ħ çĶŁ
Ġé©¬æĭī å¤ļçº³
ĠçŁ³çģ° æ°´
ĠçĭĲ çĭ¸
ĠéĢ Ĭ
Ġåħ¶ ä¸Ģ
Ġå¤ļ å¤ļ
Ġä¸¤ æŀģ
èī² å½©
ĠåĽĽ æµ·
Ġéĩĳ çĶ°
Ġå±± æ¥Ĥ
Ġé»Ħ æĻĵæĺİ
Ġæ¸ħ æ¾Ī
ç¾İ å¥³
Ġæ» ¤
ĠéĻĪ çĭ¬ç§Ģ
Ġçº¦ ä¼ļ
äºĳ æ¸¯
Ġé© ¿
Ġä¹Į é²ģæľ¨é½Ĳ
ĠåĶ¯ æľī
Ġæģ¶ éŃĶ
Ġå®ª ç«ł
Ġå°ĸ éĶĲ
Ġèı© æıĲ
Ġç´¯ è®¡
ĠæĦī å¿«
Ġæľī æĥħ
Ġå¤§ è§Ĥ
Ġè¿Ļ æĸ¹éĿ¢
Ġæ° Ľ
Ġä¸ŃåĽ½ é¦Ļæ¸¯
Ġä¸ĸ è¢Ń
Ġæ± ģ
Ġæ± ķå¤´
Ġä¸¤ è¾¹
Ġæµ· æ»©
Ġè¿ĩ åº¦
Ġå¤ª åĴĮ
èĥ ĸ
çī¹ å¾ģ
Ġç© ´
ĠåĪĽ ä¸ĭ
ĠåħĪ éĶĭ
Ġé£ŀ è½®
Ġa b
Ġåħ¨åĽ½ ä»£è¡¨å¤§ä¼ļ
Ġåī§ çĽ®
æ¼ Ĥ
Ġå¾Ĳ å¿Ĺæĳ©
ĠèĥĮ å½±
Ġæ¢ģ åĲ¯è¶ħ
Ġv iew
Ġè°Ī åĪ°
ç¬¬ä¸Ģ æ¬¡
Ġäº¤åĵį ä¹Ĳ
Ġæ´¾åĩº æīĢ
Ġä¸Ń ä»¥
Ġe p
Ġç» ³
Ġæī ¼
Ġåħ¨ éĥ½
Ġç® ±
Ġèµ· é£ŀ
Ġä»£ åĲįè¯į
Ġåıį æ³ķè¥¿æĸ¯
Ġt r
ç¦ı å°¼äºļ
æ¸© å¸¦
Ġ24 0
Ġå®¹ åĻ¨
ĠéĨ ĩ
Ġâĸ ł
Ġéĩĳèŀį ä¸Ńå¿ĥ
Ġç³ Ĭ
Ġå¿į èĢħ
ĠèľĤ èľľ
Ġèľľ èľĤ
ĠåĿİ åĿ·
Ġä¸Ģ äºĮ
Ġå°ı çĻ½
å§ ļ
Ġæĸ° ä¸ĵè¾ĳ
èĥ½ æºĲ
Ġå¹¶ çĶ¨
Ġåĸ §
ĠæŃĮ åĿĽ
åħ° åħĭ
ĠåĪĿ æ¬¡
æ¸ħ æ¥ļ
Ġæ³¨ å®ļ
Ġåħ¥ åĽ´
Ġé²ģ èĤĥ
ĠåĿļ å®ŀ
Ġä»Ļ å¥³
Ġçº¯ åĩĢ
Ġè¥¿çıŃçīĻ è¯Ń
Ġçº³ åħ¥
ĠéĽħåħ¸ å¨ľ
éŀ Ń
Ġå°¸ ä½ĵ
Ġå´© æºĥ
Ġåı¯åı£ åı¯ä¹Ĳ
· æħ¨
Ġä¸ ¸
Ġåį ľ
Ġè¡ į
Ġèĩª è§ī
Ġæĸ° éĻĪä»£è°¢
Ġåı¤ ç½Ĺé©¬
åĢ ¦
Ġå±± èĮ¶
Ġç§° éľ¸
ĠåĬł ä¹ĭ
éĴ ©
éĩĳ åĪļ
å·¥ ä½ľ
Ġå¸Ĥ æĶ¿åºľ
Ġé¢Ĩ åıĸ
Ġä¿¡ å¿µ
Ġå®ļ æľŁ
Ġçİ¯ èĬĤ
Ġç»Ŀ åĶ±
Ġçľ¼ éĩĮ
åĲī å°Ķ
Ġç¬ĳ å®¹
ĠåŃ¤ åĦ¿
ĠåĬ© æīĭ
Ġç»µ å»¶
Ġå§¿ åĬ¿
ĠåĴ½ åĸī
ĠèįĶ æŀĿ
Ġæĸ°æĸĩåĮĸ è¿ĲåĬ¨
v er
å¤§ è¿Ĳæ²³
Ġå¤ļ ä¼¦
ĠåĲį èªī
åįģ ä¹Ŀ
ä¹ĭ ä½ľ
Ġæµģ åĩº
Ġç»Ļ äººä»¥
ĠåĽ½éĻħ æĢ§
Ġè§£ éĻ¤
ĠæĺŁ ç³»
ĠåŃĻ çŃĸ
Ġè¡Ģ çº¢
ĠåĨłåĨĽ æĿ¯
Ġèµŀ åĬ©
ĠåĩĿ èģļ
ĠéĹ»åĲį äºİä¸ĸ
Ġæ±Ĺ éĿĴ
Ġç¬Ķè®° æľ¬
Ġå¹¿ä¸º æµģä¼ł
ĠæĻ®éĻĢ å±±
Ġæ°Ľ åĽ´
Ġä¸Ģ åı°
Ġä¸į æĥľ
éĢ ¼
æ± Ģ
Ġå°ı åĮº
Ġæ³ ½
å±± åºĦ
ĠéĽ ĩ
Ġé» Ľ
Ġæµ· ä¼¦
Ġåıª ä¼ļ
æ¡ Ĩ
Ġæľ¬ é¢Ĩ
æķĻ å¸Ī
ĠæŃ¦ å£«
ĠåŃĹ ä½ĵ
æĿ¡ çº¦
Ġ17 5
Ġçª ĥ
ĠæĢ§ åĳ½
Ġå»ºçŃĳ éĿ¢ç§¯
å¹¿ åľº
Ġéķ¿æ±Ł æµģåŁŁ
ĠæĤ² æĦ¤
èĲ¨ æĸ¯
ir l
Ġå¾Ħ æµģ
Ġç§¦çļĩ å²Ľ
Ġ19 10
è´ ¬
Ġå¯¹ ä»ĺ
Ġä¸ī éĿ¢
Ġä¸ī æĿ¡
Ġæĸĩ å¤©ç¥¥
Ġé«ĺ é«ĺ
ĠæĹł åĬĽ
Ġä¸ĭ å±Ĥ
ĠåĽĽ å¤Ħ
ĠæĪĺ ç¥ŀ
Ġåıį å°ģå»º
ĠçľŁ æĥħ
Ġm a
Ġä¹Ŀ å¯¨æ²Ł
Ġçľ¼ çĲĥ
Ġè´¨ çĸĳ
Ġåģĩ è®¾
ĠæĿ¾ èĬ±
ĠçĥŁ åı°
ä»² é©¬
åĩĿ åľŁ
ĠçŁ¿äº§ èµĦæºĲ
Ġåĩ¡å°Ķ èµĽ
Ġæ½ĩ æ´Ĵ
Ġæ¸ħåįİ å¤§åŃ¦
ĠåŃķ èĤ²
Ġç´«ç¦ģ åŁİ
9 3
Ġä¸Ń æĹ¬
Ġä¸Ĭ åİ»
ĠåŃ¦ åĳĺ
ĠèĬ± æľ¨
åħ¶ ä¸º
Ġæ¸¸ çī§
Ġåįİ åįĹ
ĠåķĨ ä»£
Ġæ¸© é¦¨
Ġæ¨ Ł
Ġç¬¬ä¸ī åŃ£
Ġç¦ı å°Ķæĳ©æĸ¯
éº ¼
Ġç¬¬åĽĽ å±Ĭ
Ġç´§ æĢ¥
ĠåŃ¤ åįķ
Ġåħ» æ®ĸ
Ġå¤§æ°Ķ åİĭ
Ġå¤§ æ¼ł
Ġè¿Ļ å¼ł
ĠèĢ ¸
Ġä¸ĸ ä¿Ĺ
åľ° åĿĢ
ä½ĵ èĤ²
Ġç¬¬ä¸Ģ ç¯ĩ
ĠæŃ£ å®Ĺ
Ġå¤ª åĲİ
åħĥ å¸ħ
ĠåĪĺ ç§Ģ
ĠåĽŀ å¤´
Ġåıĺ æĽ´
Ġæķ° æľĢå¤ļ
æĻ¯ å¸Ŀ
Ġè®¸ åµ©
ĠçĶµè§Ĩ æľº
Ġç»Ī ç»ĵ
Ġå¾® éĩı
ĠéĢģ åĪ°
Ġçħ ŀ
Ġé¡¶ éĥ¨
Ġæ£®æŀĹ åħ¬åĽŃ
Ġçıįçıł æ¸¯
ĠåıĻäºĭ è¯Ĺ
ĠæĿŁ ç¼ļ
Ġè¿ °
Ġä¸į å¤±
Ġå¤§ å¹ħ
ĠçĽ ¼
ĠåĽ½ åĬĽ
ĠæľĪ åºķ
æ± Ŀ
ä½ľ åī§
Ġåī Ĥ
Ġè´ ·æ¬¾
ĠæĻ ķ
Ġå»º æľī
Ġä¼ļ å¾½
Ġé¦ĸ çĽ¸
Ġçī¹ éķ¿
Ġä¼ł è¯µ
æīĭ æŀª
Ġè¡Į åĪĹ
ĠåĲĳ æĹ¥èĳµ
Ġæ£ º
å¤ª å¤ļ
å°Ĩ åĨĽ
æ¥¼ ä¸»
æ¯į éĻ¢
Ġå¹² æī°
Ġä¾µ åįł
æĢ» çĲĨ
ĠåĽ´ æ£ĭ
Ġåĳ³ ç²¾
Ġè¯¾ æľ¬
è½¯ ä»¶
ĠéĤ» åĽ½
èº ¯
ĠåĤ¬ åĮĸ
Ġä¸¤åįĥ å¤ļå¹´
0 5
Ġå¤§ å£°
ĠæľĢ çĪ±
ĠæĹ¥ åħī
Ġåħ¬ çĽĬ
å¿ĥ å¦Ĥ
è° ı
ĠåŁİ åĨħ
Ġæĺİ æĺİ
ĠåĪĺ ç¦¹éĶ¡
ĠåħĪ æĺ¯
å¿Ĺ ç¥¥
Ġåĸľ ç¾Ĭç¾Ĭ
Ġé»ĳ å¤ľ
åįĥ ä¸ĩ
ĠèĢĥ éªĮ
Ġè®¡ æķ°
ĠèĩªçĦ¶ ç§ĳåŃ¦
æ¸ħ æľĿ
Ġå¿« éĢĴ
æ¨ Ĭ
Ġå®Ŀ é¸¡
ĠèģĮ èĥ½
ĠåĿļ ç¡¬
Ġç¼º éĻ·
Ġå¯» æ±Ĥ
Ġæ·¡ æ·¡
Ġç¥ŀè¯Ŀ ä¼łè¯´
ĠéĹ½ åįĹ
Ġæĸ°çĶŁ ä»£
Ġhtm l
Ġæĸ°ä¸Ģ ä»£
é ŀį
Ġæľī çĽĬ
Ġå¤§ åİħ
Ġè® ³
Ġä¹ĭ å¤ļ
ĠæĹ¶ å¸¸
ĠéĢ Ĺ
Ġè¢« éĢī
Ġåĵ Ĩ
ĠåĲį å£°
ĠåŃ¦ éĹ®
ĠåŃ¦ åłĤ
Ġçĭ ±
Ġå¼ł èīº
Ġæ°ĳ å±ħ
Ġæľº åĪ¶
Ġåįķ èº«
Ġs e
Ġ15 5
Ġè¶ħ åĩº
ĠåĲ´ çİĭ
Ġæŀģ é«ĺ
éŃ ģ
Ġä½Ļ äºº
Ġæłĳ ç«ĭ
Ġä¹° åįĸ
Ġèį¯ åĵģ
Ġ190 1
Ġåįµ ç»Ĩèĥŀ
ĠçĮľ æµĭ
èĲĿ åįľ
Ġåħ¬äº¤ è½¦
æ£®æŀĹ åħ¬åĽŃ
Ġæ¾İ æ¹ĸ
Ġè ł
ĠèĢ ¿
Ġè´ ¼
Ġæĸĩ æĪĲ
ä¿ ĺ
ĠåĽ½å®¶ æ£®æŀĹåħ¬åĽŃ
åħĭ æĭī
Ġå®ī ç¬¬æĸ¯
Ġå®Į å¥½
Ġä¸ĵ åĮº
Ġé£ŀ é¸Ł
Ġçĭ¬ æľī
Ġb l
Ġè®¸ æĺĮ
Ġéª ı
Ġå¡ ĺ
Ġç¬¬ä¸ī å±Ĭ
Ġè¿ľ æĸ¹
ĠåŃĲ å¼¹
Ġäº¬ éĥ½
Ġèī² æ³½
Ġæ²» åĽ½
Ġçº¿ æĿ¡
å´ ©
æ²ī èĪŁ
Ġæ¤į è¢«
Ġé¦ Ĵå¤´
Ġç§ĳä¸¾ èĢĥè¯ķ
ord er
Ġé«ĺæĸ° æĬĢæľ¯
Ġå¸ĥè¾¾ æĭīå®«
Ġä¸Ģ åĪĨ
çĤ Ģå¸Ŀ
Ġä¸ľ å²¸
Ġæĸ° ç§Ģ
ĠçĶµ èĥ½
Ġè° İ
ä¿ ª
Ġèĭ± è¶ħ
Ġåīį éĢĶ
Ġæīĵ åĬ¨
Ġç±³ å·¦åı³
çĥ ģ
ĠçĽ´ æĴŃ
Ġé¦Ļ å±±
Ġéļı åį³
é²ģ è¿ħ
ĠåĲĽ çİĭ
Ġä¸ĢçĤ¹ çĤ¹
Ġè¡¨æ¼Ķ ç³»
Ġçº³ è¥¿
ä»² æĻ¯
Ġçħ¤ æ°Ķ
Ġèµ« å°Ķ
æŁı èĬĿ
Ġåįģä¸Ģ å¹´
åµ Į
éĩľ æ²īèĪŁ
Ġæľī éĴ±
Ġå¤§ è±Ĩ
ĠéĻ ¨
Ġæĭ ¦
Ġå¼Ģ è®¾
é¢ Ĳ
å¿ĥ å®¤
äºĭ ä»¶
Ġä¼ļ æĪĺ
èĥ §
ĠæĢ» éĽĨ
Ġå¤ĸ å±Ĥ
ĠåºĶ æĺ¯
å³ ¦
ĠæŃ¤ è¯Ĺ
Ġ11 4
èĻ ŀ
Ġåįķ äºİ
Ġç®Ģ æ´ģ
Ġå¸¦ ä¸Ĭ
ĠåĬŁ èĩ£
Ġä¿® æŃ£
Ġæ²Ļ çļĩ
ĠåĵĪ ä½Ľ
ĠåĵĪ å§Ĩ
Ġåı£ å¤´
Ġèĥ¡ ä¸Ģèı²
ĠæĹħæ¸¸ ä¸ļ
Ġä¸ľæĸ¹ çº¢
çº² çĽ®
Ġåįģåħ« å¹´
Ġä¸½ æ±Ł
Ġç§ĳå¹» å°ıè¯´
ĠèįĢ åŃĲ
Ġé¥² åħ»
i b
æĺ Ĭ
ĠåŃ µ
ĠçĶŁ æľº
Ġå½ĵ æĪĲ
ç¥ ľ
Ġé¢ Ĳ
Ġå°Ĩ å£«
Ġéĩĳ æ²Ļ
ç¨ ļ
Ġæ³ķ è§Ħ
çģ ¿
Ġæ¼Ķ è®²
èĩª æ¸ħ
Ġåıĺ è¿ģ
ĠåĲĪ èµĦ
Ġå®¶ æľī
Ġèĭı ä¸¹
èħ ķ
å¯¹ äºİ
Ġå¸¦ åĪ°
ĠæĶ¾ åĪ°
Ġæ¿Ģ åħī
ĠèĮ¶ èĬ±
ĠéĢĢ ä¼ĳ
çķĻ é¦Ļ
Ġçģ¯ æ³¡
ĠæŃ¼ çģŃ
Ġæľ¬èįī çº²çĽ®
Ġæĥ© ç½ļ
x x
Ġèĩª ç«ĭ
å¯ ¡
Ġå¤ļ åħĥ
Ġè¯´ èµ·
è¥¿ è¥¿
ĠåĽĽ æ¬¡
ĠæĦı è±¡
ĠåºĶ ä¸º
çĽ¸ ä¼ł
ĠåĨľ ä½ľçī©
Ġä¹Ĳ è¶£
ĠäºĮåįģ åħ«
Ġç´« èĸĩ
Ġç¹ģ è¡į
ĠéĽ¶ ä¸ģ
åĬ³ åĬ¨
Ġç³ĸ ç±»
Ġæĳĩ ç¯®
Ġå¥³åŃ© åŃĲ
Ġcell padding
Ġè¯ī è®¼
ĠæĹłåĲį æĮĩ
Ġå¬´ æĶ¿
ĠåĬłåĪ© ç¦ıå°¼äºļ
£ å·¥
ĠæľĢ åıĹ
ĠåĮ Ģ
ĠæĹ¶ éĢŁ
Ġä¸İ æŃ¤åĲĮæĹ¶
éĽ ³
Ġå¼Ģ ç½Ĺ
åįĹ åİ¿
æµ· å²¸
ĠåİŁ æĦı
Ġåįģ è¶³
Ġåīį åĪĹ
æİ ª
Ġç»ĵ è¯Ĩ
Ġåħ³ æ±īåį¿
Ġè¿ŀ çİ¯
Ġæķħäºĭ æĥħèĬĤ
Ġæ¬§æ´² äºº
Ġåĭ ĺ
Ġé£Ł çĽĲ
ĠæĬ¥ ä»ĩ
Ġå¤ªå¹³ åĨĽ
ĠèĩªçĶ± æ³³
çĨĻ åĩ¤
Ġè·³ è·ĥ
æ¤ ħ
Ġå¨±ä¹Ĳ åľĪ
ĠåĳĪçİ° åĩº
Ġèĵ¬ èİ±
ĠæĿľé¹ĥ èĬ±
ĠèĤļ åŃĲ
ĠèĬľ æ¹ĸ
Ġå¤§ éĽģ
Ġå°ı åĦ¿
Ġä¸ī åĽĽ
æĸ¹ å¼ı
Ġé«ĺ åĬłç´¢
Ġåħ¨ å¢ĥ
Ġéĩį éķĩ
Ġéĩĳ å©ļ
ĠæĢ» åĴĮ
åįģ ä¸ī
Ġåħ³ ä¸ľ
èĢĮ æĿ¥
ç©º æ°Ķ
æ· ·
Ġä»£è¡¨ å¤§ä¼ļ
Ġé¢Ĩ è¡Ķ
Ġå¸¸ å¹´
Ġéĩĩ éĽĨ
ĠåĪĿ çº§
Ġè¿ľ è¿ĳ
ĠéĿ©åĳ½ å®¶
Ġçĭ¬ç«ĭ æĪĺäºī
Ġå®ĩ æĻº
Ġæ£Ģ å¯Ł
9 7
t y
ĠæľĢ çŁŃ
Ġæĸĩ éĿ©
Ġé«ĺ ç§ĳæĬĢ
Ġéķ¿ å®ĺ
Ġåı¤ éķĩ
çĪ ª
å½± çīĩ
Ġæīĵ ä¸ĭ
Ġåħ± è®¡
ĠéĻĪ æµ©
Ġåįĥ çĻ¾å¹´
Ġæ¸¸ åŃĲ
ĠæĿ¡ ä¾ĭ
çº¢ æŁ¿
ĠçķĻ ç»Ļ
Ġå¤©ä¸ĭ äºº
Ġè´¨ åŃĲ
Ġåł ķ
Ġ90 7
Ġè¿ģ å¾Ļ
ä¸° å¯Į
Ġéĩı åŃĲ
Ġæ½® å·ŀ
Ġä¹Įæĭī å°Ķ
Ġè½¬æĬĺ çĤ¹
Ġä¸ĸè´¸ ç»Ħç»ĩ
¹ éĽ³
ĠåĨ ī
Ġå¤§ æĸ¹
å± ¥
æ° ®
Ġå¯¹ çħ§
Ġå¤© æ²³
Ġå½ĵ äºĭ
çĲĨ è®º
æĬ ĳ
å°ı æĹ¶
Ġä¼ł æķĻ
èĬ± åĽŃ
Ġé£İ è²Į
Ġç¬¬äºĮ åĲį
Ġé² ¤
Ġåĵª åĲĴ
çĸ ¼
ĠæĶ¾ å¿ĥ
å¤ª éĺ³
Ġåī§ éĻ¢
ĠåĴ ¯
å¤ľ åıī
Ġçªģ åİ¥
Ġç»Ĩèĥŀ å£ģ
Ġæī¿ åĬŀ
ĠåĨ² åĬ¨
Ġæķ£ åıĳ
Ġä¼¤ å¯Ĵ
Ġæ·· åĩĿåľŁ
Ġçº³ ç²¹
Ġæģ¶ ä½ľåī§
Ġè¸ ©
ĠçĶľ å¿ĥ
Ġä¸īè§Ĵ æ´²
oh n
bl ack
ĠéĿ© æĸ°
ĠèĪħ èĪħ
ĠæĻ¯æ³° èĵĿ
ĠåĶ¾ æ¶²
çº ¤
Ġå°± æŃ¤
æł Ī
Ġèĩª æĿ¥
Ġ- --------
å¤ļ å¾·
åįĹ åĮĹ
Ġå¥³ å£«
é«ĺ åº¦
Ġä¼ł åĶ±
çī¹ çĤ¹
Ġæ¸ħ æĻ¨
Ġçł ļ
Ġæīĭ ä¸Ĭ
Ġæķ° åĢ¼
Ġæ¡ Ĩ
ĠæĿ¨ åĪ©ä¼Ł
Ġå¥ĩ å¼Ĥ
çģ« æŁ´
Ġå£° èªī
Ġç»Ĩèĥŀ è´¨
Ġæł¼ éĩĮ
Ġå¾® è½¯
Ġå®« ä¸Ń
Ġæ¢ģ éĿĻèĮ¹
çĴ ĩ
Ġåįĩ åįİ
ĠåĪĩ å°Ķ
ĠèĪªç©º åħ¬åı¸
________ ________
ĠèħĲ æľ½
Ġä¿ĺ èĻı
i es
Ġä¸Ģ çľĭ
Ġe m
å¿ ½
ĠæĢ ¡
è¡Į ä¸º
æĹ¶ çıį
Ġé«ĺ ä¸½
Ġä½Ĩ ä¸ģ
ĠåĽĽ æĸ¹
ä¹ĭ çİĭ
Ġå¼ł åį«
Ġç¥ŀ å·ŀ
Ġçł ¸
çºª å¿µ
Ġåıĺ å¼Ĥ
Ġæīį åŃĲ
Ġçķ Ķ
ĠèµĦ äº§
Ġæ´» å¡ŀ
ĠåħŃ æľĿ
Ġè§Ħ æł¼
ĠåľŁ èĳĹ
Ġæº ´
çģ« ç®Ń
Ġäºĳ æµ·
çĿ Ĳ
èĭı æīĵ
Ġçľ¼ åħī
Ġæĭ¿ åĩº
Ġå¯Ĩ éĽĨ
ĠæŁ¥ çĲĨ
Ġéĺ» åĬĽ
ĠæĶ¹ç¼ĸ èĩª
Ġæ£ĭ çĽĺ
ĠèĬ±å²Ĺ å²©
Ġé£ŀè½® æµ·
Ġä¸į å·²
ä¸Ģ èĩ´
Ġä¸ŃåĽ½ å·¥
Ġçº ±
ĠçĶŁ æĦı
Ġä¸ī ä¸ĸ
Ġå¤ļ åĲį
åı² ä¹ĭä¹±
Ġéĩį å¿ĥ
Ġèĭ± å°º
æ¡ ¦
Ġæ³ķ æ²»
ä¸ľ åĿ¡
ĠéĴ ©
ĠåĨĽ çĶ¨
èµĦ äº§
Ġèįī æľ¨
Ġå»ºçŃĳ ç¾¤
ĠèĲ½ åı¶
Ġéķ¿æ±Ł ä¸īè§Ĵæ´²
Ġè´Ŀ åħĭ
Ġä¼¤ äº¡
is h
Ġä¼¦ çĲĨ
ĠèĹ »
Ġäººæĸĩ æĻ¯è§Ĥ
Ġç¢³éħ¸ æ°¢
8 6
åİ ĺç±³
Ġæķ ŀ
ĠæĪĲ æĸĩ
Ġç¬¬ä¸Ģ å¼ł
è¥¿ æ¸¸
åħ° èĬ³
ĠæķĻ ç§ĳ
ĠéĻĪ æħ§
çŁ¥ ç«ł
Ġæłĩ è®°
çģ« è½¦
Ġåħĭ èİ±
Ġéķĩ æ±Ł
Ġåı£ å²¸
Ġæħ ·æħ¨
Ġw to
Ġi c
ä¿Ŀ éĻ©
ĠçĶ³ æĬ¥
å¼ķ åĬĽ
Ġå±Ģ éķ¿
ĠçĽĲ éħ¸
Ġå´ĩ å°ļ
Ġåª ³å¦ĩ
Ġç§Ģ æīį
ĠåĩĿ ç»ĵ
Ġæģ© æł¼æĸ¯
Ġè¾ĸ åĮº
åħ¬åħĥ åīį
Ġæµ·è´¼ çİĭ
Ġæł¼éĻµåħ° å²Ľ
ĠæĤĦ æĤĦ
8 5
Ġä¸Ģ ä¸Ŀ
Ġä¸Ģ æ£µ
Ġä»¥ èĩ´
ĠåĽ½ å®Ŀ
Ġåħ¶ çĪ¶
Ġå¹¶ åħ¥
èĪ ľ
ĠåĲį æ°Ķ
Ġéĩĳ çĵ¶
Ġçľĭ ä¸Ĭåİ»
Ġ18 00
Ġé©¬ è½¦
èĩª åı¤
Ġæ·± å¤Ħ
Ġçģ« åĬĽ
éĤ ĵ
Ġåįĥ å²Ľ
Ġ13 68
Ġçĥ Ĥ
Ġå°ıè¯´ éĽĨ
ĠæĻ® æ´±
Ġä¿® å¤į
Ġä¿® è®¢
Ġåī¯ æĢ»
Ġå¾Ĳ æĤ²é¸¿
Ġæĭħ å½ĵ
Ġo k
Ġéĥ¡ åİ¿
ç¬¬ä¸Ģ ä¸ª
Ġå¥ī çĮ®
Ġæ¬² æľĽ
Ġåİļ åº¦
Ġæįķ æįī
Ġå¸ħ æ°Ķ
Ġçİ ²
èĤ ļ
Ġæµ· æ¸¯
ĠåĲĮ æ²»
Ġéĩĳ æŃ£
ĠæĢ» ç»ıçĲĨ
ĠèĪ ±
åī§ éĻ¢
Ġåħ³ éĹŃ
Ġå·´ æ¯Ķä¼¦
ĠåıĤ æĪĺ
Ġè¿ŀ äºĳæ¸¯
Ġä¹Ŀ ä¸ª
Ġå·¦ è¾¹
Ġè®¡ æĹ¶
ĠèĩªçĦ¶ æĻ¯è§Ĥ
Ġå¤ªéĺ³ åħī
Ġæľ± ä¸½
çª ĥ
Ġä¸¥ èĤĥ
Ġä¼Ĺ å±±
Ġåľº åĲĪ
ĠéĥŃ æķ¬æĺİ
Ġæ·· è¡Ģ
ol id
Ġæ°§åĮĸ çī©
Ġçĸĳ æĺ¯
Ġè¿Ŀ åıį
ĠéĽı å½¢
Ġè±¹ åŃĲ
Ġä¸Ģ è§ģ
Ġäºº äºĭ
Ġå¤§ ä¸į
Ġå¯ ĩ
äºİ æĺ¯
ĠæĹ¶ è£ħ
Ġåıĳ è¨Ģ
æĪĲ æŀľ
æĭ Į
åľ° ä½į
ĠåĪĨ åī²
Ġè¾ Ī
Ġéķ¿ çĽ¸
éĶ °
ĠéĿĴ éĿĴ
ĠéĿĴ èİ²
ĠåħŃ ä¸Ģ
Ġè½¬ ä¼ļ
çĻ¾ åº¦
Ġä¸įèĥ½ ä¸į
å·´ å·´
Ġç¥ĸ åĨ²ä¹ĭ
Ġçİī éĹ¨åħ³
æĿ¾ é¾Ħ
Ġãĥ ³
Ġä¸Ŀ è·¯
å« Ĥ
Ġçŀ ¿
ç²Ĵ ä½ĵ
Ġç´¢ å°¼
æª Ĳ
Ġ on
Ġä¸Ń åŃĲ
çī Ł
ä¸Ģ çĤ¹
Ġæ² Ĥ
æł Ĺ
Ġåĩº äº§
Ġé¦ĸ ä¸ª
Ġé¦ĸ éĥ¨
ä¹ĭ ä¸ĭ
Ġæ¶ ħ
Ġæ±Ł åŁİ
ĠæŃ¤ äºº
å¡ Į
Ġæİ¥ å¾ħ
ĠæĶ¯ æı´
Ġèįī èİĵ
ä¹ł æĥ¯
ç½ĳ ç»ľ
å¥¥ è¿Ĳ
ĠæĹ§ éĩĳå±±
ĠåĦĴ æŀĹ
ĠæĻ´ å¤©
ĠçĽĹ å¢ĵ
Ġçĭ®åŃĲ åº§
ĠéĽ¾ éĥ½
ĠæĬĽ å¼ĥ
ĠéĿĴéĵľ åĻ¨
Ġéħ¿ éħĴ
ĠåīĬ å¼±
Ġmar gin
ĠéĥĬ åĮº
åĬłå°Ķ æ¹ĸ
Ġçº£ çİĭ
ĠæĹ ·
Ġä¹ĭ ä¹ħ
Ġä¸ŃåĽ½ ç§ĳåŃ¦éĻ¢
Ġå±± å·Ŀ
Ġç² Ł
Ġä»£ ä»·
éĴ °
Ġæ±Ł æ°´
Ġç¼ĸ æĪĲ
Ġå®ĺ ç½ĳ
Ġæľį çĶ¨
Ġr ight
Ġçĳ ľ
Ġåģľ çķĻ
Ġçº³ ç±³
Ġç¡¬ å¸ģ
Ġå§ľ åŃĲçīĻ
Ġä¸Ģå®¶ äºº
Ġç½¢ äºĨ
Ġéĵ¸ éĢł
ĠèĿī èģĶ
ĠéĩĮç¨ĭ ç¢ĳ
Ġæ©¡ èĥ¶
Ġä¸į æĽ¾
Ġè¿Ļ æĶ¯
å¤§ èĩ£
ĠåĲİ æĤĶ
Ġå¤ļ çĶ¨
Ġåħ¨ åĨĽ
Ġç¾İ åĳ³
Ġæµ· çĽĹ
Ġæ· ĳ
Ġæ³ķ åĪ¶
ĠèĢģ çĪ¸
Ġèµ· åĪĿ
è¾¾ åĨħ
Ġæ±Ł éĻµ
å¦ Ĵ
ĠçĽ´ å±ŀ
Ġå®¶ éķ¿
æīĢ åĳ¨
Ġåħ« ä¸Ģ
Ġå¤Ħ ç½ļ
Ġçª Ħ
Ġè¾ĥ éķ¿
Ġéĵģ çŁ¿
ĠèĪª è¿Ĳ
ĠæĬ¥ åĪĬ
Ġå¸Ī éķ¿
Ġãģ Ħ
Ġæ¥ļ çķĻé¦Ļ
Ġå°Ĭ ä¸¥
Ġåı³ è¾¹
Ġä¾ĭ å¤ĸ
ĠæŃ¥ éª¤
Ġéĩĳå±ŀ åħĥç´ł
Ġé©± åĬ¨
Ġé¸£ äºº
Ġæ£Ĵ æ£Ĵ
ĠæľĢæ·± å¤Ħ
Ġæ²¸ çĤ¹
Ġéķ¿çĻ½ å±±
åįıåķĨ ä¼ļè®®
m g
Ġä¹ į
ĠæĹ ¦
Ġæľī åĬ©
Ġå¤§ è±¡
Ġä¹ĭ æĹħ
Ġå°± ä¸ļ
Ġå¯¹ ç«ĭ
èĬ ·
èĩ Ń
Ġæĸĩ ä½ĵ
Ġæĸ° æµª
å°ı åĪļ
ĠæĢ» å¯¼æ¼Ķ
Ġæ¢ §
æ· «
Ġæ´» ä½Ľ
Ġè¯¸ åŃĲ
Ġèľ Ĺ
éħĴ åºĹ
Ġé¦Ļæ¸¯ çī¹åĪ«è¡ĮæĶ¿åĮº
çŁ ®
Ġè½» æĺĵ
èľ ¡
Ġä¾µ åħ¥
åĴ Ĵ
Ġå·¡ åĽŀ
Ġèµ·ä¹ī åĨĽ
ĠéģĹä¼ł çī©è´¨
ĠæĴĴ åĵĪæĭī
Ġæĺ¨ æĹ¥
æµĻ æ±Ł
Ġè¯ ¢
Ġä¹ĭ æĦŁ
ĠæľĪ åĪĿ
Ġåĩº åħµ
Ġä¸» å®°
Ġå¤© å®Ŀ
èĩ »
Ġç¬¬ä¸Ģ æŀ¶
Ġæ°´ ä¸ĭ
Ġæ¯Ķ èĲ¨
Ġè¿Ľ åĩº
Ġå»º åº·
åĲĪ çī©
Ġå°±æĺ¯ æĮĩ
ĠåŁİ åįĹ
ĠæıĲ åıĬ
èĩª çĶ±
ĠèĲ ±
ĠèĬ± è¯Ń
Ġçĭ¬ ä¸Ģ
Ġæłĩ é¢ĺ
Ġèı Į
Ġå¿ħ å®ļ
åħŃ å¹´
ĠéĹ¨ åı£
ĠéĹ¨ å°Ĩ
Ġä¸°å¯Į å¤ļå½©
ĠéŃĶ å¹»
Ġåįı å¥ıæĽ²
Ġæ¥ļ æ±ī
Ġèĸ °
Ġçİ© åħ·
Ġå¼¹ éģĵ
Ġ190 6
Ġç¯ĩ æĸĩç«ł
ĠåĦĴ åŃ¦
Ġçŀ İ
ĠæĪĲéĥ½ å¸Ĥ
Ġå®¡ æŁ¥
ĠéĩĬ ä¹ī
ĠèħĲ èļĢ
Ġèº ¯
ĠäººéĢł åį«æĺŁ
Ġå±±æµ· åħ³
Ġæ°¢æ°§åĮĸ éĴł
ĠåĴ± ä»¬
ĠæķĻç§ĳ ä¹¦
Ġæľ ¦
Ġä¸Ĭ å®ĺ
çİ «çĳ°
Ġä¿ ı
èµ £
Ġéķ¿ åŃĻ
ç½ ¢
Ġæ¯Ķ éĩį
é©¬ æĸ¯
Ġä¸ĩ å²ģ
ĠçĻ½ å¸Ŀ
Ġåı« ä½ľ
å®ī å²Ń
ĠèĬ± çĵ£
ĠæŃ¤ åľ°
Ġæ» ¥
ĠèģĶ åĨĽ
Ġé£ŀ å¤©
ĠéĢł èĪ¹
Ġç¥ĸ æ¯į
Ġå¯Į è£ķ
Ġçıį åĵģ
Ġè§£æĶ¾ æĪĺäºī
Ġçģ° èī²
ĠÎ ±
Ġç³ Ł
Ġæ¤įæłĳ èĬĤ
Ġèıł èĲĿ
å± ¯
æľī ä¸º
ĠæŃ ĩ
åŃĲ å¤«
æĭ ¥
Ġä¸¤ åĲį
æĻ ķ
Ġç»ı çĲĨ
Ġä¼ļ ä¸Ĭ
ä¹ĭ æ²»
ĠåİĨåı² æĢ§
ĠåĨĻ å®ŀ
çº¦ çĥŃ
Ġè½¬ åħ¥
Ġè¿ľ å¤Ħ
Ġä¸° çĶ°
âĢ Ķ
Ġæľ± çĨ¹
ĠåĮ» åŃ¦å®¶
Ġèĥ¡ éĢĤ
ĠèĲ½ å·®
Ġæ¯ķ åĬłç´¢
ĠéŃĶ åħ½
ĠæĸĹ çīĽ
Ġè§Ĩ éĩİ
Ġç§¯ åĪĨ
æĿİ çĻ½
ĠæĬ¤ çħ§
éļı çĿĢ
Ġåģ· åģ·
å®£ è¨Ģ
Ġè¸ı ä¸Ĭ
Ġèľ¡ çĥĽ
Ġæª Ģ
Ġèĥ°å²Ľ ç´ł
æīĢåĳ¨ çŁ¥
çº¦çĥŃ åĨħ
äº ı
Ġè¿ ¦
Ġä¸Ĭ å°ī
ä¸Ģ çº§
ĠæĪĳ å®¶
Ġåıĳ å£°
Ġéĥ½ çĿ£
Ġä¸ĸçķĮ éģĹäº§
Ġå¤© å®ĩ
å¤© åŃĲ
Ġæĸ° é¢ĸ
éķ¿ å®ĺ
ç«ĭ å®ª
Ġ10 3
éª ŀ
Ġæ±ī åı£
ĠåĲĳ ä¸ĭ
Ġåħ¨åĽ½ æĢ§
æ¯Ķ ä¾ĭ
Ġä¹Ŀ åįİå±±
Ġn ew
Ġå¤± è¸ª
Ġç«ĭ æĸ¹ç±³
Ġä¹Į é¾Ļ
ĠåĲī å°Ķ
Ġw h
ç¦ ¾
Ġç§ĭ é£İ
Ġè¾Ľ èĭ¦
ĠèĪ¹ éķ¿
Ġè§£æĶ¾ åĲİ
Ġè½® å»ĵ
Ġçºµ è´¯
Ġçķª ç¦º
i am
t e
y m
çİ »
å¥ ĺ
ĠåĬ Ī
Ġå¤ļ é¡¹
Ġæĸĩ è¨Ģ
å¤ļ ä¸ª
Ġå¼Ģ æľº
ĠæŃ£ å½ĵ
ĠæĿİ å¤§
Ġå¤ª å¤ª
Ġç² ½åŃĲ
ä¸ľ çľģ
Ġäºĭ æķħ
Ġçī© äº§
ĠéŁ³ è°ĥ
ĠæŃ» æµ·
çĮ ľ
æ±Ĥ æģ©
çīĪ çº³
Ġä¼ĺ å¼Ĥ
Ġæļ ĳ
Ġç»´ ä¿®
è®¸ å¤ļ
ĠåĪĽéĢł æĢ§
Ġå®ĩ æĸĩ
Ġæ¯ķä¸ļ çĶŁ
ĠåįģäºĮ å¹´
ĠæĭĽ çĶŁ
Ġä¾¦ å¯Ł
w e
Ġä¸Ń æīĢ
è¯ Ī
åĨ ¶
Ġä¸Ĭ é¥¶
Ġéĩ ľ
Ġæ¯ ħ
Ġè¢« åĬ¨
Ġè¥¿ çº¢æŁ¿
Ġæĭ ©
Ġåħ¨ åĬĽ
Ġä¸ľ ä¾§
æĻ Ł
Ġéķ¿ è¯Ĺ
åįĹ çľģ
èĤ º
æĮ ł
Ġçİĭ ä¼ł
Ġ20 2
åįģ åĽ½
Ġä¼ł ç»Ļ
ĠåĬł å¤§
Ġéľ ¹éĽ³
Ġæ±Ł æ²³
Ġäºļ éĿŀ
Ġæĥ³ æĥ³
è¾¹ å½¢
Ġæŀģ åº¦
Ġä¹Ĳ åĽ¢
ĠéĻ¤ éĿŀ
æı ½
ĠéĺŁ åıĭ
ĠåĽ¢ éķ¿
Ġä½Ļ å¹´
èľ ĵ
Ġé²ľ èī³
ĠæĻĭ åĽ½
æ¬§ æ´²
Ġç¾Ĭ èĤī
åıĮ çīĪçº³
Ġæ´ĭ åĬ¡
Ġä¸ĥå¤§ æ´²
åħ ®
Ġå¤§ è¯Ŀ
Ġä¸º çķĮ
ä¸Ģ äºº
Ġä¹ĭ å¤ľ
Ġä»¥ ç¤º
ĠæĹ¥ è¯Ń
æĪĲ åĪĨ
Ġç¾İ åŃ¦
ĠåįĹ å®ģ
ĠçĶµ åĻ¨
åĲĪ åĲĮ
Ġç« £å·¥
åįģ äºĮ
Ġå¼ł æĥł
Ġå®ī æħ°
ĠéŁ³ä¹Ĳ åŃ¦éĻ¢
çİī çİ¯
ĠèĮĥ ä»²æ·¹
Ġå¸Ī åħĦ
Ġåľº ä¸Ĭ
Ġæ¶² æ³¡
Ġéļĭ çĤĢå¸Ŀ
Ġé£ŀè¡Į åĳĺ
Ġçģ¯ åħī
Ġé©» åľ°
éľŀ å®¢
Ġåī² è®©
ĠèµĶ åģ¿
Ġä¸Ń åħ´
äºº çŁ¥
Ġå¤§ å³¡è°·
ĠåĽ½ é¸Ł
Ġèĩª åı·
Ġèĩª è±ª
æĭ ĺ
ĠåİŁ ç±į
Ġä¼ł æĿ¥
Ġä¸ĩ åİĨ
Ġ10 9
Ġé£İ éĻ©
Ġå¯¼ çģ«
Ġåħ« çĻ¾
ĠéŃ ģ
Ġå¤ı èĩ³
ĠçĤ¹ è¯Ħ
ç§Ģ ä¸½
æ°ı æĺ¥ç§ĭ
Ġç»¿ æ´²
å¨ģ å°Ķ
Ġè¯ģ ä¹¦
Ġçł´ éĩľæ²īèĪŁ
Ġä¹ī ä¹Į
ĠçĶ±æŃ¤ åı¯è§ģ
Ġå¾¡ åı²
ĠèĥĨ æ±ģ
ĠæĲº æīĭ
ĠçĭŃ ä¹ī
ä¹¾ éļĨ
Ġæ´»åŃĹ åį°åĪ·
a u
Ġä¸ŃåĽ½ åı°æ¹¾
åĵ ĩ
Ġåī ĸ
Ġæĸ° åĽĽåĨĽ
ĠéĹ º
åĪ© å°Ķ
Ġæµ· å²Ľ
ĠçĻ½ ä»¤
Ġå¤ĸ æĺŁ
å¦ ¾
ĠçĶ· æŃĮæīĭ
ĠéĻĪ æ¯ħ
Ġç¬¬äºĮ ä»£
ĠåĨ³ çŃĸ
Ġé¾Ļ èĻİ
æ¼ Ĩ
Ġæ¼ ³
Ġéļ¾ é¢ĺ
Ġæ»¡ å¤©
ĠèĵĿ å¤©
ĠæĪĸèĢħ è¯´
Ġéĩİ å¿ĥ
Ġç¡¬ çĽĺ
Ġæī¬ åŃĲ
ĠåĪĳ æ³ķ
ĠçİĽ ä¸½
Ġå®ł çĪ±
Ġç»´åĲ¾å°Ķ æĹı
Ġå½ĵäºĭ äºº
çº¦çĥŃåĨħ åį¢
Ġä¸į åĥı
Ġä¸į åĩĨ
Ġæķ ĸ
Ġæµ· è¾¹
Ġä¼ļ éķ¿
Ġéĩĳ éĹ¨
ĠæĿİ çħľ
Ġçİĭ çĨĻåĩ¤
Ġä¼ł è¾¾
Ġå¼ł æŁıèĬĿ
ĠèģĶ æ¬¢
Ġé¦Ļ æ°Ķ
Ġç½ĳ æ¸¸
èµĦ æľ¬
Ġå¤ªéĺ³ ç¥ŀ
ĠèĴĻ çī¹
ĠæĹ§ åĿĢ
Ġéĺ´ åİĨ
ĠèĤ¯ å°¼è¿ª
Ġåĺī éĿĸ
ĠçĶŁæĢģ çİ¯å¢ĥ
ĠåĲĽä¸» ç«ĭå®ª
ç´« æ£ĭ
Ġæ³ķæĭī åĪ©
ĠæĺĶ æĹ¥
Ġå·¥èĹ¤ æĸ°
Ġä¸Ģ åĵģ
Ġä¸Ģ éģį
Ġä¸Ń åľº
Ġä¸Ń æ®µ
Ġæī ¯
Ġæĭ ĺ
Ġä¸¤ æ²³
å·ŀ åĮº
Ġåģ ĥ
åħ¬ ç¤¾
Ġèµ· åħµ
Ġé£İ ä¸Ń
Ġä½ĵ åĬĽ
Ġé©¬ åħ³
Ġæ¶ ¿
Ġ12 8
ĠéĿĴ çĿĲ
ĠçŁ ¢
Ġåįİ ä½Ĺ
Ġè¶ħ å¸Ĥ
Ġ14 5
ä½¿ çĶ¨
Ġåħ¥ åı£
èĭı éĩĮ
Ġåħĭ éļĨ
Ġæ²ī é±¼
åıį å°Ħ
ĠèĦ± èĲ½
ĠæįŁ ä¼¤
åı Ń
å· į
åĳ Ĩ
å§ Ĺ
Ġä¸ľ éĿ¢
ĠåİŁ åħĪ
Ġçī¹ åĮº
Ġé£İ åĲ¹
ä¸ī çľģ
Ġèĩ³ ä¸Ĭ
Ġä¸ĥ ç»Ŀ
Ġä¸ĢèĪ¬ æĿ¥è¯´
Ġåĵģ æł¼
ĠéĹ¨ ä¸ĭ
åľ£ æ¯įéĻ¢
ĠäºĮåįģ äºĶ
Ġä¸´ å®ī
Ġå¨ģ æµ·
Ġç¬Ķ èĢħ
Ġçİ¯å¢ĥ ä¿ĿæĬ¤
Ġæ¢ħ åħ°èĬ³
Ġæ¨¡ èĮĥ
Ġç¹ģ å¤ļ
Ġçº¿ ç²Ĵä½ĵ
Ġç¾Ĭ åŁİ
ĠçĽĳ å¯Ł
Ġç¥¨ ä»·
æīİ åħĭ
ĠéĿĴæµ· æ¹ĸ
ĠåĩĦ åĩī
Ġå°ĺ åŁĥ
Ġä¼ıå°Ķ åĬł
Ġå°±è¡Į äºĨ
0 1
v a
é ¥¿
ä¼ ½
Ġå¤§ è¿Ĳæ²³
Ġæ² ħ
Ġåĩº åĽ½
Ġè¥¿ åĲĳä¸ľ
Ġé«ĺ å®Ĺ
ĠåĮĹ è·¯
Ġå¼Ģ éĺĶ
Ġä¸¤ åº§
Ġæĸ° æ°ĳä¸»ä¸»ä¹ī
Ġåıª è§ģ
ç¨ ·
Ġçĭ ©
Ġå¤ĸ åľ°
Ġæ±ī æĻ¯å¸Ŀ
ç¼ ¸
Ġæľº æĻº
çĶµ èį·
ĠçŁ Ĺ
ĠæĢ§ æĥħ
åŃĺ åľ¨
Ġéĵ¶ çīĮ
Ġä¸ªäºº èµĦæĸĻ
ĠæĪ¿ ç¥ĸåĲį
æĢ» éĥ¨
Ġæļ´ é£İ
Ġå¥¶ èĮ¶
Ġæľ´ å®ŀ
Ġå®ı å¤§
Ġéģµ å¾ª
æº¶ æ¶²
Ġæ»ĭ åĳ³
Ġçİ»åĪ© ç»´äºļ
Ġè¢«éĢī ä¸º
é ¦ı
Ġè¿Ļ æīį
Ġä¼ Ĳ
Ġèĩª ä¼ł
Ġè¥¿ éĿ¢
Ġéĩį éĩį
Ġå¥³ å£°
ĠæŃ£ åı²
ĠæĿİ è´º
Ġæ³ķ èĢģ
ĠäºĶ èī²
Ġå®ŀ çī©
Ġæīĵ çĶµè¯Ŀ
Ġè¿ĳ è§Ĩ
Ġæ³ķåĽ½ éĺŁ
ĠåıĮ åŃĲ
ĠèĪª çıŃ
Ġéĵ¶ å¹ķ
Ġæ¬¡ åºı
en s
è¿Ļ éĩĮ
Ġå½Ĵ çº³
Ġåł µ
ĠåĽĽå¤§ æ´ĭ
Ġä¾µ çĬ¯
as h
æĸ¯åĿ¦ å¸ĥå°Ķ
Ġä¾Ľ å¥ī
Ġéĺ» ç¢į
èĶ ļ
ĠæĪª èĩ³
Ġå°¿ æ¶²
Ġåĵ¥ä¼¦ å¸ĥ
Ġå¤ªè¡Į å±±
ĠéĩĳçĲĥ å¥ĸ
Ġæ½į åĿĬ
Ġä¸Ģ æľĪ
Ġä¸Ģ å°ģ
è¯ ı
åŃĲ ä¸¹
è§ ħ
Ġä½ľ çī©
Ġåħ¨ åľº
åĬĽ åŃ¦
ĠæĮ ¨
ĠæĹł å£°
Ġå»º åĪ¶
ĠçĲ ħ
èĲ ¸
ç¬ ł
Ġåį³ ä¾¿
ĠæŃ¦ å°Ĩ
ĠåĬ¨ èį¡
ĠéĿĴ é¾Ļ
Ġåħ± é¸£
ĠåĮħ å¤´
ĠæŀĹ èĤ¯
Ġç½ĳ çĤ¹
ĠæĻ® é²ģ
Ġè´Ŀ åĪ©
Ġè§Ĩ è§Ĵ
Ġä¸ľåĮĹ åľ°åĮº
Ġæłĳ ä¸Ĭ
èĪª ç©º
Ġèµŀ èµı
Ġå¼¹ æĢ§
Ġæģĭ æĥħ
æĵ Ĵ
Ġç½ª æģ¶
Ġåī© ä½Ļ
èº ģ
Ġå·´å°Ķ å¹²
Ġæĳ§ æ¯ģ
Ġå¦¥ åįı
ĠæĻģ çĽĸ
m y
Ġ ë
Ġä¸Ģ æľŁ
Ġä¸Ģ å¯¸
æŃ ī
åľ° çĲĨ
Ġä¸¤ å¤©
Ġè¦ģ ä¹Ī
Ġå±± ä¸ĭ
ĠäºĮ éĥİ
Ġå¾Ĺ ä¸įåĪ°
ĠæĦı åĽ¾
å¾· æĢĢ
ĠåĪĺ ç¦ħ
Ġç¥ŀ é¾Ļ
ĠèĲ ¤
Ġ11 2
ç¼ ł
ĠçĲĨ å·¥
ĠåıĮ çľ¼
æĹł äºĮ
Ġå®ĺ åħµ
Ġè¿ľ ä¸ľ
Ġç«ĭ åľº
Ġp r
ĠåĬ¨çī© åĽŃ
åĺ ±
çĴ ¨
200 1
ç®Ģ åįķ
Ġç½® äºİ
èº ¬
ĠéĩİçĶŁ åĬ¨çī©
ĠæĿ°åħĭ éĢĬ
Ġé©±éĢĲ èĪ°
Ġåħĭç½Ĺ åľ°äºļ
Ġä¸Ģ éĽĨ
Ġä¸Ģ å¹ķ
Ġä¸Ń éĢĶ
Ġä¸į å¤§
Ġä¸Ĭ çıŃ
å¯ Ħ
Ġåħ¬ å°º
Ġä¸¤ ç«¯
Ġé»Ħ åºŃ
Ġåķ ¼
åıĳ å°Ħ
ĠæĶ¿ ä½ĵ
Ġä¿Ŀ åģ¥
çĥ ¤
Ġc u
åĦ¿ ç«¥
åı¤ äºº
ĠæİĴ æĶ¾
Ġåħĭ æ´Ľ
Ġæľ¨ å¤´
ĠçĨ Ļ
Ġr e
Ġçħ§ æĺİ
Ġæ½ľ æ°´
Ġä½³ ä½ľ
Ġmv p
ow s
ph one
Ġæĳ©æīĺ è½¦
ĠæľĢåįĹ ç«¯
Ġå¼łèīº è°ĭ
Ġéĩĳçĵ¶ æ¢ħ
Ġè¯¢ éĹ®
Ġâ ķ
Ġä¸Ģ åĳĺ
Ġå¤§ ä¸Ģ
ĠæĿ ī
Ġåĩº å¡ŀ
Ġä¸ī éĹ¨
Ġè¥¿ ä¾§
Ġä¸ľ èĩ³
Ġä¸ľ è¾¹
Ġæŀ ķ
Ġè¿Ľ å±ķ
ĠèĬ ½
ĠåĲĮ èĥŀ
Ġéĩĳ éĵ¶
Ġéĩĳ çīĽ
Ġè¯Ĺ æĥħ
Ġé¦ĸ åĪĽ
ĠæıĲ åıĸ
Ġå¿ĥ å¤´
ç©º éĹ´
èģĶ ç³»
Ġèģ ĺ
Ġn h
çĳ Ľ
Ġçĥ Ľ
ĠæĻ® å¸Įéĩĳ
ĠæĶ¯ çĤ¹
Ġå®£ ç»Ł
Ġæĺ¾ å¾®éķľ
Ġåį« åŃĲå¤«
ç»Ŀ é¡¶
ĠéĶĻ è¿ĩ
Ġåı¸é©¬ åħī
èļ ĵ
Ġè¿· ä¿¡
Ġåį¢ æ²Łæ¡¥
ĠÄ «
Ġä¼Ļ ä¼´
Ġä¸¹å¿ĥ çħ§
Ġæ·Ħ åįļ
f r
Ġä¸Ń æĢ§
ä¸Ģ æĹ¶
æł ©
ĠæīĢ çŁ¥
Ġè¥¿ ç»ı
Ġå¤ļ æĥħ
è· Ł
Ġå±± ç³»
ĠåĿ Ĭ
Ġå¿ĥ è®¡
Ġå¿ĥ çĪ±
Ġæ·± åĪĩ
Ġå®¶ å®¶
Ġäº¤ ä»£
ĠéĢī åĩº
Ġ15 8
Ġè£ ¤
Ġå®£ ç§°
Ġæĭī æĸ¯
ĠèĻ Ĳ
Ġå¤´ è¡Ķ
Ġåį« åĽ½
ĠçĽ®åīį ä¸ºæŃ¢
Ġå¯Į å£«
ĠèĲ½ ä¸ĭ
Ġå®« å¥³
Ġä¿ĿæĬ¤ åĮº
ĠåŃŁ å°Ŀ
å°½ èĩ´
æĢ» åĢ¼
ĠéļĶ æµ·
Ġç¨Ģ æľī
ĠåĮĹæŀģ æĺŁ
ĠçĭŃ éķ¿
ĠéĤª æģ¶
Ġéĵĥ å£°
g r
ĠæŃ §
ĠæĹ¶ æīĢ
Ġä¸ŃåĽ½ æĶ¿åºľ
çĶŁ ä»£
èĬ ĭ
æ¸ Ķ
ĠåĮĹ åĳ¨
Ġéĩį çĶ¨
Ġéĩĳ å±±
Ġç½ ²
ĠäºĶ ä¸Ģ
æĦı è¯Ĩ
ĠåĨį çĶ¨
Ġæ¡ Ķ
ĠéĢī å®ļ
Ġç½Ĺ ä¼¯çī¹
Ġç½ĳ é¡µ
Ġæŀģ åĬĽ
Ġç¦» åİ»
ĠçĶŁäº§ æĢ»åĢ¼
ĠåĬŁ åĬ³
Ġå®Ŀ åº§
en n
ĠéĿŀæ´² å¤§éĻĨ
Ġæ´Ĺ æ¶¤
Ġè½½ ä½ĵ
Ġç§¦å§ĭçļĩ éĻµ
Ġæļ´ åĬĽ
Ġæ¹ĺ è¥¿
Ġæ°´åĪ© å·¥ç¨ĭ
Ġéĵ¾ æİ¥
åİĺ å²Ľ
Ġäº¬æĿŃ å¤§è¿Ĳæ²³
éĿĵ é¢ĸ
Ġå´Ń æĸ°
Ġæ·ĭæ¼ĵ å°½èĩ´
ĠæĪ Ľ
æĸ §
Ġå¤§ éĥ¨
åĨ ¢
ĠæĹ¶ æľº
Ġä¸ĸçķĮ æĢ§
Ġå¤© å°Ĭ
Ġé«ĺ åĩº
å¤ĸ åı²
å¨ ¶
Ġå®ī å¾·
Ġå®ī åı²ä¹ĭä¹±
Ġæ±ī æ±Ł
Ġå®Į æ¯ķ
ĠåĽŀ é¡¾
Ġæĺ¥ åŁİ
Ġå¸Ĥ åĨħ
Ġæľº æŀª
åħ¨ ä¼ļ
åıĺ æ³ķ
ĠåĲ´ å°Ĭ
Ġå¼ķ åĩº
ĠåĮĸ ä¸º
Ġå¥ĩ å¦Ļ
ĠæĻ¯ å¤©
èĹı å¸ĥ
or y
Ġç¾¤ å±±
Ġé¢ĺ è¯į
ĠåĪļ å¥½
ĠåĲķ åĲİ
ĠåĽ½æ°ĳ éĿ©åĳ½åĨĽ
Ġèµŀ åı¹
ĠæĺŃ åĲĽ
ĠæĪª æŃ¢
Ġå¤§éĥ½ å¸Ĥ
Ġä¸ŃæĸĩåĲį ç§°
æĶ¿æ²» å±Ģ
Ġäº¡ åĽ½
Ġå¹ķ åĲİ
Ġå¤ļä¼¦ å¤ļ
Ġä¸Ń ç¯ĩå°ıè¯´
ä¹ Ĵ
ĠåĴĮ çº¦
å· ¡
ĠçĶŁ æ¯į
éģĵ åŃĲ
Ġæ°´ éģĵ
ä¸į éŁ¦
Ġè· ª
Ġé»Ħ çŁ³
ĠäºĶ çİ¯
Ġ10 2
Ġçł Į
Ġè¡Į çľģ
Ġèº« åĲİ
Ġèĭı ä¸ľåĿ¡
Ġå·¨ åŀĭ
Ġâĳ ¥
Ġè¯» åĲİ
çª ĳ
ĠçĨ ¬
è¿Ļ æł·
ĠçŃ¾ å®ļ
Ġå°¤ ä¸º
Ġåħļ ä¸Ńå¤®
Ġé¡¶ ç«¯
éľ¸ çİĭ
Ġæ¯Ĵ ç´ł
Ġæ³¥ æ²Ļ
Ġæłĸ æģ¯
æĪıåī§ åŃ¦éĻ¢
Ġéķ¿æģ¨ æŃĮ
m l
s c
Ġäºº é©¬
ĠéĻ Ģ
Ġæ± ¶
Ġç¬¬ä¸Ģ å®¶
å°Ķ æľ¬
è· ¤
æİ ·
è¡¨ éĿ¢
ĠéĩĮ çº¦çĥŃåĨħåį¢
Ġèµ· è¯ī
ĠçĻ½ æĹı
Ġå®ī è¥¿
ĠéĿ¢ åĢ¼
Ġäº¤ éĶĻ
Ġçī© æµģ
åı¯ èĥ½
ĠéŁ© åī§
ĠåĪĿ æģĭ
çĻ¾ å®¶
Ġèħ º
Ġæ»¡ æ¸ħ
Ġæ¬¡ åŃĲ
Ġé½Ĳ åħ¨
Ġé½Ĳ è¾¾åĨħ
Ġå¯Į åĲ«
ĠæĤ² å£®
Ġæ¼ĶåĶ± èĢħ
Ġæ¥ļ è¾ŀ
ĠéĽĦ æµĳ
ĠåĮĸåŃ¦ åıĺåĮĸ
Ġæī¹ åıĳ
ä»ª å¼ı
Ġæ¯« åħĭ
ol d
æľª æľī
ĠèĪ¹ éĺŁ
Ġå·´é»İ åľ£æ¯įéĻ¢
Ġç¬¬äºĶ æ¬¡
Ġä¾Ľ ç»Ļ
ĠâĨ ĳ
åĩł åĨħäºļ
Ġéķ¿æľŁ ä»¥æĿ¥
Ġé¢ĩ ä¸º
ĠèĨ Ŀ
Ġè¥¿èĹı èĩªæ²»åĮº
Ġä¸¤åı¥ è¯Ĺ
ĠéĻª ä¼´
ĠèĬĿ éº»
Ġintern et
Ġæľ¦ èĥ§
Ġå¼łæĥł å¦¹
i al
¯ èļĵ
Ġåľ¨ å®¶
è® ½
åĵ ī
ĠçĶŁ è¾°
Ġåħ¬ åĳĬ
èµ ¢
ĠåİŁ ä½ľ
åħ¬ é¡·
Ġ18 60
Ġåħĥ æľ«
Ġç²¾ ç»Ĩ
Ġåħī å½©
Ġb order
Ġçª ĳ
ĠåĪ« å¢ħ
å·´ è¥¿
Ġå¤´ åĥı
è¿Ļ é¦ĸ
Ġäºī éľ¸
Ġä¸Ģä¸ĭ åŃĲ
å®ĩ æĺ¥
ĠåĸĿ éħĴ
Ġå¤§çĲĨ çŁ³
ĠçĶ²åįĪ æĪĺäºī
Ġå¼łåį« åģ¥
Ġç ĻĮ
åħ ¼
Ġå¤§ ä¸Ń
Ġå¤§ æĿĥ
Ġå¤§ åħ¸
Ġå¤§ åºĨ
Ġæĸ §
Ġä¸º åĽ½
ĠåĮ ł
æĭ Ĵ
Ġå¤ļ å®¶
Ġå¤© åĽ½
çĤ Ĵ
ĠåĮĹ ç«¯
Ġç¬¬ä¸Ģ å¤©
ĠçĶµ æ°Ķ
è¥¿ éĩĮ
ĠçĽ¸ éĢļ
Ġæ°´ çĶŁ
ĠåĨĻ çħ§
Ġæ¯ı ä¸Ģ
ĠåĢ ĺ
Ġæ±Ł å®ģ
Ġåıĺ å°ı
ĠèĬ± çº¹
Ġå®¶ åĽŃ
çĽ® æłĩ
åĴĮ å¹³
ç´ł è´¨
é¥ ±
Ġæ¸¸ ä¹Ĳ
ĠåħŃ éĥ¨
ĠåĮº åĨħ
Ġæ¼ Ĩ
Ġäº² æĪļ
Ġèľ ¿
Ġå¤į åĩº
Ġç»Ĩèĥŀ åĻ¨
Ġç»¿ åĮĸ
Ġä¸ľè¥¿ éķ¿
Ġéĺ³ åħ³
èĮĥ åĽ´
Ġäº¤éĢļ æŀ¢çº½
Ġéº» è¾£
Ġç¡¬ åº¦
ĠçĶľ ç¾İ
æ§ ½
ĠåĮĸåĲĪ ä»·
æĶ¿æ²» åįıåķĨä¼ļè®®
Ġéĺ¿å§Ĩæĸ¯çī¹ ä¸¹
ĠçĲĨäºĭ ä¼ļ
Ġæ®ĭçĸ¾ äºº
Ġè Ń
Ġé ¬
ä½ ¬
Ġå¹´ æĿ¥
Ġè¯ Ī
Ġäºº éģĵ
éĺ Ļ
çĽ ¼
Ġéĩį è¿Ķ
Ġå»º åįİ
Ġçģ ¼
Ġéĩĳ é©¬
Ġçİĭ åĲİ
ä¹ĭ ä¹¡
Ġä¸ĩ äº©
æ¶ £
ç¨ĭ åºı
Ġäº§ äºİ
Ġåģļ è¿ĩ
Ġä¹¦ åľ£
Ġå¸¦ èµ°
Ġä¼ĺ æĥł
ä½³ äºº
ĠçĶ» åĥı
ĠéĹ¨ å¤ĸ
ĠæĽ² éĺľ
çĬ¶ åĨµ
èľ Ĵ
Ġçİĩ åĨĽ
Ġè¾ĵ éĢģ
Ġéĺ¿æĭīä¼¯ æķ°åŃĹ
Ġåįĸ çģ«æŁ´
Ġéľ¸ ä¸»
ĠæĬ½ è±¡
ĠåŃ¦æľ¯ çķĮ
ç° ¿
Ġåħ¨åĽ½äººå¤§ å¸¸å§Ķä¼ļ
Ġåį°ç¬¬å®ī äºº
Ġå²· æ±Ł
è ŀ
Ġä¸Ń éĶĭ
åŃ ļ
ĠæľĢ èĥ½
Ġå°ı é¸Ł
Ġèĩª å¼º
Ġä¸ī çľģ
ä¸Ĭ æµ·
è½ ²
Ġå¦Ĥ åĽ¾
Ġæ°´ ä½į
ĠåĲį ä½ľ
ĠåĲĮ ç±»
ä¾ Ī
Ġæķħ æľī
èĩª å¿ł
èĢĮ è¨Ģ
ĠçŁ¥ éŁ³
ĠéĿĴ éľīç´ł
Ġåĸľ å¥½
ç¼ ķ
Ġè®° åıĻ
çĶµ è½¦
ĠèĴ ľ
Ġ16 44
Ġæ¸© å·®
ĠæĽ¹ åĨĽ
Ġèµµ èĸĩ
ĠèĩªçĦ¶ çİ¯å¢ĥ
èĢģ åĲĽ
or t
é²ģ èĹıå¸ĥ
ĠÃ ¹
ĠåľĨ èĪŀæĽ²
Ġè§ī éĨĴ
Ġçºªå¿µ ç¢ĳ
ĠåĪº åĪĢ
åĴ ¸
åıĮ æīĵ
Ġé¡¾ éĹ®
ä¼ĺ åĬ¿
ĠäºĶä»£ åįģåĽ½
ĠçĪ¬è¡Į åĬ¨çī©
ĠèĢĢ çľ¼
Ġæ¸¸åĩ» éĺŁ
Ġåħĳ æį¢
ĠéĻĪå°ı æĺ¥
Ġçĭ© çĮİ
u k
» èľĵ
Ġäºº åıĤ
Ġè¾ Ł
Ġä¸¤ å®¶
æµ· å³°
ĠåĨħ èĥ½
ĠæŃ£ çĽ´
æ°´ åİ¿
Ġèĭ± å¯¸
ä¹Ĳ éĺŁ
Ġçº¢ é¢ľ
Ġæīĵ è¿Ľ
Ġä¿Ŀ å°Ķ
å½¢ å¼ı
çĶ» å®¶
ä¿¡ ä»°
ĠæĿ¨ çİīçİ¯
Ġåľ£ çģ«
ar a
ĠæĽ² çº¿
Ġçİī çļĩ
Ġåįı å®ļ
Ġ26 5
ä»ģ è´µ
æĢ» å±Ģ
Ġæģ¶ åĬ£
ag e
ĠåıĽ éĢĨ
Ġç£· éħ¸
çİ® æŁı
Ġè½´ æī¿
Ġä¸Ģä¼ļ åĦ¿
ĠéĴĵ é±¼
ĠèĮ± èĲ¸
Ġç»¯ éĹ»
ĠåĦĴæŀĹ å¤ĸåı²
Ġä¹ĭ å¤§
Ġä»¥ èĩ³äºİ
Ġåĩº è¡Ģ
ä¸Ń åħ¨ä¼ļ
ĠçĪ± å¿ĥ
Ġå±± æ²³
Ġèµ· èįī
ĠåĶĲ é«ĺå®Ĺ
å°ĳ å¥³
éĵ ¸
æ· Ħ
ĠæŀĹ å¿ĥå¦Ĥ
çº¢ æĹĹ
Ġè¡Ģ ç»Ĩèĥŀ
ĠåŃĺ æĶ¾
Ġä½ķ å¿ħ
ĠæĬ¥ èĢĥ
Ġèİ« è¨Ģ
ĠåįĹäº¬ å¸Ĥ
ĠåİŁåŃĲ æł¸
Ġé©¾ è½¦
ĠèĲ¨ å°Ķ
Ġæ¹ĺ æ½Ń
Ġæ·ĺ å®Ŀ
ĠæĬĴæĥħ è¯Ĺ
Ġå®¾ å®¢
è½¨ çĶµè½¦
ĠèĬŃèķ¾ èĪŀ
s olid
ĠèĢ į
Ġä¸Ĭ ä¹¦
ä¸Ģ å¤©
å¤§ ä¼Ĺ
Ġå¸ ĸ
æķ Ľ
Ġ3 20
ĠçĶŁ åįĴ
Ġé«ĺ å±Ĥ
æĸĩ çī©
Ġæĸ° çŁ³åĻ¨
ä¸į æĸŃ
Ġæµ· çİĭæĺŁ
ĠåĽ½å®¶ ä¸Ģçº§
Ġçİĭ å®Ŀ
Ġå±± éķĩ
Ġå¥½ äºº
Ġå¥½ å¥ĩ
Ġæķħ äºº
Ġé©¬ å¤´
Ġä»£ ç®¡
Ġå¥¥ è¿ª
ĠæŃ¦ éĻµ
ĠåħĪ å¤©
Ġèĭı èı²
Ġæľª æĪĲ
Ġå¦ Ħ
ä¹Ŀ å¹´
Ġä¹Į æ±Ł
ĠçŁŃ ç¯ĩ
Ġw ind
ic a
et h
ĠéĤĵ ä¸½
ĠåĩĮ ç»Ŀé¡¶
Ġå¿½ çķ¥
Ġé³ ĥ
ç¬¦ åı·
Ġæ£ĭ åŃĲ
åį«æĺŁ åıĳå°Ħ
ĠçĴ Ģ
Ġåĩ¿ å£ģ
Ġéħ± æ²¹
Ġçĸ² åĬ³
Ġéķ¶ åµĮ
Ġäºĳè´µ é«ĺåİŁ
åį«æĺŁåıĳå°Ħ ä¸Ńå¿ĥ
Ġä¸Ģ åľĪ
ĠåĮ ¾
Ġåľ° éĽ·
ĠåĲį åŁİ
ä¸į èĥľ
å°ı é¸Ń
ĠéĩĮ æĸ¯
ĠçĻ½ çİī
ĠåĨĽ æ°ĳ
Ġåĩł åı¥
å¤« æĸ¯åŁº
Ġç½Ĺ åħ°
Ġå¯¼ èĪª
Ġå¸¸ å·ŀ
Ġè¿ĳ æľŁ
ĠéĹ¨ åīį
æ²Ļ ç¾¤å²Ľ
å¹² å¸ĥ
Ġå²Ľ åĽ½
ĠæķĻèĤ² éĥ¨
Ġè¡ĮæĶ¿ éķ¿å®ĺ
ĠÐ ¾
åĬ³ æĸ¯
Ġè½® åĽŀ
ĠæĺŁæľŁ åħŃ
Ġæ¦ ķ
ĠåĬ© æĶ»
èµŀ å¹²å¸ĥ
Ġèĭ±æĸĩåĲį ç§°
ĠéĢ¼ çľŁ
Ġå¤ĩ æ³¨
ĠèģĬ å¤©
Ġè·Ŀä»Ĭ å·²æľī
Ġå¤ªåİŁ å¸Ĥ
ĠæĳĶ è·¤
ĠåĲĦæĹı äººæ°ĳ
f o
æľī çĶ»
ĠæĢ ľ
Ġå°ı å®Ŀ
Ġä¸ī åŃĹ
æ¼Ķ åĶ±
åĩ ¶
Ġåīį è¾Ī
ä¹Ĳ åºľ
Ġé¥ ºåŃĲ
ĠçĻ½ é¹¿
ĠåĪ¶ åĵģ
ĠæŃ¦ å¤·
åħ³ æĸ©
Ġæ²³ æ®µ
ĠçĤ ĸ
ĠéĽĨ æĪĲ
ĠæŀĹ ç«ĭ
é¹ Ń
Ġå®ļ çĲĨ
å¾ĭ è¯Ĺ
Ġå±ħ äºİ
Ġå¤ªéĺ³ èĥ½
Ġå£° æĺİ
ar k
Ġä¿® çĤ¼
Ġè§Ĩ åĬĽ
ĠèĻļ æĭŁ
Ġèŀį åĮĸ
Ġæ´ĭ æº¢
ĠæĢª çī©
Ġè¿ĻæĹ¶ åĢĻ
iv e
Ġ184 2
Ġçºł æŃ£
px solid
æ¿ Ĵ
ĠåĽ½åºĨ èĬĤ
ä¸ŀ çĲ³
Ġä¸Ģ åħ«
åĽ½ åĽ¢
Ġä¸Ń æĮĩ
Ġä¹ĭ åıĺ
Ġåĩº æµ·
è¡Į åĬ¨
ĠæĹł èĥ½
Ġä¸ĭ æ°´
ä¸į èĥ½
ä¾ į
Ġå®ŀ ä½ĵ
åĨħ çĳŀ
æ¢ Ĺ
Ġæīĭ èĩĤ
å© ķ
Ġä»Ĭ çĶŁ
çĭ ł
Ġç¨ ¿
Ġåıĸ åĨ³
Ġéĵ¶ å·Ŀ
Ġæľ± èĩªæ¸ħ
ĠèĴĻ åĵ¥
Ġåį°åº¦ äºº
Ġè´µ éĺ³
çļ® é²ģ
Ġåħ° éĻµ
Ġèµŀ èªī
åģ¥ åº·
Ġè¿ģ ç§»
ĠåĩĮ äºĳ
Ġæīģ é¹Ĭ
Ġä»Ļäºº æİĮ
Ġæ¶Į çİ°
Ġæ»¨ æµ·
Ġintern ational
Ġé»Ħæ¢ħ æĪı
çĢ ļ
åĨħçĳŀ æĭī
9 1
i er
Ġ Ø
Ġåľ° å±Ĥ
ĠçŃ ĭ
è¾ Ĳå°Ħ
Ġè´ ©
Ġä¸¤ çľģ
Ġ4 20
ĠåĲį å®¶
ĠåĲį åī¯
Ġèĳ µ
ä¸ī åįģ
åıĳ èĤ²
ĠèĤ ¿
Ġåıĺ è´¨
åĦ¿ åºĦ
Ġè·¯ ç¨ĭ
Ġå¿ħ éľĢ
Ġäº² å¯Ĩ
Ġåį¡ çī¹
Ġåı£ å¾Ħ
Ġæĸ¯ éĩĮ
ĠåĲķ ä¸įéŁ¦
åŀ «
Ġåıĳè¾¾ åĽ½å®¶
ĠæŁĶ è½¯
Ġe d
è¯ £
Ġä¹ĭ åĪĨ
Ġæ¯ ħåĬĽ
Ġåıĳ èĬ½
ä»¥ åīį
å¤ļ å°Ķ
å¾Ĺ ä¸Ĭ
ĠæĹł èģĬ
ĠåĽĽ èĤ¢
Ġåĸ ī
ĠåĲĦ å¼Ĥ
Ġæ³ķ å®ĺ
Ġå¼ł èī¯
Ġåıĺ åĬ¨
Ġäºĭ åıĺ
æ» ¥
Ġçģ« èĬ±
çı ĳ
Ġå¼º åĪ¶
Ġm in
Ġb c
ĠåĨľ å®¶
ĠæĶ¶ åħ»
Ġèįī åľ°
çıŃ äºº
ç½ĳ ç«Ļ
Ġäº¿ ç«ĭæĸ¹ç±³
Ġè´¢ åĬ¡
ĠÐ µ
ĠåºŁ çī©
Ġè¿ģ èĩ³
Ġçģ¯ çģ«
ĠæĬĴ åĨĻ
Ġå½Ń å¾·æĢĢ
ĠçĮİ äºº
ä¸¸ åŃĲ
è´¸æĺĵ ç»Ħç»ĩ
Ġç»¼èīº èĬĤçĽ®
ĠåĲįåī¯ åħ¶å®ŀ
Ġä¸Ń å¹´
ĠçĽ Ĵ
ĠæľĪ çīĻ
Ġè¯´ éģĵ
Ġéĩĳ å¥ĸ
Ġé¦ĸ åıĳ
æĹ¥ è®°
Ġæ±ī æĸĩå¸Ŀ
ĠéĿĴ å¤©
Ġèº« ç©¿
Ġæ» ģ
å°¼ å°Ķ
Ġæİ¨ åĲĳ
Ġh e
Ġä½Ľ å±±
èĪŀ è¹Ī
ĠèģĮ å·¥
ä½Ľ æķĻ
Ġä¼¤ åı£
è½® æīĭæŀª
Ġåģ¥ èº«
è´¤ é½Ĳ
ĠåĪĴ æĹ¶ä»£
Ġå´ĩ ç¥¯
åŀ ¢
çĶ· åŃ©
ĠåıĤèĢĥ èµĦæĸĻ
ĠéĹŃ æľĪ
ĠæŃ£æľĪ åĪĿ
Ġè¯Ĺä¸Ń æľīçĶ»
åļ ¼
Ġäºļé©¬åŃĻ æ²³
Ġä»¤çĭĲ åĨ²
Ġä¸Ģ æ±½
çŃ ł
Ġå¤ļ å§¿
Ġé» ı
å®ļ å¾ĭ
ĠçĽ¸ å¤Ħ
ĠéĢļ èĪª
å¾· æĭī
ç»Ł ä¸Ģ
Ġä¿Ŀ å®ļ
Ġèº« ä»·
Ġc d
Ġåįİ ä¸Ń
Ġè£ ķ
Ġèįī ä¹¦
Ġä¼Ĭ æĸ¯åĿ¦å¸ĥå°Ķ
çĹħ æ¯Ĵ
Ġé½Ĳ æ¡ĵåħ¬
Ġr o
å¹¿ åĳĬ
Ġæ±½è½¦ ç«Ļ
åįĪ çº¿
Ġå£® å¤§
Ġæī© å»º
Ġè¡¨æ¼Ķ èīºæľ¯
ĠåĽ´ åŁİ
Ġä¸Ŀ æ¯«
ĠæĬµ å¾¡
Ġåģ· è¢Ń
Ġæ®¿ è¯ķ
Ġè¾ħ ä½Ĳ
ĠçĤ¸ å¼¹
ĠæĪĲå¹´ äºº
ĠèĨ¨ èĥĢ
Ġè¡Ģçº¢ èĽĭçĻ½
ĠæĸĩæĪĲ åħ¬ä¸»
Ġçĭ¬ä¸Ģ æĹłäºĮ
ĠåıĸåĨ³ äºİ
i x
p ro
ĠâĢ ĵ
Ġåľ Ń
ĠåĽĽ çº§
ĠæĿİ æĹ¶çıį
Ġçľĭ å¥½
Ġ7 70
Ġéĵ Ģ
è¯Ŀ è¯´
Ġæ¯ı äºº
ĠçĶ· å£°
ĠèĦ ĸåŃĲ
Ġå¸¸ è¯Ĩ
ĠåıĮ äºº
ĠèĢĥ çĶŁ
Ġè¡Ģ æµĨ
èĢģ é¼ł
Ġèįī æľ¬
èĳĹ ä½ľ
Ġå°½ å¤´
ĠéŃĶ é¬¼
ĠåŁĥ å¡ŀ
am es
Ġæ¯Ķå¦Ĥ è¯´
éĶĢ çĥŁ
ĠåºĦ åĽŃ
Ġå¥¥æŀĹåĮ¹ äºļ
ĠæĽ¼ è°·
Ġæ±ĩ åĲĪ
Ġç»§æī¿ äºº
ĠèįĴ æ¼ł
lo g
Ġçī§ ç¾Ĭ
Ġç¼ĺ æķħ
æ§ Ł
Ġå¬ Ľ
Ġå·´å°Ķ æīİåħĭ
ĠéªĮ è¯ģ
Ġæµıè§Ī åĻ¨
ĠåĤį æĻļ
z h
Ġè¿Ļ ä»½
Ġåıĳ éĢģ
Ġå°ı è°ĥ
Ġåħ¬ æŃ£
åĮĸ å¸Ĥ
Ġè¯´ æľį
ĠäºĮ åįĥ
ĠéĢļ å¤©
ĠäºĶ èĻİ
Ġå¤ĸ è²Į
Ġçļĩ åŃĲ
ĠæķĻ è®Ń
éŁ³ éĢŁ
Ġç§¦ æĹ¶
Ġéĥ ´
çº³ åĵ¥
Ġé¾Ļ äºķ
ĠéĻ¤ å¤ĸ
ĠåŃĺ æ¬¾
Ġå¾Ĳ èī¯
Ġå°½ å¿«
Ġæĭ¿ ä¸ĭ
Ġj ump
ä»ģ æĿ°
Ġéĺ¶ å±Ĥ
Ġæ±Ĥ å©ļ
ĠçĶ·åŃĲ åįķæīĵ
ĠæĭĽ èģĺ
Ġè¿ģ å±ħ
æ¶¦ åıĳ
éĺµ å®¹
199 8
199 9
ĠèĢ¶ å¾ĭ
Ġæ®ĸæ°ĳ èĢħ
èī³ èĬ³
äº¦ èı²
Ġå¤§å¥ĸ èµĽ
ĠæĶ¶è§Ĩ çİĩ
Ġå±¥ è¡Į
ĠåĲ¸è¡Ģ é¬¼
Ġåĩ¯æĹĭ éĹ¨
ĠåŃŁå°Ŀ åĲĽ
å¤ ¹
Ġä» Ĩ
Ġå¤§ é£İ
å¤§ åĲĮ
Ġæĸ° åĮº
éģĵ å¾·
äºĭ å®ŀ
Ġä¼ļ å½ĵ
Ġæ³ķ åĪĻ
ĠçĿĢ éĩį
éħ ¿
è·¯ çº¿
ĠçŁ¥ å·±
ç»´ æĸ¯
åħ´ è¶£
åħŃ çĶ²
ĠåŃĲ æĪ¿
Ġä¸´ æ·Ħ
ĠèĵĿ å®ĿçŁ³
Ġå·¥ä¸ļ åĮĸ
éĽ· çī¹
Ġèµŀ æī¬
Ġæµ·æ´ĭ æĢ§æ°ĶåĢĻ
ĠçİĦ å¹»
Ġç«ł åĽŀ
åŃĶ åŃĲ
ĠæĤ¬ å´ĸ
ĠèĤ¾ èĦı
Ġä¸ŃåĽ½äººæ°ĳ æĶ¿æ²»åįıåķĨä¼ļè®®
Ġè¤ ª
Ġæ³¢æĸ¯ æ¹¾
Ġæ³Ľ æĮĩ
âĳ ł
Ġæ¶¦ æ»ĳ
ĠæĺĨä»ĳ å±±
h z
éĿ ´
Ġå¤© ä¸Ģ
å£ ĳ
Ġæĸ° åŁİ
Ġéĩĳ é±¼
Ġå¹³ éĺ³
ĠåĬł åĭĴ
Ġå¼ł éĿĵé¢ĸ
Ġé©¬ è¹Ħ
Ġåıį å¸Ŀ
Ġæµģ åĲĳ
Ġåı° é£İ
ĠæĢ§ æĦŁ
æĹł æŃ»
Ġå¤ı æĹ¥
Ġäºĳ ä¸Ń
ĠèĮĥ çķ´
ĠåĨ° å²Ľ
Ġèıľ èĤ´
Ġè¥¿åįĹ åľ°åĮº
Ġ70 1
Ġ189 9
Ġæ·® å®ī
Ġæķ£æĸĩ å®¶
Ġæ¯Ĵ åĵģ
Ġè¯¯ ä¼ļ
ĠåİĤ å®¶
ĠæŃ£æľĪ åįģäºĶ
ĠåĮĸå¦Ĩ åĵģ
Ġè¿½æº¯ åĪ°
pxsolid black
ĠéĢ Ľ
Ġåĩº ä¼Ĺ
ç« Ń
æĪĲ åĳĺ
ĠæīĢ åĨĻ
ĠåĮĹ å²³
Ġä¸¤ ç±»
Ġç¾İ å®¹
ĠåįĹ æ´ĭ
ĠéĤ£ é¦ĸ
è° Ł
Ġåıª å¾Ĺ
ĠåĲĦ ä½į
ĠçĻ½ æ±Ĥæģ©
Ġéĺ¿ æ£®
Ġå¿ĥ æĦ¿
Ġèº« äº¡
å¸Ī èĮĥ
ĠéĶ ¯
Ġå£ ¬
Ġå£ ³
èº« ä»½
éĤ Ī
æĤ ¼
Ġäººæ°ĳ æ³ķéĻ¢
ĠæĿ¨ ä¸ŀçĲ³
éĢī æĭ©
Ġç¿ Į
Ġè¡Ģ ç¼ĺ
Ġå£° ä¹Ĳ
ĠéģĹ å¿ĺ
ĠåŃĲ å®«
æŃ¢ æ¸´
ĠåĲĦç§į åĲĦæł·
çĮ® å¸Ŀ
æĻĵ å²ļ
Ġè¯º æĽ¼
Ġåİĭ å¼º
Ġç¬¬åįģ åĽĽ
ĠéĿĻ éĿĻ
ĠçİĦ å¥ĺ
ĠåºĨ åħ¸
Ġä¸ĳ å°ıé¸Ń
ĠéĻµ åĽŃ
Ġè¥Ħ æ¨Ĭ
ĠçĭŃ çªĦ
Ġan g
Ġè°± åĨĻ
Ġå°ģç¥ŀ æ¦ľ
æŃ¤ä¹ĭ å¤ĸ
éŁ¶ æ¶µ
Ġæ²Ļçī¹ éĺ¿æĭīä¼¯
Ġå ļ
Ġå¥ İ
Ġå· ·
ĠæĬ ¨
ĠåĲİ æĸ¹
ĠæīĢ è§ģ
Ġå¤ļ æĸ¹éĿ¢
Ġæµ· æ£ł
ĠåĽĽ ä¹¦
å°ı å°ı
Ġä¼ł éĹ»
Ġå¼ł ä»²æĻ¯
Ġåħ³ åħ¬
ĠåĨĽ æĶ¿
ĠåħĪ æ²³
ĠçĶ· æľĭåıĭ
Ġäº¤ æĪĺ
ĠçŁ³ æĭ±
Ġæ¡ ĵ
Ġè¿ŀ éĶģ
çĽ¸ åħ³
Ġè¶Ĭ è¿ĩ
Ġè¡Ģ åİĭ
Ġç«ĭ ä¸ĭ
Ġé²ģ æ»¨
ç¼ĸ è¾ĳ
Ġi d
Ġæ¢ģ æľĿ
ĠÃ ·
Ġç´« èįĨ
Ġå§Ķ åĨħçĳŀæĭī
ĠæĻº åķĨ
ĠæĿĳ åºĦ
Ġå®½ éĺĶ
Ġè¯ŀ è¾°
Ġæ¦Ĥ åĨµ
Ġå¢¨ å°Ķæľ¬
åĽº éĨĩ
ĠæľĿé²ľ æĹı
Ġå½ĵåľ° äºº
ç§» åĬ¨
èĶ ¡
im e
ĠåĲ¦ è®¤
åĽ° éļ¾
Ġå¤©çİĭ æĺŁ
Ġæ¸ħæĺİ èĬĤ
ĠåŁºéĩĳ ä¼ļ
Ġæı´ åĬ©
Ġæ¸Ĭ æºĲ
Ġèľ¿ èľĴ
m in
Ġæĸ ¤
Ġä¸Ĭ åŃ¦
Ġåľ° çº§
ç« º
åľ° äº§
æĸ¹ æ¡Ī
éĩĮ å£«
ä¸į å·²
Ġæµ· åħ³
Ġè¦ģ ç´ł
Ġéĩĳ ä¸Ŀ
ĠçĪ± ä¸½
ĠæĬĬ éħĴ
æº ľ
Ġä¸ĩ æľī
Ġä½ĵ è´¨
ĠåĶĲ å±±
æµģ æ²³
å¿Ĺ å¼Ĥ
Ġæķ° åįĥ
Ġä¿¡ å¾Ĵ
Ġåī§ çħ§
èīº äºº
ĠæĻ® ç½Ĺ
ç»´ æĸ°
Ġçľ¼ ç¥ŀ
Ġè½¦ çīĮ
Ġå¸ĥ ç½®
Ġç¦ı åĪ©
Ġæł¸ ç³ĸ
èĳĹ åĲį
Ġéĥĳ æĪĲåĬŁ
æĺĮ é¾Ħ
Ġèī² ç´ł
æķħ å®«
å¦Ī å¦Ī
ĠæĿ¾ èµŀå¹²å¸ĥ
Ġæ±¤ å§Ĩ
Ġå¹¼ èĻ«
Ġæ´ĭ èĳ±
Ġç¨Ģ å°ĳ
Ġå·¥èīº åĵģ
Ġ185 1
ĠèĤĸ éĤ¦
Ġæ³¼ æ°´èĬĤ
å§ľ å¥³
è°ģ æĹłæŃ»
Ġå®īä¸ľ å°¼
ĠèĮ¶èĬ± å¥³
èĩªåı¤ è°ģæĹłæŃ»
Ġ {
Ġäºº æĿĥ
æľī äºº
Ġæ² ģ
Ġèĭ ĳ
Ġæ± ²
ĠæīĢ åŃ¦
Ġåº ¸
éĩĮ æĸ¯
ĠèĬ ¯
æĬ ¹
ĠåĽĽ åĪĨä¹ĭä¸Ģ
Ġå¥³ çļĩ
ĠæĿİ æ²»
æĮ ¤
ĠäºĶ å½©
ĠçĻ½ éħĴ
ĠéĿ¢ ä¸Ĭ
éĴ ī
èı ±
Ġæİ¥ åı£
ĠéŁ³ä¹Ĳ ä¼ļ
Ġåħ¶ä»ĸ äºº
ĠåĨ° ç®±
Ġéĥĳ åĽ½
ĠèĵĿ çĶ°
Ġè´¨ æľ´
Ġåĳ¼ ä¼¦
Ġè´Ŀ åĬłå°Ķæ¹ĸ
Ġåº· æľīä¸º
Ġj ohn
Ġå®ĹæķĻ ä¿¡ä»°
Ġè´¹ åŁİ
Ġèµ¶ åĪ°
ĠçĮĽ çĥĪ
å§¬ éĻµ
ĠçĨĶ çĤ¹
Ġèĵ¬ åĭĥ
Ġ____ __
ĠèĩŃæ°§ å±Ĥ
Ġå¤ªä¸Ĭ èĢģåĲĽ
ĠåĲİ ä¸»
ä¸Ĭ æ¸¸
Ġå¿ Ĩ
Ġæł ©
åĽĽ å·Ŀ
Ġç½Ĺ å¿Ĺç¥¥
æ£ ļ
ĠåĮĸ ä½ľ
åŁº ç±³
æĹł æĦ§
Ġå°ģ éĿ¢
Ġäº² çĶŁ
æĳ Ĩ
Ġä½İ è°ĥ
Ġå¤´ èĦĳ
or e
Ġåħħ æ²Ľ
Ġéħį å¥Ĺ
ĠèĮ¶ é¦Ĩ
Ġæİ¢ ç©¶
Ġéª¨ é«ĵ
ĠæŃ¥ ä¼Ĳ
Ġèĥ¸ æĢĢ
ĠæĽ¿ è¡¥
Ġæģ° å¥½
ĠÑ ģ
æ¯ı å¹´
Ġéĩįéĺ³ èĬĤ
ĠæľīåĬ© äºİ
l es
p er
ä¸º ä¸Ģä½ĵ
Ġèĩ Ģ
ĠæĹ¶ ä»»
Ġå°ı èĭıæīĵ
Ġè¥¿ åıĮçīĪçº³
Ġå¤ļ åıĺ
ĠæĹł ä¸Ģ
Ġä¸ĭ èĲ½
ä¸į è´¥
Ġé¦ĸ èĦĳ
ĠæĪĸ ç§°
Ġ10 6
ĠåĨĻ äºİ
Ġé©¬ åı¯
ç»Ł è®¡
Ġæ¯ı éļĶ
ĠåĨĽ ä¸Ń
è±¡ æ£ĭ
Ġc eo
Ġå®¶ åħ·
Ġ11 3
ĠåıĤ è°ĭéķ¿
Ġè¿ŀ åĲĮ
ĠæĢĿ è·¯
åįĥ å¯»
Ġå¸¸ å¾·
Ġè§Ĵ èĲ½
ĠçķĻ åıĸ
Ġç´ł æĿĲ
Ġçĩķ åŃĲ
Ġè¨Ģ è®º
Ġå¹¼ åĦ¿
Ġå¿ł å®ŀ
Ġå¿§ ä¼¤
Ġå¬ ī
ĠåĶĲå®ĭ åħ«
Ġæ¥· ä¹¦
Ġä¸īé¡¾ èĮħåºĲ
Ġæľ«ä»£ çļĩå¸Ŀ
ç» ħ
Ġäºº æľī
Ġäºº ä¼ļ
ĠåĽ½ åħ±
ĠæīĢ å¤Ħ
Ġæ°´ åĩĨ
Ġçī¹ æĿĥ
Ġå½¢ ä¼¼
æīĭ æ³ķ
Ġé£İ éĩĩ
Ġ18 50
Ġå¤ĸ è¯Ń
ç¬ Ļ
ĠæŃ¦ èŃ¦
ĠåĲĪ éĩĳ
Ġäºļ ç¾İ
Ġç»Ļ åĩº
ĠæŁ ¿
Ġç©º å±±
Ġã Ħ
ĠèĩªçĦ¶ é£İåħī
Ġç¿ °
æļ ĩ
å·´ é©¬
ar y
Ġåĳ½ é¢ĺ
ĠéħĴ åĲ§
Ġè¯ķ è¯ķ
ä¿Ŀ ç½Ĺ
Ġéĩİ èįī
Ġåĵ¥ çī¹
ĠçģŃ æİī
æ³Ĭ æ¡ĳ
ĠæİĮ éĹ¨
Ġéļĭ æĸĩå¸Ŀ
åľĨ åľĨ
èĿ İ
Ġç§ģ æľī
Ġç¼© çŁŃ
Ġèİ± çī¹
ä¿Ħ æ¯Ķäºļ
Ġèº º
Ġæ¼Ķèīº åľĪ
Ġé¢ģå¥ĸ åħ¸ç¤¼
Ġåĭĭ ç«ł
ĠåĬłåĭĴ æ¯Ķ
Ġæł© æł©
Ġe l
Ġå¥ ļ
æĺ ķ
ĠçĶŁ æķĪ
Ġä¸ī äºļ
Ġä¸¤ é¢Ĺ
-- -
Ġçİ° çĬ¶
ç»ı è¿ĩ
Ġä½ĵ å¤ĸ
Ġç¥ŀ åºĻ
Ġæīĵ çĲĥ
ĠåĬ¨ å·¥
Ġæľº ä½ĵ
Ġåħī çİ¯
Ġè®¸ åı¯
Ġå¸¸ æľī
ĠåĪĿ ä¸Ģ
Ġå®ĺ åºľ
å§Ķ ä¹¦è®°
Ġè½¦ éĺŁ
Ġè¯Ħ å§Ķ
Ġæł¼ å¤ĸ
ĠäºĮåįģ ä¸ī
Ġä½Ļ ä¸ĩ
Ġå°¼ äºļ
ĠéĤ® ä»¶
Ġæķ£ çĥŃ
ĠæĢĢ çĿĢ
ĠæĻĭ çº§
ĠæľįåĬ¡ åĻ¨
Ġq u
Ġå¥Ķ èħ¾
ĠçķĮ éĻĲ
st yle
Ġæ®¿ åłĤ
Ġç¢³éħ¸ éĴł
Ġç¢³éħ¸ éĴĻ
ĠèĴ² æĿ¾é¾Ħ
ĠçĻ½éĽª åħ¬ä¸»
Ġå©Ĩ å©Ĩ
Ġä¸ĩåįĥ çĵ¦
å½¼ å¾Ĺ
ĠåĲİæ±ī ä¹¦
ĠçĴĢ çĴ¨
åŁºç±³ å¾·
Ġæī Ĵ
Ġä»¥ åħį
æī ©
çĽ ı
åĩ ĳ
ä¸į å®ļ
ĠäºĮ åı¥
Ġæĸ¹ æĸĩ
å¸ĥ æĸ¯
åİŁ çĲĨ
ĠéĿ¢ éĥ¨
Ġæ±Ł æ·®
Ġä¸ĵ æĶ¿
ĠçĤ Ń
ĠåĽ½éĻħ åĮĸ
é» ľ
Ġa s
Ġæİ¨ ç®Ĺ
Ġçı ŀ
Ġåıĸ åĩº
Ġè£ ĺ
Ġçİ¯ å½¢
Ġè¶Ĭ çİĭ
Ġäº² åıĭ
Ġè®² è¯Ŀ
Ġä¸¥ å¯Ĵ
ĠèĲ½ åľ°
ĠèĶ ĵ
åĺ İ
Ġé¢Ħ ç®Ĺ
ĠçĶŁçī© åŃ¦
Ġç§¯ éĽª
ĠåĪ¶éĢł ä¸ļ
Ġæ®ĭ æļ´
Ġäºĭä¸ļ åįķä½į
iv o
ĠçĤİ é»Ħ
Ġ76 2
Ġå°ıç»Ħ èµĽ
Ġè¿Ĳè½½ çģ«ç®Ń
i y
Ġ }
Ġåľ° éģĵ
æŀ ¯
åŃ¦ ä¹ł
Ġå¯¹ åĨ³
æ¡ §
Ġå±± è°·
Ġæĸ¹ å½¢
ĠåŁİ ä¸Ń
Ġå¼ł éªŀ
Ġä½ĵ éķ¿
Ġåĩł æĹ¶
Ġæģ ¬
Ġå°ĳ è®¸
in t
Ġåı° ä¸Ĭ
Ġåħ« åĽ½
Ġå¸¸ æ¸©
Ġè¶³ è¿¹
ĠæĶ¯ è¡Į
ç»ĵ å±Ģ
Ġåľº é¦Ĩ
èĨ Ľ
ic e
ĠæĿĳ æ°ĳ
Ġç¬¬åĽĽ ä½į
ĠæĿĤ åī§
ĠèĦ± é¢ĸ
Ġéĺ¿æĭīä¼¯ è¯Ń
Ġçĵ¦ è§£
Ġåºŀ ç»Ł
çī§ ä¸ļ
Ġè°ĭ å£«
Ġç¨» èįī
Ġè¡¬ æīĺ
ĠèģĬæĸĭ å¿Ĺå¼Ĥ
Ġè¯Ĭ æĸŃ
Ġè²Ĥ èĿī
Ġå¸¸çĨŁ å¸Ĥ
Ġå¹´ æĺ¥
Ġæľī çļĦæĺ¯
ĠæĹ¥ å¤ľ
Ġ- --------------------------------
ĠæĮ Ł
è¿ĩ ç¨ĭ
ĠçĶµ è§£
å¿ĥ è¯´
Ġåı¤ é¾Ļ
Ġè¦ģ å¡ŀ
ĠæĿİ å®ĩæĺ¥
ĠçĲ ¥
Ġç« Ń
åħĥ å¸Ŀ
Ġçī¹ åĬ¡
æ°Ķ ä½ĵ
æĦı æĢĿ
Ġæ±ī çĮ®å¸Ŀ
éĩį è§Ĩ
Ġé»ĳ å±±
Ġçķ ı
Ġåħ¨åĽ½ æĶ¿åįı
ĠæĿ¨ å®¶
ĠåķĨ åºĹ
åŁº éĩĳ
Ġæľª å¿ħ
Ġèĵ Ł
Ġç»Ŀ ä¸ĸ
Ġäººåı£ æķ°
Ġå¾Ĳ éľŀå®¢
Ġå¸Ī å¾Ĵ
Ġæħ İ
Ġæ®µ æĹ¶éĹ´
Ġå¼¹ å¥ı
ĠåĪ» æĦı
Ġæµģè¡Į éŁ³ä¹Ĳ
ĠæĪĺåĽ½ çŃĸ
Ġç»¿èī² æ¤įçī©
Ġ188 4
çŀ »
ĠéĻ· å®³
åªĴ ä½ĵ
Ġéĺ¿éĩĮ å·´å·´
Ġèķ´ åĲ«
Ġæĥ¯ æĢ§
ĠéĢłçº¸ æľ¯
Ġå¤ªåı² åħ¬
ĠæĲħ æĭĮ
ĠæĹ¨ åľ¨
ĠåĪĩå°Ķ è¥¿
Ġä¸Ģ ç»Ł
Ġä¸Ń å²³
Ġä¸į æŃ»
äºº ç±»
Ġå°ı ä¼Ļ
Ġå¯¹ å³Ļ
Ġä¸ĸçķĮ åį«çĶŁ
ĠæĹł å°½
Ġä¸ĭ éĽ¨
Ġæ°´ åĬĽ
Ġæ°´ åľŁ
Ġå¥³ æĺŁ
ĠæĿİ æĺ¥
Ġå¹¿ éĻµ
Ġé©¬ éĩĮ
ĠåĪĺ äº¦èı²
ç±³ äºļ
ĠæķĻ å®¤
Ġæ°Ķ åİĭ
ĠæŁ ĳ
Ġé£ŀ è·ĥ
Ġä»» çĶ¨
ĠæĽ¹ éŃı
Ġèµµ é«ĺ
Ġå¦ ¾
Ġè±¡ çīĻ
Ġi phone
Ġæİ¢ æĺİ
ç«¥ æľ¨
éŁ ¬
Ġçīĩ æ®µ
ĠæĪ¿ åľ°äº§
it ed
Ġç§» æ¤į
ĠäºĴ åĬ¨
Ġæĳ© çº³åĵ¥
Ġèļ ¯èļĵ
Ġé¡¾ å®¢
Ġè°· åľ°
Ġåį°è±¡ æ´¾
ĠåĮĹæŀģ åľĪ
ĠæĴŀ åĩ»
Ġæ²¼ æ³½
Ġå°¼åħĭ æĿ¾
é¬ Ł
Ġæ¯ħ çĦ¶
Ġä¸ĩæľī å¼ķåĬĽ
Ĭ å±±
Ġç Ģ
Ġä¸Ģ è¾Ĩ
Ġä¸Ń ç¾İ
Ġåį ¤
æĸ Ĳ
Ġå¹´ çīĪ
Ġä¹ĭ åĬ¿
ĠæĪĳ æĿ¥
æ´ ¼
åī ¿
Ġåĩº éĹ¨
Ġåħ¬ åĪĨ
Ġé£İ éĽª
Ġæ¸ħ çİĭæľĿ
æ¶ §
Ġæ¢ ³
ĠåĽŀ å¤į
ĠåĬ¨ æĳĩ
Ġc v
Ġæ°Ķ æµģ
Ġæ¬§ æĸĩ
Ġä»» è´¤é½Ĳ
Ġå¸¸ è¯´
è§Ĥ å¿µ
Ġæŀģ éĻĲ
Ġèı ±
Ġæľ¨ æĿĲ
å¹¿ æĴŃ
Ġé¹ ³
Ġé¢Ħ å®ļ
Ġçļ® éĿ©
å§Ĳ å¦¹
Ġæµª è´¹
Ġçŀ ©çĽ®
Ġæ¹ĺ æ±Ł
Ġçĵ¦ çī¹
Ġæ²¿æµ· åľ°åĮº
Ġåĳ¨æľŁ è¡¨
Ġå°ıåŃ© åŃĲ
ĠåįģåŃĹ æŀ¶
Ġåĩ¸ éĢıéķľ
ĠäºĶæĺŁ çº¢æĹĹ
Ġå¤ªä¸Ĭ çļĩ
Ġè¶£ åĳ³
ĠåįĥçĻ¾å¹´ æĿ¥
Ġå¤§ä¸Ģ ç»Ł
éĩĮå£« å¤ļå¾·
µ é¸Ł
Ġä¸Ģ è¿ŀ
Ġä¸į é«ĺ
Ġä¸į å¦
æľī è¯Ĺ
Ġä¸ī çļĩ
Ġè¥¿ çĶ²
Ġæł Ĺ
å¤© ä¹Ĳ
Ġä¸ľ å±±
ĠåĮĹ çº¦
åĪĨ æ³Į
Ġæ· ¤
Ġè¿ĩ éĩı
Ġåīį æīĢ
éĶ £
Ġä¸»è¦ģ æ¼Ķåĳĺ
Ġéĺ¿ ç«¥æľ¨
èĢĮ ä¸Ķ
Ġæīĵ ä»Ĺ
ĠæŃ¦ çİĭ
Ġè¡Į èĢħ
Ġc ac
ĠæŁ ľ
Ġä»» æķĻ
Ġåįĥ æłĳ
äºĶ åįģ
Ġ17 00
Ġèīºæľ¯ é£İæł¼
èĴ ²
Ġå£° ç§°
Ġåı£ æĦŁ
Ġå¸® å¿Ļ
ĠéĽ¨ åŃ£
Ġå§Ķåĳĺ éķ¿
Ġçģ° å¤ªçĭ¼
è¸ ŀ
ĠçĮĽ é¾Ļ
Ġæĥ³è±¡ åĬĽ
Ġéĺħ åħµ
ĠåįģåĽĽ å¹´
Ġèĥİ åĦ¿
ĠçĶ»ä¸Ń æľīè¯Ĺ
Ġæĸ¯éĩĮ åħ°åį¡
çĶ ļ
Ġä¹ĭ éģĵ
å¼ §
ĠæĹ¶ æľī
ĠæľĪ ç»ı
Ġå°ı ä¸¸åŃĲ
çĶ¨ åĵģ
Ġè¢« åŃĲæ¤įçī©
ĠçĽ¸ è²Į
Ġæ°´ éĻĨ
åĪ© çĽĬ
ĠæĢ» çĽĳ
ĠåĨĻ ä¿¡
ĠæĶ¿ åįı
Ġæīĭ æĮģ
ĠçĶ· å£«
Ġé£ŀ æĿ¥
Ġç»ıæµİ çī¹åĮº
Ġç¿ ĺ
ĠåĪ© æ¶¦
ĠçĨ Ħ
Ġå¯Į è±ª
al d
éĵģ å¡Ķ
Ġç¬Ķ å¢¨
Ġå®½ å¹¿
Ġç¾Ĭ æ¯Ľ
Ġè°Ī è¯Ŀ
Ġæ¶ĪåĮĸ èħº
Ġåĩ¡ äºº
Ġç¨³å®ļ æĢ§
Ġç³ ķ
ĠéĤ» å±ħ
Ġè´¯ å½»
Ġçĵľ åĪĨ
ĠéĽ¶ä¸ģ æ´ĭ
Ġé©¬åħ³ æĿ¡çº¦
ĠæĬ¨ åĩ»
ä¸ Īå¤«
Ġä¸Ģ æĿł
Ġä¸į æĢİä¹Ī
Ġå¤§ ç±³
Ġç§ ī
åŃ¦ å¥ĸ
æĪĲ å°±
Ġå¼Ģ è½¦
Ġç¾İ çľī
Ġåı¤ çĲ´
Ġæ· ĩ
ĠåĨħ çĩĥ
ĠæĿİ å¹¿
Ġåįģ ä½Ļ
ĠåŃ¦ ä½į
Ġå¼ł èĩªå¿ł
ĠçĻ½ èĻİ
Ġçļĩ åĨł
Ġçº¢ å®ĿçŁ³
Ġç²¾ éĢī
Ġçº¦ çĳŁ
Ġè§£ æķ£
Ġå®ĭ å¾½
Ġè£ Ļ
åķ ¼
Ġäºĳ éĽĨ
Ġç®¡ å¼¦
åĽŀ é¦ĸ
ĠèĪª éģĵ
Ġéļ¾ åħį
Ġæĺ¾ èµ«
Ġè¿½ éĢĲ
åĶĲ ä»£
Ġæī§ æ³ķ
éĻ¤ äºĨ
Ġå°Ĭ ä¸º
Ġåı³ ä¾§
æľĢ åĲİ
Ġæ½® æ¹¿
Ġæī£ ç¯®
ĠéĽķå¡ĳ å®¶
iz e
ĠçĶĦ åŃĲä¸¹
Ġå®¢è¿Ĳ ç«Ļ
ç£ħ ç¤´
Ġæ¸ħçľŁ å¯º
Ġçģ«æĬĬ èĬĤ
ĠèĦ±é¢ĸ èĢĮåĩº
0 8
Ġç į
Ġä¸Ģ å²ģ
Ġè¿Ļ å¹ħ
ĠæĹ¶ å¹´
Ġä¸ŃåĽ½ åĽ½
Ġåĩº å¾ģ
ĠåĲİ æŀľ
Ġä¸Ģä¸ª å¤ļ
Ġè¥¿ å®ģ
Ġè° ª
Ġçİĭ åºľ
Ġ20 8
Ġå½¢ ä½ĵ
ĠåĿ Ľ
ĠèĢģ å®¶
Ġé©¬ ä¸ģ
Ġçº¢ é«ĺ
Ġåĩł åĪĨ
é¾Ļ çıł
Ġäºļ å¤ª
Ġè®° äºĭ
Ġæĺ¥ èī²
in s
Ġm tv
Ġå¸¸ ä½ı
Ġåıĸ èĥľ
Ġæ¶Ī éĺ²
Ġå¥ĩ å¹»
ĠåĶ± èħĶ
èĴ ĭ
ĠæĸĩåŃ¦ åĪĽä½ľ
Ġä¸Ńå¤® äººæ°ĳæĶ¿åºľ
Ġçħ§ çĽ¸æľº
æ³¨ æĦı
ĠéĽĦ å¿ĥ
Ġä»»ä½ķ äºº
Ġè¾Ľ ä¸ĳ
Ġä¸ļ ç»©
ĠåĨ¯ å°ıåĪļ
ç³ Ļ
ĠæĿ¯ éħĴ
Ġèī° è¾Ľ
Ġè´º çŁ¥ç«ł
Ġæĵįä½ľ ç³»ç»Ł
Ġæĸ°äºº å¥ĸ
Ġå¥¢ ä¾Ī
ĠåĹĵ éŁ³
Ġå·´æĭī åľŃ
c k
Ġä¸į ä¹ı
ĠéĻ ĭ
Ġä¸ľ åįĬçĲĥ
Ġåĵ ĳ
æĸĩ åħ¬
Ġå¥³ ä½ľå®¶
ĠæŃ£ æĸ¹å½¢
ĠæĿİ æĿľ
ĠåŁİ å¤ĸ
ĠéĿ¢ è¯ķ
Ġèº« å½±
Ġæķ° é¢Ŀ
åĬ¡ å§Ķåĳĺä¼ļ
Ġé¦Ļ æ§Ł
Ġm s
Ġèµ° è·¯
Ġé© ¶
åħŃ å°Ĩ
Ġä½İ æ¸©
ĠåĵĪ è¾¾
Ġä»ĭ è´¨
Ġæ¼« æ¸¸
ĠåĲķ æ°ıæĺ¥ç§ĭ
Ġéģĩ ä¸Ĭ
Ġæĺĵ äºİ
Ġæ·® æµ·
Ġåı¤åħ¸ ä¸»ä¹ī
Ġé¢ĩ åħ·
Ġå±ł æĿĢ
Ġæ¢ģå±± æ³Ĭ
Ġéģµ å®Ī
Ġç«ŀäºī åĬĽ
ĠåĲĮçĽŁ ä¼ļ
Ġæħ§ æĺŁ
å±ł æĿĢ
Ġåĸĩ åıŃ
Ġå«ī å¦Ĵ
ĠçĻ½ä»¤ æµ·å³¡
ĠæĻ®é²ģ å£«
i i
å° ¹
Ġä¹ĭ æĺŁ
å½ ĹæĺŁ
å¯ Ŀ
ĠæĹł çŁ¥
Ġä¸ĭ æĸ¹
Ġéĩį çĶŁ
ĠäºĶ ç§į
ä¸ī åįĥ
Ġæ¶ ĵ
Ġå®ī å¨ľ
ĠåĽŀ åĲĪ
ĠæĦŁ ä¼¤
Ġçģ« çº¿
ĠçŁ³ æŀĹ
Ġä¹¦ ä¿¡
åĽĽ å¹´
ĠæŀĹ æµ·
ĠåĲ´ è¶Ĭ
ĠåĲ´ éģĵåŃĲ
Ġè½¬ èº«
çĥŃ çªĿ
ĠäºĮåįģ ä¸Ģ
Ġæħ °
Ġä¸ľæĸ¹ ä¸įè´¥
Ġçıł å³°
Ġ190 9
Ġç¬¬åįģ ä¸ī
ĠèĤ¡ ä¸ľ
Ġè±ª éĹ¨
çĵľ å¤ļå°Ķ
Ġéĵ¶è¡Į åį¡
ĠèĪ° èīĩ
Ġå¿ł ä¹ī
ä¼ĺ ç¾İ
Ġç¨į å¾®
Ġè°± æĽ²
Ġå¼¥ è¡¥
ĠèĬ³ é¦Ļ
Ġå¼ĺ æī¬
Ġå¤ļæł· æĢ§
Ġå¸ĥé²ģ å¡ŀå°Ķ
Ġwind ows
x t
ĠâĢ ³
Ġä¸Ģ æĺŁ
Ġç» Ĵ
Ġä¸º åĲį
Ġä¸ŃåĽ½ éĵ¶è¡Į
Ġåı¯ çĩĥ
Ġåĩº åįĸ
åĮĸ çŁ³
è¯´ æĺ¯
Ġæ²¡ äºº
äºĭ æķħ
Ġåįģ åł°
Ġè¡¨ è¿°
Ġä¼ł æİĪ
Ġæľ¬ çīĩ
Ġç»ĵ æĪĲ
ĠåĪĺ è¡¨
ĠèĬ± ç²ī
Ġå®¶ çĶ¨
Ġ11 00
ĠèģĶ ç»ľ
ĠéŃ ħ
Ġè®¸ æµ·å³°
Ġèħ ķ
Ġåľ£ æ¯į
ĠæĻļ é¤Ĳ
ĠåĨ³å®ļ æĢ§
ĠéĽ· çĶµ
ĠéĽħ é²ģèĹıå¸ĥ
ĠéĤĵ ç´«æ£ĭ
ĠæĲľ ç¥ŀ
Ġæ½ĺ çİ®æŁı
Ġè´« ç©·
iv ers
Ġå¿į åıĹ
Ġæ¸¯åı£ åŁİå¸Ĥ
Ġåĺ´ éĩĮ
Ġè¡¡ éĩı
Ġéģį åıĬ
ĠäºĶå¤§ æ´²
Ġåįģä¹Ŀ å¹´
ĠçĭĦ ä»ģæĿ°
Ġæ²§ æ¡ĳ
ĠéĶ® çĽĺ
ĠèħĬ æľĪ
org an
Ġæ©ĺ åŃĲ
Ġæĸ¹æĸĩ å±±
Ġç» ŀ
Ġè¯ ¡
Ġå¤§ æ¸¯
æľī åĬĽ
å¤§ åħ¸
ĠåĲİ åĳ¨
Ġè¢ ĸ
Ġåĵ ĩ
ĠæĿ¥ ä¸´
Ġè° £
ĠåĽĽ ä¸ĸ
Ġçľĭ æĪĲ
Ġè¡¨ å½°
Ġéĵ ²
èĭ ·
Ġæ³ķ æ¡Ī
Ġå¼ł éŁ¶æ¶µ
ĠèĤ ¤
Ġé©¬ åħŃçĶ²
ĠåĶĲ å«£
Ġè¡Į ç¨ĭ
Ġæ±Ł åĮĹ
ĠèĬ± åŁİ
ĠèĬ± æŀľ
éľ ģ
Ġèĭı æīĵ
Ġé¦Ļ çĥŁ
Ġb ey
Ġå¤į åį°
ĠåĬĽ åŃ¦
Ġæľį ä»İ
Ġf if
ĠçŁŃ ä¿¡
ĠçĽĽ ä¼ļ
Ġè¯ģ ä»¶
Ġçļ® çļ®é²ģ
ĠåĽº æľī
ĠæĿĲ è´¨
ĠæľĿé²ľ åįĬå²Ľ
Ġå®ľ å®¾
ĠèįĨ éĹ¨
Ġæ··åĲĪ çī©
Ġä¸« é¬Ł
ĠæĮ« æĬĺ
èı²å°Ķ éĵģå¡Ķ
ĠèŃ ¬
Ġåı ®
Ġä¸Ģ éĹ´
Ġä¸Ģ è´¯
Ġä¸Ģ é¡µ
è¯ «
äºº ä»¬
è´ ·
çī© æµ¦
Ġé«ĺ åľ°
Ġæ°´ æ±½
äºĭ å§Ķåĳĺä¼ļ
äºĮ ä¸ĸ
Ġé»Ħ éģĵ
æ¶ ¡
å®ī åħ¨
Ġè¿Ĳ ä½ľ
Ġéľ ĵ
Ġæĥħ è°ĥ
ĠåĽŀ åĳ³
Ġå·´ å£«
ĠéĻĪ èµ«
æīĢ æľī
Ġm usic
ĠåĮĸ åŃ¦å®¶
Ġç¦» ä¸įå¼Ģ
Ġå®£ æĪĺ
Ġä¹Į åħ°
Ġl v
Ġk g
Ġçł´ è£Ĥ
ç²¾ çģµ
Ġæİ§ èĤ¡
è¯º æĸ¯
Ġçº¯ çľŁ
Ġç¯ĩ å¹ħ
Ġå±Ĥ å±Ĥ
ĠçĭĤ æ¬¢
Ġå¿½ è§Ĩ
Ġæĵį çºµ
Ġå½±è§Ĩ ä½ľåĵģ
åĭĥ åĭĥ
ĠèĥĨ åĽºéĨĩ
Ġä½© æĪ´
ĠèĤĸ åĥı
ä¸īè§Ĵ å½¢
çİ» çĴĥ
å¸ĪèĮĥ å¤§åŃ¦
Ġå Ĺħ
Ġè¿Ļ çīĩ
Ġå°ı å¦¹
Ġä¸ĸçķĮ è´¸æĺĵç»Ħç»ĩ
Ġå¤ļ å°Ķ
Ġä¸¤ åľ°
æĻ ¤
Ġå¼ł æĹłå¿Į
çī¹ ä¸¹
Ġæ¸ħ é£İ
ĠæĶ¹ è£ħ
ç¾ Į
å¿Ĺ ä¼Ł
Ġæ°Ķ æĢģ
ĠåĽ½éĻħ æłĩåĩĨ
Ġä¸¾ èµ·
Ġç¾ ¡
Ġä¹¦ çĶŁ
ĠæĺŁ è¾°
çº³ æ²³
ç¿ Ĭ
Ġæ¶Ī æ¯Ĵ
ĠèĬĤ åº¦
ĠåĲ¬ è§ī
Ġå¿ħ æľī
Ġè§ģ è§£
Ġä¹Į é¸¦
Ġä¹¡ æĦģ
ĠçīĽ éĥİ
Ġåº¦ éĩı
Ġæ¢ħ èī³èĬ³
ĠçĶ² çº§
ĠåĢŁ çĶ¨
Ġæ´ª æŃ¦
Ġç²ī ç¢İ
æºª åİ¿
Ġéķ į
Ġå±Ĥ éĿ¢
Ġçĭ¼ çīĻ
Ġç£ģ éĵģ
ĠæĢª çĽĹ
ĠèĤĮ èĤ¤
ç¯® çĲĥ
ĠèĸĽ ä»ģè´µ
Ġé¦ ħ
ĠæĹłçº¿ çĶµ
Ġèªĵ è¨Ģ
åħ°åħĭ æŀĹ
Ġéĺ¿æ£® çº³
Ġåľ¨ å¤ĸ
ä¼ ¶
Ġå¤§ åŃĹ
æ° ĵ
Ġä¸Ĭ åı°
è® ¶
ĠéĢ ®
å¤ļ æĺŁ
Ġæĸ° çºª
æĻ Ĵ
ĠçĶµ æ¢¯
Ġæµ· ç»µ
Ġä¼ł éĢģ
ĠåĲĦ éĥ¨
ä¹ĭ æĹłæĦ§
Ġ12 1
Ġéĥ¨ ä¸ĭ
Ġç²¾ å·§
Ġs o
Ġåħī éĢŁ
Ġåħī æ»ĳ
Ġçĭ¬ å°Ĭ
ĠæŀĹ å½ª
Ġçĥ «
éħ¸ éĴ¾
Ġå·¨ çŁ³
Ġäº² æīĭ
æĸĹ å£«
Ġèľ »èľĵ
ĠæĸĩåŃ¦ å¥ĸ
èįī åİŁ
Ġè®¾è®¡ èĢħ
åĲī åħĭ
Ġæ¯« åįĩ
ĠéĢı éķľ
Ġéº» éĨī
ĠæĬĺ ç£¨
Ġå·Ŀ èıľ
Ġç²¤ èıľ
çŀ ©çĽ®
ĠæĬ± è´Ł
Ġå¼± çĤ¹
ĠèĮħ åı°
Ġç¦ħ è®©
ĠåįĪ å¤ľ
ĠåĢº åĬ¡
ĠæĮ£ æīİ
Ġçª¦å¨¥ åĨ¤
ĠæĪĬæĪĮ åıĺæ³ķ
ĠèĲĿ åįľ
Ġåħĥæľ« æĺİ
ĠçĲ¥ çıĢ
µ çªģ
ç» ®
ĠåĨ µ
Ġè¿Ļ æľ¬
Ġä¸Ĭ çļ®
Ġä¹ĭ çĪ¶
ĠéĢ ¸
ĠåĽ½ ä¹ĭ
è¾ ľ
æ± ¾
ä»£ å¤«
åī ©
å¤© å®«
ĠåĮĹ éºĵ
ä¸į å¹³
ĠæĿ¥ å¾Ĺ
åĿ Ĥ
Ġçİĭ æĺĮé¾Ħ
Ġçľĭ å¾Ĺ
Ġåīį ç§¦
ĠæĪĺ åĬŁ
ĠåŁİ ä¹¡
Ġä¸ĩ äºĭ
ĠèĢģ æĢ»
ĠäºĶ åįĥå¹´
Ġæ¸ħ æ´Ĺ
Ġåĳ¨ æ¶¦åıĳ
èĢĮ çŁ¥
æķĻ æİĪ
Ġçģ« çģ¾
åºĶ çĶ¨
ä»Ĭ å¤©
Ġé¾Ļ çİĭ
Ġå¥ĩ æīį
Ġt f
ĠæľĢé«ĺ çº§
Ġç¦ı å·ŀå¸Ĥ
Ġd e
Ġå¤´ é¡¶
ä»İ æŃ¤
Ġè±¡ æ£ĭ
ĠÃ ¨
Ġè´Ł æĭħ
æ£® åł¡
ĠéĻķ åĮĹ
ĠçİĦ å®Ĺ
Ġç»§æī¿ èĢħ
å°Ŀ èĥĨ
éĤ® ç¥¨
ĠèĮĤ åĲį
Ġç¼ł ç»µ
Ġå°¼æĹ¥ åĪ©äºļ
ĠåŁĥå¡ŀ ä¿Ħæ¯Ķäºļ
ĠåīįæīĢ æľªæľī
y n
Ġä¸Ģ åİ»
Ġæľī æĹł
Ġè¿Ļ ç±»
Ġèĩª æľī
Ġä¸ī å±Ĥ
Ġé«ĺ éĽħ
Ġç¬¬ä¸Ģ é¦ĸ
Ġå½ĵ åľº
Ġå¥³ éĥİ
æ±Ł åĮº
Ġç½ Ĳ
Ġé»Ħ å®¶
å®ŀ è·µ
Ġé©¬ éŀį
Ġå¿ĥ è¡Ģ
éĴ ®
å¦Ĥ ä¸Ģ
Ġä¸ĵ å±ŀ
Ġå·´ æĸ¯
ĠéĽĨ æķ°
Ġé¸ µé¸Ł
Ġ16 6
æİ¥ çĿĢ
ĠèĢĥ åħ¥
Ġç»´ å°Ķ
Ġæ²Ļ åĥ§
ĠåĬŀ åŃ¦
Ġéĺ² æĬ¤
Ġj ay
Ġåĩı èĤ¥
Ġä¹ĺ å®¢
ĠèĿ Ĺ
Ġçĩķ åĽ½
Ġè±ª è¿Ī
ĠéĢĥ éģ¿
Ġè½® èĪ¹
of the
åŁĥ å°Ķ
ĠæľīæķĪ æľŁ
Ġèµı è¯Ĩ
Ġç¿»è¯ĳ æĪĲ
ĠæĮ¯ åħ´
Ġä¸¢ å¤±
Ġå¡ĶéĩĮæľ¨ çĽĨåľ°
Ġæ®Ĭ èį£
çīŁ å°¼
Ġé»ĦåºŃ åĿļ
ĠçŁ³æĭ± æ¡¥
Ġè Ħı
Ġä¸Ń æĸŃ
Ġè¯ ¬
äºº ç§°
Ġäºº æĥħ
Ġä¸Ĭ åľº
Ġèĩª è´¡
æĸ¹ åĲĳ
èµ ¦
Ġä¸ľ éĿŀ
è¥¿ åĮĹ
Ġæ¯Ķ å°Ķ
Ġåı¤ æľ´
çļ Ĥ
ĠèĤ Ĩ
Ġ12 9
èħ ¥
ĠçĥŃ å¿ĥ
ĠçĥŃ æ°´
Ġåħ« åįģå¹´ä»£
ĠæĶ¾ ä¸ĭ
19 49
çĽ´ ä¸ĭ
è¯ģ ä¹¦
ĠæĶ¯ éħį
Ġæį® æĤī
Ġæ¯ķ çĶŁ
Ġk m
Ġèĥľ åľ°
Ġéĩİ åħ½
Ġæ±¤ å§Ĩæĸ¯
åģĩ æĹ¥
ĠæĪĺåĽ½ æĹ¶ä»£
199 6
å®ı å¤§
Ġç²Ĺ ç³Ļ
ĠåĲ¸å¼ķ åĬĽ
ĠçģĮ ç¯®
ĠèĲĮ èĬ½
éĩĮäºļ çº³
Ġè´¦ æĪ·
ĠåĻª å£°
Ġåħ«åĽ½ èģĶåĨĽ
Ġæĸ°çºª åħĥ
² ç¾İ
Ġä¸į å°ı
è¯ Ģ
Ġè¿Ļ é¢Ĺ
ĠæŃ ª
Ġå°ı çĶŁ
éĽ ı
Ġåĵ ī
Ġå½ĵ çº¢
Ġå¾Ī ä¹ħ
Ġæ²¡ éĶĻ
ĠçĶ¨ æīĭ
Ġé»Ħ èĵī
Ġé»Ħ åŁĶ
Ġç»ĵ ä¸º
Ġæ±Ł å·ŀ
ĠæĦŁ åºĶ
Ġåģļ å®ĺ
Ġå·´ åİĺå²Ľ
Ġéĥ¨ ç½²
ĠèģĶ æīĭ
Ġè¿ŀ ç»µ
Ġæİ¥ è¿ŀ
Ġä¾¿ å£«
Ġéļı é£İ
Ġèµµ ä¸½
ĠèĩªçĦ¶ èµĦæºĲ
Ġä¸° æ»¡
Ġäº² æĥħ
Ġå¤į è¾Ł
Ġå®¢ è½¦
Ġä¼Ĺ æīĢåĳ¨çŁ¥
ĠåŃŁ å§ľå¥³
Ġç¤¼ æĭľ
ĠæĻĭ æľĿ
å½Ĵ èµµ
åĴ ½
Ġ190 7
åĥ »
ĠçĽĲ åº¦
ĠæıĴ åħ¥
Ġèĩ´ åĳ½
Ġç¦ ½
Ġéķ Ĳ
åĮ» éĻ¢
å¹³æĸ¹ ç±³
Ġè½® æµģ
ĠçİĦ çĥ¨
Ġå¡ĳ åĥı
ĠæĬ¤ èĤ¤
Ġç«ł é±¼
ĠæĺŁæľŁ å¤©
Ġå§ĳ å§ĳ
Ġä¹Ļ éĨĩ
ĠèĢĥåı¤ åŃ¦å®¶
æ¾³ å¤§åĪ©äºļ
æ¢¨ èĬ±
åģ· åħī
çĴ§ å½Ĵèµµ
èĸª å°ĿèĥĨ
ĠæħĪç¦§ å¤ªåĲİ
Ġè´® åŃĺ
Ġå®ĩæĻº æ³¢
æĹ ·
ç§ ¤
Ġè¿Ļ è¾¹
ĠæľĢ äº®
å· ©
éĺ ĳ
ĠæĹ¥ æ¸Ĳ
ĠèĢĮ å»º
éĿ¢ ä¸Ĭ
Ġæ°´ æ¸©
Ġä¾ ¨
ĠçĻ½ ç»Ĩèĥŀ
ĠåĪ¶ è®¢
ĠéĶ ¤
Ġ11 6
Ġå½± åĥı
Ġå°ĳ æľī
ĠåĮħ éĿĴå¤©
ĠçŁ³ èĭ±
æĿĥ åĪ©
Ġé¦Ļ æ°´
Ġåĵª æĢķ
ĠæŀĹ å¾½
Ġç«ĭ åĽ½
Ġèįī åłĤ
Ġ25 6
Ġçĩķ å±±
Ġéħ¸ å¥¶
Ġè®¨ ä¼Ĳ
ĠçĭĹ çĭĹ
Ġæ¸¡ è¿ĩ
Ġæ¬§äºļ å¤§éĻĨ
ĠéĤ¢ åı°
ĠæĮĩåįĹ éĴĪ
ĠçĲī çĴĥ
åį ¯
Ġå¤§ ç»ĵå±Ģ
æ² ¦
Ġä¸ī æĹ¥
Ġè¥¿ å±±
çľ º
Ġæł ĭ
Ġä¸¤ ä»£
Ġå½ĵ ä¹ĭæĹłæĦ§
ä¸į è¶³
ä¸į çĽ¸åĲĮ
Ġè· ĭ
ĠçĶ¨ åĪ°
Ġè¿ĩ äºĶ
å°ı æĿ¿
ĠåĲĦ å¼ı
ĠåŁİ åħ³
Ġåĳ¨ æŃ¦çİĭ
åĪ« åħĭ
Ġçļĩ æĿĥ
ĠåĪ¶ åĨ·
Ġå®ī å®ģ
éĴ ĵ
Ġæ±ī éĺ³
ĠåĬ¨ åĳĺ
ĠèĲ į
åĴĮ åĽ¢
èĻ Ĳ
ç² Ł
Ġåħī å¹´
Ġåĵª ä¸Ģå¹´
Ġm ich
ĠåķĨ åľº
è§Ĥ éŁ³
on y
Ġä¹Ŀ ä¹Ŀ
Ġè¶Ĭ é«ĺ
Ġæ½ ¼
Ġå®£ æī¬
Ġçºª æĻĵå²ļ
ĠåĵĪ å°¼
Ġé½Ĳ é²ģ
Ġg u
Ġå©ļ åĲİ
Ġéĺ² ç©º
Ġåħµ åĽ¢
ĠåĽº çĦ¶
ĠæŁ³ å·ŀ
ĠæŃ¥ æŀª
Ġåĭĩ çĮĽ
ä¿Ĭ ä¹ī
Ġæ´Ĺ åĩĢ
ĠæĸŃ è£Ĥ
Ġçŀ Ħ
Ġéķ¿å®ī åŁİ
Ġåı¤åħ¸ æĸĩåŃ¦
Ġ186 1
Ġä¾§ éĩį
Ġä¸ĺ åĲīå°Ķ
pu bl
ĠçĪ±ä¸Ĭ ä½ł
Ġ------- -
ĠçĭĤäºº æĹ¥è®°
Ġå§Ĭ å¦¹
ĠåĵĪå§Ĩ éĽ·çī¹
ĠéļĶæµ· çĽ¸æľĽ
o od
ĠæĪ İ
Ġæľī æĦŁ
Ġä¿ ħ
Ġè¾ ĳ
Ġè¯´ åĶ±
ĠåįĹ æİ¥
Ġæ²¡ èĲ½
Ġåıª çĶ¨
ĠçĶ¨ æ°´
ĠåĲĮ ä¼´
Ġè¿ĩ æķı
Ġå±± æŀĹ
åħ¬ æ²³
ä¹Ĳ åĽ¢
Ġä¸ĩ åħ¬éĩĮ
Ġå¼ł ä¸ī
å¦Ĥ çĶŁ
Ġä¾¿ ä¼ļ
Ġæŀģ å¯Į
ĠèĢĥ æł¸
èĴ ľ
Ġé£Ł èĤī
ĠæĬķ å¥Ķ
ĠæĬ¥ å¤į
Ġè°ĥ åĳ³
Ġæĸ¯ å·´
Ġåı¶ çīĩ
Ġè¯ķ çĶ¨
ä¸ģ åł¡
ĠæĥĬ è®¶
èµ° å»Ĭ
å®¾ çİĭ
Ġåģı åģı
Ġ188 6
Ġå¥´éļ¶ ä¸»
Ġæĸ¹ä¾¿ éĿ¢
Ġç¥ŀç»ı ç³»ç»Ł
Ġæĺ¨ å¤ľ
Ġæŀ« åı¶
ĠåİĦ çĵľå¤ļå°Ķ
ĠéĩĳåĪļ çŁ³
Ġçĸ¼ çĹĽ
Ġåĸľé©¬æĭīéĽħ å±±èĦī
Ġæ¢ģæľĿ ä¼Ł
0 6
y l
åĽ½ å¼º
Ġä¸į å®¹
ç» ¼
ĠåĨ ¢
Ġä¸º ä¾ĭ
ĠçĽ ¾
ĠæĹ¶ è¯´
Ġè¥¿ èµ·
çĤ «
Ġå¼Ģ æľĹ
ĠéĤ£ æ®µ
Ġæ°´ ä»Ļ
Ġä¸ª çľģ
ĠäºĶ è°·
Ġ10 7
Ġæ¼Ķ æĪı
ç±» æ¤įçī©
è¾¾ å¼Ģ
Ġéħ ĭ
Ġèĩ³ å°Ĭ
ç¾ ļ
æ±ī å§Ĩ
ĠçŁ³ åĻ¨
ĠåĴ Ģ
Ġåľ°çĲĥ è¡¨éĿ¢
Ġä¸° æĶ¶
ĠéĢł è¡Ģ
äº¤ æĺĵ
Ġæ²¿ éĢĶ
ĠçīĽ ä»Ķ
ĠéĢĤ éĩı
Ġåı¸é©¬ çĤİ
æĻ® æŁ¥
Ġå¾ģ éĽĨ
Ġæķĳ åĽ½
Ġå¥Ķ æĶ¾
Ġå±Ī è¾±
ĠåĢ¼å¾Ĺ ä¸Ģ
Ġä¹³ çīĻ
Ġæĭ¼ åĳ½
ĠäºĶæľĪ å¤©
ĠåłĨ ç§¯
Ġå°±è¯» äºİ
Ġåĺ² ç¬ĳ
Ġçİĭä¹ĭ æ¶£
ĠèĢ¸ ç«ĭ
ĠæĿİå¤§ éĴĬ
Ġæł©æł© å¦ĤçĶŁ
8 3
Ġä¸į å±Ī
äºº èĬĤ
ĠæĹ¶ ä¼ļ
ĠæĹ¥ è¶ĭ
Ġçľ ·
çī© ä¸»ä¹ī
Ġæ³ ¾
Ġè¢« æįķ
Ġå¼Ģ æĭį
Ġæĥ ¶
ç¥ ·
ä¸į å¥½
åĢ ļ
ĠçĻ½ æĹ¥
ĠæŃĮ æĺŁ
åħ° çī¹
Ġéħ µ
ĠéĶ ¥
Ġæį ŀ
Ġé»ĳ è¡£
Ġè¿ŀ åŁİ
Ġç½Ĺ æĽ¼
ĠåĨľ äº§åĵģ
Ġçľģ å¸Ĥ
ĠåıĮ é±¼
Ġæķ´ é½Ĳ
Ġè¶Ĭ éĩİ
Ġç»´ çº³æĸ¯
Ġåĵģ å°Ŀ
Ġäº² èº«
Ġç»Ī çĶŁ
Ġéĵ¶ å©ļ
Ġè¯» éŁ³
ĠæľŁ æľĽ
Ġæ³¢ å°Ķ
Ġåħµ å®¶
Ġäº¿ ä¸ĩ
Ġé¹ ¦
Ġåįı åķĨ
Ġéĩİ çĮª
è¡£ èįī
ĠéĽ¨ éĩı
it t
Ġç«ŀ éĢī
Ġçŀ »
åĵ² ä¼¦
Ġç¬¬åħ« å±Ĭ
Ġæ·±æ·± åľ°
ĠåĪĬ çī©
æĽ¹ æĵį
Ġå®ľæĺĮ å¸Ĥ
Ġè¯»åĲİ æĦŁ
p a
¥ åĮĻ
Ġä¸Ģ äºĭ
Ġä¸į ä½ı
Ġæľī å£°
ĠèĢ »
Ġä¸Ĭ å±±
å¼ Ĭ
Ġæ² ±
Ġè¡ Ļ
ĠçĶŁ ä¸ĭ
Ġè¥¿ å²³
Ġæĭ Ĥ
çĦ¶ ä¸įåĲĮ
æµ· åĨĽ
æľŁ éĹ´
æ¯ Ļ
èµĽ åŃ£
Ġæ³ķ åĨĽ
Ġæĺİ æ²»
Ġ9 99
Ġå¥¥ å§Ķä¼ļ
Ġå¿ĥ å¢ĥ
å³ Ń
çĻ½ å°¼
Ġs up
Ġåħī éĺ´
çļĩ å®¶
ĠæİĴ æĸ¥
åĬ¿ åĬĽ
ĠåĪ© äºļ
ĠåĪ© çī©æµ¦
Ġå®ĺ èĩ³
Ġæ°¸ å®ī
Ġåĺ ¿
Ġå®¢ æľį
Ġæ²¿ è¢Ń
ĠèĲ½ èĬ±
ĠéĢĤ äºİ
ĠçĬ ģ
Ġé±¼ ç±³
æ¢ħ æŃ¢æ¸´
ĠæĿĤ è´¨
Ġåĩı å¼±
Ġè´¾ å²Ľ
åįı å®ļ
Ġåº§ èĲ½
ĠæĮģ æľī
ĠèĪĴ ä¼¯çī¹
Ġæ²Īéĺ³ å¸Ĥ
ĠéĤ» è¿ĳ
Ġå¼ĢåĽ½ å¤§åħ¸
ĠÇ Ĳ
å¾Ī å¤ļ
ĠèĬĴ æŀľ
Ġex o
ĠéĩĬè¿¦ çīŁå°¼
ĠèļĮ åŁł
i re
Ġä» Ĺ
Ġä¸Ģ ä¸Ń
Ġä¹ ĸ
Ġä¹ĭ ä¹±
Ġæķ ·
æĭ ¢
Ġå¤© ç¥ŀ
Ġå¼Ģ åħ³
ĠåįĹ ä¸´
æĺİ çıł
Ġåīį æĸ¹
é«ĺ çªŁ
Ġé»Ħ ç§ĭ
Ġæ°ĳ çĶŁ
ĠäºĶ æ¬¡
ĠçĿĢ æīĭ
Ġå®ŀ æĪĺ
ĠèĳĹ è¿°
ĠæŃ¦ ä¾¯
Ġäºļ éĩĮå£«å¤ļå¾·
Ġéģĵ åħ·
ĠéŁ© æĸĩ
Ġb e
Ġçª ¥
ç¿ ©
Ġåľ£ å½¼å¾Ĺ
ç»ĵ æŀľ
Ġåħĭ æĸ¯
Ġäººåı£ æĻ®æŁ¥
Ġåį¡ è¥¿
å¯Ĩ æĸ¯
Ġä¸´ æ±Ł
Ġæ¾ ľ
Ġé¢ĺ ä¸º
Ġéĩİ æĪĺ
Ġå¡Ķ åĲīåħĭ
am e
ĠåįĹåĮĹ å®½
Ġ35 00
Ġç¡¬ ä»¶
Ġè¯¦ æĥħ
ĠåįģäºĶ æĹ¥
Ġæ³ª æ°´
iz ation
Ġçıłæ±Ł ä¸īè§Ĵæ´²
Ġå¤Ħå¥³ ä½ľ
Ġå·¢ æ¹ĸ
Ġä¼ıå°ĶåĬł æ²³
Ġä¸ Ī
Ġåħ Ĩ
èĢ ¸
Ġèĭ Ł
ĠçĶµ æĬ¥
ä¸į å°½
Ġæµ· åı£
ĠåĽĽ çĻ¾
ä¸ľ æĸ¹
Ġç»ĵ åĨ°
ĠèĢģ å¤´
Ġéĺ¿ èģĶ
Ġçļĩ å¤ªåĲİ
ĠæŃ¤ ç±»
Ġæĺ¥ åħī
ĠæĸĩåĮĸ äº¤æµģ
ĠåŃĹ åħ¸
åĽĽ åŃ£
ĠåĲ´ å¥ĩ
Ġèµµ æĸĩ
Ġå±ħ éĩĮ
ĠçĶ» åį·
Ġè¯Ń æ°Ķ
Ġæľ¨ åı¶
Ġå®« éĶģ
è¿ĲåĬ¨ ä¼ļ
Ġä¼Ł äºº
ĠæĸĹ çł´
Ġæ¥ļ çİĭ
ĠæĹ§ æĹ¶
Ġå£® çĥĪ
ĠäººçĶŁ èĩªåı¤è°ģæĹłæŃ»
Ġãĥ Ī
us t
ĠæļĹ é¦Ļ
ĠèĤī çľ¼
Ġèģļ ä¼ļ
Ġä¼¯ çīĻ
Ġè¯ĳ æĪĲ
ĠéĦ Ļ
Ġæł· å¼ı
Ġ188 9
Ġäº® çĤ¹
Ġå¥´éļ¶ ç¤¾ä¼ļ
æ¶Ī æģ¯
çº½ çº¦
Ġè¿Ŀ æ³ķ
åĻ ¬
Ġé¼ł æłĩ
Ġå¾®æ³¢ çĤī
è¥¿è¥¿ æ¯Ķ
Ġæ¡Ĩ æŀ¶
Ġçº¢é«ĺ ç²±
¶ å°Ķ
Ġè¿Ļ å±Ĭ
ä¸Ģ ä»£
Ġç¬¬ä¸Ģ ç§į
ĠåĲį é¢Ŀ
Ġè¯Ĺ é¬¼
Ġçİĭ å®¶
Ġçİĭ å®«
Ġçľĭ ä¸Ń
Ġæ¸ħ å»·
Ġé©¬ ä¼Ĭ
ĠçľŁ èıĮ
åħī ç»ª
Ġä¿Ŀ å®ī
å¼Ģ æľĹ
ĠæĦŁ æĤŁ
Ġäº¤ åŃĲ
Ġç½Ĺ å¤§
Ġè§£ è¯´
ĠæĶ¶ åıĸ
Ġå®ĺ æ¸¡
éĿŀ æ´²
en ce
Ġè¿½ éļı
Ġæ¢¦ éĩĮ
åŃ© åĦ¿
ĠæĻº å¤ļæĺŁ
æ´Ľ åĵ¥
Ġæĸ½ è¡Į
ĠåĩŃ çĿĢ
æ¾ ¡
ĠèŃ¦ åĳĬ
çĸĳ éĹ®
ĠçĮª èĤī
Ġ188 1
Ġ186 3
å®ª æ³ķ
é³ Ħ
Ġä¸Ģä¹¦ ä¸Ń
Ġæ¹ĸäºº éĺŁ
ĠæĶĢ çĻ»
ç¨³ å®ļ
ĠåıĳçĶµ æľº
Ġå¤©åºľ ä¹ĭåĽ½
å¤ĦçĲĨ åĻ¨
Ġä½Ľç½Ĺ ä¼¦
ĠéĿĴèİ² å±ħå£«
ĠèľĹ çīĽ
Ġå¤§ å±±
Ġä¸º çĶŁ
Ġä¸º åĩĨ
Ġä¸Ĭ éĥ¨
ä¸Ģ ä¸ĸ
å¤§ å¸Ī
å¥ ¢
ĠåĬ £
åī ª
æĭ ¯
Ġåħ¶ åŃĲ
Ġé«ĺ éŁ³
Ġä¸¤ çĤ¹
ĠéĹ ¸
Ġæ¯Ķ èµ·
ĠåĲĮ äºĭ
ç»ı éªĮ
ĠçĲ ³
Ġå¹³ æ·¡
ĠäºĮ è¿ĽåĪ¶
å°ı æĸ°
Ġçī¹ æĦı
ĠåĬł å·ŀ
æį §
ĠäºĶ åįĥ
æĭī å¤ļ
Ġåıį åĩ»
ĠéĴ ¨
Ġæµģ ç¨ĭ
Ġ12 3
æ» ŀ
Ġåįİ è£Ķ
Ġ17 22
ĠæĶ¾ æīĭ
Ġæłĩ è¯Ĩ
ĠåĴ ³
ĠåĲī åĪ©
Ġçıį å®Ŀ
Ġé¹¿ çī¹ä¸¹
Ġè¹ ¦
ĠæıĲéĹ® èĢħ
Ġä»ķ éĢĶ
Ġè°Ĳ éŁ³
ĠèĲ¨æĭī çĥŃçªĿ
Ġå¾®éĩı åħĥç´ł
Ġä¸Ģ è½®
åĲ ģ
Ġæľī èī²
Ġå¤§ çº¢
å¤§ çķ¥
Ġä¹ĭ åĬĽ
Ġåľ° æŃ¥
Ġåĩº æīĭ
Ġé«ĺ ç©º
æ°ĳ åħļ
ĠéĹ «
éķ¿ æĺ¥
æĬ Ħ
Ġéĩĳ çİī
æĮ «
åĮĹ çľģ
ĠåĲĦ åħ·
ä¸ľ åŁİ
Ġæľ¬ æĦı
Ġå¤ĸ åĽ´
Ġåı« æ³ķ
Ġåİ» æİī
ĠåĬ¨ æĦŁ
ĠæķĻ æ´¾
Ġ11 1
Ġæĥ³ å¿µ
çĪ± å°Ķåħ°
Ġç§¦ æ¡§
Ġåħī çħ§
Ġæİ¨ æĸŃ
Ġç»ıæµİ åĮº
er t
ĠæİĴ æ°´éĩı
Ġè¡Ģ å°ıæĿ¿
ĠåĬŁ åĲį
Ġè¿ľ ç¨ĭ
Ġçİ°ä»£ äºº
Ġåİ¿ å¸Ĥ
æħ Į
Ġp l
Ġåį« åĨķ
Ġæ³¢ æ¾ľ
ĠåĮ» åľ£
æ²Ļ éĩı
ĠæĦıå¤§åĪ© éĺŁ
ĠåŃ£ åĲİ
Ġæ¸¯ å¸ģ
Ġé¸Ł å·¢
Ġ70 5
ĠåĬ³åĬ¨ åĬĽ
ä¼Ĭ åģ¥
ĠåŁ¹ æł¹
Ġè§Ħæ¨¡ å®ıå¤§
Ġéªĳ é©¬
ĠæĬ¤ å£«
ĠèĦļ æŃ¥
Ġå¿ł è¯ļ
Ġå¢ĵ åľ°
Ġäº® åº¦
ĠéĢĶ ç»ı
Ġè´¯ éĢļ
Ġæµ© çĦ¶
Ġçľĭä¸į è§ģ
æł¼éĩĮ æĭī
ĠåįĬå°ģå»º ç¤¾ä¼ļ
Ġå¤§è¯Ŀ è¥¿æ¸¸
ĠåĨħçĩĥ æľº
d r
Ġæľ ķ
Ġä¸Ģ æĿ¯
Ġä¸Ģ æ»´
è¿ Ń
Ġä¸Ĭ ä»»
Ġè¡ ¢
Ġèµ İ
éĿ¢ çĽ®
Ġåĩ ĳ
Ġæĸĩ å®ĺ
Ġé«ĺ ç«¯
èµ· ä¼ı
Ġèİ Ĩ
Ġæĺİ å¤ªç¥ĸ
Ġåĳ¨ æĸĩ
ä¸ī çĻ¾
Ġä½ĵ å½¢
Ġé©¬ è¾¾
Ġçļĩ æĹı
ĠéĿ¢ æĿ¡
Ġc r
ĠåĲĳ è¥¿
æ±ī è¯Ń
Ġa k
Ġçĭ¬ å®¶
æ£ ķ
Ġæŀģ åľ°
Ġå© º
Ġå¿« æį·
Ġä¼Ĭ çĬģ
Ġf ont
æ½ ¼
Ġä¸´ ç»Ī
Ġå¤§éĻĨ æĢ§æ°ĶåĢĻ
Ġæ´Ľ åħĭ
ĠåŁºç¡Ģ è®¾æĸ½
Ġç¬Ķ æ³ķ
éĽ· æĸ¯
Ġç²ī æľ«
Ġå°ļ æľī
å®ľ äºº
Ġèį·åħ° äºº
ĠåĦĴå®¶ æĢĿæĥ³
ec t
ĠåĨł ä»¥
å°Ķæĸ¯ æ³°
ĠçķĻåŃ¦ çĶŁ
Ġäº¤æ±ĩ å¤Ħ
Ġé¥¥ é¥¿
ĠæĶ¾å°Ħ æĢ§
Ġæ·¡æ·¡ çļĦ
¹ ç«ĭ
Ġç» Ľ
Ġå¤§ æĪı
Ġå¼ Ĭ
å¾ Ĭ
åİ Ħ
Ġæĭ Į
è° İ
ĠæĿİ å®ģ
Ġå¥½ æ¯Ķ
Ġç² ª
å®ŀ éĻħ
Ġé©¬ æľ¯
Ġèĭı å·ŀå¸Ĥ
Ġå¾· è¯Ń
æ£ ±
ĠåĪ« åħ·
Ġå¦ ĵ
ĠåĪ© æģ¯
Ġæ³¨ å°Ħ
ar s
æłĳ äºº
Ġå®¹ ç§¯
Ġk bs
Ġé¢Ĩå¯¼ èĢħ
Ġä½Ļ ç§į
Ġè·³ æĿ¿
Ġçīĩ åĲį
Ġç§» å±ħ
çħ ®
ĠæļĹ æģĭ
Ġç¬¬åįģ å±Ĭ
Ġé¡¶ å°ĸ
Ġæīĺ é©¬æĸ¯
Ġç«ł ç¨ĭ
199 2
Ġæįķ é£Ł
Ġå¥¥æĸ¯ æĽ¼
ç¯ Ĩ
âĳ ¡
Ġå®´ ä¼ļ
Ġä¸īåįģåħŃ è®¡
ĠèĪĨ è®º
ĠæĪĽ çº³
5 1
g e
ç į
Ġä¸į çĶ±
Ġå½ ·
ĠæĹ¥ æĬ¥
Ġæĸĩ èİ±
Ġé«ĺ æ¡£
Ġæĸ° æķĻ
çİ° å®ŀ
ĠçĽ¸ äº²
ĠåĲį çĶ»
ĠæŃ£ ä¼ł
ĠäºĶ ä½į
å¢ ©
ĠåĬ¨ åĲ¬
ç½Ĺ éĹ¨
ĠçŁ³ è¾¾å¼Ģ
æ· ĺ
çĶµ åı°
ç² ¤
Ġè± ģ
Ġä¸ĥ æĺŁ
Ġçľģ è¾ĸå¸Ĥ
Ġå®ļ åĪ¶
çģ« çĥ§
ĠåĽ¾ çĶ»
Ġä¾Ŀ ä¾Ŀ
é© ´
Ġä¿® éģĵ
Ġæ²Ļ ä¿Ħ
Ġèĥ¡ å¤«
Ġèİ« é«ĺçªŁ
ĠéŃı å¾ģ
ĠçŃ¾ åŃĹ
ĠæĢİä¹Ī åĬŀ
Ġåħļ åĳĺ
ĠçĦ Ĭ
Ġä¸¹ ä¸ľ
åĨľ çº¢åĨĽ
Ġéķ Ģ
ĠèĪĴ æľį
ĠçıŃ åĽº
ĠåĤ¨ èĵĦ
Ġèķ ī
åħĭæĸ¯ æ´Ľä¼Ĳåħĭ
Ġä¸»åĬŀ åĽ½
Ġå·¥åķĨ ä¸ļ
Ġï¿ ¥
ĠèĤ¾å°ı ç®¡
Ġä¸ĥè¨Ģ ç»Ŀåı¥
Ġæ¸©å®¤ æķĪåºĶ
ĠçĻ½å¸Ŀ åŁİ
5 4
i um
Ġä¸Ģ æŀ¶
ĠçĶ ©
Ġå¤§ èĤł
è¡ ®
æ´ µ
Ġå°ı çīĽ
æĹ¶ æį·
ä¸Ĭ ä¸ĭ
æĺİ å¸Ŀ
ĠæĹł ç¼ĺ
Ġæµ· é²ľ
Ġåı¤ ç±į
æĮ ĳ
Ġé¦ĸ åı¥
éĺŁ éķ¿
Ġæķħ éļľ
Ġåĳ¨ åħ¬
Ġåĳ¨ æľ«
Ġå¤ĸ ç§ĳ
Ġå¤ĸ æ±ĩ
Ġéĺ¿ åŁºç±³å¾·
èĩª å·±
ç¾ ¡
ĠéĶ °
Ġæĥ³ çĿĢ
Ġæł¹ æºĲ
Ġåı² å¯Ĩæĸ¯
Ġåįİ å°Ķ
Ġå¤Ħ å¢ĥ
ĠéŁ© çº¢
Ġæłĩ çŃ¾
Ġç¼ĸ æĴ°
Ġé¾Ļ èĳµ
Ġè¶Ĭ åĽ½
Ġå¹² åĨ°
é£ŀ è¡Į
Ġå»ºçŃĳ å¸Ī
Ġä¸Ńå¤® éĵ¶è¡Į
Ġåħħ å½ĵ
Ġæł¼ è°ĥ
Ġéķ¿æ±Ł ä¸īå³¡
Ġå®¹ åĽ½åĽ¢
Ġå½Ĵ è¿ĺ
ĠçĹħ æĥħ
Ġå°Ħ ç®Ń
Ġæ¯įäº² æ²³
Ġä¹ī åĴĮåĽ¢
ĠèĪ¹ ä¸Ĭ
Ġç¯ĩ ç«ł
Ġåį¢ æ£®åł¡
ĠæĪıåī§ å®¶
Ġéĺ¿å°Ķ åıĬ
Ġæį· åħĭæĸ¯æ´Ľä¼Ĳåħĭ
ç¯ ±
Ġé«ĺå°Ķ å¤«
æ© ĺ
Ġä¸Ńè¥¿ éĥ¨
ĠåħĭéĩĮæĸ¯ èĴĤ
Ġbey ond
ĠåŃ£åĲİ èµĽ
i ac
ĠåĲ µ
Ġäºº èº«
Ġä¸º æķ°
Ġä¹ĭ é¦ĸ
åŃ¦ çĶŁ
Ġå°ı é±¼
Ġçī ²
ä¸Ĭ è§Ĵ
Ġåº µ
å¤ļ æł·
Ġä¸¤ æĿł
Ġæĸ° ä¸ĸçºª
Ġéķ¿ éķ¿
ĠæĹł å¤Ħ
ĠæĿİ å»º
Ġçİĭ å°ı
Ġçĭ ¡
Ġä¸ĩ æłĳ
Ġåĳ¨ æĺĵ
ĠèĤ ĭ
ĠåĲĪ çº¦
éĵ İ
Ġæ¹ĸ ä¸Ń
ĠåķĨ åŁİ
Ġæº ĥ
Ġé¾Ļ åįİ
Ġè¯Ń éŁ³
Ġè¡¨çİ° åĬĽ
Ġä½İ å¤´
Ġåį« éĿĴ
ĠæĽ² é£İ
Ġæĸ¯ å¡Ķ
Ġæ²¿ æ±Ł
at h
Ġæ³° å§¬éĻµ
Ġå·® çĤ¹
Ġæ¼« æŃ¥
Ġæ®ĭ å¿į
Ġéª¨ å¹²
Ġæ¡Ĥ åĨł
os h
Ġéħ¸ ç¢±
ĠæģĲ æĥ§
ĠçŁ¿ çī©è´¨
ig n
ĠæĺĨæĺİ å¸Ĥ
Ġé¤Ĳ é¥®
ĠæĬļ åħ»
ĠçĥĪ çģ«
Ġæ¬º è´Ł
Ġå·į å³¨
ĠåĢĻéĢī äºº
åħ³æĸ© åħŃå°Ĩ
Ġé±¼ç±³ ä¹ĭä¹¡
Ġä½ ĺ
äºº ä½ĵ
Ġä¸ŃåĽ½ çĶ»
Ġæĸĩ ç¬Ķ
çĤ ľ
Ġä¸¤ é¡¹
Ġç¬¬ä¸Ģ åı¥
Ġæ°´ è´¨
Ġçİ° è¡Į
Ġè¶ µçªģ
Ġéĩĳ çŁ³
ĠæĿİ é¸¿
Ġåįģ éĩĮ
æģ ¬
åı£ å²¸
çģ ¶
ĠèĢģ ç¥ĸ
Ġé£İ åĬĽ
è¶ ¾
åįİ äºº
Ġäº¤ ç»ĩ
åĴĮ åĽŃ
ĠåıĹ è¿ĩ
Ġåı° åĦ¿åºĦ
Ġé¢Ĩ æĤŁ
å®¹ éĩı
Ġä¼ĺ èĥľ
ĠåįĬ åĨ³èµĽ
ĠåĪ© æ¯Ķäºļ
Ġå·¥ä½ľ å®¤
ĠåĬŁ åĬĽ
ĠåıĳçĶŁ åıĺåĮĸ
Ġç»§ èĢĮ
Ġè¯· æĿ¥
Ġi so
ĠåĿĲ éªĳ
Ġç¹ģ æĺŁ
Ġæłĳ æŀĿ
ĠèĦ¸ è°±
Ġéĩĳèŀį æľºæŀĦ
Ġåĸ· æ°Ķ
Ġè¡ĮæĶ¿åĮº åŁŁ
Ġå·¥äºº éĺ¶çº§
Ġæ¸Ń åįĹ
Ġå¤§éĹ¹ å¤©å®«
ĠèĦĨ å¼±
Ġéħĭ éķ¿
5 3
c c
Ġ or
äºº æīį
Ġäºº æĿ°
Ġå¤§ çŁ³
Ġæĸĩ æľ¬
çĤ ħ
å°Ķ å·´
ĠéĤ£ èĭ±
Ġæ°´ æĹı
æ¯ ¯
Ġå°Ĩ è¦ģ
ĠçĶ¨ åĬĽ
Ġæľ¬ èī²
Ġæĺİ æĪĲ
Ġæīĵ åĩº
ĠéĿŀ éĩĳå±ŀ
ĠèĬ± åĴĮå°ļ
éĵ Ŀ
Ġs ize
Ġt op
Ġæ¼ ĵ
ĠéĻ¤ æŃ¤ä¹ĭå¤ĸ
Ġç¬¬ä¸ī ä»£
ĠéĢł è¯£
ä¹¡ å¸Ĥ
ĠçŃĶ é¢ĺ
Ġå±ķ åĩº
ĠéĻį ä¸´
ic t
ĠåĮĸåŃ¦ åħĥç´ł
ĠæĻĭ åįĩ
Ġæĳ© æ´Ľåĵ¥
ĠçĥŁ éĽ¨
èĴĤ èĬ¬
os t
Ġæīĺ å°Ķæĸ¯æ³°
ĠæĪĺæĸĹ åĬĽ
Ġèĩªæ²» å·ŀ
ĠæŁĶ åĴĮ
Ġå¼Ĺ æľĹ
ĠæŁ´ æ²¹
Ġæĭīä¸ģ æĸĩ
ĠåĲŀ å¹¶
Ġä¼¸ åĩº
Ġç¯ Ĩ
ĠåĿĲèĲ½ äºİ
ĠæĦŁæŁĵ åĬĽ
ĠèµĶ æ¬¾
Ġåħ¨ä½ĵ ä¼ļè®®
ĠæĮ½ æķĳ
ĠèĻİéĹ¨ éĶĢçĥŁ
éĦ Ĥ
ĠåĲ´å¥ĩ éļĨ
5 9
Ġä¸Ģ çľ¼
Ġå¤§ æĪĲ
åĨ ¥
Ġåľ° åĬ¨ä»ª
Ġå± ģ
Ġå°ı æľĭåıĭ
Ġå¼Ģ åı£
ĠçĽ¸ æİ¥
ĠåİŁ è°ħ
Ġéĩį å·¥ä¸ļ
è· Į
äºļ èĲį
Ġé£İ æ°Ķ
ĠåĪĺ ç¿Ķ
ĠåĬ¨ æīĭ
ĠåĲĪ èĳ¬
Ġäº¤ éħį
Ġå·´ èĲ¨
Ġæ°Ķ æ³¡
ĠçĥŃ æ½®
ĠåĨľ åľº
Ġç»Ĩ å°ı
Ġé© ¯
æļ ¨
Ġåľ°çĲĥ æĹ¥
Ġæ¬¡ æĹ¥
Ġä½İ çº§
Ġåı£ ä¸Ń
Ġä¸¥ åİī
Ġéĥĳ ä¼Ĭåģ¥
ĠæĦıå¤§åĪ© äºº
ĠåĨ¬ å¥¥ä¼ļ
èĲ¨ å°Ķ
ĠåĨ· æĪĺ
Ġæłĳ ç§į
Ġéº¦ åĵ²ä¼¦
ĠèĬ¬ å¥ĩ
ĠåĢ¡ è®®
éĿĴå¹´ åĽ¢
Ġé½¿ è½®
ĠèĮīèİī èĬ±
Ġä½Ľç½Ĺä¼¦ èĲ¨
0 2
5 00
è ¤Ĳèī²
ĠåĪ ģ
Ġå¹´ åĩº
Ġå¥ ķ
Ġä¸Ĭ æµģ
çİ º
ĠåŃ Ľ
ĠæĹ¶ æĹ¶
Ġæ¯ ĭ
Ġå°ı è´Ŀ
æµ ļ
ĠåİŁ çĶŁ
Ġæµ· åıĤ
Ġå¥³ å©¿
Ġé»Ħ é¾Ļ
Ġæ¸ħ é¦Ļ
Ġæ¸ħ æ³ī
Ġå¤ĸ å©Ĩ
ĠåĶĲ é«ĺç¥ĸ
Ġä¸ĵ é¢ĺ
ç¼ ´
ĠåĲĳ åĮĹ
Ġç½Ĺ å®¾
ĠåĲ´ èµ·
Ġè¿ĳ å¹´
Ġè¾ĥ å¼º
Ġåī§ éĽĨ
Ġå¹² æĶ¯
åºĨ é¾Ħ
æĳ ¹
ä»· æł¼
å¥¥ æŀĹåĮ¹
çĩ ®
ä¸ŃåĽ½ å®¶
ĠèĲ¥ éĶĢ
Ġä¸Ģå¹´ ä¸Ģåº¦
Ġå°ģå»º åĪ¶åº¦
Ġç¬¬åĽĽ æ¬¡
åĲī æĸ¯
ĠéĴŁ æ¥¼
ĠæļĹ æĿĢ
Ġçĩķ äº¬
ĠæĮģ ä¹ħ
ĠéĢĥ äº¡
Ġç³ĸ å°¿
å¥Ī ä½ķ
ĠéĹª çĥģ
Ġæ¡ĥèĬ± æºĲ
Ġæµĳ æµĬ
è¶³çĲĥ éĺŁ
Ġå¹³å®ī å¤ľ
Ġè¾¨ åĪ«
ĠåĪĨå°ģ åĪ¶
ĠéĻįéĽ¨ éĩı
Ġå¤§è§Ĥ åĽŃ
Ġfif a
Ġ Ù
Ġä¸Ģ å¾ĭ
Ġä¸Ģ åĨį
Ġå¤§ ä¾ł
Ġä¸º æľŁ
Ġå½ °
ĠçŃ Ĵ
Ġä½ľ äºİ
Ġå¤© ç«º
Ġå¤© èĿİ
æĸ¯ åħĭ
Ġæĸ° éĥĳ
åĲĪ éĩĳ
Ġå±± åĬ¿
æŃ¤ åĲİ
ĠåŁİ éĹ¨
Ġæ¼Ķ è¿ĩ
Ġéģ ı
Ġå¿ĥ æĪ¿
Ġåıĳå±ķ ä¸ŃåĽ½å®¶
Ġæ±Ł éĺ´
å¦Ĥ ä½ķ
éĩĳ å®Ŀ
Ġå®¶ å¢ĥ
ĠçĶ· åĦ¿
Ġæİ¥ çº³
Ġå¯¼ ä½ĵ
Ġå¨ ´
ĠæĶ¾ ç½®
Ġæŀģ å¼º
ĠæİĴ åºı
é© ³
Ġè¯į æ±ĩ
Ġåı¸ ç©º
Ġåįļ å¤§
åľ£ éĻ¶
Ġå¯Į åħ°åħĭæŀĹ
ĠæŀĦ æĥ³
Ġçł´ äº§
ĠåŃŁ éĥĬ
Ġèµ¤ åħĶ
Ġæ¸¯ åı°
Ġæ¬¢ åĸľ
ĠéĶ¦ ç»£
Ġåį· çĥŁ
åĩł å¹´
é»ĺ å¾·
ĠæĬ¤ çĲĨ
Ġä¼ı ç¾²
ĠåĪĳ ç½ļ
ĠéģĹä¼ł åŃ¦
Ġæ¤ Ĵ
Ġéī´ äºİ
Ġå¢Ļ ä¸Ĭ
ĠåĩĢ åĮĸ
ĠçĲ¼ çĳ¶
ĠæĨ ¨
ĠæĹłæīĢ è°ĵ
Ġå²Ĺ ä½į
Ġå·´æĭ¿é©¬ è¿Ĳæ²³
Ġè°İ è¨Ģ
ĠèĿĹ èĻ«
8 9
Ġä¹ĭ æĹ¥
æī ĳ
å¤ļ æ¬¡
ĠåĲį è´µ
ĠåĲį èıľ
çĲĨ äºĭ
ĠåĨħ èĦı
Ġåįģ ä½³
ĠäºĮ ä»£
ĠåİĨåı² èĥĮæĻ¯
Ġå¼ł ç¿°
åįİ åģ¥
åİŁ ä½ĵ
å®ī åĮº
Ġåİ» è¿ĩ
Ġçº¢ åŃ©åĦ¿
ĠæĶ¹ åĨĻ
Ġç¤¾ä¼ļ æ´»åĬ¨
é£ŀ èĪ¹
ĠéģĹ åĺ±
Ġä¿® åħ»
Ġå¸ĥ ä¾Ŀ
Ġå¸Ŀ ä½į
Ġp k
ĠæĿĢ èıĮ
ĠåĿļ éŁ§
Ġçĳ Ł
Ġå±Ĭ æĹ¶
Ġãģ Ĺ
ĠæĿ° ä¼¦
ĠæĢĢ æĬ±
Ġ190 3
Ġå¸ĮèħĬ äºº
Ġåı¬ éĽĨ
Ġå®¡ æł¸
Ġä¸ľæ±ī æĹ¶æľŁ
ĠæĺŁæľŁ äºĶ
Ġå½±è§Ĩ åī§
ĠçŁ³å¤´ åŁİ
Ġåĭ¤ åĬ³
Ġåħ¬å®ī æľºåħ³
èĲ§ ä½ķ
Ġå²ĳ åıĤ
Ġä¸ŃåĽ½å·¥ åĨľçº¢åĨĽ
Ġâ Ĭ
Ġä¸į åħį
Ġå¤§ æį·
Ġä¼ ŀ
æľī æľĭ
Ġåĩº ç§Ł
æ¸ £
ä¸Ĭ å°Ĩ
Ġå¤ļ ä½Ļ
Ġå¤© å¨±
Ġå¹¶ åŃĺ
ĠåĲį æī¬
Ġä¸ª ä¸ª
Ġåı¤ å¤©ä¹Ĳ
Ġåīį æĻ¯
Ġåīį åİ»
Ġçī¹ æĭī
åĲĮ å¹´
ĠæĪĺ è½¦
ĠæĪĺ èĪ°
äºļ çº¶
Ġæľ¬ æ¬¡
ĠèĢģ å¤«
Ġæĺİ å¿«
Ġæ¸ħ éĻ¤
Ġç¼ Ģ
Ġé©¬ äºĳ
ĠéĿ¢ çĽ®
Ġæµģ æĶ¾
ĠåħĪ æ°ĳ
Ġä¹¦ ä¸Ĭ
ĠåıĮ é¾Ļ
ä¼Ĺ ä¸įåĲĮ
Ġèĵ ī
ĠèĪª ç¨ĭ
Ġå·¨ é¹¿
Ġå£° åĲį
Ġå¤± æĦı
æ¨ Ł
ĠéģĹ ä½ĵ
ĠåĵĪ å¯Ĩ
è¡Ģ åİĭ
Ġæ³¢ éķ¿
Ġä¸¥ å¯Ĩ
Ġéħį åģ¶
Ġå¤ľ éĩĮ
Ġæī§ æķĻ
ĠæĶ» åħĭ
ĠæĪ¿ äº§
Ġé²ľ è¡Ģ
ĠèĲ§ ä½ķ
Ġç¬¬åįģ äºĶ
ĠæĢ¥ åī§
ä¸ĵ ä¸ļ
Ġç©Ĩ ç½ķ
Ġèķ ¨
ĠèĦĳ è¢ĭ
ĠåİĤ åķĨ
Ġè¿Ŀ èĥĮ
éĵĥ èĸ¯
æ© Ļ
Ġæ°¯åĮĸ éĴł
ĠåĵĪéĽ· å½ĹæĺŁ
Ġé¢Ĩè¡Ķ ä¸»æ¼Ķ
Ġéĺ¿èģĶ éħĭ
Ġåħ ¹
Ġä¸Ģ ä¸¤
Ġä¸į æĹ¶
äºº æĦı
ä¸Ģ æł¼
Ġå¾ ĺ
Ġä¸İ ä¼Ĺä¸įåĲĮ
æĹ¶ ç©º
Ġå¤© åĳ½
ĠåįĹ çº¬
å°Ķ å°¼
Ġå½ĵ æĹ¥
Ġäºİ ä¸ĸ
Ġæ°´ ä¹¡
Ġçİĭ æĻ¶
ĠçĻ½ åħ°
Ġåħ± éĿĴ
Ġéĥ¨ ä»¶
ĠåŃĹ å½¢
Ġåįİ æ²Ļ
Ġè½¬ ä¸º
Ġå¼ķ é¢Ĩ
Ġè°ģ çŁ¥
Ġæļ ¨
Ġæº ľ
çĿ ¦
Ġå¤´ çĹĽ
Ġè¯į åħ¸
ĠåľĨ éĶ¥
ĠæľĢä½³ å½±çīĩ
ĠéĶĻ èĲ½
Ġè¥¿æĸ¹ äºº
åĮ» åŃ¦
Ġåĳ¼åĲ¸ ä½ľçĶ¨
Ġæ·±åħ¥ äººå¿ĥ
Ġæīĩ åŃĲ
Ġä¹īåĬ¡ æķĻèĤ²
Ġè°ĵ ä¹ĭ
Ġæ¸ł éģĵ
Ġå¯¼çģ« çº¿
Ġæ´ĭæº¢ çĿĢ
8 2
åĲ Ĭ
Ġä¸į èĥľ
Ġä¸į å¿į
åľ ĥ
Ġæľī æĿĥ
åº ŀ
Ġå¤§ çģ«
Ġåıĳ çĥŃ
Ġä¸ī å±±
Ġä¸ĸçķĮ çº§
Ġå¤ļ åº§
Ġå¤ļ éĽ¨
Ġå¤© æ°´
Ġé«ĺ æĺİ
Ġé«ĺ å¤Ħ
ĠåĮĹ æľĿ
Ġå¼Ģ æĴŃ
Ġç¾İ ç±į
ĠçĽ¸ éļĶ
ĠåİĨ éĻ©
æ±Ł èĭı
Ġé¦ĸ ä»»
Ġè¡¨ çĻ½
ĠåŃ¦ åĽŃ
å°ı èĢĮ
ĠæĢ» äº§éĩı
Ġèİ ½
Ġå¼ł åŃĲ
Ġæ¼Ķ è¯´
åıĳ è¾¾
ĠåĢ Ń
Ġå®Į å·¥
Ġèĭı åĨĽ
Ġé»ĳ åŃĲ
Ġç®Ģ åĮĸ
Ġb log
ĠåŃĻ å¥³
ĠåŃĻ ä¿ª
é¹ ī
æĹł ç©·
Ġt xt
Ġæ²Ļ å¸Ĥ
ĠçīĪ æĿĥ
Ġæ°ĳä¸» åħļ
Ġè¿İ æĺ¥
ĠåĪ¤ åĨ³
æ¡ĳ å°¼äºļ
ro id
Ġå·¡ æĬļ
Ġåı¤äºº ç±»
å½¦ å®ı
Ġå¢Ļ å£ģ
ev er
Ġæĭĵ å±ķ
Ġæ±´ äº¬
ĠåıĸæĿĲ äºİ
Ġäººéģĵ ä¸»ä¹ī
ĠèĬĤåº¦ ä½¿
å¥¥æŀĹåĮ¹ åħĭ
l ine
Ġä¸Ń è·¯
Ġä¸į ä¸ĭ
Ġä¸į æĸĻ
Ġå¤§ å·´
ä¸Ń åŃ¦
æĥ Ł
Ġä¸ī èĢħ
åĮĸ åĲĪçī©
Ġåĵ ©
ĠçĽ¸ éĹ´
èĪ ¶
Ġ6 90
Ġå±± åĿ¡
ĠæĢ» æľī
Ġé©¬ è·¯
Ġåıį åĵį
éª ¥
æµģ çĽ´ä¸ĭ
Ġæ±Ł æĪ·
Ġç§ĳ å°Ķ
éĢļ è¿ĩ
Ġå°ĳ æł¡
ĠçŁ³ ç¢ĳ
Ġåįķ é¡¹
æ¯Ķ å¦Ĥ
Ġé¸ ł
Ġå¤Ħ æŃ»
ĠæŀĹ ä¾Ŀ
Ġåıĸ èĩª
Ġé¾Ļ éª¨
éķĩ å®ĩ
ä¼¯ èĻİ
èĢģ äºº
Ġç«ĭ å¿Ĺ
Ġéº ½
çŁ ¢
Ġèĥ¡ èĲĿåįľ
Ġä¸ªäºº ä¸ĵè¾ĳ
Ġèİ« æ³Ĭæ¡ĳ
Ġè½» åŀĭ
Ġå¯Ĩ è¥¿è¥¿æ¯Ķ
Ġæ¿Ģ èµ·
æ³¨ çĽ®
Ġåĵ¥ çĻ½å°¼
Ġå¥³åŃĲ åįķæīĵ
ĠéĤĵ è¶ħ
Ġåľ°çĲĨ åŃ¦å®¶
ĠæŃ¥ åħ¥
Ġåı¬ åĶ¤
Ġè¨Ģ è¡Į
Ġç«Ł æĺ¯
Ġæ±ª ä¸ľåŁİ
Ġç¼ĵ è§£
Ġåħ¬å¼Ģ èµĽ
ber t
Ġåı¹ æģ¯
Ġèıł èıľ
æĮī çħ§
Ġå®ĹæĿİ æ²»
Ġå¤§ä¸į åĪĹé¢ł
Ġåĳ¼ä¼¦ è´Ŀå°Ķ
Ġèµµä¸½ é¢ĸ
ĠæŀĹå¾½ åĽł
Â ·
Ġä¸Ģ ç¬ĳ
Ġä¸Ģ ç²Ĵ
Ġå¤§ éħĴåºĹ
ä¸Ģ å±Ĥ
åī ĸ
Ġè¢« è´¬
Ġå¼Ģ åľº
ĠæĿİ åħĥ
å¨ ´
ĠåĢ ©
Ġèº« éķ¿
Ġå½± è¿·
Ġå°ĳ åĦ¿
Ġåįķ æīĵ
Ġéģĵ åľº
Ġè§£ æ¯Ĵ
Ġå®ĭ åħĥ
Ġé¾Ļ æ³ī
Ġå¹² èĦĨ
Ġäº² å±ŀ
Ġå¤± è¯¯
Ġåħĭ æŀĹ
Ġäººåı£ å¯Ĩåº¦
é£Ł åĵģ
Ġr ap
Ġéħį ä¹Ĳ
Ġåº· å®ļ
Ġè§Ĩ çº¿
Ġäº¦ åı¯
Ġåİĭ åĪ¶
le y
Ġå°Ħ ç¨ĭ
Ġç¬¬åįģ åħ«
Ġè°Ī è®º
Ġçŀ ³
æĸ¹éĿ¢ åĨĽ
Ġæµİ å·ŀ
Ġé£ĺ éĢ¸
ĠçĮ« ç§ĳ
Ġåį§ èĸªå°ĿèĥĨ
æİ§ åĪ¶
ĠæŃ¦è£ħ èµ·ä¹ī
ĠæĻ¶ èİ¹
ĠæĮ¥ åıĳ
ĠÑ Ģ
Ġæ¸Ń æ²³
Ġæ§ ½
Ġç¥Ī ç¥·
ĠåĨ¶ éĩĳ
ä¸įçŁ¥ éģĵ
ĠæĿ¾èĬ± æ±Ł
ĠéĻ¨ çŁ³
Ġç½Ĺå¤§ ä½ĳ
å ¬
Ġ à
ķ çĮ´
Ł èĲĥ
åĨ ī
å¹´ åįİ
ĠæĪĲ åįĥ
ĠåĲİ åįĬ
ĠæīĢ æĮĩ
Ġé«ĺ èĢ¸
æĸĩ èĶļ
Ġç¾İ è²Į
ĠåįĹ åĽ½
ĠåįĹ å®«
Ġå½ĵ å±Ģ
ĠçĽ¸ ä¼ļ
ĠçĽ¸ äº¤
Ġæµ· é¸¥
ä¾ ĥ
ĠçĪ± çĲ´
èĭ ĩ
ç¨ ł
Ġæķħ èĢĮ
Ġæ¸ħ åĩī
Ġå¤ĸ åĩº
èĩª ä¸»
Ġç¥ŀ æĢģ
éª Ħ
ĠåĬ¨ èĥ½
ĠæĤ ¦
Ġåıĺ æį¢
å¦Ĥ ä»Ĭ
ĠèĬ± çģ¯
ç±³ åħ°
Ġæį £
ĠéĻĪ ç¿Ķ
ĠæŁ Ħ
ĠåĮħ è£¹
Ġè¿ŀ ä»»
ĠæĢĿ ä¹¡
Ġç»ıæµİ åŃ¦
ĠæĿ¨ åĿļ
ĠåŃĻ èīº
æ¼ ¾
ĠæĶ¿æ²» éĥ¨
ĠçłĶç©¶ ä¼ļ
Ġä½ķ åĨµ
Ġæ¤įçī© ä½ĵ
ĠéĴŁ å£°
æĢ» ç»Ł
Ġå®¶åºŃ æĪĲåĳĺ
èĬ¬ å¥ĩ
Ġè¡Ģæ¶² å¾ªçİ¯
Ġ186 4
Ġ185 6
ĠéĨī ç¿ģ
Ġå°¿ ç´ł
Ġå²¸ æľ¬
Ġ178 9
Ġéĵħ ç¬Ķ
ĠéĴ¦ å·®
Ġå°ģç¥ŀ æ¼Ķä¹ī
Ġæµ¸ æ³¡
Ġæ©Ħæ¦Ħ æŀĿ
ĠæľīæĦı æĢĿ
Ġèī³ ä¸½
Ġåľ°ä¸» éĺ¶çº§
Ġèİ±èĮµ æ²³
Ġå¤ĸæĺŁ äºº
Ġè¯ºæĽ¼ åºķ
Ġç³ĸå°¿ çĹħ
m e
â Ĺ
Į è±Ĩ
Ġå¤§ é©¬
çº ¥
Ġä¸ŃåĽ½ å¥³
Ġå°ı åĽ½
Ġå°ı çº¢
åľ° è²Į
åĮĸ çī©
Ġæĸĩ éĢī
ĠåĮĹ é½Ĳ
Ġçİ° éĩĳ
ĠåĲĮ è¡Į
ĠæŃ£ åĢ¼
ĠæĿİ äºļ
æ¡ ©
Ġé¦ĸ å¯Į
æŃ¤ æĹ¶
ĠåĲĦ ä¸įçĽ¸åĲĮ
Ġé©¬ éĩĮäºļçº³
Ġéĺ¿ å¸ĥ
Ġå®ī ç½®
ĠèĬ± è´¹
Ġæģ ¯
Ġçĭ¬ åĶ±
Ġé¦Ļ æł¼éĩĮæĭī
Ġåı° è¯į
åĭ º
Ġè§£ æŀĲ
ĠæŃ» èĢħ
Ġæĳ Ĭ
ĠåĨľ å¤«
ĠæĶ¶ åĽŀ
åľŁ åľ°
Ġèħ ĵ
ĠæĿĢ ä¼¤
ĠæĢİ èĥ½
Ġè¾¹ ä¸Ĭ
æ½ ĺ
ĠåĲĪä½ľ èĢħ
Ġé¢Ħ ç¤º
ĠéŃı æĻ¨
Ġç¤¼ è®°
ĠéĢĢ åĮĸ
Ġåį¢ ä¿Ĭä¹ī
Ġèŀį ä¸ºä¸Ģä½ĵ
ĠèĴ¸ é¦ı
Ġæģ© ä»ĩ
Ġå¤§å¤§ å°ıå°ı
Ġè§¦ è§Ĵ
Ġä»² è£ģ
ĠåĬłéĢŁ åº¦
Ġåįģä¸ĥ å¹´
ĠæĶ¯ä»ĺ å®Ŀ
Ġå®Ľ å¦Ĥ
organ ization
Ġå¾ĺ å¾Ĭ
Ġä¸Ń å°ī
Ġä¸į æĩĪ
Ġå¤§ åĨĻ
Ġå¤§ åĪĢ
ä¸Ģ åĪĩ
Ġä¹ĭ å¥³
Ġåı¯ ä¹Ĳ
Ġä¸» æľº
Ġå¤ļ ä¹ħ
ĠåĽł åħ¶
ĠåĽĽ ä»£
Ġå¹³ å¹³
åıĳ æĮ¥
ĠåĨĻ çľŁ
Ġé©¬ åĬĽ
Ġéĺ¿ æĸ¯
Ġæ²³ æºĲ
Ġè¡Į å½ĵ
æ±ī èī¯
Ġå¼º åĬ²
Ġåħī çº¤
ĠèĬĤ çº¦
ĠèĬĤ åģĩæĹ¥
Ġå·¦ ä¾§
Ġå®ļ è®º
èĢģ å¸Ī
Ġæ¯Ľ åĪ©
Ġä¿Ħ è¯Ń
ä¹Ŀ å¤©
Ġåħħ çĶµ
èĪŀ åı°
åĭĴ æĸ¯
ç¬Ķ å°ıæĸ°
ĠåĽĽå¤§ ç¾İå¥³
Ġæ²» æīĢ
ĠåĪ¶éĢł åķĨ
ĠäºĴ ä¸į
Ġåľ°çĲĨ åŃ¦
Ġè·¨ åĽ½
ĠæĸŃ ä»£
Ġæ¡ĥ åĽŃ
ç¬¬ä¸Ģ å±Ĭ
Ġå²© æµĨ
Ġé³ Į
Ġâĸ ¡
ĠåºĻ å®ĩ
Ġåĸ· åıĳ
Ġåĵį åºĶ
Ġæ°ĶåĬ¿ ç£ħç¤´
Ġéŀł èº¬
å¤©å¤§ åľ£
ĠåĬłåĪ©ç¦ıå°¼äºļ å·ŀ
Ġæĸ°æ°ĳä¸»ä¸»ä¹ī éĿ©åĳ½
Ġéĩĳé©¬ å¥ĸ
Ġç¨»èįī äºº
Ġä¸ĸçķĮåį«çĶŁ ç»Ħç»ĩ
Ġæ¼ĵ æ±Ł
Ġäº ³
Ġä¸Ń æĸ¹
Ġä¸į è´Ł
Ġä¸º å¸Ŀ
Ġèĭ Ľ
Ġæĭ Ĳ
çĤ ½
Ġä¸ľ èµ·
ĠåįĹ è¶Ĭ
ĠåİŁ çīĪ
ä¹ī è¯į
Ġçľĭ å¾ħ
æľº åľº
æĭī åĽ¾
éļ ĭ
Ġå¤ĸ å£³
ĠåĪ¶ åıĸ
Ġè¿Ĳ æ°Ķ
æĢĿ æĪĲ
ĠçŁ³ åĿĹ
Ġæĺ¥ æĻĵ
Ġs a
Ġåħī æ£į
Ġé¢Ĩ çķ¥
Ġä¸ĥ é¾Ļçıł
ĠæŀĹ åŃĲ
ç¢ Į
Ġå°ģ åı·
Ġå¿ħ å°Ĩ
ĠæĬĢ æ³ķ
Ġé£Ł æĮĩ
ĠæĬķ éĿł
Ġå¾·åĽ½ éĺŁ
Ġå¸Ŀ åĪ¶
Ġæĺ¾ çİ°
Ġä¸Ńå¤® æĶ¿æ²»å±Ģ
Ġåı£ è¯Ń
Ġè·Ł è¸ª
Ġç»¿ èĮ¶
Ġç§ĳåŃ¦ éĻ¢
Ġå§Ķ å©ī
Ġãģ ª
ĠåĨ· éĿĻ
ĠåĪ¶éĢł åİĤ
Ġæ¬¢ åĳ¼
Ġä¹ł æĢ§
ĠæºĲ è¿ľ
Ġå¯Ĵ å±±
ĠåĪ¤ å®ĺ
Ġç¬¬åħŃ å±Ĭ
Ġéĺµ äº¡
ĠåĽ¢ä½ĵ èµĽ
Ġè®¿ åįİ
ĠéªĨ å®¾çİĭ
Ġæ¯«æĹł çĸĳéĹ®
Ġæ¤ŃåľĨ å½¢
ĠäºĶè§Ĵ æĺŁ
ç Ļ
Ġåį ¸
Ġå¤§ æ¸¡
Ġå¤§ ä¸ĵ
Ġä¸Ĭ çº§
éĻ ķ
Ġåĩº çº¿
Ġæ³ ·
Ġè¢« ä¿ĺ
æĸ¹ éĴĪ
Ġæĭ ĩæĮĩ
Ġç¬¬ä¸Ģ éĽĨ
è¥¿ åİ¿
Ġæ°´ æº¶æ¶²
ä¸į èĲ½
åĿ İ
Ġè° ´
æ¡ ¨
ĠæŃĮ è°£
éļ ĺ
æµģ éķ¿
Ġæīĵ åĵį
éĤ ĥ
å½¢ æĢģ
ĠçĮ ķçĮ´
Ġå®ĭ åºĨé¾Ħ
Ġä¼ĺ åħĪ
Ġæī¾ åĩº
Ġç¾¤ æĺŁ
ç¾¤ ä¼Ĺ
Ġåº¦ æķ°
Ġä¼ģä¸ļ å®¶
Ġè¥¿åĮĹ åľ°åĮº
Ġåı¸é©¬ æĺŃ
ĠåĢĴ åħ¥
Ġå±Ģ åĬ¿
ĠéĽ¶ åĶ®
Ġæĸ½ çī¹
ĠæīĢåľ¨ åŁİå¸Ĥ
Ġè¨Ģ è¯Ń
ĠåĿ¦ æ¡ĳå°¼äºļ
Ġå°ıåŃ¦ çĶŁ
Ġåĭ¾ è·µ
ĠçĮľ æĥ³
198 4
Ġ58 1
Ġæ¼Ķåıĺ æĪĲ
åıĪ ç§°
ĠèĲĮ åıĳ
ĠçĴ §
Ġæ²¸ èħ¾
Ġå¼łåŃ¦ èī¯
Ġç¥ģ è¿ŀ
Ġä¸įåĪ© äºİ
ĠéŁ©éĿŀ åŃĲ
ĠæĲı æĸĹ
ĠéĻĪæµ© æ°ĳ
Ġè¿ĩäºĶ åħ³æĸ©åħŃå°Ĩ
Ġä¸Ģ ä¾§
ĠæĪĳ å¿ĥ
å¹´ éĹ´
Ġåĩº èµĦ
Ġå¼Ģ æĿ¥
è¿ĩ åİ»
Ġæĸ° å¼ı
Ġé¢ ¤
æĢ§ æł¼
Ġ... ..
çļ ĸ
æ°Ķ æģ¯
Ġæ°ĳ çĶ¨
ĠçĿĢ åĬĽ
ĠæıĲ çĤ¼
å¸ĥ ç½Ĺ
ĠåºĶ éĤĢ
Ġåħĥ é¦ĸ
ĠæĤ Ķ
ç¾ ¿
Ġåģļ äºĭ
Ġäº¤ çĤ¹
æĢĿ è®®
Ġåįķ åľº
Ġå¼º å¼±
èı ©
Ġç½Ĺ å¸ĥ
Ġé¸ ¢
Ġåħ« æĹĹ
å¼º åº¦
éģ Ĳ
Ġéĵģ æľ¨
ĠæľĢé«ĺ çĤ¹
Ġäºĳ éĽ¾
ĠçĤ¹ ç¼Ģ
Ġr ain
Ġå¾® åŀĭ
Ġè¶³çĲĥ éĺŁ
Ġé¢ĺ åĨĻ
åĶĲ ä¹¦
Ġãģ ĭ
Ġæ²Ī æĭ¬
Ġä¸¾åĬŀ åľ°
é»Ħ æ²³
Ġåŀ «
Ġåĩ¤ æ¢¨
Ġå¿Ĺ åĲĳ
Ġç«ł åŃĲ
Ġå¤ĦçĲĨ åĻ¨
éĽĢ æ¥¼
èĶ Ĺ
ĠåĲĽä¸» ä¸ĵ
ĠæľīæīĢ ä¸įåĲĮ
Ġä¸»åĬŀ æĿĥ
ĠæµİåįĹ å¸Ĥ
Ġæ¢µ é«ĺ
ĠèĬŃ èķī
ĠéĽģ èį¡
ĠçĦļ ä¹¦
ĠçĪª åĵĩ
Ġé»Ľ çİī
Ġå®ĭå¾½ å®Ĺ
publ ic
Ġé¹¦ é¹ī
äº ¢
Ġä¸Ģ çŀ
ĠåĲ Ŀ
Ġå¤§ ä¸Īå¤«
Ġä¸ŃåĽ½ ç§»åĬ¨
åŃ¦ èĢħ
Ġä¸ĸ è¯´
Ġå°ı å°Ĩ
èµ ¶
Ġè´ ±
Ġè¯´ æĸĩ
ĠéĹ ¾
Ġèĭ± èģĶéĤ¦
Ġå¥½ äºĭ
Ġ7 12
Ġå§ Ĩ
Ġèµ· æŃ¥
ä¸ī å¤§
Ġåħ³ æĢĢ
ĠæĦı æĦ¿
ĠåĪĺ æ¬¢
ĠæĶ¹ å»º
Ġäºĭ åħĪ
è®° èĢħ
ĠçĶ· ä¸»
Ġéĥ¨ æĹı
ĠéĻĪ æĻĵ
Ġæĺ¥ æĹ¥
åĽŃ æŀĹ
Ġm an
Ġæĳ ¹
ĠæĶ¾ æĿ¾
é¹ Ĥ
Ġ13 2
Ġåľ£ ä¿Ŀç½Ĺ
Ġp c
Ġè£ħ ä¿®
ĠèģĮ è´£
ĠÃ ³
Ġå¯Ĩ å°ģ
Ġéĵľ çīĮ
èĪª å¤©
Ġä¸įåı¯ æĢĿè®®
Ġæµ·æĭĶ é«ĺåº¦
Ġä½ı å®¿
Ġä¹¾ åĿ¤
Ġ189 3
ĠèĻļ ä¼ª
Ġæį¢ æĪĲ
Ġç¤¾ ç¨·
Ġéĺµ èĲ¥
ĠæŃĮåĶ± å®¶
ĠçĨĶ åĮĸ
Ġåĥ§ äºº
Ġæŀ« æŀĹ
Ġæ¹Ħ åħ¬æ²³
Ġéĩĳæ²Ļ æ±Ł
ĠèģĶæ¬¢ æĻļä¼ļ
w h
Ġå¤§ æ±ī
åŃĲ åŃĻ
å®¶ åºŃ
æŃ ¼
Ġä»¥ å°ĳ
Ġåĳ ķ
Ġè¥¿ éĻµ
çľ ·
Ġä¸ľ ç«¯
æĻ Ĺ
Ġä¸ĭ å±±
Ġè· »
æĬ «
ĠæĿİ åĺī
Ġç§° åģļ
ĠåĲĦ å®¶
Ġä¸ĩ åħ¬é¡·
Ġä½į åĪĹ
ĠæĶ¿ åĬ¡
Ġå¿ĥ æĥ³
Ġå¿ĥ è·³
ĠåĽŀ åºĶ
æºĲ åİ¿
Ġåģļ äºº
Ġäº¤ èŃ¦
ç¼ Ĩ
ĠçŁ³ çĭ®
Ġå¾· éĩĮ
Ġæ¹ĸ å¹¿
ĠéŁ³ åĵį
ĠæŀĹ ä¸ļ
ĠåħŃ åįģå¹´
Ġè¶ħ éŁ³éĢŁ
Ġé¾Ļ é©¬
ĠåĲĮæĹ¶ ä»£
Ġèħ Į
ĠæĬķ èº«
Ġåį¡ å¡Ķå°Ķ
Ġç»Ĩèĥŀ åĪĨè£Ĥ
éļĨ åĿ¡
Ġæ´Ľ ç¥ŀ
Ġç®¡çĲĨ å±Ģ
Ġå°¤ æĸĩ
Ġè·³ é«ĺ
Ġæ´ª æ³½
Ġãĥ «
ĠåįģäºĮ ä¸ª
Ġå¹¿æ³Ľ åºĶçĶ¨
ĠèĥĮæĻ¯ éŁ³ä¹Ĳ
éĢĤ åºĶ
ĠåĸĢ æĸ¯çī¹
ĠèĦ¾ æ°Ķ
Ġæ²³è¥¿ èµ°å»Ĭ
ĠéĤĵä¸½ åĲĽ
ĠéĽħé²ģèĹıå¸ĥ æ±Ł
Ġæ¾ľ æ²§
ĠæĿİé¸¿ ç«ł
Ġç©Ĩç½ķ é»ĺå¾·
ĠæĪĲåįĥ ä¸Ĭ
p g
Ġä¸Ń ä¸º
Ġä»ĸ ä¼ļ
ĠæĹ¶ è¦ģ
ĠåĽ½ åº¦
Ġå°ı çĶ·åŃ©
Ġåħ¶ äºĮ
Ġæİ ĺ
Ġè¥¿ åħĥ
ĠåĪĨ è´Ŀ
Ġä»İ åĨĽ
ĠéĤ£ åĦ¿
ä¸į åĬ¨
Ġé»Ħ å·¾
ĠéĢļ çĶµ
Ġå®ī å¦®
Ġéħ ī
ĠæĤ ¼
Ġæį ı
Ġ201 6
é¸ ¦çīĩ
Ġéĥ ¦
ĠçĲĨ åıĳ
Ġm y
ĠæĺŁ çº§
Ġæ¶Ī æŀģ
åķ Ĭ
Ġå®ļ åŀĭ
Ġh igh
Ġå¹² æ¶ī
çĬ¶ æĢģ
ĠÃ º
Ġè¡Ĺ ä¸Ĭ
Ġåł ¤
Ġj j
Ġæ²¹ èıľ
Ġéĵľ åĥı
ĠåĪ» åº¦
Ġ189 0
Ġæµ® éĽķ
Ġè¿ª æĸ¯
ĠåİŁå§ĭ ç¤¾ä¼ļ
Ġåįģä¸Ģ å±Ĭ
ĠåŁºåĽł ç»Ħ
Ġå°º åº¦
ĠçĤ¸ èį¯
åĬª åĬĽ
æŃĩ å°Ķ
Ġçĳ° ä¸½
ĠçĻ¾äºĭ åı¯ä¹Ĳ
Ġéªı é©¬
Ġç¾¡ æħķ
a el
Ġ %
Ġå¹´ æľ«
è¿ ©
Ġæľī å¦Ĥ
Ġæľī å¿Ĺ
Ġå¤§ æľī
Ġè¿Ļ åĦ¿
çº £
Ġå¤© èĬ±
ĠåĪĨ æ°´
Ġå¼Ģ ç¯ĩ
Ġä¸¤ é¦ĸ
è¿ĩ æµ·
æĺİ å¨ģ
Ġæ°´ çĲĥ
ĠåİŁ å£°
ä¸ĸ å®Ĺ
Ġé¦ĸ éĢī
åįģ åŃĹ
Ġå§ ¥
åĬł æĸ¯åĬł
Ġæ¸ħ å®«
åħ° ç»ı
Ġå¥¥ å·´é©¬
ĠåĪ¶ çº¦
ĠæķĻ ä¹ī
Ġæķ° åįģå¹´
Ġç²¾ æŃ¦
ç©º åĨĽ
æĢĿ éĤĪ
Ġä¸¾ äºº
Ġæ¹ĸ å·ŀ
Ġa g
Ġæ¸¸ çİ©
ĠæĿ¨ å¿Ĺ
ĠçĶµå½± çīĪ
äºĳ é¾Ļ
å±Ģ éķ¿
ĠåĿļ åĽº
ĠèĲ½ æĪĲ
ĠéĢģ åħ¥
Ġä¸Ģå¹´ åĽĽåŃ£
Ġåħļ ç»Ħ
Ġçīĩ åŃĲ
ĠçĿ ģ
Ġå¢¨ åŃĲ
ĠåĽ´ åī¿
ĠæļĹ ä¸Ń
ĠèĶ¡ ä¼¦
ĠæĭĽ å®ī
ĠæĢ¥ æĢ§
ĠèįĨ è½²
ĠçĽĺ åı¤
ĠèĤº æ³¡
ĠåįİåĮĹ å¹³åİŁ
Ġèĥ° æ¶²
çļĨ çŁ¥
Ġä»ĩ æģ¨
Ġä¼łæŁĵ çĹħ
ĠåĲīå°Ķ åĲīæĸ¯
ĠçŁĹ ç«ĭ
ä¹Ĵ èµĽ
ä¸īåįĥ å°º
æµģçĽ´ä¸ĭ ä¸īåįĥå°º
ĠæºĲè¿ľ æµģéķ¿
ĠåĲĽä¸»ä¸ĵ åĪ¶
é¸¦çīĩ æĪĺäºī
5 2
m ent
Ġä¸Ģ ç»ı
Ġä¸Ģ æŃ»
Ġä¸į åĬ¨
Ġæĸ ¥
ĠæľĢ éĩį
å¾ ¨
Ġä¹ĭ å¤Ħ
Ġä¹ĭ æŃ»
åĳ Ī
éĽ ī
Ġé£ Ļ
Ġåĵ Ł
åįĹ äº¬
Ġæµ· çīĻ
ĠåĽĽ åĲĪ
ç® į
ĠåĲĦ æĸ¹
ĠåŁİ éĤ¦
æ²³ åİ¿
Ġå¼ł æĹŃ
ĠåĪĺ åĲĳ
ĠçľŁ åģĩ
Ġæīĵ å·¥
ä¼ł ç»Ł
Ġä¿Ŀ æĹ¶æį·
Ġæģ į
ĠçĽ´ éļ¶
æį® è¯´
ĠåĲĳ å¤©
ĠçĥŃ èĥ½
ĠçĶµè§Ĩ èĬĤçĽ®
19 30
Ġå®ĭ å¤ªç¥ĸ
Ġæ°ĳæĹı çī¹èī²
ĠåĪ« åı·
ç»´ å°Ķ
Ġåħ¥ åŃ¦
ç¥ĸ çĪ¶
Ġä½ķ çŃī
Ġæľ¨ æ£ī
Ġæĭį çħ§
Ġæĸ¯ æīĺ
Ġä¸´ å·Ŀ
Ġå®« å´İ
ĠéĽĦ å¥ĩ
èĸ °
Ġéĺ´ å½±
ĠèĴĻåı¤ åĽ½
Ġæ®ĭ å¥¥ä¼ļ
åįı è®®
ĠéļĲ å½¢
Ġæ´Ĺ æ¾¡
Ġè¸ ª
ĠéĻĲ äºİ
åıĤ èĢĥ
ĠæĸĩåĮĸåĲį äºº
ĠåĪĨæķ° çº¿
Ġéĵ¶æ²³ ç³»
ĠéĹŃå¹ķ å¼ı
lov e
Ġåħĥè°ĭ äºº
ĠåĮ¡ è¡¡
ĠæĪĲåįĥä¸Ĭ ä¸ĩ
8 4
n et
Ġä¸Ń åº¸
Ġä¸į è§ī
Ġå¤§ éĽª
Ġå¤§ æłĳ
ĠæĪĳ åĨĽ
Ġåıĳ åŀĭ
Ġå°ı äºĶ
ĠæīĢ çĶŁ
Ġæİ ·
Ġé» ¯
Ġç¾İ æĦŁ
æľ¬ åĵĪ
Ġå½ĵ å®¶
æµ· è§Ĵ
Ġæ¯Ķ åĪĨ
Ġå»º äº¤
Ġå±± åºĦ
Ġé¦ĸ é¥°
é©¬ åħĭ
Ġå¼ł å¼Ģ
åĬł æŀĹ
Ġæ¸ħ éĨĴ
Ġé©¬ éĵĥèĸ¯
Ġç¥ŀ èµ·
Ġç¥ŀ æİ¢
Ġè¡Į ä¹¦
å¥³ ç¥ŀ
Ġåħ± äº«
Ġæľº éģĩ
Ġçº¦ æĹ¦
Ġç½Ĺ æ±ī
Ġä¹Ĳ åľ£
èĲ½ éĽģ
Ġæ¥ Ķ
ĠçĤ¹ æĺİ
ĠæĬ¥ åĽ½
ĠèĥĮ ä¸Ĭ
ĠèģĮ æĿĥ
Ġè¶³çĲĥ æ¯ĶèµĽ
Ġè¯ķ çĤ¹
ĠåŃŁ å¾·å°Ķ
Ġç½ĳç»ľ æ¸¸æĪı
Ġåĩ» æ²ī
Ġèĭ¦ éĹ·
Ġå½© äºĳ
èĹ ī
Ġåı¤åħ¸ åĲįèĳĹ
199 4
Ġç¦ģ çĥŁ
ĠåĵŃ æ³£
åĤ¨ éĩı
éģ¿ åħį
ĠåįİåĮĹ åľ°åĮº
ĠèĵĦ æ°´éĩı
ĠæĬĦ è¢Ń
Ġç¼´ çº³
Ġçĥĺ æīĺ
Ġè±¹åŃĲ å¤´
Ġang el
Ġè¶µçªģ æ³ī
Ġåħ±éĿĴ åĽ¢
æľ¬åĵĪ æł¹
è ²
å® ¥
Ġä¸Ń è§Ĩ
Ġä¸į æľį
Ġç» ħ
Ġèĩª åį«
Ġä¸ī ä¸ĩ
Ġè¥¿ çİĭ
Ġé«ĺ æķĪ
ĠåĮĹ é£İ
ĠåįĹ éºĵ
ç¥ Ń
Ġæ°´ éĩĮ
Ġæ°´ ç»ı
Ġçİ° å½¹
æ°´ ä¸Ģ
Ġåįģ æĹ¥
Ġçİĭ å¦ĥ
çļ ¿
Ġåħ³ èģĶ
Ġé©¬ å¹´
Ġéĺ¿ åħĭ
ĠéĴ ¥åĮĻ
Ġåĩł éĥ¨
Ġæ²³ åºĬ
Ġè¡Į äºº
Ġå·´ æŀĹ
Ġåĸľ åºĨ
Ġèĭı æľīæľĭ
åĽł ç´ł
ĠéŁ© å¯Ĵ
Ġç½ĳ æĺĵ
å¤ª ç©º
Ġè½¬ å¼¯
Ġæķħäºĭ çīĩ
Ġè¶Ĭ åī§
Ġäºĳ æ¢¦
å±ħ æ°ĳ
Ġæĭī ç¥ľ
Ġä¿® è¾ŀ
èĭ± éķĳ
Ġå®Ŀ èİ²
Ġd v
ĠåĮ» åŃ¦éĻ¢
å¯Ł åĨĢ
Ġé½Ĳ å¤©å¤§åľ£
Ġè¾¹ éĺ²
Ġè±¡ å½¢
è¯ķ é¢ĺ
Ġè¯Ŀ è¯Ń
Ġèĥľ è¿ĩ
Ġç§ĭ æĶ¶
Ġæº¶ è´¨
ĠãĤ ĵ
ĠæĻ®éĢļ äºº
Ġæ¯Ľæ³½ä¸ľ æĢĿæĥ³
ĠäºĮæ°§åĮĸ ç¡«
ĠåĦ¿ç«¥ èĬĤ
ĠæĤ¬ å¿µ
Ġæ³ī åŁİ
Ġ188 5
Ġä¸ĳ å¥³
Ġå¿§ æĦģ
æĪĴ æĮĩ
ĠçĤ® å¼¹
ĠæĿİå°ı çĴĲ
ĠçĬ¬ å¤ľåıī
Ġæ²§ å·ŀ
Ġå®ģæ³¢ å¸Ĥ
Ġæľ¯ è¯Ń
Ġä¾Ħ åŃĲ
Ġç»ĳ æŀ¶
++ ++
ĠåĬłåĭĴæ¯Ķ æµ·
æĹ ¢
ĠåĽ½ åŃĲ
åŃ¦ æ£®
ĠèĢĮ åĩº
Ġä¸ī å®¶
Ġä¸ľ æ¸¡
Ġä¸¤ éĿ¢
Ġç¾İ è§Ĥ
Ġ4 50
å°Ķ åħĭ
ĠçĽ¸ è·Ŀ
Ġæ¯Ķ ä½ľ
åĲĪ åĶ±
Ġèĭ± éķĳ
åĲĮ åŃ¦
Ġé»Ħ åĨĪ
ĠèĢģ å¹´äºº
ä¸ī æ¡Ĥ
Ġæīĵ æī®
ĠéĿŀ åħ¸
ĠæķĻ å¯¼
ĠæŃ¤ åĪ»
Ġå½± åĿĽ
æīĢ è°ĵ
Ġè± Įè±Ĩ
Ġ17 99
Ġè¶ħ å¥³
Ġè½¬ è®©
Ġè£ ¹
Ġåľ£ æĸĹå£«
é²ģ éĹ¨
Ġç¾¤ éĽĦ
Ġr na
èĢĥ å¯Ł
ĠåĽ¢ åľĨ
æĶ¯ æĮģ
åĿ¦ åħĭ
ä¾ĭ å¦Ĥ
ĠéĹ´ éļĶ
ä»ģ å®Ĺ
æ¦ Ī
åĨ² çªģ
Ġéļĭ ä»£
un d
ĠåĪ» æľī
Ġå´ĩ æĺİ
Ġé¡¶ çĤ¹
ĠçĶŁéķ¿ åıĳèĤ²
Ġæ·® éĺ´
Ġåº·çĨĻ å¸Ŀ
Ġå¹¼ ç¨ļ
å±ĭ èĦĬ
Ġèµ« èµ«
é¼İ ç«ĭ
ĠçĤ® åı°
ĠæĴ¤ éĢĢ
Ġå®¤ å¤ĸ
Ġæ³¥ åľŁ
Ġå²¸ è¾¹
Ġæ³ķåħ° åħĭ
è¯¸ èĳĽ
ç¬¬äºĮ æ¬¡
Ġä¸ŃåįĹ éĥ¨
Ġé©¬å°Ķ ä»£å¤«
ĠåĨĮ å°ģ
ĠæĹº çĽĽ
Ġé©°åĲį åķĨæłĩ
Ġå¥½åĩł ä¸ª
æŃ¤ä¹ĭ åīį
ĠåŃŁåĬłæĭī åĽ½
Ġå¾Ħæµģ éĩı
Ġçº¦çĳŁ å¤«
Ġé©¬åħŃçĶ² æµ·å³¡
8 7
o o
Ĩ åŃĲ
Ġä¸Ń åŀĭ
Ġå°ı çĨĬ
Ġèĩª åĪ¶
Ġä¸» æĿ¿
ĠçĶ± è¿ĳ
ĠçĶµ ç¦»
Ġæı ī
Ġéĩĳ é¸¡
ĠäºĮ é¦ĸ
åħĭ èĲ¨æĸ¯
ĠåŁİ è¥¿
Ġå§ Ĵ
Ġä½ĵ æ£Ģ
èĢĮ å¿§
éĴ ŀ
ĠéĿĴ æ¢ħ
Ġèº« æĹģ
Ġå°ĳ æģŃ
Ġæ´» åĮĸçŁ³
Ġm ac
an ce
Ġä¸ĥ å¤ķ
Ġä¹Ŀ åĵģ
æĹł ä¸Ĭ
ĠæĴ ¬
Ġç»Ŀ ä»£
Ġè¯Ħ å®¡
Ġåįļ å®¢
Ġé½Ĳ é½Ĳ
å¨ģ çī¹
Ġãģ Ĩ
ĠèĮ¶ ç»ı
Ġx x
Ġå¼Ĥ åľ°
éº¦ éļĨ
Ġçĥ§ æ¯ģ
Ġçİ»çĴĥ æ£Ĵ
å¿§ èĢĮå¿§
Ġ________ ___
Ġå¤įæ´» èĬĤ
ĠæĹłåı¯ å¥Īä½ķ
Ġç¬¼ ç½©
ĠæĻºèĥ½ æīĭæľº
æĭ¼ éŁ³
å¤©ä¸ĭä¹ĭ å¿§èĢĮå¿§
Ġä¸īéĹ¨ å³¡
Ġæĸ½çī¹ åĬ³æĸ¯
Ġæ°´ç»ı æ³¨
ĠåĽ §
æĺ Ķ
èĢ į
Ġä¸ĸ ä¹ĴèµĽ
Ġåı¯ æ±Ĺ
Ġå°ı çĮª
Ġéĺ ĳ
Ġæİ Ĳ
å¾Ĺ å¤ļ
ĠåįĹ åħħ
æĺİ æľĪ
ĠéĤ£ åı¥
åĪĨ åī²
Ġåı¤ åİŁ
Ġåı¤ æĥĳ
ĠåĨħ åĪĨæ³Į
Ġçİĭ èĢħ
Ġåīį å¦»
Ġå±± éĹ´
Ġèİ ĺ
ĠåŁİ åĮĹ
Ġå®ŀ ä¸º
Ġåĳ¨ åįİåģ¥
ĠåĪĽ åĪ¶
Ġè¿Ĳ è½¬
èĢĮ ä¹Ĳ
ĠåĶĲ ä¼¯èĻİ
Ġæīĵ æ³ķ
ĠæĽ¾ å¿Ĺä¼Ł
ĠèĬ± èĲ½
ĠæĦŁ æ¿Ģ
Ġæ¬§ æĭī
ç¡ ħ
çº¦ ç¿°
Ġçº¦ æĿŁ
é² Ł
æľĽ è§Ĵ
Ġè·¯ è¿ĩ
ĠåĪ« è¯´
Ġç®¡ ä»²
ĠæĿĢ æİī
Ġl i
Ġè¿½ å¯»
Ġåı¶ åľ£éĻ¶
Ġç§ĳåŃ¦ çłĶç©¶
Ġæ¿Ģ æĪĺ
Ġæĭħ è´Ł
Ġæ¨ª åºĹ
éħį è§Ĵ
Ġéģĩ éļ¾
Ġéª¨ æŀ¶
Ġéº¦ èĬ½
Ġåģı çĪ±
ä¹Ł èĲ§ä½ķ
Ġæ®ĸæ°ĳ ç»Łæ²»
Ġch ris
Ġä¸ĵéĹ¨ æľºæŀĦ
Ġä¸įçĶ¨ è¯´
Ġè¿« åĪĩ
çİ© ç¬ĳ
Ġéī´ åĪ«
Ġè¤ ¶
Ġåĩ¶ æīĭ
ĠåĪĬ çĻ»
Ġæĭ¨ æīĵ
ĠéĻĩ æµ·
å§¥ å§¥
ĠèĪªæµ· å®¶
ĠåĮ¹ å¤«
Ġå¼ķäºº æ³¨çĽ®
Ġé©¬è¾¾ åĬłæĸ¯åĬł
Ġä¸ĩæłĳ æ¢¨èĬ±
f f
å® ķ
Ġåľ¨ æł¡
Ġäºº å¤´
ĠåĮ ª
Ġåıĳ çĹħ
Ġå°ı åº·
Ġèĩª æĪĲ
Ġä½ľ é£İ
ĠçĶŁ åĮĸ
Ġä¸ĸçķĮ å±ĭèĦĬ
Ġæĥ §
ĠåĲį åı·
ĠçĶ¨ åħµ
ĠæŃ£ ä¸Ń
ä¸ĸ ç¥ĸ
åĮĹ å®ĭ
ä¹ĭ åŃĲ
ä¹ĭ äº¤
ĠæĽ´ æĶ¹
Ġåħ³ ç¨İ
Ġå¤ĸ ç±į
Ġå¿ĥ åĬ¨
ĠåĨĽ å§Ķ
å°ĳ å¥ĩ
Ġæį ¡
ĠéŁ §
Ġæĺ¥ èļķ
ĠçĻ¾ è´§
Ġé»ĳ æ¶©
æ¯Ķ çī¹
å¯¼ ä½ĵ
Ġå¸¸ ç»¿
Ġå¸Į å°Ķ
ä¸ĸçķĮ æĿ¯
Ġå© ·
Ġæĭī ç¾İ
Ġç»Ħç»ĩ ç»Ĩèĥŀ
ĠåĲ¸ åħ¥
Ġåħħ å®ŀ
Ġåı£ è¢ĭ
Ġæĸ¯ å¾·
Ġå¾® ç²Ĵ
Ġæĭ¥ æĬ¤
Ġä»ħ ä¸º
ĠÃ Ń
çĹ Ĵ
Ġåİĭ æĬĳ
ĠéĽĦ æĢ§
ĠçĶĺ æ²¹
Ġæ´ª éĩĳå®Ŀ
Ġäº¤éĢļ è¿Ĳè¾ĵ
Ġåħ¼ æľī
Ġæĸ½ å±ķ
Ġæķĳ åĩº
Ġ189 2
Ġçº¸ å¼ł
Ġåıĳå°Ħ æĪĲåĬŁ
ĠæįŁ åĿı
åŁ¹ æĭī
Ġæ±ª å³°
å¥ĭ æĸĹ
Ġè¾ŀ èģĮ
Ġå¼¦ ä¹Ĳ
Ġäººæĸĩ ä¸»ä¹ī
éŁ© åĽ½
Ġèĳ¬ ç¤¼
Ġå¹ķ åºľ
Ġä¸« å¤´
Ġåħ¥æµ· åı£
Ġçĭ¬åħ· çī¹èī²
Ġæ·¹ æ²¡
9 00
Ġä¸į è®¸
Ġä¸į åĲĥ
å± ¡
å¤§ éĿ©åĳ½
Ġä¹ĭ èªī
åİ ¨
æ² ½
èĬ ľ
Ġè¥¿ ä¸´
Ġéķ¿ äºİ
ĠæĹł è¾ľ
Ġè¿Ľ æĿ¥
Ġæı £
ç§° åı·
ĠåĽĽ éĥ¨
Ġç§° åħ¶ä¸º
ĠåĬł åĬłæŀĹ
Ġå®ŀ ä¹ł
ĠçĻ½ æŀľ
æł¼ è¾¾
è·¯ æĴĴ
ĠèĤ ¢
Ġåıį éĿ¢
Ġè¿Ĳ éĢģ
ĠåĶĲ åı¤æĭī
ĠåħĪ å¤©ä¸ĭä¹ĭå¿§èĢĮå¿§
Ġæ²³ è¾¹
å¦ ŀ
å¿Ĺ æĺİ
éĵ µ
éĥ½ æĺ¯
çļĦ è¯Ŀ
ĠçĽ® çĿ¹
è®® ä¼ļ
é² į
ĠçĥŃ çĤ¹
Ġä¸ĥ ä¸ĥ
å¤ª åħ¬
åŁº åľ°
åŁº å°¼
åĽŀ æĹıèĩªæ²»åĮº
ĠçĶ» åľ£
Ġåħ¥ çĲĥ
Ġè½¦ è½®
Ġå®Ŀ å¡Ķ
Ġè¯Ħ å®ļ
at t
Ġèİ« æĸĩèĶļ
Ġç¬Ķ è¯ķ
Ġèĥľ è´Ł
ĠæĹ§ ç§°
åĵĪ åĵĪ
Ġæ¶² æĻ¶
ĠéĶĢ æ¯ģ
Ġé£ĺ é£ĺ
Ġä½³ èĬĤ
Ġåĩºåı£ éĩı
å®Į åĸĦ
Ġè°ĭ çķ¥
çĺ ģ
Ġé«ĺçŃī æķĻèĤ²
Ġâħ ł
Ġå¤©å¤© åĲĳä¸Ĭ
Ġå¸ħ åĵ¥
è¥Ħ çİĭ
ä¹Ļ çĥ¯
ĠæŃ¥æŃ¥ é«ĺ
ĠåıįåĬ¨ æ´¾
Ġåĸľé©¬æĭīéĽħ å±±
Ġèĺ ĳ
ä¸ľåįĹ é£ŀ
èł ¡
ĠèİĨ çĶ°
è·¯æĴĴ åĨ·
4 00
± åĴ
Ġä¸į å¹³
åº ĩ
Ġå· ½
Ġ3 40
ä½ľ éľĸ
Ġåĳ Ĺ
Ġæİ º
æµ ¸
Ġå¤© å·¥
Ġåħ¨ çº¿
ĠåĮĹ çĪ±å°Ķåħ°
Ġå¼Ģ çİ©ç¬ĳ
Ġä¸¤ åĿĹ
ĠåįĹ å¼Ģ
Ġç¬¬ä¸Ģ è½®
Ġç¬¬ä¸Ģ å¥Ĺ
çĦ¶ å¤§
æľ¬ ä¸Ĭ
Ġæµ· æĺİå¨ģ
Ġåı¤ ä¹¦
åĵģ è´¨
Ġå¹³ é¡¶
ĠçĻ½ èıľ
ĠçĻ½ ç³ĸ
ĠæŃĮ å¾·
Ġåıĺ å¹»
Ġc ar
Ġæ·± å±Ĥ
ĠéĻĪ å¯¿
å°¼ åħĭ
ĠçĲĨ æŁ¥
Ġ16 3
Ġçı Ĳ
ĠåĲ´ éķĩå®ĩ
Ġéª Ĭå±±
ĠæĶ¶ çĽĬ
Ġè¾ĥ éĩı
ĠçĤ¹ çĤ¹
çľĭ æĿ¥
Ġä¾Ŀ æīĺ
Ġå¤± åĪ©
Ġåĺ »
åķĨ åĬ¡
Ġæľ¨ æĿ¿
Ġæį® æŃ¤
Ġi s
Ġè§Ĩ ç½ĳ
ĠåĿĲ æłĩ
Ġèµ¤ å³°
ç¾Ĭ èĤī
èģĮ å·¥
Ġ27 0
Ġæº¶ æ´ŀ
ĠåĪº ç»£
Ġåħĥç´ł ç¬¦åı·
å¸Į æľĽ
Ġæ±Ĥ åŃ¦
Ġä¿ĥ æĪĲ
Ġåĭĩ äºİ
çĩķ åŃĲ
199 7
Ġä¸»è§Ĵ å¥ĸ
ĠæĻ®éģį è®¤ä¸º
ĠæŁı æĭīåĽ¾
Ġ184 8
Ġ187 1
æµ® å®«
Ġå±±æµ· ç»ı
Ġå¦ĤæĿ¥ ä½Ľ
Ġåĭī å¼º
ĠæĲľç¥ŀ è®°
ĠåıĮé±¼ åº§
ĠæĺİæĪĲ ç¥ĸ
å Ħ
Ġè ¥
Ġä¸į è¯Ĩ
Ġä¸į çķı
å· «
Ġä¹ĭ æ¯į
Ġä¹ĭ åĨł
ĠèĢĮ ä½ľ
ĠæīĢ èĩ´
Ġä¸ī åĲį
Ġä¸ī åİŁ
ä½ĵ æĵį
Ġåĵ ¼
ç± ½
å°Ķ å¡Ķ
æĺİ çļĩ
Ġæ´ ¼
ä¸į æģ¯
Ġåı¤ éģĵ
ĠåĽĽ ä¸į
Ġçİĭ ç¥ĸ
ĠçĪ± è¿ĩ
ĠçĪ± ç¥ŀ
Ġç§° å¾Ĺä¸Ĭ
ä¹Ĳ èĢĮä¹Ĳ
èĭ Ķ
ĠæĪĺ çģ«
Ġå¼ł æĻĵ
Ġå¼ł æĻº
Ġäº§ åĮº
Ġå·´ èµ«
Ġä»Ĭ å¤ľ
æĸ° è¯Ń
Ġs un
Ġåı° çĲĥ
ĠæĢĿ ç´¢
Ġæ¸¸ åİĨ
Ġ15 6
ĠéŁ© æĹ¥
äºĶ çĻ¾
Ġå·¦ è½®æīĭæŀª
ĠåĲ« æ²Ļéĩı
Ġå¥ĩ åħµ
Ġæķ´ åĲĪ
Ġå© ´
æĳ ĺ
Ġæ²Ļ æ´²
Ġd j
Ġéº ĴéºŁ
Ġæł¼ è¨Ģ
ĠèµĽ é©¬
ĠèĲ½ ä¹Ŀå¤©
ĠåľĨ æ»¡
Ġåħµ è´¥
Ġé¢Ħ å¤ĩ
Ġé¡º ä¾¿
ĠéĽ· éĽ¨
ĠæĻº åıĸ
Ġå¼Ĥ ä¹¡
Ġä¸¹ æ±Ł
Ġä¹ĺ è½¦
éľĩ ä¸ľ
Ġçģ¯ ä¸Ŀ
Ġæµ® åĬĽ
Ġåºŀ è´Ŀ
ĠéĹª èĢĢ
Ġéĺµ åľ°
Ġè¶ĭ äºİ
Ġéħ¿ éĢł
ĠçĲµçĲ¶ è¡Į
Ġä¸»æĿĥ åĽ½å®¶
Ġè´ŀè§Ĥ ä¹ĭæ²»
Ġä¼ļåĳĺ åĽ½
Ġçĳ° å®Ŀ
ĠåĪ¹ è½¦
Ġå°ıæķ° çĤ¹
ĠæŀĹä¾Ŀ æĻ¨
Ġä¸ĸè¯´ æĸ°è¯Ń
Ġè·» èº«
w orld
â Ĺı
ĭ é¹¿
į åį«
åĮ ¿
å¾ µ
å¤§ æ¥¼
Ġåº ĩ
Ġè¥¿ æİ¥
ĠéĽ Ģ
Ġåħ¨ åİ¿
Ġå¼Ģ éĹ¨
ĠåįĹ æ¹ĸ
å°Ķ æľ¨
ĠéĤ£ æĿ¡
ĠéĢļ é£İ
çģ Į
Ġå¼ł ä¼¯
Ġå¼ł ç»§
æĭī åºķ
Ġåĳ¨ åı£
ĠæĮĩ è´£
Ġå¥¥ å¾·
ĠæĶ¿ äºĭ
Ġå®ī åįĵ
Ġçº¢ å°ĺ
è£ Ļ
Ġå½± æĺŁ
ĠçŁ³ å¢¨
Ġåħī æ³½
Ġä¹¦ åºĹ
åı¯ æĺ¯
ĠçĲĥ çİĭ
Ġè§£ è¯»
ĠæŃ» äºİ
er n
Ġç½ĳ åĲ§
äºĳ åįĹ
ĠåĽ¾ èħ¾
ĠåĬŁ åĭĭ
å·´ å°Ķ
Ġå¤± ä¼ł
Ġl e
ç¬¬ åĽĽ
Ġéĥĳ çĪ½
ĠæĻļ åĶĲ
Ġæ´¾ åħµ
ĠæĹ§ äºĭ
om e
Ġå°ģå»º ç»Łæ²»
Ġæŀľ çļ®
Ġå£« å¤§å¤«
Ġç§Ģ ç¾İ
Ġå®ĩå®Ļ é£ŀèĪ¹
Ġæħ¢ æĢ§
Ġå¥¥è¿Ĳ åĨłåĨĽ
å¨ĥ å¨ĥ
ĠèĢĲ å¿ĥ
Ġä½© æľį
Ġæµ© çĢļ
ov e
ĠçĶ°åĽŃ è¯Ĺ
Ġå¼łåĽ½ ç«ĭ
Ġåİ¨ å¸Ī
ĠçĽ´ç«ĭ äºº
ĠçģŃçģ« åĻ¨
Ġçĭ± ä¸Ń
Ġè¶Ĭçİĭ åĭ¾
Ġåı ī
åĬ Ŀ
Ġå¹´ ä»»
Ġä¸į çĽ¸
ĠåĴĮ äº²
åĳ Ģ
æ± ª
ĠæĪĲ åĽł
Ġå°ı éĽ¨
æĪĲ é¾Ļ
Ġä¸ī ç±»
æĸ¹ ä½į
Ġæĸĩ å¸Ŀ
Ġåħ¨ ç¯ĩ
Ġå½ĵ ä¸Ĭ
è¥¿ åįĹ
Ġä¸ĭ æĹ¬
ĠæĿ¥ å¾Ģ
Ġçİĭ çīĮ
Ġ20 7
æİ ªæĸ½
å¹³ å¸Ĥ
ĠåĬł åī§
Ġèµ· çĿĢ
æĶ¿ æĿĥ
ç±» åŀĭ
Ġç¥ŀ å¥³
Ġåĩł çĻ¾å¹´
Ġæ·± å¾Ĺ
Ġèĭı æ´µ
åħ¶ äºº
ĠèĳĹåĲį çĶ»å®¶
ĠçĻ¾ ä½Ļ
Ġç»Ł é¢Ĩ
Ġé¦Ļ æĸĻ
Ġä¹¦ éĿ¢
Ġåĵª éĥ¨
Ġé¢Ĩ åľ°
Ġä¸ĥ åŃĲ
ĠåĲ´ ä¸īæ¡Ĥ
Ġéª Ī
ĠèĻ Ķ
ĠéĢł åıį
Ġé²ģ èıľ
Ġæĸ¯ ç§ĳ
Ġæĸ¯ åĿ¦
Ġãģ ¨
ĠåĨ· éħ·
ĠéĽ¶ ä¸ĭ
ĠæĭĽ å¾ħ
Ġå®Ī éĹ¨
Ġå²³ éºĵ
Ġæ½ľ ä¼ı
ĠéĢĥ è·ĳ
Ġæ½® æ°´
Ġch ina
æĺŃ çİĭ
Ġè´« è¡Ģ
ĠèĹ ī
Ġåİļ éĩį
ĠçĲ´ å¿ĥ
Ġæ¤į æłª
ĠæĪª çĦ¶ä¸įåĲĮ
Ġ187 5
çģ¾ å®³
Ġåīª åĪĢ
ĠåĸĢ éº¦éļĨ
Ġä»İæĿ¥ ä¸į
Ġï¿ ł
Ġæ½®æ± Ĳ
ĠéĢļåķĨ åı£å²¸
ĠçĪ±ä¸½ ä¸Ŀ
Ġä¸įå¦ ¨
ĠèŃ¬ å¦Ĥ
Ġå½· å¾¨
0 7
Ġå° ´
Ġä¸į åĪĨ
Ġå¤§ é¹ı
Ġå°± è±¡
ĠéĻ Ľ
ĠåĪĨ åħ¬åı¸
Ġåħ¨ åī§
Ġå¼Ģ æĺİ
æĸ¯ æ²³
Ġæĸ° éĥİ
æĻ Ķ
ĠåįĹ è¾¹
åĨĽ æł¡
æĺİ æľĿ
Ġå½ĵ å±ŀ
ĠæĹł åıĮ
ĠçĽ¸ éĢĤåºĶ
çĲĨ æĥ³
æĬ Ĵ
ĠåĽĽ åĽ½
Ġåįģ éĿ¢
ĠæĪĺ æŃ»
ĠçĻ½ æ°´
ĠçĻ½ å®«
Ġæ¸ħ çĲĨ
Ġ18 1
æķĻ çīĪ
ĠåĽŀ æĶ¶
Ġèº« åľ¨
Ġç²¾ é«ĵ
Ġèĭı è¾Ļ
ĠéĽĨ æķ£
in c
ĠåŃĹ èĬĤ
Ġç©º èĻļ
äºĶ åı·
åŁº çĿ£
ä½ķ åĨµ
ĠåıĮ æīĵ
Ġä½¿çĶ¨ æĿĥ
èĥŀ èĥİ
Ġé¾Ļ èĪŁ
Ġè¿ľ å¤§
ç»ĵ å©ļ
ĠåĪĹ è¡¨
çª į
ĠåĲ¸ éĻĦ
Ġå®¢ æłĪ
Ġå¸Ī å¸Ī
Ġå®Ĺ å®¤
Ġg e
å¥¥ å°Ķ
Ġéĺ² çº¿
Ġå¾Ģ åīį
Ġæłĳ åı¶
Ġåĺī éĻµ
Ġä¹¾ éĻµ
Ġæ°ĳä¸» ä¸»ä¹ī
Ġå¥ī åĳ½
ĠæĬķèµĦ èĢħ
åĪĨä¹ĭ äºĮ
Ġä¸ŃåİŁ åľ°åĮº
ĠéĹª åħī
Ġçī§ å¸Ī
Ġæ¡£ æ¬¡
Ġåĵį èµ·
æĿľ çĶ«
Ġï¹ ĳ
ĠèĢķ ä½ľ
Ġæĭ³ åĩ»
Ġ____ _
Ġçº¤ç»´ ç´ł
ĠåĮĹå¤§ è¥¿æ´ĭ
ĠæĿı èĬ±
ĠçĽ´è§Ĵ ä¸īè§Ĵå½¢
Ġæ²ĥå°Ķ æ²ĥ
Ġç¿° æŀĹ
ä¸ Ļ
Ġä¸Ģ æĹı
Ġåľ¨ ä¸ĸ
ä¸º ä»Ģä¹Ī
Ġæ° ¦
ĠåĲİ å¤©ä¸ĭä¹ĭ
çī© éĻ¢
Ġé«ĺ æ´ģ
ĠåĮĹ è¾¹
Ġéķ¿ ä¹Ĳ
ĠæĹł ç§ģ
ç½ Ĳ
ĠåİŁ æ²¹
Ġéĩį ä¼¤
ç»ı åĽ½
çļ ±
åħĥ çĶ²
å®ŀ éªĮ
Ġæĺİ æľĹ
Ġ18 80
Ġå¿ĥ åºķ
Ġåıĺ èī²
ĠæĽ¾ çĶ¨
ĠæĽ¾ å¤ļæ¬¡
éĩĳ èİ²
éĢļ ä¿¡
ĠéĻĪ èĥľ
Ġçĭ¬ è£ģ
æĤ ´
ĠæĶ¾ æĺł
åĽ¢ ç»ĵ
Ġç»Ĩ å¿ĥ
ĠæĹ© æĺ¥
Ġæľª æ»¡
Ġéĵģ éģĵ
ĠåįĬ å°ıæĹ¶
Ġå¤´ åı·
Ġçªģ åĽ´
Ġæĭį æĪı
Ġå¸Ī å¦¹
ĠèĲ½ åħ¥
Ġå®¹ è²Į
ĠéĻĦ ä»¶
Ġåĳ¼ åĶ¤
Ġæłĳ å¹²
Ġåħļ çļĦ
ĠåĳĬ ç»Ī
Ġæº¶ åīĤ
ĠæĻĭ å¯ŁåĨĢ
Ġèĸ ª
æİĴ åĲį
ĠéĴŁ æ±īèī¯
ĠéĤĵ äºļèĲį
Ġèĩ³ä»Ĭ å·²æľī
ĠåĽŀçŃĶ èĢħ
ä¸¤ åĪ¶
Ġç«¹ æŀĹ
åŀ ¦
æ¶¦ ä¸ľ
Ġçģ° åİŁ
èĨľ çĤİ
Ġå±Ī æľį
ĠæĺŁæľŁ ä¸Ģ
ĠæĻ´ å·Ŀ
Ġéī´ èµı
ĠéĽĮ æĢ§
ĠåıĸåĲį ä¸º
ĠåĬ± åĲĪ
ĠéĨĴ æĿ¥
Ġä¸įè®º æĺ¯
Ġåĭĥ æľĹ
ĠèĽĻ æ³³
ĠåŃĻèīº æ´²
å¸ĥç½Ĺ éĻĢ
è¯¸èĳĽ äº®
ĠåĲİå¤©ä¸ĭä¹ĭ ä¹ĲèĢĮä¹Ĳ
¯ æ²³
ĥ èŁ¹
Ġä¸Ģ åłĨ
å° ¬
çº Ń
Ġå¯ Ŀ
èĢ ¿
Ġåı¯ è´µ
Ġå°ı åŁİ
Ġåĩº åĩ»
Ġåħ¬ çĪµ
Ġå¤© ç§¤
Ġæĸ° ç¼ĸ
Ġç¬¬ä¸Ģ æīĢ
Ġé¢ į
ĠåİŁ ä¸Ĭ
ĠåĲį åĮ»
ä¸į åİ»
Ġåı¤ åħ°ç»ı
Ġæ· «
ĠåĨħ èĴĻ
Ġèĭ± ä¿Ĭ
åħĥ é¦ĸ
Ġ7 50
Ġä¼ł ç¥ŀ
çģ ¿çĥĤ
ĠåĿ ª
Ġç»ĵ ä¹ī
ç¾İ å°Ķ
Ġåıį ä¹ĭ
Ġå®ī çĲª
Ġæµģ äº¡
Ġæīĵ çģ«
ä¼ł æĴŃ
ĠéĿĴ è¡£
éĻ¢ æł¡
Ġåģļ åĬŁ
ĠéĻĪ å®¶
Ġæĺ¥ éĽ¨
Ġæİ¨ ä¸¾
Ġè®¸ è®¸å¤ļ
Ġn e
Ġæŀģ åĵģ
ĠæĲ ģ
ĠèĻ½ è¯´
ĠæĮī éĴ®
Ġè½¦ æīĭ
Ġå®Ŀ åīĳ
Ġåı¸ å¾Ĵ
Ġl g
Ġè¾¹ åŁİ
Ġä¸´ æµ·
ĠæĿĥ è´µ
éĨ Ľ
ĠéĽ· éľĨ
ĠåĨ· æ¼ł
Ġåĵ¥ æľ¬åĵĪæł¹
Ġèį£ èĢĢ
Ġèµŀ åĲĮ
ĠåŃ¤ å¯Ĥ
Ġåį· åħ¥
ĠéĽ¶ çĤ¹
è±Ĩ èħĲ
Ġè¿ģ å¾Ģ
ĠåĪ¤ å®ļ
ĠåŀĤ æĿ¨
Ġ186 2
ĠéļĨ èµ·
Ġä¹³ éħ¸
çŀ °
ĠçİĽ éĽħ
Ġ47 9
198 8
Ġè¡° èĢģ
ĠæĹħè¡Į å®¶
Ġèľ¡ ç¬Ķå°ıæĸ°
ĠåŃĶéĽĢ ä¸ľåįĹé£ŀ
Ġæ©Ħæ¦Ħ çĲĥ
ĠéŁµ åĳ³
Ġæ²¼ æ°Ķ
ĠåĹľ å¥½
çºº ç»ĩ
ĠåĲĪä¼Ļ äºº
ĠéĩĳçīĽ åº§
Ġè®¸è®¸å¤ļ å¤ļ
s m
İ åŃĲ
Ġä¸Ģ è¯Ĺ
Ġå¤§ åĪĨåŃĲ
Ġ2 19
Ġè§ ħ
Ġä¸ī åı·
Ġæĸĩ ä¹¦
ĠåĮĹ ä¾§
Ġä¸¤ æĶ¯
Ġéķ¿ æ²»
Ġéķ¿ èĢģ
Ġè° ı
Ġéĩĳ åĽ½
Ġè¿ĩ æ°§åĮĸ
æ¡ Ķ
Ġå±± èĦļ
ĠéĢļ åĲĳ
ä¹ĭ ä»¥
ĠåŁİ ä¸ľ
Ġæķħ å¡«
ĠåĨĻ åŃĹ
Ġç¥ŀ éŁµ
ĠåĶĲ æĺİçļĩ
ĠéĿĴ å·ŀ
Ġç§ĳ å¨ģçī¹
ç¾ ģ
Ġæ·± å¤ľ
Ġå·´ çī¹
åĦ¿ åŃĲ
ĠéĻĪ è¿°
æīĢ è¿°
Ġäººæ°ĳ ä»£è¡¨å¤§ä¼ļ
æŃ£ æķĻ
ç»ĩ å¥³
Ġç¨ ł
Ġå°ģ åį°
Ġå°ģ éĶģ
åķ ¬
å¯Į åŁİ
Ġå¿ħ ç»ı
è£ħ å¤ĩ
åı¶ æŀĹ
Ġä½ķ çĤħ
Ġä½ķ æ¶¦ä¸ľ
Ġè¯į åı¥
Ġé¡¹ éĵ¾
ĠæĪı ä»½
Ġæĸ¯ åĽ¾
çľŁ åį¿
Ġå¤§å®¶ åºŃ
Ġä»Ļ å¢ĥ
ĠåĨ² çł´
ï¼ ī
Ġä¾µ èļĢ
Ġæ¦Ĥ è¿°
æľĢ ä½³
Ġè¿ħ çĮĽ
Ġæ±ĩ åħ¥
199 5
æĲ º
Ġéħ· ä¼¼
ĠæĪĪ å£ģ
Ġé¡¿ æĹ¶
Ġå©ī çº¦
ĠéĥĬ å¤ĸ
Ġå¸ĥæĭī æł¼
Ġå¤§æ±Ł åįĹåĮĹ
Ġæ¤° åŃĲ
çī©çĲĨ åŃ¦å¥ĸ
Ġæµģéľ² åĩº
Ġè´Ŀåħĭ æ±īå§Ĩ
Ġèĸ° è¡£èįī
Ġæ½¼ åħ³
Ġè¿ªæĸ¯ å°¼
Ġå°´ å°¬
Ġä¸į è®¡
ä¸ª äºº
ĠæĹ¶ åĪĨ
æ² Į
è¦ģ æ±Ĥ
Ġæ¸ º
Ġä¸ī çĤ¹
ä¸Ĭ ä¸Ģå±Ĥ
Ġä½Ĩ æĦ¿
Ġç¬¬ä¸Ģ åľº
ĠåĲį å£«
ä¸į å¦Ĥ
ĠåĲĮ æ¡Į
ĠåĨħ è§Ĵ
ĠåĨħ æµģæ²³
Ġåīį ä¸ĸ
åħĥ æľĿ
Ġæľ¬ ä¸ĸçºª
ĠçĻ½ çŁ³
Ġåĳ¨ èĳ£
è·¯ æĺĵ
Ġ18 70
Ġé©¬ çī¹
ĠåĪĺ å°ĳå¥ĩ
Ġ12 2
Ġä¸ĵ éķ¿
Ġå®¶ éĹ¨
é£İ æĥħ
æ· Į
èĮ ¸
Ġçĭ¬ åĪĽ
Ġçĭ¬ åŃ¤
Ġåħ« æĻ¯
Ġå¸¸ å§Ķ
Ġè½¬ ä¸ĸ
Ġèµµ çİĭ
Ġèµµ æŀĦ
å·´ æĸ¯
åĵ¥ å°Ķæĳ©
Ġä½İ ä¸ĭ
ĠèĽ ¤
Ġæł¸ çĶµ
Ġåį¡ éĹ¨
Ġä½Ľ å¡Ķ
Ġæĭį åįĸ
Ġå®¢ åľº
-------- ----
ĠæĤ² çĹĽ
è®¤ è¯Ĩ
Ġãģ Ł
å¨ĺ åŃĲ
Ġèį¯ çĶ¨
Ġè´¾ åºľ
ĠåĽ´ æĶ»
èļ ª
ĠæĴŃ ç§į
Ġç¦ ¾
ĠåĮĹæĸ¹ åľ°åĮº
Ġæł¹æľ¬ åİŁåĽł
ĠæĳĦ åħ¥
re am
Ġè¿ª è¿¦
Ġå®ĺæĸ¹ ç½ĳç«Ļ
Ġâĸ ³
Ġåįĵ æĸĩ
ĠåĽ° å¢ĥ
Ġçº½çº¦ å¸Ĥ
Ġå¸ķ ç±³å°Ķ
è´¢ äº§
ĠåĲŀ åĻ¬
Ġ________ ____
Ġå¤§è¿ŀ å¸Ĥ
åªļ å¨ĺ
Ġçļĩå¤ª åŃĲ
Ġåĩ¡å°Ķ çº³
Ġèº² éģ¿
ĠçĻ½è¯Ŀ æĸĩ
Ġæ´ģ çĻ½
ĠèĤ¾å°ı çĲĥ
ĠçĶ¨äºº åįķä½į
Ġé¢Ĳ åĴĮåĽŃ
ĠéĩĮæĸ¯ æľ¬
ĠéĻĭ å®¤
ĠéĢ® æįķ
Ġéĺ¿å°ĶåıĬ åĪ©äºļ
Ġé½Ĳé½Ĳ åĵĪå°Ķ
t a
y d
Ģ åĦ
Ġè¿ Ń
Ġä¸į åľ¨
Ġæľī åĬŁ
çī ºçī²
åĽ ļ
Ġåĩº ä¸ĸ
éĩĮ è¡Į
Ġåħ¨ åĶĲ
æĸ¯ åį¡
Ġæĸ° æŃĮ
Ġç»ı è´¹
ĠæĹł éŁµ
åĪ© æµ¦
åĩ Ľ
Ġä¾ ı
Ġåı¤ åį°åº¦
ĠæĿİ æ°ı
Ġæ³ķ å¸Ī
ĠåĬł éĩĮ
Ġä¸ĩ åĽ½
Ġä½ĵ ç»Ĩèĥŀ
ĠåĨĻ è¿ĩ
Ġè¡Į å®«
Ġä¸ĵ å¿ĥ
ĠçĤ ½
Ġæ°Ķ éŃĦ
Ġæķ° ä»¥
Ġç²¾ å¯Ĩ
Ġåįķ è¡Į
æ¹ĸ åĮº
åĽŃ åĮº
Ġs he
ĠåıĹ çĽĬ
åĸ ĺ
Ġå¸¦ åħ¥
Ġm bc
Ġè§Ĥ æĳ©
ĠæĿ¨ ä¸ĩéĩĮ
ĠåĨľ çĶ°
Ġçľģ åĨħ
Ġåĵģ ä½į
ĠéĻĨ å°ı
èĭı è½¼
Ġèľ ¥
ĠæĬ¥ èŃ¦
åķĨ éĵ¶è¡Į
Ġä¹Į èĭıéĩĮ
ĠåĲ¸ æ°´
ĠåĨ° ç³ĸ
Ġåįı çº¦
ĠæĿĥ çĽĬ
ĠçĶ² å¤©ä¸ĭ
ĠçĶŁçī© åŃ¦å®¶
ĠæĢĢ åı¤
åį° è±¡
ĠåŃ¤ ç«ĭ
Ġåģ¥ ç¾İ
Ġæ´ŀ å¤©
å« Į
Ġçī©çĲĨ åıĺåĮĸ
Ġéľ¸ æĿĥ
ĠåĽ¢ä½ĵ åĨłåĨĽ
æĿ¨ å¹Ĥ
Ġä¸¤å¤§ ç±»
Ġæĺ¥é£İ æĿ¥
ĠåĲŀ åĲĲ
Ġéħ· çĪ±
Ġå¤©æ¶¯ æµ·è§Ĵ
Ġéķ¿æĺ¥ å¸Ĥ
Ġæŀ« æ¡¥
çİ® çĲª
æŁ¯ åįĹ
Ġæ¶µ çĽĸ
Ġéĺ¿å°Ķåįĳæĸ¯ å±±
Ġæ¹Ľ æ±Ł
ĠçĻĮ çĹĩ
Ġåĩ¿å£ģ åģ·åħī
èº«ä»½ è¯ģ
Ġèĺĳ èıĩ
ĢåĦ ¡
o y
Į èļª
Ġè¿ Ĥ
Ġä¸Ģ åĪĨéĴŁ
ä½ °
Ġä¸į çĪ±
Ġä¸į è§ĦåĪĻ
Ġæľī ä½ķ
Ġå¤§ éĿ¢ç§¯
Ġå¤§ åĲĪåĶ±
æľī åĲį
Ġåİ ķ
å¤§ æĪĲ
ĠåĽ½ åĬ¡
Ġæµ Ĩ
ĠæĮ ļ
Ġæĸ° æĿĳ
Ġå½ĵ åģļ
Ġ5 50
Ġæ°´ æ»´
ĠæĿ¥ å®¾
ĠçĶ¨ æ³ķ
Ġå¹³ åĴĮ
ĠäºĮ ä¸ª
åħ¬ åŃĲ
Ġå·² è¾¾
Ġå·² æķħ
Ġå¾Ĺ å¤©
Ġå®ŀ åľ°
ĠæĦı åľ¨
Ġç¾İåĽ½ æĶ¿åºľ
Ġå®ī åĲī
Ġåıĺ èĦ¸
Ġèº« å¿ĥ
Ġèº« çĿĢ
Ġç»Ħ å§Ķä¼ļ
Ġc ol
Ġæ·± éĤĥ
Ġèĭı éĨĴ
ĠåĮħ åħ¬
ĠåĮħ æĭ¯
Ġéģĵ äºº
Ġè¶ħ å¼º
ĠåĲ´ äº¬
Ġä¹Ĳ å¤©
Ġæ¥ ¹
Ġçİ¯ æĬ±
Ġåĵģ åĳ³
ĠéĢł åĥı
Ġæ»¡ åŁİ
Ġè½¦ é©¬
ĠåĤ ĢåĦ¡
Ġåįļ åŃ¦
ĠåĬĽ åº¦
æ³½ æ°ĳ
æĬ¥ éģĵ
Ġå°¼ å°Ķ
ĠéĽĦ åİļ
Ġæµª èĬ±
Ġä¿Ħç½Ĺæĸ¯ èģĶéĤ¦
æ¢ģ å±±
Ġå¼¹ çĲ´
Ġ190 2
Ġä»·åĢ¼ è§Ĥ
Ġå¸ĮèħĬ è¯Ń
Ġåħ» æĪĲ
Ġæ¡ĥ æĿİ
Ġéķ °
Ġå¹½ çģµ
ĠåºĦ éĩį
Ġé©¾ çħ§
Ġè¯ºè´Ŀå°Ķ çī©çĲĨåŃ¦å¥ĸ
Ġæĺ¾ç¤º åĻ¨
Ġç«¥è¯Ŀ æķħäºĭ
Ġæ¸Ķ æ°ĳ
ĠæĦļ äººèĬĤ
ĠæĨ §
Ġéĺ¿éĩĮ å±±
Ġä¸ĵåĪ¶ ä¸»ä¹ī
Ġè¾© è¯ģ
Ġå¸ĪèĮĥ å¤§åŃ¦
ĠéŁ¶ åħ³
Ġè°¨ æħİ
Ġè¡į çĶŁ
ĠåĲĿ åķ¬
Ġåı¤æĥĳ ä»Ķ
¦ çĦ¶
Ġæľ Ń
Ġä¸į ä¾¿
ä¸Ģ ä¸ĭ
Ġå¸ ½
æĢ Ĩ
ĠæĹ¥ ä¸įèĲ½
åĵ ĳ
Ġä¸ī åº§
Ġè¥¿ ç«¯
Ġå¼Ģ æĻ®
Ġæĸ° æĺŁ
å°Ķ æĽ¼
åįĹ å±±
Ġæ²¡ æ³ķ
è° į
ç«ĭ ä¿¡
Ġé¦ĸ åº¦
èµ· èĪŀ
åĲĮ åłĤ
äº§ æĿĥ
èĭ ¯
Ġæ³ķ äºº
ĠåĬł æĹ¶
ĠçĻ½ åħī
Ġåĳ¨ æĹ¥
å®ī å¾½
ĠéĴ ŀ
éª ĭ
ĠæĦŁ çŁ¥
å·¥ ä½ľèĢħ
ä¸»ä¹ī éĿĴå¹´åĽ¢
Ġæ´» çģ«å±±
Ġç»ıæµİ ç¤¾ä¼ļ
ç§ĳ å¤§åŃ¦
Ġè·¯ çĶ±
ĠåĮº ä½į
Ġæľª æĽ¾
Ġé¾Ļ åĩ¤
Ġæķ´ æķ°
Ġæķ´ å®¹
Ġt i
Ġå¦ ®
Ġç®¡ å®¶
Ġå±ħ å§Ķä¼ļ
å·´ å¸ĥ
Ġå¹² é¢Ħ
Ġæĺ¾ éľ²
ĠåĪĹ ä¸¾
ĠæĿľ é²ģéĹ¨
ĠæĽ² èīº
ĠåĶ¯ çī©ä¸»ä¹ī
å¹¿ ä¸ľçľģ
Ġéĥĳ æºĲ
Ġä¸ľè¥¿ æĸ¹
Ġæ¥ļ éľ¸çİĭ
ĠéĥŃ å¯ĮåŁİ
ĠçĶ² å£³
çĽĽ åĲį
èĢ³ æĽ¼
Ġæ°ĶåĢĻ å®ľäºº
Ġå³ Ń
Ġç¾Ĭ çļ®
çĭ¬ åİļ
Ġæ¡¥ å¤´
ĠåıĻ åĪ©äºļ
ĠæĮĩæĮ¥ å®¶
ĠèĪªå¤© é£ŀæľº
Ġæ¯Ĵ æĢ§
Ġè´« èĭ¦
Ġè¯»ä¹¦ äºº
Ġå¼¦ ä¹ĲåĻ¨
Ġè¡¡ éĺ³
Ġçİ«çĳ° èĬ±
Ġåħ±äº§åħļ åĳĺ
æ§ Ĳ
Ġç»ĩ å¥³
ä¸Ńæĸĩ åĲįç§°
Ġæ±īè¯Ń æĭ¼éŁ³
Ġå®ģå¤ı åĽŀæĹıèĩªæ²»åĮº
Ġåħ±äº§ åĽ½éĻħ
Ġé²¸ é±¼
Ġæ¼ı æĸĹ
ĠéĩĳæĽ² å¥ĸ
Ġåµ Į
Ġand roid
Ġä¾Ĺ æĹı
ĠæĿİå»º æĪĲ
Ġå¸Īå¸Ī éķ¿
k y
İ çĦ¶
ä¸ Ĳ
Ġåľ¨ æŃ¤ä¹ĭåīį
Ġå¤§ åĿĿ
Ġå¾ ª
Ġè® ¯
å¿ ±
Ġä¸ī å±Ĭ
Ġéĺ ĸ
æĸ¯ è¾¾
Ġä¸¤ æĹģ
Ġå¹¶ ä¸į
ĠæĹł å½¢
Ġè½ ¶
è° ¡
Ġåįģ å¤ļ
ĠåĽ½å®¶ åħĥé¦ĸ
Ġçľĭ ä¹¦
ĠçĲ Ĳ
Ġåīį ä¼ł
Ġä¼ł éģį
æĪĺ çº¿
ĠæĪĺ æĹ¶
Ġå·² æĪĲ
Ġå¼ł ä½ľéľĸ
Ġæ°ĳ è°£
Ġé£İ è¡Į
åĪ« æŀĹ
Ġä»£ ç§°
Ġæ¯ı åľº
ĠéĿ¢ åħ·
ĠåĢ Ķ
Ġåĩł åº¦
Ġäºĭ åĲİ
Ġå°ĳ å°ī
ĠçĻ¾ å¼º
Ġé»ĳ é©¬
çĶµ è·¯
ĠæĸĩåĮĸ å¤§éĿ©åĳ½
ç² ¥
ĠèµĦ åĬ©
Ġåı° å·ŀ
å½ĵ å¹´
Ġç©º çĻ½
Ġå¤ı æ´Ľ
Ġéĵģ è¡Ģ
åĽ¾ æĸ¯
ä¼¦ æ¯Ķ
ĠçĤ¹ çģ«
ç§Ģ æ¸ħ
ĠçłĶç©¶ æĪĲæŀľ
Ġè¡¨çİ° æīĭæ³ķ
Ġp ro
Ġè°ĥ åĬ¨
ĠåĲī éļĨåĿ¡
Ġå°½ æĥħ
Ġåħµ åıĺ
ĠéĻĦ åĬł
ĠæŁĲ æŁĲ
Ġåĳ¼ åĲģ
Ġæ·· æĪĺ
Ġæµĵ ç¡«éħ¸
Ġæģ¶ åĮĸ
Ġè±ª æĿ°
Ġåı¤åħ¸ å°ıè¯´
Ġy ou
Ġè¯¯ åħ¥
Ġåºı åĪĹ
Ġå¼Ĺ æĭī
Ġè¯Ħè®º å®¶
Ġçºªå½ķ çīĩ
ĠçĪµ ä½į
Ġè¯ı ä¹¦
Ġä¸Ľ ä¹¦
Ġåĭ¿ æī°
çĮ¿ äºº
ä¸Ńåįİ äººæ°ĳåħ±åĴĮåĽ½
ĠåĿŁ å¢ĵ
ĠçĬĢ çīĽ
Ġæ¢§ æ¡Ĳ
Ġè¤ª èī²
Ġå¤ļå°Ķ è¡®
Ġå¾Ĺå¤© çĭ¬åİļ
c on
Ġä¸į åĩº
ĠåĽ½ éĥ½
çĶŁ èĤĸ
Ġä¸İ ä¼ļ
Ġä¸» å¹²
Ġè¥¿ æ±Ł
Ġå¤© å¤ĸ
Ġæĭ Ļ
ĠåĪ° æľŁ
Ġä¸ľ æŃ£æķĻ
Ġæĸ° å®ī
ĠåįĹ å®ģå¸Ĥ
ĠæĹł éľĢ
Ġå¥³ è¯Ĺäºº
Ġçģ ¶
çļ ĭ
ĠäºĮ ä¸ĩ
Ġå¥½ æľĽè§Ĵ
Ġå·² äºİ
Ġæľ¬ æĢ§
ĠåĬł éĩį
ĠäºĶ åħŃ
ç¾İ æľ¯
Ġ18 39
Ġæ¢ Ń
Ġåıĺ æĢģ
Ġèĭı éĹ¨
ĠéĻĪ åŃĲ
ĠåĮħ å®¹
ĠåĮĹäº¬ åŁİ
ĠçĲĨ æĻº
ĠæĢĿ æ½®
ĠåŃĻ åĿļ
Ġç¼ĸ æİĴ
æĦŁ åĻ¨
Ġåĵģ å¾·
or k
ĠæĬĹ éĩĳ
ĠæŃĮæĽ² åĲį
åīĳ èĭ±
Ġæĭ¿ æĿ¥
Ġç¬Ķ è§¦
Ġå¤ľ ç©º
Ġå°¼ æĸ¯
Ġæ²» æ°´
Ġçıį èĹı
ĠèĽĭ ç³ķ
å¼ķ æĵİ
ĠèĴĭ ç»ıåĽ½
å« Ķ
Ġå®¡ è®®
ĠæĮĩæĮ¥ å®ĺ
ĠæĳĦ åĥı
ĠæĹĭ é£İ
Ġæģ° å½ĵ
Ġé¸Ń ç»¿
ĠèŁ ¾
Ġæ²§ æµ·
æĸľ å¡Ķ
ĠçĽĬ å·ŀ
ĠéŃĶæľ¯ å¸Ī
ç¾ŀ èĬ±
Ġéĺ¿å§Ĩæĸ¯çī¹ æľĹ
ĠåĻª éŁ³
ĠçİĦæŃ¦ éĹ¨
ĠèµłéĢģ ç»Ļ
ĠçĻ ¸
Ġæļ´é£İ éĽ¨
Ġéģı åĪ¶
ĠçıĲ çĲħ
â ĺ
Ġä½ ¤
Ġä¸į ä¸¹
Ġå¤§ æ®¿
æĺ ±
Ġå°± èģĮ
å¹´ æľĪ
Ġåı¯ ä¿¡
Ġåĩº åħ·
ĠçĶŁ åŃĲ
ĠæĹł æĿ¡ä»¶
Ġ20 4
Ġé»Ħ å¿ł
Ġæľ¬ å·ŀ
ĠäºĶ åı·
ĠçĿĢ éĻĨ
ĠçĻ½ èĽĩ
Ġæµģ æ°ĵ
Ġæ±ī æľ«
ĠæĶ¹ çĶ¨
ĠéĿĴ èī²
Ġæ±Ł æ±ī
ĠçĽ´ å¸ĥç½ĹéĻĢ
Ġç²¾ èĭ±
æ· Ĩ
Ġå¾· éĽ·
Ġé»ĳ æ´ŀ
Ġs u
Ġåħī äº®
Ġåħī è°±
æīĢ çŁ¥
çļĦ æŃĮ
Ġåĵª ç§į
Ġç½Ĺ ä¼¯
Ġå¯¼ çĶµ
ĠæĺŁ éĻħ
æ¸¯ å¸Ĥ
Ġ13 8
Ġèīºæľ¯ åĵģ
Ġç¿ Ķ
èĥľ å¤ļ
Ġæ¼ ±
ĠçĻ» é¡¶
ĠçķĻ æľī
è¢ Ĥ
ĠåĪĹ åĽ½
è¿Ļ æĹ¶
ĠæĬĹ äºī
åĺ ¿
ĠéĽª å³°
ĠæĸĹ å¿Ĺ
Ġ26 0
Ġå·´è¥¿ åĪ©äºļ
Ġv ivo
ĠæĻĭ ä»£
Ġè¡¥ åĬŀ
æģĭ çĪ±
ĠçĥŁ éĽ¾
å¹» æĥ³
Ġé£Łçī© éĵ¾
Ġå®¡ æī¹
Ġå£« å®ĺ
ĠèĢ¶ è·¯æĴĴåĨ·
Ġå·§ åĲĪ
Ġçĸ¾ èĭ¦
åĵ² åŃ¦
Ġç¬¬ä¸ĥ å±Ĭ
Ġç½® èº«
Ġç¤º æĦı
ab le
åĿĳ åĦĴ
ĠåħĶ åŃĲ
ĠçĻ¾åĪĨ çĻ¾
Ġä¸ĢåĽ½ ä¸¤åĪ¶
èŀ Ĥ
ĠæŃ£æľĪåĪĿ ä¸Ģ
ĠçĪ±çĲ´ æµ·
Ġå©· å©·
Ġæĸ¯å¾· åĵ¥å°Ķæĳ©
a ir
Ķ æĤ´
Ġäº ı
åħ Ģ
å¼ ¼
çĲ ¢
å¿ Ĵ
ĠæĹ¥ åĪ°
ĠèĢĮ ç«ĭ
ä»¥ ä¸ĭ
ä½ľ æĪĺ
Ġå¤ļ æĿ¡
Ġè¿ĺ ç»Ļ
Ġæĸ° è¯Ĺ
ĠéĤ£ ä¸Ģ
Ġæ°´ æĸĩ
æĬ ĸ
Ġå»º åħĥ
ĠåĽĽ æĿ¡
ĠçĲ į
Ġé»Ħ åľ£
Ġé»Ħ é¹Ĥ
é©¬ å°Ķ
Ġå¼ł äº®
Ġåĳ¨ æĢ»çĲĨ
åĪ« å§¬
æ® ĩ
è¾¾ å¤«
ĠéĴ ³
å¥³ åĦ¿
Ġæ·± åĮĸ
ĠåĽ½éĻħ ç±³åħ°
Ġåħī å¤´
Ġæł¹ ç³»
Ġç©º åŁİ
Ġä¸ĥ åħ«
Ġå®ĭ ç¥ĸ
ĠèĬĤ çľģ
æĢģ åº¦
Ġç¿ ©
Ġæķ´ éĥ¨
Ġä¸Ĭæµ· æ»©
ĠéģĹ çķĻ
ĠéĿ©åĳ½ åħļ
Ġä½Ľ ç»ı
Ġæľ¨ è´¨
Ġäº¬ å¹¿
Ġäº¬ åħĨ
èĵ ĵ
Ġé±¼ å°¾
ĠæĶ» çł´
Ġåĳ¼ åºĶ
Ġè´Ŀ å£³
Ġæ¥ļ åĨĽ
ĠçĶ² æĿ¿
ĠéĽ· è¯º
å°½ ç®¡
ĠåĽĽå¤§ åıĳæĺİ
Ġç¬¬åĽĽ ä¸ª
ĠçĶĺ èĶĹ
Ġæµĵ ç¼©
Ġå£® éĺĶ
Ġå¯» å¸¸
ĠæĭĽ çīĮ
Ġç«¹ åŃĲ
Ġè´§ è¿Ĳ
ĠæĳĦ åıĸ
ĠæģĴ çīĻ
Ġ180 4
ĠåĲĦä¸ª æĸ¹éĿ¢
Ġä¸įè¶³ ä»¥
Ġç£¨ éļ¾
Ġæ®· åķĨ
Ġé«ĺå±± æµģæ°´
ĠåĨħéĻĨ åĽ½
ĠäºĮäºº è½¬
Ġåįģåĩł å¹´
Ġå¸¸è§Ħ èµĽ
Ġæİ¢æµĭ åĻ¨
åŁĭ ä¼ı
Ġç¿Į å¹´
Ġé²ģæ»¨ éĢĬ
Ġé¹³ éĽĢæ¥¼
Ġè°ª ä»Ļ
u re
Ġçļ ĵ
Ġä¸į å®ī
Ġä¸į è¯¥
Ġè¯ µ
Ġå¤§ æł¡
Ġä¸Ĭ ä¸ª
Ġä¹ĭ äºī
ĠæľĪ åĪĬ
Ġèĩª å®¶
Ġåī ĥ
Ġå¤© æ±ł
Ġåħ¨ ç¾İ
Ġä¸ľ ä¹¡
Ġæĸ° å¾·éĩĮ
Ġæ°´ æīĭ
Ġå±± å±ħ
Ġå±± æĿĳ
Ġ7 10
æ°Ķ åİĭ
äºĮ å¹´
ĠæĪĺ åĮº
ĠåİĨåı² åī§
å¾· å¸Ĥ
å¸¸ å§Ķ
ĠåŁº è°ĥ
Ġç¾İåĽ½ åĽ½
ĠåĶĲ ä¸ī
Ġç§ĳ æķĻ
èħ ĳ
Ġå¾· çĶ²
èı ģ
Ġç®Ģ è¦ģ
Ġæİ¥ æĭį
an o
ç§ĳ éĻ¢
ĠæŀĹ åĮº
ĠæŀĹ æľ¨
Ġåį° ç«ł
Ġåī§ åĲį
Ġèµµ æ°ı
Ġæº ¢
or m
Ġè®² åŃ¦
ĠåĨ° åŁİ
Ġf ans
Ġè£ħ åľ¨
ĠåĿĩ è¡¡
Ġç¬¬åĽĽ éĥ¨
Ġèĸ ĩ
Ġåģĩ è¯´
Ġç²ī çº¢
ĠæºĲ æ³ī
Ġéº¦ åĬł
ĠÐ ½
åĩ¤ åĩ°
Ġåª ļ
ĠåĪĩ åī²
ĠâĹ ĩ
ĠçĶ³è¯· äºº
çĶ· åĦ¿
Ġéķľ åŃĲ
Ġå¯¹å¤ĸ è´¸æĺĵ
ĠçĤİ äºļçº¶
ĠåįģåħŃ å¹´
Ġç´¯ ç§¯
Ġç¾İäºº é±¼
Ġå¼¥ æ¼«
æĶ¿æ²» ä¸Ĭ
ĠæĬĳ éĥģ
ĠäººéĢł åľ°çĲĥ
æ±½è½¦ åħ¬åı¸
ĠæĭŁ äºº
ĠæįĲ èµł
ĠåĨ¶ çĤ¼
ĠåįĬä¸ª ä¸ĸçºª
èģĶåĲĪ åĽ½
Ġæİ¢éĻ© å®¶
Ġé¼İçĽĽ æĹ¶æľŁ
Ġæ¼Ĥæµģ è®°
ĠåŃµ åĮĸ
Ġä¼łæķĻ å£«
Ġéĥ´ å·ŀ
ĠéĩİçĮª æŀĹ
ĠâĬ Ļ
ĠæĿİäºļ é¹ı
Ġä»¥å°ĳ èĥľå¤ļ
w ay
Ġä¸į ä»¥
äºº ä¸º
Ġäºº æĿ¥
Ġå¤§ è°ĥ
æķ ²
ĠéĿ ĵ
Ġå°ı èĬ±
æ¸ º
Ġå¤© æŁ±
ĠéĹ µ
ä¸į ä¸ĭ
ĠæĿ¥ ä¸įåıĬ
ĠåİĨ å°½
Ġè¯Ĺ åĿĽ
Ġèĭ± éĩĮ
Ġå¥½ åŃ¦
ĠåŃ¦ åºľ
Ġçī¹ åľ°
ä¸ľ åİ¿
ä¸ľ æ±ī
Ġå¼ł æĽ¼
éħ ļ
Ġæĺİ æĹ¥
Ġéľ ī
ĠéĴ Ŀ
Ġçº¢ èĬ±
Ġæ±ī åł¡
Ġä¿Ŀ å¯Ĩ
Ġå¸Ĥ éķĩ
Ġå¸¦ çĶµ
æĹł åıĮ
ĠåĶ± æ³ķ
ĠçłĶç©¶ éĻ¢
å·´ èµ«
Ġè§ģ éķ¿
Ġä½İ éŁ³
Ġåı¸ æľº
ĠéĹ¨ å¾Ĵ
é²ģ æĸ¯
Ġ24 00
Ġ22 5
Ġèİ« åĲį
Ġæ´¾ åĪ«
Ġäº¬ æ²ª
Ġå¯Ĩ å¸ĥ
Ġäºī çĽ¸
Ġæ²ī çĿ¡
ĠéĴ± åŃ¦æ£®
Ġçº¿ åľĪ
it e
æıĲ åĩº
æıĲ çļĦæĺ¯
Ġé£İæĻ¯ ç§Ģä¸½
ou s
ĠçĲĨè®º å®¶
id e
Ġå¼¹ å¤´
Ġç¬¬åįģ åħŃ
ĠçĽĳ è§Ĩ
Ġçŀ §
Ġé¼ĵ æ¥¼
of t
ĠæĮº æĭĶ
ĠæĳĨ åĬ¨
Ġè¯¯ è§£
Ġæ±Ĺ åĽ½
Ġæ±Ĺ æ°´
Ġåĭ¾ åĭĴ
Ġba by
Ġç½ª è¡Į
Ġæĥł å·ŀ
Ġåĩī çĪ½
ĠèĦĬ é«ĵ
ĠåŁĭ èĳ¬
Ġçº¦ç¿° éĢĬ
ĠèĪį ä¸įå¾Ĺ
Ġæ±¡æŁĵ çī©
éĤ® ä»¶
Ġè¯ļ å®ŀ
ĠæĨ ĶæĤ´
Ġå¨ĺ å¨ĺ
Ġä¿Ĭ æĿ°
Ġä¸Ńä¹¦ çľģ
Ġçİ² çıĳ
Ġé©¬å¤´ çĲ´
Ġå¹´ çĶŁ
çĶ ¥
Ġä¸į å¤ļ
çī µ
ĠæĽ Ļ
åĩº èī²
Ġéĺ Ļ
Ġä¸ĸçķĮ ä¹ĭ
Ġå¤ļ éķ¿
Ġåħ¨ å¤©
æ³ķ å°¼äºļ
Ġè¿Ľ åıĸ
Ġéĩĳ è¾¹
ĠæĿİ å½¦å®ı
é«ĺ æīĭ
ĠæĢ» ç®¡
ĠåĲĦ çķĮ
ç¨ ¹
Ġå¼ł å¤§
æį ŀ
éħ ¯
Ġå¾Ĺ æĿ¥
Ġåĳ¨ éĥİ
Ġå¿ĥ å®¤
å¼Ģ çī©
ĠèģĶ éĢļ
ĠéŁ³ å¾ĭ
ĠåıĹ å®³
Ġè§£ å¼Ģ
ĠåħŃ ä¸ĥ
ĠæĿ¡ æ¬¾
ĠéŁ³ä¹Ĳ ä½ľåĵģ
æŃ¦ æ±ī
ĠåįĬ éĥ¨
Ġç®¡ éģĵ
Ġæ¼ ķ
Ġåľ°çĲĥ ä»ª
é¢Ĩ åŁŁ
Ġéļ¾ æĢª
Ġç»Ŀ æĹł
Ġç«ĭ è¶³
Ġèįī åľ£
Ġl z
Ġå¾Ĳ åº¶
å¯Ł éĻ¢
Ġç»¿ åħī
Ġéĥĳ ç§Ģ
ĠæĤ² æ¬¢
ĠæĤ² åĩī
Ġçİī åħ°
Ġæ¯ķ åįĩ
ĠæŀĦ å»º
æķĪ çĽĬ
è½» éĩį
Ġå°ģå»º ä¸»ä¹ī
ĠåħĦ å¦¹
Ġè·¨ åº¦
Ġçº¸ ä¸Ĭ
Ġéģ¿ éĽ·
Ġçĥ§ æĿ¯
199 3
Ġå¿ł äºİ
Ġè¥¿æ±ī æĹ¶æľŁ
èĶ ĵ
æŁı æŀĹ
Ġè´´ åĪĩ
ĠéĢ¼ è¿«
ĠåĪĨè§£ æĪĲ
é³ ŀ
198 2
Ġåįļå£« åŃ¦ä½į
Ġå¿µ å¿µ
Ġå®¿ è¿ģ
Ġé¥± æ»¡
ĠéĻ© å³»
ĠçĹ´ æĥħ
Ġçĥ¹ è°ĥ
Ġé©¬èµĽ æĽ²
ĠÅ į
ivers ity
Ġå¤©èĿİ åº§
Ġåħ ľ
Ġä¸Ģ åĽ¢
è¿ Ŀ
Ġæī Ī
ç§ ī
Ġåľ° çĽĺ
Ġæķ ķ
ĠæĹ¥ èĲ½
åĲį èĥľ
Ġèĩª åĬ©
ä¸Ń æ¯Ĵ
Ġä¸ī åĪĨä¹ĭäºĮ
Ġå¤© äº®
Ġå¼Ģ å±±
Ġæĸ° æĸĩåŃ¦
ĠåįĹ ç«Ļ
è¯´ æĿ¥
Ġæŀ Ĳ
Ġä¾ ®
ĠåĨħ æĶ¿
Ġéĩĳ åŁİ
Ġåīį ä»»
Ġå±± åı£
Ġå±± éºĵ
Ġé¦ĸ è¦ģ
Ġå¥½ ä¸įå¥½
ĠèĢģ çĪ·
å£« å°¼
Ġå¿ĥ ç¢İ
ĠåĽŀ æĬ¥
ĠåĬ¨ æľº
Ġ11 27
ĠåĲĳ åįĹ
ĠèĮ ľ
ĠèĳĹåĲį æ¼Ķåĳĺ
æĸ° éĹ»
ĠçĻ¾ æĹ¥
Ġè§£ åīĸ
Ġä¹Ŀ å®«
Ġç¢ ¾
ĠåľŁ æľ¨
Ġh er
ĠçĶŁäº§ èĢħ
ĠçĻ» åı°
en ter
ĠåĵĪ éĩĮ
Ġä¹Į é¾Ł
Ġåıĳæĺİ äºº
Ġè¯ķ åīĤ
Ġçĵ £
èĨ Ŀ
ĠéŃĶ çİĭ
Ġè¡ĮæĶ¿ æĿĳ
Ġåģĩ æĹ¥
Ġé¥® èĮ¶
ĠåĪĩ æĪĲ
199 0
Ġèµ« æĭī
ĠæĤł çĦ¶
è¾Ľ åŁº
ap p
Ġå®ı è§Ĥ
æĨ ¬
Ġå®¿ èĪį
Ġè¸ı åħ¥
Ġè´ª å®ĺ
Ġé¥± åĴĮ
ĠèĳĽ ä¼ĺ
Ġåį°åĪ· æľ¯
ĠæĤīå°¼ å¥¥è¿Ĳä¼ļ
Ġå¸ĪèĮĥ åŃ¦éĻ¢
Ġåİĭç¼© æľº
Ġæ¢¯ å½¢
å³ª åħ³
Ġä¸ĢçŃī å¥ĸ
Ġåħ¨æĺİæĺŁ èµĽ
Ġç¼Ķ éĢł
Ġé²¤ é±¼
ĠéĹŃæľĪ ç¾ŀèĬ±
Ġçī² çķľ
Ġå¯Ĩè¥¿è¥¿æ¯Ķ æ²³
Ġé¸Ńç»¿ æ±Ł
Ġåľ¨ æĶ¿æ²»ä¸Ĭ
Ġå¹´ äº§
Ġå¹´ èĢģ
Ġä¸į éĢĤ
Ġä¸į éĶĪ
Ġä¸Ĭ å±Ĭ
Ġå¯ ħ
ĠåĽ½ çķĮ
Ġä¸» æĹ¨
åĩº çĶŁ
Ġåħ¨ æĸ¹ä½į
Ġæĸ° å©ļ
ĠåĽł åľ¨
Ġä¸ª å·ŀ
Ġä¸ª æķ°
åĲĪ ä¸Ģ
Ġ6 50
æ±Ł çº¢
ĠæĢ» è®¡
ĠæĢ» çļĦ
ĠéĩĮ è¾¹
ĠéĩĮ å¥¥
Ġç© Ĺ
å¸¸ åĬ¡å§Ķåĳĺä¼ļ
ĠåĪĺ å§¥å§¥
ĠåĶĲ éĹ¨
Ġæµģ èĲ½
Ġå®Į çĴ§å½Ĵèµµ
ĠèĬ± èįī
ĠæĦŁ åħ´è¶£
å© ´åĦ¿
Ġæİ¥ çıŃäºº
åĭ ī
Ġè¾¾ èĬ¬å¥ĩ
ĠçĲĥ é¦Ĩ
Ġåħ« èĤ¡
Ġåħ« æĪĴ
çŃī åĽ½
Ġäººçī© æĢ§æł¼
Ġç¦» ç¦»
Ġèı ı
Ġt w
ĠæĶ¿æ²» å§Ķåĳĺ
è¶³ è½»éĩį
Ġå¤± èĲ½
ç»Ĩ äºļ
Ġd r
Ġæ¯į çĪ±
ä¸ĥ æĺŁ
Ġåħ´ è¡°
éĿĴ éľŀ
Ġåı¶ åīĳèĭ±
ĠèµĽ å°Ķ
ĠäºĮåįģ å²ģ
Ġå¨ģ æŃ¦
Ġé¹ Ĭ
è§Ħ å¾ĭ
é¾Ħ çĲĥ
ĠçĶ³ é¢Ĩ
Ġç¤¼ çĤ®
Ġå£® ä¸¾
Ġçıł å¸ĺ
Ġåīĳ éŃĦ
ĠåĻ¨ ä¹Ĳ
ä¸° åİ¿
Ġè¯¾ é¢ĺ
ĠçĦ¦ ä½ľ
Ġåĥ ³
Ġå¦ĸ ç²¾
if i
ak e
ĠæĲľç´¢ å¼ķæĵİ
ĠéĿĴå²Ľ å¸Ĥ
Ġä¸ŃåįĹ åįĬå²Ľ
Ġç½ļ æ¬¾
ĠåĽļ ç¦ģ
Ġå¤§åħ´ å®īå²Ń
Ġå®īç¬¬æĸ¯ å±±èĦī
Ġå®ĪéĹ¨ åĳĺ
n ba
¹ æ¶Į
Ġä¸Ģ åĪĻ
Ġä¸Ń çĶŁä»£
Ġä¸į äºĮ
Ġä¸į æĦ§
Ġå¤§ èµı
å¹ ¢
Ġå¯ ¥
ĠåĽ½ åĪ«
Ġå± ¹ç«ĭ
åĵ ¨
Ġåħ¶ è¯Ĺ
ĠçĶŁ åĩº
Ġè¥¿ åĩº
çĤ ¯
Ġå¼Ģ åĬŀ
Ġç¬¬ä¸Ģ æŃ¥
ĠæĹł æķĪ
ĠéĹ ·
ä¸į ä¹ħ
Ġçľĭ æ¸ħ
ĠçĪ± ç«ĭä¿¡
Ġ8 46
ĠèĢģ å¹´
ĠçĻ½ é¹Ń
Ġ9 000
Ġ18 3
æŃĮ åī§éĻ¢
Ġåİ» éĻ¤
Ġä¸ĵ åįĸ
å¦ ĵ
Ġæīį å¥³
Ġæķ° å¹´
Ġç²¾ åº¦
ĠéĽĨ å¤§æĪĲ
ĠåıĤ æķ°
ĠåıĤ è§ģ
Ġæĺ¥ æ°´
Ġæĺ¥ èĬ±
Ġä¸ĥ éĩĮ
Ġè¶ħ å£°
Ġç»´ çī¹
Ġå© µ
Ġæ»¡ æĢĢ
Ġçĸ «
Ġå¤± ä¸ļ
Ġçªģ èµ·
ĠçŁŃ æĹ¶éĹ´
ĠåĽ¢ èģļ
ĠåĨ² æ´Ĺ
Ġæİ¢ æĪĪ
Ġæ·· æ·Ĩ
ĠæĥĬ åı¹
ĠæĪ¿ ä»ķ
ĠåĳĬ çŁ¥
ĠéĴŁ å±±
Ġèµŀ æĪĲ
Ġå°ĳå¹´ åĦ¿ç«¥
Ġåı¸é©¬ çĽ¸å¦Ĥ
Ġæį¢ ç®Ĺ
ĠæıŃ å¹ķ
Ġæµ® äºĳ
Ġ33 0
Ġåºķ å±Ĥ
ĠèĪ° è½½
Ġch in
åıĤ è°ĭéķ¿
ĠèįĴ è¯ŀ
ĠæĲŃ è½½
é¦ Ĺ
Ġåįģåħ« å²ģ
Ġä»ĺ æ¬¾
ĠçªĹ å¤ĸ
Ġèħ° å¸¦
Ġè®¢ å©ļ
Ġåĩ¶ çĮĽ
ĠçĤ¼ æĪĲ
ĠéĺĲ æĺİ
Ġä½Ĳ åĬ©
ĠåĶ¤ éĨĴ
ĠèĤĩ åºĨ
Ġè¾¹å¡ŀ è¯Ĺ
Ġèµ«å°Ķ è¾ĽåŁº
ĠåĵĪä½Ľ å¤§åŃ¦
ĠéĻĪæħ§ çĲ³
Ġæ´»åŃĹåį°åĪ· æľ¯
ĠåĨµ ä¸Ķ
Ġéĵģæľ¨ çľŁ
Ġæ¾ľæ²§ æ±Ł
ĠåĽĽåĲĪ éĻ¢
Ġå¤©å·¥ å¼Ģçī©
ĠæĨ§ æĨ¬
i h
Ġä¸Ģ èĬĤ
Ġå¤§ å§Ĳ
Ġå¤§ åħĥå¸ħ
æī ¶
Ġä¸» å¸ħ
æĭ Ĳ
Ġæ¸ ¥
Ġè¥¿ éĽħ
Ġå¤© æķ°
ĠåĪĨ å·¥
ĠåĪ° ä½į
Ġä¸ľ éĹ¨
é¢ ¢
å®ļ çĲĨ
çĦ¶ åĲİ
Ġ5 18
ĠæĹł ä¸º
ä¸į å±Ī
Ġå¤ª è¿ĩ
ĠäºĮ çŃī
äºļ éĤ£
éħ Į
Ġå¾Ĺ å¤±
Ġ18 20
Ġéĺ¿ æĿľ
æŃĮ åĲį
Ġæ¶ ¡
Ġæ²³ åĨħ
ĠèĬ± ä¸Ń
ĠåıĤ åĨĽ
åĲĳ è¥¿
ĠåıĹ åĳ½
ĠæĶ¾ å¼Ģ
Ġç½ĳ åĿĢ
Ġç¦» å¥ĩ
ĠåĪ© çİĩ
Ġè¯¸ åĽ½
Ġå·¨ åĮł
Ġè¯Ń åı¥
èģ ĭ
Ġè½¦ ç®¡
Ġæ¯Ľ ç¬Ķ
ĠéĹ¨ å®¢
Ġç»¿ æłĳ
Ġè£ħ æľº
ĠåĿļ å®Ī
Ġçİī å¸Ŀ
Ġæ¢ģ æŃ¦å¸Ŀ
Ġäº¬ æ´¥
ĠæŀĦ åĽ¾
Ġä»Ļ åŃĲ
Ġè´¨ åľ°
ĠéĻĦ çĿĢ
ĠæĶ» éĻ·
Ġãģ «
ĠçŃ¾ åĲį
Ġç¬¬åĽĽ åĲį
ĠçĶ³ å¥¥
Ġç¤¼ åĵģ
Ġæľ« ç«¯
Ġæ¬¢ å¿«
ĠæĺĨ æĽ²
Ġåħ¼ å¹¶
Ġä¼ĳ æĸ¯
ĠâĨ ĵ
ĠæĮĳ èµ·
ĠçĪ¸çĪ¸ å¦Īå¦Ī
Ġæļ´ åĬ¨
ĠçĮ® èº«
ul t
Ġæī« æıı
Ġæ±ł å¡ĺ
Ġçģ«çĦ° å±±
Ġä¼ª è£ħ
ĠçĶŁçĲĨ åŃ¦
Ġçļĸ åįĹ
åĻ ¶å°Ķ
Ġæ²¿çĶ¨ èĩ³ä»Ĭ
Ġå¤§å¹ħ åº¦
ĠæĪĲæĸĩ æ³ķ
Ġä¼ĺèĥľ èĢħ
i j
y r
Ġä¸Ń åĲİ
Ġä¸į åĢ¼
Ġç» ½
Ġå¤§ ç¢Ł
è´ ©
æķ ĸ
ĠåĲİ å¤©
æĪĲ åĲį
Ġè¾ Ĺ
ĠåįĹ éĹ¨
çİ° è±¡
ä¸į çĦ¶
ä¸į è§ī
Ġéĩį ä¿®
ĠåĲĮ å±ŀ
Ġå¤ª å°ī
æ¡ ¢
Ġä¸ĩ å®¶
Ġå¼ł æī¬
ĠçĻ½ é¾Ļ
å¾· æĸ¯
Ġåıį åıĽ
Ġéľ ŀ
Ġåĩł åĨħäºļ
ĠæĦŁ æģ©
Ġæ·± æ°´
Ġæį įåį«
ĠåıĹ çĲĨ
Ġçĭ¬ åĪ°
ĠçĲĥ éĹ¨
Ġ15 4
ä¿¡ åĵ²
ĠåķĨ éĩı
Ġè½¬ åŀĭ
åŁº åĽł
Ġé¾Ļ å±±
æ¼ ª
æĦŁ åºĶ
åħŃ åĽ½
Ġæ²¿ çº¿
Ġçİī æºª
at or
Ġè´Ŀ åĭĴ
ac l
Ġå°Ĭ è´µ
ĠæŁ¥ å°Ķæĸ¯
Ġåħ¨çĲĥ æĢ§
åľĨ å½¢
ĠéĻ¶ åĻ¨
Ġæģ¶ å¿ĥ
ĠæĲľ çĭĲ
Ġå®ľ äºº
ĠéļĶ ç¦»
ĠåĲ¹ å¥ı
Ġèı² å°Ķ
lo w
ĠâĪ ļ
198 6
Ġéĥģ è¾¾å¤«
Ġ64 9
Ġç©· äºº
Ġé¢Ŀ å°Ķ
Ġåĳĺ å¤ĸ
Ġæ»ĩ æ±ł
Ġæĭĵ è·ĭ
Ġçĳ¶ æĹı
Ġéĺľ éĺ³å¸Ĥ
Ġéŀį å±±
Ġæ°ĳæĶ¿ å±Ģ
Ġæł¸ç³ĸ ä½ĵ
èı© èĲ¨
Ġç«łåŃĲ æĢ¡
ĠåįģéĿ¢ åŁĭä¼ı
Ġå©µ å¨Ł
r c
Ġå¤§ èħ¿
æĪ Ł
Ġèĩª ç§ģ
Ġä¸ī åĨĽ
Ġä¿ ¨
Ġå¤© å¹³
Ġåħ¨ çĽĽ
Ġå¼Ģ æ°´
Ġç¾İ å°ĳå¥³
Ġæ¯Ķ ä¸įä¸Ĭ
ĠçĶ¨ åĵģ
ĠçĪ± å¾·åįİ
Ġå±± ç¥ŀ
åħĥ èĬĤ
Ġçī¹ å·¥
äºĮ å¨ĺ
ĠåĲĦ å·ŀ
ĠæĪĺ åıĭ
å¹³ è¡¡
Ġä¸ĩ ä¸ª
Ġå¼ł åĺī
Ġéĺ¿ å¡ŀ
åħ° å¥ĩ
Ġåħĥ èĢģ
ĠéĿŀ è¯ļ
ĠåĲĪ ä¸Ģ
Ġåħ± åĪĨ
Ġå®¶ ä¼Ļ
æµİ æ¡¥
Ġå¼º å£®
ĠçĲĨ åŃ¦
Ġä¸ĥ æĹ¥
Ġb b
Ġä¹Ŀ æ±Łå¸Ĥ
Ġå¼ķ çĶ³
Ġæłĩ æľ¬
Ġèīºæľ¯ å½¢è±¡
Ġæķ´ å¤©
ĠæİĴ æ°´
Ġç¡® æľī
Ġæ»¡ æľĪ
Ġåİ¿ ä»¤
Ġæł¸ éħ¸
Ġå»ºçŃĳ é£İæł¼
Ġæ³¢ çī¹
Ġå¯Į å¼º
Ġéħį å¤ĩ
ĠåĩºçĶŁ å¹´æľĪ
ĠéĽª è§ģ
Ġæ¿Ģ æĺĤ
èį£ èĩ»
ĠåĲ¯ çĶ¨
Ġè¯ĹæŃĮ åĪĽä½ľ
ä¼Ĭ æĸ¯
Ġéķ Ń
ĠèĦ± æ°´
é¥Ń åºĹ
Ġèĥĥ éħ¸
çŀ Ĵ
Ġç½ª åĲį
ĠåįĥéĩĮ é©¬
Ġæ·ĺ æ°Ķ
éĽ¶ ä¸Ģ
Ġæķı éĶĲ
Ġå¹³éĿ¢ éķľ
Ġè·¯æĺĵ æĸ¯
Ġç¡ħ è°·
ĠçĮ¿ äºº
Ġåłķ èĲ½
Ġæī¬åŃĲ é³Ħ
ĠæŃ¦å¤· å±±
ĠçĤİé»Ħ åŃĲåŃĻ
Ġæĥ¶ æģĲ
ĠåĺīéĻµ æ±Ł
Ķ éĺ³
Ġä¸Ģ ç«Ļ
Ġå¹´ å°ĳ
äºº éĹ´
Ġå¤§ èĤĨ
å¤§ ä½¿
å®¶ ä½³
æī ģ
Ġå¯¹ åĶ±
åĬ¨ éŃĦ
Ġå¤ļ é¦ĸ
Ġé«ĺ éĽĦ
Ġå¼Ģ å¤©
Ġéķ¿ éĹ¨
æ¼Ķ åĩº
Ġæ²¡ èĥ½
Ġæ²¡ äºĭ
Ġå¥³ æİĴ
æ±Ł åįĹ
Ġåīį ä¸ī
æ²» æ°´
ä¸ľ é£İ
ĠæĽ´ ä¸Ĭä¸Ģå±Ĥ
ĠæŃĮ çİĭ
Ġä½ĵ æ¶²
èĩª åľ¨
Ġç¾İåĽ½ çº½çº¦
Ġåıį æ½ľ
Ġç¥ŀ éĢļ
ĠåĪĽ åĪĬ
Ġçº¢ çĥ§
å¦ Ħ
Ġæķ° ä¸ĩ
ĠåĲĳ çĿĢ
Ġçģ« çĪĨ
ĠéĻĪ åĺī
ĠåĽ½éĻħ æ³ķ
æĿ¯ èµĽ
ĠçĲĨ æīĢ
ç§ĳ å¤«
Ġå·¦ å¿ĥå®¤
Ġåī§ ä½ľ
åħĪ éĺŁ
Ġ14 1
ĠèĪª è·¯
çª ¦
Ġæł¼ é²ģ
Ġç¬Ķ çĶ»
Ġç©¿ æıĴ
Ġå¾Ģ è¿Ķ
Ġé¢ľ çľŁåį¿
åĨ° å¿ĥ
Ġé£İæĻ¯ åĲįèĥľ
Ġäº¤éĢļ å·¥åħ·
æĭľ çĸĨ
Ġæį¢ æĿ¥
Ġä¼łå¥ĩ èī²å½©
ĠæĳĦ åĪ¶
Ġè¿ª åįĹ
Ġè¿ª å£«å°¼
ro w
Ġèµĭ å¾Ĺ
Ġå°¾ éĥ¨
Ġèµ¶ ç´§
ĠçĽ¸äºĴ ä½ľçĶ¨
Ġ186 6
çĵ¶ åº§
æĮ¯ å®ĩ
ĠæĬ¢ æķĳ
é¢ĳ éģĵ
ĠåĴı æĺ¥
Ġé«ĺä¸Ń çĶŁ
ĠçĤĴ ä½ľ
ĠäºĶå¤§ æ¹ĸ
ĠéĽĮ éĽĦ
Ġé¥± åĲ«
ĠæĺĮ é»İ
Ġæ¢¨ èĬ±
Ġä¸Ľ æŀĹ
é³į è±ļ
ĠæĥĬå¿ĥ åĬ¨éŃĦ
Ġæ½®æ± ķ
Ġç¢³éħ¸æ°¢ éĴł
Ġå¤įåį° ä»¶
çģ«çĥ§ ä¸įå°½
ç ¼Ķ
åħ ľ
Ġä¸į çĶĺ
Ġäºº èĥ½
Ġå¤§ æ¹ĸ
æĪ ®
ĠåĲİ ç¾¿
Ġèĭ »
åľ° åĽ¾
Ġåħ¬ æľī
å±± æ°´
Ġè¥¿ äº¬
Ġè¥¿ éŃı
Ġé«ĺ è¡Ģåİĭ
Ġä¸ľ çĽŁ
ĠåĮĹ ç«Ļ
ĠæĹł æŀģ
Ġä¸ĭ æ²ī
ĠçĽ¸ ä¼´
ĠåĽĽ æĺŁ
Ġéĩĳ éĿ´
Ġå¥½ ä¹ħ
ĠæĽ´ é«ĺ
é©¬ éĩĮ
å¸ĥ éĩĮ
Ġç¥ŀ åŃ¦
èĢĮ ä¸Ĭ
Ġåį³ åħ´
Ġ12 79
ĠåºĶ å¤©
Ġè¡Į åĨĽ
Ġéĥ¨ ä»½
åı¤ åĽ½
çı ħ
Ġæĺ¥ åĪĨ
é¦ĸ çĽ¸
Ġçķ ¸
ĠçĲĥ ä½ĵ
æĿ¡ ä¾ĭ
19 45
Ġæłĩ æ³¨
ĠåıĮ èĥŀèĥİ
Ġèµµ åŃĲ
Ġæľª ç»ı
ĠæİĴ æ³Ħ
åĽŀ äºĭ
ĠçĶ» æ´¾
Ġäº² è¿ĳ
Ġâĳ ´
Ġæ¯Ľ åŃĶ
Ġç»§ ä»»
Ġd is
éº ĴéºŁ
Ġp a
ĠåĨ° æ²³
åľ£ ç¥ĸ
Ġä¹¡ åľŁ
Ġä¹¡ è¯ķ
ĠäºĮåįģ åħŃ
ĠçĽĽ å¤ı
Ġé¡º åºĶ
Ġèį· å¡ĺ
ĠéĥŃ è¥Ħ
ĠåĨ· æ°´
ĠåĪļ æīį
æ´Ľ ä¼Ĭ
ĠæĺĨ å±±
ĠéĴŁ é¦Ĺ
æĢ» æķ°
Ġå·´é»İ åħ¬ç¤¾
Ġæµĭ åĩº
Ġåħ» çĶŁ
Ġå®¡ çĲĨ
ĠäºĮæ°§åĮĸ éĶ°
ĠçĽĸ å¸½
Ġåįĵ åĪ«æŀĹ
Ġå·¡ èĪª
ĠæĪ· å¤ĸ
ĠèĦĳ æµ·
ĠæĽ¿ èº«
Ġåłª åŁ¹æĭī
Ġåĺ´ å·´
ĠåĬĿ è¯´
Ġå®³ èĻ«
ĠæŃĮåī§ éĻ¢
Ġç½ĳçĲĥ çİĭåŃĲ
Ġè¦ĨçĽĸ çİĩ
oc k
Ġæ³Ľ æ»¥
ĠèĤ© ç«ł
ç¯ ·
og le
Ġæİ© çĽĸ
Ġå¼ĺ åİĨ
ĠçĦļ çĥ§
Ġæ¬¾ å¼ı
Ġè¯ī è¯´
ĠåĲ¯èĴĻ è¿ĲåĬ¨
Ġå¨Ħ èīº
ĠéĶĲ è§Ĵ
ĠéĵĤ éĩĳ
ĠåĮĢ éĢŁ
ĠèĶĵ å»¶
ĠæŁľ åı°
ĠåĽĽä¸ĸ åĲĮåłĤ
Ġmich ael
Ġå®Ŀèİ² çģ¯
éĩĮè¡Į éĹ´
Ġåİķ æīĢ
Ġé»Ħåľ£ ä¾Ŀ
f c
ŀ åŃĲ
ĠäºĨ ä¸įèµ·
ä¸Ģ äºĽ
ä¸Ģ æĸ°
å¤§ è¡Ĺ
éĹ ¯
å½ Ŀ
çĽ Ķ
Ġå°ı èįī
Ġèĩª æĦ¿
æ¬ ł
Ġä¸ī åħĥ
Ġåº ¾
Ġå¤© éķ¿
Ġä¸ľ æ±Ł
Ġä¸¤ æ±ī
Ġéĩį åŀĭ
ĠæĿİ åħĭ
Ġå¤ª å¤§
Ġçİĭ æ¯į
ĠåŃ¦ ä¸ļ
æĭī å±±
ĠçĻ½ è¡£
Ġæ¸ħ çĥŃ
Ġéĺ¿ æĪ¿
ĠåĪĺ æģĴ
å£« åĿ¦
å¿Ĺ åĪļ
Ġæ·± å±±
è¿Ľ æŃ¥
Ġé£ŀ è½¦
Ġç§¦ ä»£
ĠåŃĹ éĩĮè¡ĮéĹ´
Ġé¢Ĩ åĨĽ
é¥ ª
Ġåı² å®ĺ
éģ ®
ä¿¡ åı·
Ġè·¯ å¾·
ĠåĮĸ æĪĲ
æĹł æķħ
Ġé¾Ļ çľ¼
åĽŀ æĿ¥
Ġæĭī å§Ĩ
Ġä¿® è¡Į
Ġä½ķ äºº
Ġä½ķ æ´ģ
ĠåĲ¸ çĥŃ
ĠèĮĥ çİ®çĲª
ĠæĽ² æ£į
ĠéĥŃ åĺī
Ġèĭ¥ æľī
ĠèĤ¯ å°¼äºļ
èĭ¥ èĭ±
ä¿Ĭ åĩ¯
Ġç¦ Ħ
Ġæĸĩæĺİ åı¤åĽ½
Ġç¥ŀè¯Ŀ æķħäºĭ
Ġç¤¾ äº¤
Ġéĺ¿æł¹å»· éĺŁ
ĠèįĴ åĶĲ
Ġçīµ çīĽ
Ġå¤§å¤§ æıĲé«ĺ
Ġæīĭç»Ń è´¹
Ġé¾ĻéĹ¨ çŁ³çªŁ
Ġæĳ§ æ®ĭ
Ġèĺ ¸
Ġéľ¸çİĭ åĪ«å§¬
Ġæīĵåį° æľº
Ġéĥ¡åİ¿ åĪ¶
Ġè¡Ģç¼ĺ åħ³ç³»
Ġéħµ æ¯į
Ġéķ¿éķ¿ çļĦ
Ġå¤§æ¸¡ æ²³
Ġä¸Ģ æĹł
Ġä¸į èµ·
Ġæľī ä½į
Ġè¿Ļ å®¶
Ġä¹ĭ é£İ
éĻ ²
Ġåĩº å«ģ
ĠåĲİ éĩĳ
ĠéĤ º
æ¸ Ń
Ġæ³ Į
Ġè¥¿ åįĬçĲĥ
éĩĮ åħĭ
Ġæĸĩ æĺĮ
Ġä¸ľ å¾ģ
Ġè¯´ è°İ
Ġæ°´ ä½ĵ
Ġå»º åŁİ
Ġåĸ Ķ
äºĮ åįģ
Ġæ³ķ ä»¤
ĠåŁİ éĩĮ
Ġæľ¬ äºĭ
é©¬ åºĹ
Ġåĳ¨ ä¸Ģ
Ġåĳ¨ æłĳäºº
çĻ½ å±ħæĺĵ
æĸ° åĮº
Ġå¸Ĥ æĶ¿
Ġåįĥ å±±
Ġåħ« è§Ĵ
ĠæĿ¨ åĿ¤
ĠæĿ¨ ç§Ģæ¸ħ
äºĶ æĸĹ
Ġåį° æľī
å¤ª åŁº
ĠéŁ³ä¹Ĳ åī§
ĠçĶ» é£İ
Ġä¿® ä»Ļ
ĠåŃĺ æ´»
Ġäººåı£ æĢ»æķ°
ĠèĥĮ çĿĢ
Ġæ¯į åŃĲ
Ġè¶³çĲĥ åľº
Ġi b
ĠéĤ® ç®±
æĭ© ç«¯
Ġæķ£ æŃ¥
ĠçŃ¾ è¯ģ
æĻº è´¤
ĠæķĪ çĽĬ
Ġè¡¥ åģ¿
ĠèĴĻåı¤ è¯Ń
Ġåĺī å³ªåħ³
Ġåģľ æĪĺ
Ġè·¨ å¹´
Ġéº¦ å½ĵ
ĠçĥŁ èĬ±
Ġ189 7
Ġæĸĩæĺİ åı²
ĠæĪıåī§ åŃ¦éĻ¢
Ġæ´Ľéĺ³ å¸Ĥ
ĠåħħåĪĨ ä½ĵçİ°
èĶ »
Ġæ±ª æ¶µ
ĠèĢĲ äºº
Ġå¿į ä¸įä½ı
Ġ187 9
ĠåºĹ éĵº
Ġä¼¸ å±ķ
ĠèĬŃ æ¯Ķ
ĠæµģæĺŁ èĬ±åĽŃ
ĠèĮĤ å¯Ĩ
Ġè¸¢ çĲĥ
Ġç¥ŀåĨľ æŀ¶
ĠåĢº åĪ¸
Ġçļ± çº¹
ĠæĿİå®Ĺ çĽĽ
Ġå²± å®Ĺ
ĠæŃ¦å½ĵ å±±
æ¼Ĥ äº®
ĠéĴ¦å·® å¤§èĩ£
Ġå°¤æĸĩ åĽ¾æĸ¯
Ġå¤©ç§¤ åº§
Ġä¹ĮèĭıéĩĮ æ±Ł
Ġä¸įéĶĪ éĴ¢
o on
t ion
Ġåı ©
Ġä¸Ģ ç«¯
Ġä¸Ģ å°Ĭ
Ġä¸į åĪĹé¢ł
Ġè¿Ļ ä½¿
æ² ±
åĩº åİ»
Ġè¢« å®³
Ġä¿ º
å¤ļ éĽ¨
æĸ¯ èİ±
Ġéķ¿ åĩº
ä¸į ç»Ŀ
Ġæ· Ŀ
åħ¥ èĥľ
ĠæĿİ åĨ°
Ġè¡¨ åĵ¥
å°ı é¾Ļ
Ġèĥ Ń
Ġç® «
Ġæ¸ħ åĪĿ
Ġæ¸ħ çº¯
Ġéģ Ĳ
Ġåĳ¨ ç¤¼
èĢĮ æĪĲ
Ġæ¯ı å±Ĭ
ĠæŃ¦ æīĵ
å¥³ åŃĲ
Ġæķ° æ¬¡
Ġçģ« éĶħ
åħ¶ æ¬¡
å·¥ äºº
ĠåĮħ åŃĲ
Ġå¯¼ çº¿
Ġå¯¼ æ¸¸
çŁ¥ å·±
è¯Ĺ çİĽ
Ġä¹Ŀ å°¾
Ġå®ĭ åĽ½
ä»Ĭ å¹´
Ġè®¡ è°ĭ
äºĳ å±±
ĠåįĬ å¤©
Ġè¡Ģ èħ¥
ĠåĪ© äºİ
ĠæĶ¿æ²» ç»ıæµİ
åħ« å¹´
éħ¸ éĴł
ĠåĬŁ å¾·
ĠéĻĨ æ¯ħ
Ġéº ĭé¹¿
Ġl ink
Ġåı£ ç¢ĳ
åı³ éĵŃ
Ġèĥ¡ å¿Ĺæĺİ
ĠçĪ¶äº² èĬĤ
ĠåľĨ å¿ĥ
Ġçħ§ èĢĢ
Ġæłĳ æŀĹ
Ġæ²» çĹħ
Ġæ¨ª æī«
Ġå¼Ĥ åĽ½
Ġå¡Ķ æĸ¯
Ġç¬ĳ è¯Ŀ
Ġå£® å¿Ĺ
Ġè´¢ çī©
Ġæĺĵ ç»ı
ĠåĦĴ æľ¯
èĹ ĵ
Ġè¯ĳ ä½ľ
ĠèĲ¨ é©¬
ĠåķĨä¸ļ ä¸Ńå¿ĥ
åİħ çº§
Ġä¹ħ è¿ľ
ĠåħħåĪĨ åıĳæĮ¥
ĠåĽ° æī°
Ġç¨Ģ éĩĬ
ĠçĲ´ å¼¦
ä½© æĸ¯
ĠæĮģç»Ń æĹ¶éĹ´
ĠçªĹ æĪ·
ĠçĽĹ çªĥ
Ġï¹ ķ
ĠèĤł éģĵ
ĠæĢ¨ æģ¨
Ġæĥ¯ ä¾ĭ
Ġå®īåºĨ å¸Ĥ
Ġæŀ£ åºĦ
ĠåĶ¤ èµ·
Ġå¼ķäºº åħ¥èĥľ
Ġåħ°äºŃ åºı
Ġæ®ī åĽ½
ĠçĽ¼ æľĽ
ĠåĤ¬åĮĸ åīĤ
Ġèįīæľ¬ æ¤įçī©
Ġç¤¾ä¼ļæ´»åĬ¨ å®¶
Ġè¥¿éĽħ åĽ¾
ĠæĽ´ä¸Ĭä¸Ģå±Ĥ æ¥¼
Ġåħ Ģ
Ġä¸Ģ æ°Ķ
Ġä¸Ń çº¿
Ġå¹´ éĻĲ
Ġå°± ä»»
ĠåĽ½ çĶ»
ĠæĬ ĸ
åĩº çİ°
Ġå¤ļ ä½į
æĸĩ èīº
æĻ ¦
ĠåįĹ å¤©
ĠåįĹ çĵľ
æĽ ³
Ġæµ· çĽĲ
ç»ı åİĨ
ĠæĿİ éĩĳ
ĠçĲ ¢
Ġéļ ½
Ġå±± çŁ³
é«ĺ æĹłä¸Ĭ
åħ¬ èĭ±
ĠåŃ¦ å®¶
Ġå¤ĸ çĶ¥
ĠåŁº è¯º
ĠåĪĺ å®¶
ĠåĪĺ åĲ¯
Ġå®ī åº·
èĢĮ è¿ĩ
ĠåĨĽ å£«
Ġèĩ³ é«ĺæĹłä¸Ĭ
Ġåĩł åįĥ
Ġè¡Į æĿİ
ĠéĹ® éĹ®
Ġæ°Ķ æ¦Ĥ
Ġåı· çº¿
æĢĿ ä¹ī
èĳ ¡èĲĦ
ĠçŁ³ æŁ±
Ġç®Ģ åĨĻ
æ¯Ķ åħĭ
Ġè§£ æķĳ
Ġm e
å¢ĥ çķĮ
ĠæĶ¾ ç¾Ĭ
Ġå¸¸ åĬ¡
Ġç»Ĩ ç»Ĩ
Ġæ£ ±
Ġä¾¿ æį·
Ġç§į çļ®
Ġæľª æľī
Ġh i
ĠåĲ¬ ä¼Ĺ
ĠæĹħ éĢĶ
Ġä¸° åİļ
éĻµ åİ¿
Ġè§ģ è¯Ĩ
Ġå¸ĥ ä»Ģ
è¢ ģ
Ġæł¸ æ¡ĥ
Ġæľ¨ åį«
ĠåĪĹ åŃĲ
Ġæ¯į ä½ĵ
Ġæħ ¨
al a
Ġå¤§éĻĨ æŀ¶
ĠæŀĦ çŃĳ
Ġæī¿ åĮħ
Ġèĭ±éĽĦ äººçī©
Ġãģ ı
ĠåĲĽ å£«åĿ¦
ï¼ ĳ
Ġéĺ´ éģĵ
Ġè¡¥ ç»Ļ
æĬĺ èħ°
Ġè¿· å½©
Ġè¿· æĥĳ
Ġéľį åħĥçĶ²
Ġå¤ļç§į å¤ļæł·
Ġçº¸ å©ļ
Ġå¹½ å·ŀ
Ġä¼ĳ æĸ¯é¡¿
ĠèĤī è´¨
os e
æ¡ĳ æ¯Ķåħĭ
ation s
ĠæĪĺèĥľ åĽ½
ĠéĿĴèĹı éĵģè·¯
ĠèģĤ èį£èĩ»
Ġæ·±è¿ľ å½±åĵį
Ġçĵ· éĥ½
Ġéŀĭ åŃĲ
ĠçĻ½é©¬ å¯º
ĠéĶģ å®ļ
ĠæīŃ è½¬
Ġçī¹ç§į åħµ
ĠéĢļè¡Į è¯ģ
Ġèĭ±æ³ķ èģĶåĨĽ
ĠéħĴæ³ī åį«æĺŁåıĳå°Ħä¸Ńå¿ĥ
èĬ· èĭ¥
Ġåĳ¨æĸĩ çİĭ
Ġç»ħ å£«
Ġdv d
ĠéĻĽ ä¸ĭ
Ġä¾® è¾±
Ġéĺ¿å¡ŀ æĭľçĸĨ
Ġä¸Ģ å¥³
Ġå¹´ åĿĩ
Ġä¸į å®ļ
Ġå¤§ æĹĹ
ĠåĽ½ äºĭ
éĺ ª
ä»¥ è½©
è¡Į ä¸ļ
æĭ ĩæĮĩ
Ġä¸ī æ®µ
Ġä¸ī ç»Ŀ
ä¸Ĭ æīĢè¿°
Ġå¤© éĻħ
Ġé«ĺ åĥ§
æĸĩ ä»¶
è¯´ æĺİ
åĪĨ æĺİ
è° Ľ
ĠåĨħ æ²³
Ġè¯Ĺ ä½ĵ
Ġç§° çİĭ
Ġå¥½ åĿı
ä¹Ĳ éģĵ
ä¹Ĳ åĽŃ
Ġé»Ħ çĽĸ
æį Ĳ
ä¸ī åĪĨ
æĦı å¤§åĪ©
ĠåĪĺ è£ķ
Ġç¥ŀ æľº
Ġç¥ŀ å¢ĵ
ĠçľŁ åĪĩ
Ġå°ĳ çĪ·
ĠéĻĪ å»º
ĠçŁ³ æ¡¥
ĠçĻ¾ èįī
ĠéĢī åħ¥
ĠçĲĥ å½¢
Ġå®ĭ é«ĺå®Ĺ
ĠæľĿ èĬ±
Ġæ£ į
Ġè¾ĥ å·®
Ġä¼ĺ åĮĸ
ĠåĲ« çĽĲ
Ġæ¬§æ´² åĲĦåĽ½
è¯ģ æĺİ
Ġt c
Ġæ¼ ¯æ²³
Ġå·¨ å¤´
åºĨ æĺ¥
Ġâĳ ¦
Ġç¦ı çĶ°
Ġä½ķ é¡»
çŁ Ľ
ĠçŁŃ æľŁ
ĠçŁŃ å°ı
ĠäºĮåįģ ä¸īå¹´
ĠåĩĨ åĻ¶å°Ķ
éĿĻ èĦī
Ġæ¢ħ åŃĲ
Ġj o
Ġå°ģå»º ç¤¼
Ġæ²¹ çĤ¸
ĠæŁ¥ æī¾
Ġæ¬¢ åŃĲ
Ġèµŀ é¢Ĥ
Ġåģ¥ åħ¨
Ġåĩ» åīĳ
åĲ¸ æĶ¶
é»ĳ åŃĲ
ä»² èĪĴ
ĠæĺŁæľŁ ä¸ī
Ġç£ģ æĢ§
ĠæĬµ åĪ¶
Ġu k
èģļ å¾·
çªģ çł´
Ġçģ«è½¦ ç¥¨
Ġ186 9
Ġåºı æĽ²
Ġåºı è¨Ģ
Ġèĭ±æł¼åħ° éĺŁ
è´§ å¸ģ
Ġæĺ¥é£İ åĲ¹
æ§ ¿
Ġå±ķçİ° åĩº
åıĪ çĶŁ
Ġæ¦ľ é¦ĸ
Ġå¼łå®¶ åı£
195 8
ĠçŁ³çģ° çŁ³
Ġçĥ¹ é¥ª
Ġå¼Ģæĭĵ èĢħ
pl ay
ĠèĮħçĽ¾ æĸĩåŃ¦å¥ĸ
ĠçĨı éĻ¶
ĠåĪĺä¼¯ æī¿
Ġè°´ è´£
ĠåĢĶ å¼º
Ġè¾Ĺ è½¬
Ġå°ģå»ºç¤¼ æķĻ
Ġæĺ¥é£İåĲ¹ åıĪçĶŁ
Ġè¿ ¥
Ġä¸Ģ é¡¿
Ġä¸Ĭ æ¶¨
å· ³
Ġä¹ĭ åįĹ
Ġåľ° åĲĳ
Ġå¸ ģ
çĶŁ åŃĲ
Ġå°ı åħ°
Ġå°ı åŃĶ
Ġå¤© å®«
ĠåĪĨ æŃ§
Ġæĸĩ æĪ¿
ĠåĮĹ ä¸´
Ġå½ĵ æĻļ
ĠçĽ¸ åĽ½
Ġæ°´ æľ¨
Ġæ°´ èįī
ä¸į çĿĢ
Ġæµ· å®ģ
Ġä¼ļ è¯ķ
Ġå±± è·¯
ĠåŃ¦ åĪ°
ĠæĽ´ ä½ķåĨµ
Ġä¸ĩ éļĨ
Ġæ°ĳ èĲ¥
Ġå®ŀ äºĭ
ĠçĻ½ èµ·
è·¯ åı£
Ġé©¬ å°¾
Ġé©¬ åĪº
Ġçº¢ æĿı
ĠåĽŀ ä¹¡
Ġä¸ĵ ç§ĳ
Ġæīĭ æİĮ
Ġèĭı é»İ
Ġä¸¾ åĬ¨
è¿Ľ åİ»
Ġæĺ¥ èģĶ
çĪ± çİ²
ĠéĢī åıĸ
åĽĽ éĿ¢
åħ± äº§
Ġm on
Ġåı² ç±į
an i
Ġéª ¤
ĠåıĮ åıĮ
ĠåĴ ĭ
ĠåĴ Ĵ
ĠæĢĿæĥ³ è§£æĶ¾
Ġæľ± çĶ±
ĠèĽ Ľ
Ġf l
Ġé¦ĸéĥ½ åĮĹäº¬
Ġæħ Į
Ġä¼Ĺ ç¥ŀ
ç¬Ķ çķħ
ĠéĤ® å±Ģ
ĠæĸĹ æ°Ķ
ä¸İ åįĥå¯»
Ġæ²» å®ī
Ġå®½ çº¦
Ġæ¯įäº² èĬĤ
ing s
Ġåģĩ è£ħ
ĠåĢĴ æķ°
ĠåįģäºĮ çĶŁèĤĸ
èĿ ĩ
Ġæ±¤ åľĨ
Ġ189 1
ĠçĽĳ æµĭ
Ġæ¶ĪåĮĸ æ¶²
of f
Ġ45 00
Ġä¸ĳ æģ¶
Ġè´º åħ°
Ġè´º é¾Ļ
Ġè´º å²ģ
Ġç¡« åĮĸ
éĺ¶ å±Ĥ
Ġç¼ĵ ç¼ĵ
Ġéļ¶ ä¹¦
ĠåıĬæĹ¶ éĽ¨
Ġéĥİ ä¸Ń
ĠåĲĮçĽŁ åĽ½
ĠåºĬ ä¸Ĭ
Ġæ±´ æ¢ģ
Ġå¨ģå°Ķ å£«
Ġç»´æĸ° æ´¾
Ġè¿¦ å¤ªåŁº
Ġåĵ¥çī¹ å¼ı
Ġä¸ŃåĽ½åĽ½ æ°ĳåħļ
ĠèĬ±æŀľ å±±
ĠéĽģèį¡ å±±
ĠåĲīå°ĶåĲīæĸ¯ æĸ¯åĿ¦
Ġå®«å´İ éªı
é²į å°Ķ
ĠèĲ¨é©¬ åħ°å¥ĩ
ĠçĶ º
Ġä¸į è§£
ĠåĴĮ çıħ
Ġå¤§ çĤ®
ä¸Ģ å¤ļ
Ġç¬ ĥ
ĠæĹ¥ å¿ĥè¯´
ĠæĪĲ ç¾¤
Ġå¯¹ éĺµ
Ġè¢« åĳĬ
Ġè¥¿ æµ·å²¸
ĠåĪĨ åĮº
ä¸» ä»»
Ġç»ı åķĨ
ĠæĹł ä¸İ
Ġä¸ĭ éĥ¨
ĠåİŁ ä»¶
çĲĨ å·¥
Ġä¼ļ ç¨½
ĠæĿİ å®¶
Ġå¤ª éĥİ
Ġåįģ æĻ¯
Ġé»Ħ ç§įäºº
ĠéĢļ è¾½
Ġå² Ĳ
Ġåĳ¨ èĬ·èĭ¥
Ġä½ĵ ä¾ĭ
Ġéĺ¿ å¨ĩ
Ġå®ī ä»¥è½©
ĠèĬ± é¦Ļ
ĠçĶ· ç¯®
Ġå·´ é¢ľ
ĠåĲĳ å¤ĸ
ĠåıĤ è®®
èĳ ©
Ġa aa
Ġè¿ŀ çº¿
Ġç½Ĺ æł¼
Ġåħ« éĺµ
ĠæĶ¾ çĶµ
å¤ª åŃĲ
ĠåįĬ æľĪ
éħ¸ çĽĲ
ĠéĻĨ ç¾½
Ġå¤± æģĭ
Ġä¸Ģæ¬¡ æĢ§
ĠéģĹ åŃĺ
Ġè¯į çīĮ
Ġå¸Ī å¤·
Ġå¾® å¦Ļ
å¿« ä¹Ĳ
Ġw eb
Ġw ill
Ġå°½ åĬĽ
Ġèį· åı¶
ä¸İ æµ·
Ġæİ§ è¯ī
Ġç«¥ æĺŁ
ĠæĥĬ å¥ĩ
åıª æľī
ĠåĢŁ æŃ¤
Ġæ²¹ èĦĤ
Ġå¤« åŃĲ
ĠéĶ¦ å·ŀ
ba by
Ġåį¢ æµ®å®«
Ġåº§ åı³éĵŃ
Ġè¡£ çī©
Ġéĩįå¤§ è´¡çĮ®
ĠæģĴ æ²³
æīİ ç½Ĺ
ĠåİŁå§ĭ æ£®æŀĹ
Ġ186 5
ĠéĻª èĳ¬
Ġçīµ å¼ķ
ĠçĤ® åħµ
ĠæĹı äºº
èĤ¯ é²įå°Ķ
Ġè§Ĵåº¦ çľĭ
Ġåĩ¤åĩ° åį«è§Ĩ
Ġæ¾³éĹ¨ çī¹åĪ«è¡ĮæĶ¿åĮº
Ġçĺ Ł
Ġæµĳ èº«
èŁ Ĩ
Ġç¢ĳ æŀĹ
Ġä¸Ģåįĥ å¤ļå¹´
Ġé»ĺ è®¤
Ġal l
Ġæº¶è§£ åº¦
Ġå®ĪæĬ¤ ç¥ŀ
Ġçĵ¶ åŃĲ
ĠçĬ¹å¤ª æķĻ
ĠæĪ·åı£ æľ¬
Ġå¥¢ åįİ
bo ys
Ġåİ¨ æĪ¿
ĠåħĪé©± èĢħ
Ġæ²Ĳ æµ´
éĦ Ļ
Ġgo ogle
è¯ĥ å¾·
Ġæ´ĭåĬ¡ è¿ĲåĬ¨
Ġä¸Ģè¿ŀ ä¸²
ĠåŀĤæĿ¨ æŁ³
ĠæĽ²æ£į çĲĥ
ĠæĹłä¸İ ä¼¦æ¯Ķ
ĠæľĢ åĮĹ
å¤§ å±łæĿĢ
Ġå½ ¹
Ġæ² ¥
ĠåĽ½ èī²
ĠçĶŁ çĹħ
Ġæ± Ľ
Ġå¤ļ åįĬ
Ġé«ĺ åľĨåľĨ
å¤ļ å°ĳ
å¤© åľ°
å¤© ä½ĳ
Ġåħ¨ ä¼ļ
ĠçĶµ çº¿
Ġç»ı çº¬
ä¸į èī¯
Ġåıª æĸ¤
ĠåĲĮ çŃī
ĠåĨħ ä¾§
Ġéĩĳ èİİ
èĥ º
ĠçĪ± æħķ
Ġå±± ç¾Ĭ
Ġç² ¥
Ġèį ¨
Ġé£İ è¶£
Ġæ¸ħ åħīç»ª
Ġå¤ĸ è´¸
åħ° çĶŁ
Ġå¥¥ æĸ¯çī¹
èĢĮ çĶŁ
Ġæ±ī æ°´
Ġæ±ī éŃı
Ġåĩł ä»£
ĠèĲ ĭ
Ġå·´ æ´Ľåħĭ
ç¼ Ń
Ġçģ« çĤī
çĻ½ çŁ³
çł Į
Ġåįķ åĪĢ
Ġéģĵ æŃī
è§Ĥ ä¼Ĺ
Ġçľģ åĬĽ
Ġåĭ Ł
ĠæĹħ ç¨ĭ
é¢Ĩ å¯¼
ĠæĬķ å½±
ĠéĻĨ çĶŁ
é£ŀ é¸¿
Ġåı°æ¹¾ æµ·å³¡
ĠçĻ» å°ģ
ĠåŃĲ åħ¬åı¸
or n
Ġè°ĥ åĪ¶
ĠæĬĹ åİŁ
ĠåĬĽ æ°Ķ
Ġè¿½ æĿĢ
Ġæł¼ æĭī
Ġç»Łä¸Ģ å¤©ä¸ĭ
Ġéħį æĸ¹
éĵģ åį¢
Ġäº¿ äºº
ĠçĹħ åİŁä½ĵ
ĠåĽ¢ åĽ¢
ĠéĽª èİ±
Ġçīĩ éķ¿
Ġéĵľ éĴ±
Ġçº¯ æŃ£
Ġç§ĺ åı²
ĠéĽĨåĽ¢ åħ¬åı¸
Ġæķĳ æı´
Ġè¿ĳä»£ åĮĸ
ĠæľīéĻĲ è´£ä»»
ĠåĻ¨ æĿĲ
Ġå¿Ĺ åľ¨
Ġç«ł èĬĤ
Ġä¸ĢçĻ¾ å¤ļå¹´
ĠåŁºçĿ£ å¾Ĵ
ĠèĹ ķ
Ġè¯¯ å·®
Ġåĩºåı£ åĽ½
Ġèĥĥ èĤł
Ġé©¬æĿ¥ ç¾¤å²Ľ
Ġå¥ĭ åıĳ
ĠèľĤ é¸Ł
ĠèĬ¦ ç¬Ļ
ĠçŁ³çģ° å²©
ĠçľŁäºº ç§Ģ
Ġç§Ł çķĮ
Ġèį§ åħī
Ġåĩºå¸Ī è¡¨
ĠèĮĦ åŃĲ
Ġçİĭå®Ŀ å¼º
éĺĳ çıĬ
ĠçĦļä¹¦ åĿĳåĦĴ
l a
Ġä¸Ń è½´
Ġåľ¨ åľº
ä½ £
ä¸º é©¬
Ġä»ĸ ä¿©
Ġæ² ®
åĲį æĢĿä¹ī
Ġä¸ī æ°ĳ
è½ ¿è½¦
ĠåĮĹ åĽ½
åĨĽ éĺĢ
éģĵ è·¯
Ġéķ¿ å¹´
ĠæĹł éĿŀ
Ġä¸ĭ è®¾
æ°´ åĪ©
ĠæĿİ éĿĸ
Ġè¯Ĺ é£İ
Ġå¥½ æĦŁ
ä¹ĭ åĲİ
ĠåŁİ æ±ł
Ġæľ¬ çĶ°
ĠæĽ´ åħ·
ĠåĽŀ çº¥
Ġæ±Ł æ³½æ°ĳ
å¥³ åıĭ
ç¾ ¯
éĩĳ åĥıå¥ĸ
æ¸¸ æ³³
æ» Ķ
ĠåĮħ å°ı
æ±ī æŃ¦å¸Ŀ
Ġæİ¥ è§ģ
ĠçŁ Ľ
ĠçĥŃ æ²³
åĬŁ çİĩ
Ġå¼ķ æĿ¥
Ġéļı æľº
Ġç¢ Ł
Ġèīºæľ¯ èĬĤ
ç»´ åħĭ
æĪı æĽ²
Ġç»Ī æĹ¥
Ġå¸ĥ æĶ¿
Ġæĺ¾ åį¡
Ġè¯Ħ ä¼°
Ġåį¡ ä¸ģ
Ġè¿½ å°ģ
Ġå¾® å°ı
å¹¿ å·ŀ
ĠçīĽ æ´¥
Ġw e
Ġçİī é¾Ļ
æķĪ åĬĽ
Ġçł´ è§£
Ġå¤§åŃ¦ æ¯ķä¸ļ
Ġçħ§ çĽ¸
åĪĽ æĸ°
Ġæ²ī é¦Ļ
Ġæ²ī æ²¦
å°½ çĺģ
ĠéĽĦ é¹°
Ġæ·· æ²Į
Ġåŀ ¦
Ġç«Ļ ç«ĭ
è¯ī è®¼
ĠéĢŁ çİĩ
Ġåĩ» æ¯Ļ
ĠãĤ ¢
Ġå¡ŀ å¤ĸ
åĮ» çĶŁ
ĠæĪıåī§ æĢ§
å¥¶ å¥¶
Ġåºķ ä¸ĭ
ĠçĶµè¯Ŀ åı·çłģ
ĠæĬµ æĬ¼
é¹¿ ä¸ºé©¬
Ġä½³ äºº
Ġ75 6
Ġåį§ åºķ
ĠèĢģäºº ä¸İæµ·
Ġåľ°ä¸ĭ æ°´
åįµ ç®¡
Ġéĥģ éĥģ
Ġå¥ĳ çº¦
éľĢ è¦ģ
Ġç¬¬ä¹Ŀ å±Ĭ
Ġç£· èĦĤ
ĠèĤ© èĨĢ
Ġå¨ĺ åŃĲ
ĠäºĭåĬ¡ æīĢ
Ġå·´å¡ŀç½ĹéĤ£ å¥¥è¿Ĳä¼ļ
Ġç¥ł åłĤ
Ġæ±² åıĸ
Ġä¹ĭæĹ¥ èµ·
Ġè·¯çĶ± åĻ¨
åĲ ¼
Ġä¸Ń æĽ¾
Ġå¤§ æĦı
Ġå¤§ çł´
Ġå¸ ĺ
Ġåıĳ æĶ¾
ĠåĲİ æĻĭ
Ġä¸ī çŃī
Ġä¸ī æ¸ħ
Ġä¸ī è½®
ĠåįĹ å¤ªå¹³æ´ĭ
Ġä»İ å®¹
å² ±
Ġæµ· åľ°
Ġç¥ Ģ
ĠæĿİ ä½³
Ġè¿ĩ åĪĨ
Ġé¦ĸ è½®
å®ŀ è¯Ŀ
Ġå¤ĸ èµĦ
Ġå¥¥ åı¤
Ġæµģ è¡Ģ
Ġæµģ è¿ŀ
éĴ »
ĠèĲ İ
ĠæŃ¤ æĽ²
éĩį åºĨ
Ġå±ŀ çĽ¸
Ġé£ŀ äºº
Ġåįķ ç»Ĩèĥŀ
çĸ ®
Ġåįİ è°Ĭ
ĠåŃĻ æ¥ł
ĠçłĶ è®¨
Ġè·¯ é£ŀ
åĽ¢ å¤§æĪĺ
Ġè½¬ èĢĮ
Ġç§į å§ĵ
Ġåľ£ é©¬
æ»¡ è´¯
Ġå¤´ é¢Ĩ
Ġæī¾ ä¸ª
Ġg b
Ġè¯ķ åĲ¬
Ġä¼Ĺ è¯´
Ġè®º èĳĹ
ic al
ĠçĶ° äº®
Ġãģ ¯
Ġç³»ç»Ł åľ°
ĠçĶŁçī© åľĪ
Ġå®½ å®¹
Ġå¹³åĿĩ æ¸©åº¦
ou t
ĠæľĽ æ¢ħæŃ¢æ¸´
ĠéĶ¦ è¡£
Ġä½ı æīĢ
Ġè½¯ å¼±
Ġå¾ģ æĶ¶
ĠæĴŃ éŁ³
Ġåº§ ä½į
Ġè±ª æĥħ
Ġåĳ³ æĳ©
Ġç«¯ æľ¨
199 1
æĩ Ĵ
ĠæĢª åħ½
Ġæ½ĺ éĩĳèİ²
Ġä¸ĢçĻ¾ å¤ļ
Ġå¼Ĺ åħ°
Ġæķ¬ ä»°
æĪĪ éĩĮ
ĠæľĢä½İ çĤ¹
Ġåĸ· åĩº
Ġæĭ¼ æĲı
ĠèĤł æ¶²
Ġé¥² æĸĻ
ä¸½èİİ çĻ½
oun d
æµĻæ±Ł çľģ
ĠåĹħ è§ī
ĠåĲĦåħ· çī¹èī²
Ġä¸īåİŁ èī²
Ġè½¦ç®¡ æīĢ
n sk
ä¸ «
Ġä¸Ģ æķ´
Ġå¹´ éĿĴ
Ġå¤§ å¹´
Ġå¤§ éķ¿
Ġä¹ĭ èĭ¦
Ġä¿ ĳ
Ġè¥¿ åĩī
çľ ¸
Ġåħ¨ åŁİ
å°Ķ æ²³
Ġä»İ ä¸ļ
Ġå¦Ĥ æĺ¯
ĠæĹł ä»İ
Ġçİĭ å¿ĥ
Ġå±± åįĹ
ç® «
Ġå¥½ çĶ·åĦ¿
Ġèį ŁèĲĥ
Ġé©¬ å°ı
Ġéĺ¿ è¯ĹçİĽ
Ġå¥¥ ç§ĺ
è¾¾ å·ŀ
Ġå¿ĥ æľī
Ġè¡Į è½¦
Ġç§ĳ æĻ®
ĠéĶ Ĥ
Ġäºļ å½ĵ
Ġå°ĳ åħĪéĺŁ
ĠåĮĹäº¬ æķħå®«
è¿Ľ åıĸ
Ġå¼º æĤį
ĠåŃĹ ä¼¯
ä¸½ èĲį
an a
Ġä¸ĥ æŃ¥
ĠåŃĻ æĢĿéĤĪ
ĠæĶ¾ çĥŃ
Ġä¹Ŀ åįģ
Ġè½¬ è½½
Ġç¼ĸ éĴŁ
Ġ13 3
åĬŀ æ³ķ
Ġæ¼ ©
ĠæĹħ é¦Ĩ
Ġåľ£ æīĭ
Ġçªģ å°¼æĸ¯
Ġæ¢¦ æºª
Ġèĥ¡ åĲĮ
Ġåħ´ åĽ½
Ġä¸´ è¿ĳ
Ġä¸´ æ±¾
Ġw id
Ġèİ« æ¡ĳæ¯Ķåħĭ
ĠéŃĶ åĬĽ
Ġæµª åŃĲ
as on
Ġçİĩ åħµ
Ġè¾Ľ åĭ¤
Ġæ±Ĥ å¾Ĺ
Ġç¬¬åįģ ä¸ĥ
Ġæĵ Ĥ
æŀĿ èĬ±
Ġè¾ĵ åįµç®¡
Ġç«¹ ç«¿
ĠéĻĲ åº¦
ĠåºĨ è´º
Ġä¸įçŁ¥ ä¸įè§ī
å¤ķ æ³ķå°¼äºļ
Ġèħ¹ æ³»
Ġ185 3
Ġè¾ŀ åİ»
ĠèĢĥå¯Ł ç«Ļ
ĠäºĮåįģåĽĽ å¹´
ĠåĢĻ é¸Ł
Ġé¡½ åĽº
ĠæĹłæľº çī©
Ġåħ¬åŃĻ èĥľ
ĠåĢ¡å¯¼ èĢħ
ĠæĻ¶ä½ĵ ç®¡
Ġèŀ ĥèŁ¹
Ġç¬¬åįģä¸Ģ å±Ĭ
Ġæ²Ľ åİ¿
Ġå¸¸æ¸© ä¸ĭ
Ġç©ºåŁİ è®¡
Ġå¼łæĽ¼ çİī
Ġå ¦Ĩ
åŃ º
Ġè¯ ħ
Ġå¤§ èĽĩ
æ° Ł
Ġä¹ĭ æĹ¶
Ġåľ° æ®µ
éĢ ħ
ĠåĲİ åĶĲ
æĪĲ ç«ĭ
Ġæ³ £
Ġå¤ļ æīį
Ġè¿ĺ å¥½
Ġæĸĩ è±ª
æĸ¯ å¡Ķ
Ġæĸ° å¤§éĻĨ
æľ¬ é¢ĺ
ĠçĶµ åľº
çİ° ä»»
ĠåĲį æĽ²
ĠçĶ¨ ç¬Ķ
éĺ³ åħ³
Ġä¸ĩ åį·
Ġä¸ĩ äº¿
Ġå¼ł æª¬
ĠèĢģ å¤ª
ĠæĦı åį³
Ġæ¶ §
Ġæ¢ Ĺ
Ġæµģ æ·Į
Ġçº¢ èĮ¶
èĦ ¾
Ġæ·± æµ·
ĠçĽ´ æµģ
Ġæķ° çĻ¾å¹´
Ġçģ« æĶ»
Ġä¸¾ è¶³è½»éĩį
å½¢ åĬ¿
åĪĹ å¤«
Ġåħ« åŃĹ
Ġåįİ å®¹
ĠæŃ» åĪĳ
Ġå¼ķ æĵİ
Ġå¤ı å®¶
Ġæķ´ é¡¿
ĠæľĢé«ĺ äººæ°ĳ
Ġèĵ ¦çĦ¶
Ġéĵ¶ åŃĲ
Ġåħĭ åĬ³
Ġè¯į æĿ¡
Ġå¾® è§Ĥ
Ġå¾® å¾®
Ġ22 00
çīĽ å¥¶
åĤ į
ĠåĮĸåŃ¦ èĥ½
Ġæ®ĭ çķĻ
ĠÐ º
Ġç«¹ ç®Ģ
ĠéĢĥ å¾Ģ
Ġä¼¯ ä¹Ĳ
Ġå¿½ å¦Ĥä¸Ģ
ĠèĤº çĤİ
Ġè½° è½°
Ġæ¸Ķ åľº
ĠåĽŀå¿Ĩ å½ķ
ĠèĤ¥ çļĤ
ĠèĪŀåı° åī§
ä¹Ķ æģ©
Ġåĵį äº®
ĠåıĶ çĪ¶
Ġå¤ªå¹³å¤©åĽ½ è¿ĲåĬ¨
Ġèį¯çī© åŃ¦
Ġæ³ķæĭī ç¬¬
ĠçĸĹ æ³ķ
ĠæĿİå®Ĺ ä»ģ
Ġå¼łä¼¯ ä¼¦
Ġèıı æ³½
Ĥ éĢħ
Ġæľ ½
Ġä¸Ģ äº¿
æĹ İ
Ġäºº ä¸Ń
ĠæĹ¶ æīį
ĠåĽ½ åĨĽ
æī ī
ä»¥ ä¸Ĭ
Ġå°ı çĭĹ
Ġå°ı ä¹Ķ
Ġæ± ¾
ĠéĤ Ľ
Ġæł ¾
Ġæł Ģ
Ġé«ĺ é¾Ħ
Ġä¸ľ éĤ»
æĸĩ å§¬
ĠçĶµ è½¦
Ġä¼ļ å¸Ī
Ġä¼ļ è§ģ
Ġ... ....
ĠæĿİ å®ī
ĠæĽ´ å¼º
Ġå¼ł éĽ¨
Ġå¼ł ä¿¡åĵ²
èĬĤ æ°Ķ
ĠåŁº å±Ĥ
Ġ12 71
ĠåºĶ å¯¹
ĠæĶ¹ åħĥ
ĠåħĪ ç¥ĸ
Ġæ²³ çķĶ
ĠèĬ± è¾¹
åŀĭ åħ³
Ġäº¤ èŀį
è£ ¸
å© ª
Ġæį Ĩ
Ġå°ĳ äºİ
ĠéĻĪ èĭ¥
Ġé£ŀ æī¬
Ġçķ ²
Ġå¼º è¡Į
Ġè¿ŀ èĥľ
ĠèµĦ æ·±
Ġæ¸¸ ç¦»
er e
Ġèĭ±åĽ½ æĶ¿åºľ
Ġè§Ħ çŁ©
Ġéļı å¤Ħ
Ġå¢ŀ è¿Ľ
è°ĥ æŁ¥
Ġäººç±» æĸĩæĺİ
Ġ21 1
Ġåįļ å¾Ĺ
ĠæĬĹ ä½ĵ
ĠåĶ¯ å¿ĥ
Ġéķ¿æ±Ł ä¸Ĭæ¸¸
Ġk im
æ³ī åİ¿
ĠæŁĲ ä¸Ģ
æĦ ļ
Ġè´Ŀ èĤ¯é²įå°Ķ
Ġåŀ Ĵ
ä¿® æĸ¯
çĽĸ éª¨
ĠæİĮ æĿĥ
Ġåīĳ åįĹ
ĠãĤ Ĭ
ĠÐ »
Ġè¾ĵ ç»Ļ
ĠåĪĩ æĸŃ
ĠçıŃ éķ¿
Ġæ¼Ĥ æ³Ĭ
Ġæ±ĩ èģļ
Ġçº· äºī
ĠéĴ¢çĲ´ å®¶
Ġå±±æ°´ è¯Ĺ
Ġè°ĭ åıį
Ġæ£ī çººç»ĩ
198 5
Ġè´ª å©ª
Ġå±ı éļľ
Ġè®¢ ç«ĭ
Ġçºł çº·
Ġåİ¦éĹ¨ å¸Ĥ
Ġå¤§åĬĽ åıĳå±ķ
Ġæ»ĭ æ¶¦
åĻ ª
æ²§ æµ·
ĠéĨĭ éħ¸
ĠåĬ¨èĦī è¡Ģ
Ġè£¸ åŃĲæ¤įçī©
çĢĳ å¸ĥ
Ġè¯ķç®¡ å©´åĦ¿
Ġæłª æ´²
Ġæ¦Ĩ æŀĹ
Ġæ²īé±¼ èĲ½éĽģ
ĠæŃ§ è§Ĩ
Ġäººåı£æķ° éĩı
Ġåº¦éĩı è¡¡
public of
Ġéº¦èĬ½ ç³ĸ
ĠçĲĨæŁ¥ å¾·
f e
â ĸ
ĸ æĹİ
Ġä¸Ģ åĪĢ
Ġä¹ İ
Ġä½ £
Ġç» ¢
Ġä¹ĭ çī©
åŃĲ æľŁ
Ġåľ° å¹³
Ġä¸ĸ äºĭ
Ġå°ı åħµ
è¡Į èĢħ
Ġä¸ĸçķĮ è§Ĥ
åĮĸ åİ¿
Ġé«ĺ éĵģ
Ġé«ĺ ä¸¾
Ġç¬¬ä¸Ģ æľŁ
æľ¬ ä¹¦
ç¥ º
Ġå¾Ī å¹¿
Ġå¦Ĥ æ¢¦
ĠéĤ£ åľº
èĤ ĩ
ĠåĽĽ å¼º
Ġè¯Ĺ è¯Ŀ
Ġèĭ± çļĩ
Ġèį ¥
ĠéĩĮ æł¹
Ġåĳ¨ è¿ħ
éļ ħ
åİŁ åĶ±
ĠçľŁ ç»ı
Ġå¿ĥ å£°
Ġçº¢ éģį
Ġ12 6
Ġå·´ èľĢ
ĠèģĶ ç»ĵ
å·¥ èīº
Ġç¬¬äºĮ è½®
Ġé£ŀ èĬ±
Ġæ¹ĸ åĮº
åĸ Ĩ
ĠçĶµå½± éĻ¢
Ġè¿ĳ åĩłå¹´
Ġ13 7
å®Ŀ éĴĹ
ĠæĻ¯ é¢ĩ
ĠåĲ¬ åĲ¬
ĠæĬķ æİ·
Ġè¯Ń ç³»
æł¹ æľ¬ä¸Ĭ
Ġè¯» è¿ĩ
en c
Ġä½ķ çī©
ĠèĮĥ è¿Ľ
Ġæ¢¦ ä¹ĭ
Ġä¸´ æ½¼
Ġå§ĭ çļĩå¸Ŀ
Ġæ¤įçī© çķĮ
Ġåº· æ¡¥
Ġè¾½ æ²³
Ġç¤¼ èĬĤ
Ġæŀľ æłĳ
Ġç´§ æİ¥çĿĢ
ĠçŁ¥è¯Ĩ äº§æĿĥ
Ġç«ŀ èµ°
Ġèį·åħ° éĺŁ
ĠÐ ²
ĠèŃ¦ å®ĺ
ĠèŃ¦ åį«
è¾ĵ åĩº
æĥł å¸Ŀ
ĠèĪĴ åºĨæĺ¥
Ġå¥ī å¤©
ĠçĬ¹ è±«
Ġè®® åĳĺ
Ġç¯®çĲĥ éĺŁ
Ġè°· æ°¨éħ¸
ĠåĹ £
Ġèį£èªī ç§°åı·
Ġ184 7
ĠæĮĩå¯¼ æĢĿæĥ³
Ġéŀ ĳ
Ġä¸´æĹ¶ æĶ¿åºľ
Ġæµ© æµ©
Ġè¤ ļ
Ġ68 4
Ġæ´² éĻħ
ĠèµĲ ç»Ļ
ĠåĲĬ çİ¯
ĠçıĬçĳļ ç¤ģ
Ġä¹ĿæľĪ ä¹Ŀ
ĠæĪĲåĲį ä½ľ
Ġå©ī è½¬
ĠÇ İ
ĠåĪł éĻ¤
Ġä¸ľå²³ æ³°å±±
Ġå¡ĶéĩĮæľ¨ æ²³
åħĭæĭī çİĽ
ĠéĩİæĪĺ åĨĽ
éģĲ è¿©
Ġæ±Ľ æľŁ
8 1
c d
i or
ä¹ Ĵä¹ĵçĲĥ
Ġæī °
Ġå¤§ æ»¡è´¯
Ġä¸Ĭ ä»¥
è¡ ¢
Ġå· ¾
Ġä¹ĭ æ°Ķ
ĠæĪĲ èĻ«
Ġå°ı çĩķåŃĲ
Ġå¯¹ çĻ½
éĥ¨ çº§
Ġä¸ī é¡¹
ĠéĤ ĤéĢħ
Ġåħ¬ ç§¯
Ġè¥¿ å¾ģ
å¤© çļĩ
Ġæµ Ĭ
ĠçĽ¸ ä¾Ŀ
å¿ĥ æĪ¿
ĠåĶ ī
Ġæµ· æĬ¥
Ġåı¤ å¢ĵ
Ġå»º æĿĲ
Ġéĩĳ éĴŁ
Ġç½ ©
ĠäºĮ åĵģ
Ġè¡¨ å±Ĥ
Ġæ³ķ åºŃ
åĬł æĭ¿å¤§
ĠèĢģ å°Ĩ
Ġé£İ åº¦
ĠçĻ½ äºº
ĠçĻ½ é³įè±ļ
Ġåĳ¨ ä»£
Ġåħ³ éĹ¨
ĠæĮĩ å¼ķ
Ġåıį è¡¬
Ġå¿ĥ æĢĿ
Ġæīĵ åĢĴ
Ġåıĺ éĢŁ
ĠèĬ± é¼ĵ
Ġå½± å¸Ŀ
ĠåĲĳ æĿ¥
ĠéĽĨ éĤ®
Ġç¬¬äºĮ å¼ł
Ġé£ŀ æµģçĽ´ä¸ĭä¸īåįĥå°º
Ġç¾ ģ
Ġé¦Ļ çĤī
Ġç¨ ½
Ġä¹Ŀ ç«ł
Ġè¡Ģ ç³ĸ
Ġæ»¡ æ±ī
åįķ éªĳ
ĠåŃĲ åįĪçº¿
åį¡ æĭī
Ġè¯į ä¸Ń
è¡Ģ çĹħ
ĠæĬĹ è¡¡
Ġæł¼ èĲ¨å°Ķ
Ġæ´Ľ æ¡ĳ
æķĪ æŀľ
Ġç§ĭ æľĪ
æ¯Ľ æ³½ä¸ľ
Ġé¡º å¾·
ĠåĨ² éĶĭ
Ġå¢ĥ å¤ĸ
Ġéĩİ å¤ĸ
ĠåĳĬ çĻ½
Ġçĳŀ éĩĳ
Ġæŀľ æĸŃ
ĠéĴ¢ çŃĭ
ĠéĴŁ æ¬£
Ġæĳ© çĻ»
åĴ ª
ĠéĹ» ä¸Ģå¤ļ
Ġè¿· ä½ł
Ġåħ» åĪĨ
Ġå¡ŀ çº³æ²³
ĠåºĦ ç¨¼
Ġéģ¿ å¼Ģ
Ġæµ® åĬ¨
ĠçķĮ çº¿
ĠæĤ¬ çĸĳ
å¿ł è´¤
Ġ188 3
ĠéĹª äº®
Ġç»ķ è¿ĩ
Ġèĥļ çıł
Ġç¼ĵ åĴĮ
Ġæ£ĭ æīĭ
ĠåĲīæŀĹ å¸Ĥ
Ġæµĳ çĦ¶
Ġç½¢ å·¥
Ġæ¦ľ æł·
Ġç¥ŀèĪŁ äºĶåı·
Ġå¾½ å·ŀ
Ġå±¡ æ¬¡
Ġçĥ¤ é¸Ń
Ġç¢İ çīĩ
Ġè¿ĲèĲ¥ åķĨ
Ġèµļ éĴ±
Ġæ´Ĺè¡£ ç²ī
ĠåºŃ éĻ¢
Ġè¯Ī éªĹ
ĠçĨĦ çģŃ
ĠåĴĢ åļ¼
Ġæ´Ľç¥ŀ èµĭ
ĠåĪĨæ°´ å²Ń
Ġåįķè¡Į æľ¬
c r
Ġä¸į åİ»
Ġä¸į å½ĵ
Ġæī ³
Ġéĩ ī
Ġä¹ĭ é«ĺ
åŃĲ èĬ±
ĠèĢĮ å®ļ
Ġä¸» å°Ĩ
ĠçŃī åĲĮ
ĠçĶŁ æĢ§
Ġä¸ī æĿĥ
Ġä¸ī å®Ŀ
Ġé«ĺ æ¶¨
ä½ĵ è¯Ĺ
Ġæŀ ī
ĠçĽ¸ çīĩ
ĠåİŁ å°¿
ĠåĽĽ æĹ¶
ĠåĨħ çº¿
ĠæŃ£ æ°Ķ
Ġèĭ± ç¾İ
Ġçī¹ çº§
ĠæĪĺ äºĭ
ĠåĿ ¤
Ġéĺ¿ ä¿¡
Ġéĺ¿ å§¨
Ġå¥¥ ç»Ħ
Ġç¥ŀ ç«¥
Ġéħ ļ
ĠåĨĽ æł¡
Ġåıĳå±ķ è§Ĥ
ĠèĬ± éĥ½
Ġå¾· æĭī
Ġa bc
Ġçĭ¬ åįł
çĸ ²
Ġm r
Ġåįİ è¥¿
Ġä¸ĥ å²ģ
ĠåħŃ çĻ¾
äºĶ å¸Ŀ
æ¡Ī ä»¶
Ġèīºæľ¯ æĢ§
æł¡ éķ¿
Ġå¢ŀ åĢ¼
ĠéĻ¤ ä»¥
æľ¨ ä¸īåĪĨ
åħ´ äº¡
ĠèĻ ¢
Ġäº² çľ¼
Ġèįī éħ¸
åį¡ ç½Ĺ
Ġåį°åº¦ æķĻ
ĠåĬĽ æ±Ĥ
Ġå¸Ī åĽ¢
Ġéĥĳ å·ŀå¸Ĥ
ĠéĢĤ ä¸Ń
Ġçİī éºĴéºŁ
Ġäº¬ åı£
Ġå§Ķ å±Ī
ĠçĶ° éĩİ
Ġé¢ľ æĸĻ
ĠåĿĲ è½¦
çĪ¶ æ¯į
Ġè¾½ åĽ½
éĿ©åĳ½ æĪĺäºī
åĲī åĪ©
ĠåĮĸåŃ¦ çī©è´¨
Ġéĵľ éĽĢ
ĠéĻķ çĶĺ
ĠèĪ¹ èĪ¶
Ġä¹Ķ å³°
Ġåĩ¤ å§Ĳ
Ġå¹½ éĿĻ
ĠåĮºåŁŁ æĢ§
Ġç¥Ŀ è´º
Ġçħ¤ çŁ¿
Ġæ¦ ¨
Ġä¿Ĺ åĲį
Ġ188 8
Ġä¸ĳ éĻĭ
ä¹Ķ å¤«
éķ ģ
ĠèĦĤèĤª éħ¸
Ġå®³ æŃ»
Ġéģĵå¾· ç»ı
ĠèŁ Ĵ
æ¡Ĥ èĭ±
Ġæī¶ æĮģ
éĤĳ åİ¿
Ġèĥ° èħº
ĠåĨ» ç»ĵ
Ġå¤Ħå¥³ åº§
çĮ© çĮ©
Ġçİĭä¼ł åĲĽ
Ġçİīçļĩ å¤§å¸Ŀ
Ġ--------------------------------- --------------------------------
ĠçŀĦ åĩĨ
Ġè¯ķçĶ¨ æľŁ
ĠåĢ© å¥³
Ġå§¥ å§¥
Ġå¥¥ç»Ħ å§Ķ
d m
g b
ĠåĲ ¼
Ġä¹ Ĵ
Ġå¤§ åĮº
æĪ į
å®¶ åįıä¼ļ
æŀ ķ
Ġåĩº åı°
çľ ¶
Ġåħ¨ è¿ĩç¨ĭ
Ġæĸ° éĽ¨
Ġæĸ° ä½Ļ
Ġå¾Ī æ·±
è¥¿ å®ī
Ġ5 60
åĪ© åĿļ
æ¹ ĥ
è¡¨ çİ°
Ġå¼ł æĭ©ç«¯
Ġé£İ æīĩ
èį Ł
ĠæĦı çĶ²
Ġç¥ŀ åĮ»
ĠæŃ¦ åľ£
Ġä¿Ŀ é¾ĦçĲĥ
Ġåħĥ å®Ŀ
ĠåĬ¨ è¯į
ĠçĶ· åįķ
ĠæķĻ å¾Ĵ
ĠèģĶ è¢Ĥ
ĠçŁ³ éĽķ
çŁ³ çģ°
Ġé£ŀ éĽª
åĲĳ åįĹ
Ġæł¹ çĺ¤
Ġäººæ°ĳ è§£æĶ¾åĨĽ
Ġä¹Ŀ å¤©
Ġèµµ åĨĽ
äºĳ éķ¿
ä¼Ĺ åĽ½
ĠæĻ¯ å¸Ŀ
ĠçĶŁäº§ åĽ½
Ġä¼Ĭ ä¸½èİİçĻ½
Ġå¤į åı¤
Ġè¯» å®Į
Ġä½Ľ åĽ½
Ġæ³¢ åĬ¨
Ġè°ĥ åĴĮ
åĲĽ åŃĲ
ĠæĻļ æ¸ħ
at er
Ġæ¤įçī© åĽŃ
Ġè®º çĤ¹
Ġå°¼ å§ĳ
Ġçĭ¬ç«ĭ å®£è¨Ģ
ĠæĿĤ çĹħ
åĲī è¯ĥå¾·
çĬ Ģ
Ġçº¯ å±ŀ
am p
Ġç²ī çº¢èī²
ĠæİĮ å£°
Ġç½ĳç»ľ å°ıè¯´
Ġåĩ» é¼ĵ
ĠæĪ´ ç»´æĸ¯
ĠèĻļ æĹł
Ġæ¡ĥ æºĲ
ĠåĢ¾ åŁİ
Ġæĩ ¦
ĠæĿ°åĩº è´¡çĮ®
ĠæĿŃå·ŀ æ¹¾
Ġåī§æĥħ ç®Ģä»ĭ
ĠèįĴ åĩī
å¥Ī åĦ¿
Ġä»ģ ä¹ī
é¦ į
Ġäº§ä¸ļ åĮĸ
Ġçķ¥ æľī
Ġæķı æį·
Ġå¤§åĬĽ ç¥ŀ
Ġå¤§èĦĳ çļ®
ĠåĤ² æ°Ķ
Ġä¾ł å®¢
Ġåĩºåħ¥ å¢ĥ
Ġç¬¬åįģäºĮ å±Ĭ
................ ................
è¡¨æ¼Ķ ç³»
ĠåĮ¾ é¢Ŀ
ĠçĮ«ç§ĳ åĬ¨çī©
ĠæĪıåī§åŃ¦éĻ¢ è¡¨æ¼Ķç³»
åĲ µ
ä¹ ĸ
Ġå¤§ çīĮ
å± ģ
Ġå· ³
Ġä¹ĭ æ°´
Ġåľ° çĥŃ
Ġåıĳ ç»Ļ
Ġå°ı ä»²é©¬
Ġèĩª å¯¼
æĹ¶ éĴĪ
Ġæŀ Ń
Ġéĩĳ é»Ħèī²
ĠæĿİ çİī
Ġè¯Ĺ ä½Ľ
Ġå¤ª å°ı
Ġé¦ĸ æĺł
Ġçī¹ æĮĩ
åĮĹ è°ĥ
æģ ª
æģ ķ
ĠåĬł åĨķ
ĠäºĶ ç»ı
ĠäºĶ èĬ±
Ġé©¬ èĲ¨
ĠåĪĺ å¿ĥ
Ġéħ Ŀ
Ġçº¢ æ²³
Ġæ±ī çİĭ
Ġåĩł ç»ı
Ġç±³ èĢģé¼ł
Ġæ» ŀ
èĳ «èĬ¦
ĠçŁ³ åĮĸ
Ġé£ŀ çĢĳ
æ¥ ·
Ġæ¹ĸ åħī
Ġæ¹ĸ çķĶ
Ġå¼º åĬĽ
ĠæĸĩåĮĸ åºķ
Ġåįĥ ä¸İåįĥå¯»
Ġåħī èī¯
åĪĹ å®ģ
Ġéĥ ¢
ĠçĥŃ è¡·
Ġè¾¾ èµĸ
Ġç»ıæµİ åľĪ
ĠæĺŁ äºĳ
Ġçª Ł
Ġä¹Ŀ ä¸Ģ
Ġåī§ åĽ¢
Ġè§Ĵ éĢĲ
Ġè°ĥ æĸĻ
çĥĪ çĥĪ
Ġå¹³æĸ¹ åİĺç±³
Ġçİī æ³ī
at a
Ġéĩİ çģ«çĥ§ä¸įå°½
Ġåı³ å¿ĥæĪ¿
è¯º å¤«
Ġç»ıåħ¸ ä¹ĭä½ľ
ĠèĽĭ é»Ħ
Ġå·¨å¤§ è´¡çĮ®
ĠéĤĵ å®¶ä½³
ĠçĶµåŃĲ ç®¡
Ġä¹ĺ æľº
Ġå¢¨ å®¶
Ġä¸Ńæĸĩ ç½ĳ
Ġèĳ£ ä»²èĪĴ
Ġå´ĩ æķ¬
ĠéĻ¢ èĲ½
Ġå®ľ åħ´
ĠçĿ¡ èİ²
Ġçĵ¦ æĸ¯
Ġå¢ĵ èĳ¬
Ġæĺİç¡® æıĲåĩº
Ġéľ¸ æ°Ķ
Ġå±ħæ°ĳ èº«ä»½è¯ģ
Ġæ¨± æľ¨
Ġå·« å³¡
Ġå®¿ åĳ½
Ġé«ĺæ¸© å¤ļéĽ¨
Ġå¨ĺ å®¶
æī§ è¡Į
Ġæ³¼ è¾£
Ġè·Į å®ķ
ĠåĪ¹ éĤ£
ĠåĨ²ç§¯ å¹³åİŁ
ĠåĲĽä¸»ç«ĭå®ª åĪ¶
ĠäºĮéĥİ ç¥ŀ
Ġæ»ģ å·ŀ
Ġä»Ĩ äºº
Ġç¥ģè¿ŀ å±±
Ġä¸Ģçŀ ¬éĹ´
Ġåħ¬ç§¯ éĩĳ
ĠæĸĩåĮĸåºķ èķ´
Ġäº ¥
Ġä¸Ģ ä¸²
Ġä¸Ń çº§
Ġå¹´ åĨħ
Ġå¤§ ä»²é©¬
Ġä¹ĭ èĬ±
åŃĲ èĥ¥
Ġåľ° ä¸º
ĠæĹ¶ çĶ¨
åĳ Ĳ
Ġå°ı é¢ĺ
Ġèĩª å°ı
Ġä¸» çº¿
Ġå¯¹ æµģ
Ġ- ----------------
Ġåħ¶ æīĢ
Ġåī ¿
Ġå¤© åºŃ
Ġé«ĺ äºº
Ġæĭ ¬
Ġæĸ° å¥ĩ
Ġéķ¿ æĪĲ
ĠéĤ£ äºº
Ġé¢ ĵ
ĠæĹł åŃĹ
ĠæĹł è¨Ģ
äºĭ åĬ¡
è° ķ
ĠåĽĽ äºĶ
ĠåĽĽ åįĥ
ĠåĨħ æµ·
Ġçİĭ æĿĥ
Ġçİĭ å¤«äºº
Ġä¼ł è¨Ģ
ĠåĬł å°Ķ
ĠæĽ´ æĽ¿
Ġå§ »
Ġé£İ å£°
éĶ Į
ĠæĮĩ æĺİ
Ġåı« å£°
Ġæ¶ ª
Ġåį³ æĹ¶
Ġçº¢ çģ¯
ĠæŃ¦ å¨ģ
å»º èģĶ
Ġç±³ é¥Ń
ĠåĲĪ ä¸º
ĠèĬ± æ¤Ĵ
éĩĳ çīĮ
ĠçĽ´ è¾ĸ
çĪ± æĥħ
Ġè¿ŀ è¿ŀ
ĠåŃĹ åħĥ
åĪĹ è½¦
éģ µ
ĠæŃ» èĢĮ
Ġåıĸ æĻ¯
Ġèµ° åįķéªĳ
Ġçľģ æĶ¿åºľ
Ġç¼ĸ çłģ
æĹł è·¯
Ġç¦» æĦģ
ĠåįĬ å¤ľ
ĠæĶ¯ åĩº
ä½³ èĬĤ
Ġåħ¥ éĹ¨
Ġç»Ī æŃ¢
Ġè¡¨çİ° å½¢å¼ı
ar b
Ġéĵ¶ èī²
Ġé½Ĳ çİĭ
Ġç»¿ åı¶
Ġr om
Ġæł¼ æĸĹ
Ġè´µ äºº
ĠéĻį çĶŁ
Ġæī¿ è½½
[...]
