{
  "version": "1.0",
  "truncation": null,
  "padding": null,
  "added_tokens": [
    {
      "id": 0,
      "special": true,
      "content": "<|endoftext|>",
      "single_word": false,
      "lstrip": false,
      "rstrip": false,
      "normalized": false
    },
    {
      "id": 1,
      "special": true,
      "content": "[PAD]",
      "single_word": false,
      "lstrip": false,
      "rstrip": false,
      "normalized": false
    }
  ],
  "normalizer": null,
  "pre_tokenizer": {
    "type": "ByteLevel",
    "add_prefix_space": false,
    "trim_offsets": true
  },
  "post_processor": {
    "type": "ByteLevel",
    "add_prefix_space": true,
    "trim_offsets": false
  },
  "decoder": {
    "type": "ByteLevel",
    "add_prefix_space": true,
    "trim_offsets": true
  },
  "model": {
    "type": "BPE",
    "dropout": null,
    "unk_token": null,
    "continuing_subword_prefix": null,
    "end_of_word_suffix": null,
    "fuse_unk": false,
    "vocab": {
      "<|endoftext|>": 0,
      "[PAD]": 1,
      "!": 2,
      "\"": 3,
      "#": 4,
      "$": 5,
      "%": 6,
      "&": 7,
      "'": 8,
      "(": 9,
      ")": 10,
      "*": 11,
      "+": 12,
      ",": 13,
      "-": 14,
      ".": 15,
      "/": 16,
      "0": 17,
      "1": 18,
      "2": 19,
      "3": 20,
      "4": 21,
      "5": 22,
      "6": 23,
      "7": 24,
      "8": 25,
      "9": 26,
      ":": 27,
      ";": 28,
      "<": 29,
      "=": 30,
      ">": 31,
      "?": 32,
      "@": 33,
      "[": 34,
      "\\": 35,
      "]": 36,
      "^": 37,
      "_": 38,
      "`": 39,
      "a": 40,
      "b": 41,
      "c": 42,
      "d": 43,
      "e": 44,
      "f": 45,
      "g": 46,
      "h": 47,
      "i": 48,
      "j": 49,
      "k": 50,
      "l": 51,
      "m": 52,
      "n": 53,
      "o": 54,
      "p": 55,
      "q": 56,
      "r": 57,
      "s": 58,
      "t": 59,
      "u": 60,
      "v": 61,
      "w": 62,
      "x": 63,
      "y": 64,
      "z": 65,
      "{": 66,
      "|": 67,
      "}": 68,
      "~": 69,
      "¡": 70,
      "¢": 71,
      "£": 72,
      "¤": 73,
      "¥": 74,
      "¦": 75,
      "§": 76,
      "¨": 77,
      "©": 78,
      "ª": 79,
      "«": 80,
      "¬": 81,
      "®": 82,
      "¯": 83,
      "°": 84,
      "±": 85,
      "²": 86,
      "³": 87,
      "´": 88,
      "µ": 89,
      "¶": 90,
      "·": 91,
      "¸": 92,
      "¹": 93,
      "º": 94,
      "»": 95,
      "¼": 96,
      "½": 97,
      "¾": 98,
      "¿": 99,
      "Â": 100,
      "Ã": 101,
      "Ä": 102,
      "Å": 103,
      "Æ": 104,
      "Ç": 105,
      "É": 106,
      "Ê": 107,
      "Ë": 108,
      "Ì": 109,
      "Î": 110,
      "Ï": 111,
      "Ð": 112,
      "Ñ": 113,
      "Ò": 114,
      "Ó": 115,
      "Õ": 116,
      "Ö": 117,
      "×": 118,
      "Ø": 119,
      "Ù": 120,
      "Ú": 121,
      "Û": 122,
      "Ü": 123,
      "à": 124,
      "á": 125,
      "â": 126,
      "ã": 127,
      "ä": 128,
      "å": 129,
      "æ": 130,
      "ç": 131,
      "è": 132,
      "é": 133,
      "ê": 134,
      "ë": 135,
      "ì": 136,
      "í": 137,
      "ï": 138,
      "Ċ": 139,
      "Ġ": 140,
      "Ģ": 141,
      "ģ": 142,
      "Ĥ": 143,
      "ĥ": 144,
      "Ħ": 145,
      "ħ": 146,
      "Ĩ": 147,
      "ĩ": 148,
      "Ī": 149,
      "ī": 150,
      "Ĭ": 151,
      "ĭ": 152,
      "Į": 153,
      "į": 154,
      "İ": 155,
      "ı": 156,
      "Ĳ": 157,
      "ĳ": 158,
      "Ĵ": 159,
      "ĵ": 160,
      "Ķ": 161,
      "ķ": 162,
      "ĸ": 163,
      "Ĺ": 164,
      "ĺ": 165,
      "Ļ": 166,
      "ļ": 167,
      "Ľ": 168,
      "ľ": 169,
      "Ŀ": 170,
      "ŀ": 171,
      "Ł": 172,
      "ł": 173,
      "Ń": 174,
      "Ġå": 175,
      "Ġæ": 176,
      "Ġç": 177,
      "Ġä": 178,
      "Ġï": 179,
      "Ġï¼": 180,
      "Ġè": 181,
      "Ġä¸": 182,
      "ãĢ": 183,
      "ĠãĢ": 184,
      "Ġï¼Į": 185,
      "Ġçļ": 186,
      "ĠçļĦ": 187,
      "Ġé": 188,
      "ä¸": 189,
      "Ġäº": 190,
      "ĠãĢĤ": 191,
      "äº": 192,
      "ĺ¯": 193,
      "Ġâ": 194,
      "ĠãĢģ": 195,
      "Ġåı": 196,
      "ĠâĢ": 197,
      "Ġæľ": 198,
      "Ġ,": 199,
      "Ġæĺ¯": 200,
      "Ġå¤": 201,
      "Ġåľ": 202,
      "Ġåħ": 203,
      "å¤": 204,
      "Ġä»": 205,
      "æľ": 206,
      "Ľ½": 207,
      "Ġè¿": 208,
      "ä»": 209,
      "Ġä¸Ģ": 210,
      "åħ": 211,
      "å®": 212,
      "Ġå¹": 213,
      "ĠåĲ": 214,
      "åı": 215,
      "Ġä¹": 216,
      "Ġä½": 217,
      "Ġ1": 218,
      "åĽ½": 219,
      "åĪ": 220,
      "Ġå°": 221,
      "Ġï¼ļ": 222,
      "åĲ": 223,
      "ĠæĪ": 224,
      "Ġä¸Ń": 225,
      "Ġåľ¨": 226,
      "ĠæĹ": 227,
      "åŃ": 228,
      "ĠåĪ": 229,
      "ĠçĶ": 230,
      "ĠäºĨ": 231,
      "Ġåį": 232,
      "Ġå®": 233,
      "Ġ.": 234,
      "ä½": 235,
      "ä¹": 236,
      "æĸ": 237,
      "ĠãĢĭ": 238,
      "å¸": 239,
      "ĴĮ": 240,
      "åĬ": 241,
      "Ġå¹´": 242,
      "ĠãĢĬ": 243,
      "çĶ": 244,
      "Ġä¸į": 245,
      "ĠâĢľ": 246,
      "Ġ>": 247,
      "ĠâĢĿ": 248,
      "Ġe": 249,
      "Ġ<": 250,
      "Ġç»": 251,
      "ĠåĴĮ": 252,
      "è¯": 253,
      "åį": 254,
      "Ġè¯": 255,
      "æĹ": 256,
      "æĿ": 257,
      "ç»": 258,
      "åľ": 259,
      "ĥ½": 260,
      "å°": 261,
      "è¿": 262,
      "Ġæľī": 263,
      "ä¼": 264,
      "äºº": 265,
      "Ġæī": 266,
      "ĠåĨ": 267,
      "åº": 268,
      "Ġäºº": 269,
      "Ġå¤§": 270,
      "ç§": 271,
      "Ġæĸ": 272,
      "Ġ2": 273,
      "åĮ": 274,
      "çī": 275,
      "ä¸ª": 276,
      "Ġå¥": 277,
      "ĠæĿ": 278,
      "Ġï¼ī": 279,
      "æĺ¯": 280,
      "å¹": 281,
      "Ġï¼Ī": 282,
      "å±": 283,
      "éĩ": 284,
      "Ġè¿Ļ": 285,
      "ä¸º": 286,
      "µ·": 287,
      "Ġä¸º": 288,
      "æ°": 289,
      "ĠæľĢ": 290,
      "ĩº": 291,
      "æĪ": 292,
      "ĠåĽ": 293,
      "åĨ": 294,
      "ĠèĢ": 295,
      "Ġä¸Ĭ": 296,
      "æĺ": 297,
      "çº": 298,
      "Ġå¼": 299,
      "Ġä¼": 300,
      "å¾": 301,
      "è¡": 302,
      "æľī": 303,
      "Ġéĩ": 304,
      "å·": 305,
      "Ġåİ": 306,
      "ä¸Ģ": 307,
      "Ġç¬": 308,
      "å¤§": 309,
      "ĠæŃ": 310,
      "Ġå¾": 311,
      "Ġå·": 312,
      "Ġè®": 313,
      "Ġä¹ĭ": 314,
      "Ġå¯": 315,
      "åŃĲ": 316,
      "å®¶": 317,
      "äºİ": 318,
      "Ġå½": 319,
      "èĢ": 320,
      "è§": 321,
      "å¼": 322,
      "Ġæ°": 323,
      "Ġä»ĸ": 324,
      "æŃ": 325,
      "ĠæĪĳ": 326,
      "Ġçİ": 327,
      "¦ģ": 328,
      "çİ": 329,
      "æ´": 330,
      "Ġæ²": 331,
      "Ġç§": 332,
      "Ġç¬¬": 333,
      "00": 334,
      "¥¿": 335,
      "ĠåĮ": 336,
      "è®": 337,
      "ĠåŃ": 338,
      "Ġå°±": 339,
      "æł": 340,
      "Ġèĩ": 341,
      "Ġåľ°": 342,
      "æŀ": 343,
      "ĠçĽ": 344,
      "çķ": 345,
      "éĹ": 346,
      "Ġä¹Ł": 347,
      "çĲ": 348,
      "å¿": 349,
      "åİ": 350,
      "Ġä»¥": 351,
      "Ġæķ": 352,
      "ĠæĹ¶": 353,
      "ĠéĢ": 354,
      "æ³": 355,
      "åĳ": 356,
      "éĿ": 357,
      "éĻ": 358,
      "å¥": 359,
      "ĠåĽ½": 360,
      "åĽ": 361,
      "çŃ": 362,
      "Ġä¸ŃåĽ½": 363,
      "Ġæ¯": 364,
      "å¹´": 365,
      "ĥ¨": 366,
      "éĺ": 367,
      "æ²": 368,
      "ķ¿": 369,
      "Ġå¸": 370,
      "Ġ19": 371,
      "ĠåĬ": 372,
      "«ĺ": 373,
      "Ġåıĳ": 374,
      "Ġå±": 375,
      "ĠæĬ": 376,
      "æĢ": 377,
      "Ġï¼Ľ": 378,
      "ĠçŃ": 379,
      "çĶŁ": 380,
      "ĠæĹ¥": 381,
      "éĢ": 382,
      "åŃ¦": 383,
      "ä¼ļ": 384,
      "ĠæĶ": 385,
      "å½": 386,
      "è¾": 387,
      "çķĮ": 388,
      "è´": 389,
      "æī": 390,
      "ĠæľĪ": 391,
      "æķ": 392,
      "Ġä¸ĸ": 393,
      "Ġåı¯": 394,
      "çĽ": 395,
      "åĲį": 396,
      "æ±": 397,
      "Ġè¡": 398,
      "ĠèĢĮ": 399,
      "ä»£": 400,
      "Ġæĺ": 401,
      "ĠæĢ": 402,
      "ĠæĪĲ": 403,
      "Ġçº": 404,
      "åī": 405,
      "ĠéĿ": 406,
      "ä»¥": 407,
      "Ġä¸İ": 408,
      "Ġçľ": 409,
      "æĿ¥": 410,
      "Ġå°ı": 411,
      "Ġçī": 412,
      "Ġèĩª": 413,
      "ĠâĢĶ": 414,
      "¾İ": 415,
      "Ġåĩº": 416,
      "ä¸Ń": 417,
      "å¯": 418,
      "ĠæĽ": 419,
      "æĥ": 420,
      "Ġä½ľ": 421,
      "ç«": 422,
      "å¸Ĥ": 423,
      "ĠåĲİ": 424,
      "Ġä¸»": 425,
      "¼Ķ": 426,
      "è¡Į": 427,
      "Ġå¯¹": 428,
      "åĵ": 429,
      "¦Ĥ": 430,
      "Ġéĥ½": 431,
      "æĹ¶": 432,
      "Ġèµ": 433,
      "æ¬": 434,
      "éĥ¨": 435,
      "æĪĲ": 436,
      "èī": 437,
      "Ġè§": 438,
      "Ġ-": 439,
      "Ł³": 440,
      "èĬ": 441,
      "æĭ": 442,
      "Ġ3": 443,
      "ĠéĻ": 444,
      "ĠçŃī": 445,
      "Ġåħ¶": 446,
      "Ġèĭ": 447,
      "è¦ģ": 448,
      "åĬ¨": 449,
      "åĲİ": 450,
      "Ġè¢": 451,
      "åľ°": 452,
      "Ġæ¸": 453,
      "ĠçĶŁ": 454,
      "çī©": 455,
      "Ġæ±": 456,
      "åĪ°": 457,
      "ä½ľ": 458,
      "ĠæīĢ": 459,
      "Ġåĳ": 460,
      "Ġä¸ī": 461,
      "çŃĶ": 462,
      "éĽ": 463,
      "åŁ": 464,
      "çĶ¨": 465,
      "ĠéĤ": 466,
      "æ¸": 467,
      "èĢħ": 468,
      "Ġæ³": 469,
      "Ġ)": 470,
      "Ġåī": 471,
      "ä»¬": 472,
      "ä¸Ĭ": 473,
      "Ġåħ¬": 474,
      "å±±": 475,
      "ĠåŁ": 476,
      "Ġ(": 477,
      "ģĵ": 478,
      "åĩº": 479,
      "Ġè¢«": 480,
      "Ġä¿": 481,
      "å§": 482,
      "åĮº": 483,
      "Ġéĺ": 484,
      "Ġæİ": 485,
      "Ġä¸Ģä¸ª": 486,
      "Ġä¸ĸçķĮ": 487,
      "Ġåº": 488,
      "æµ": 489,
      "Ġè¥¿": 490,
      "çľ": 491,
      "æĸ¹": 492,
      "»º": 493,
      "èµ": 494,
      "Ġå¤ļ": 495,
      "éĿ¢": 496,
      "éĩĮ": 497,
      "ĠçĪ": 498,
      "Ġåĩ": 499,
      "è½": 500,
      "Ġè´": 501,
      "ç§į": 502,
      "åº¦": 503,
      "Ġå¤©": 504,
      "Ġå¿": 505,
      "Ġè¿ĺ": 506,
      "ĠåĪĨ": 507,
      "èĩ": 508,
      "Ġä½ł": 509,
      "Ħ¶": 510,
      "Ġè¾": 511,
      "æĶ": 512,
      "åĮĸ": 513,
      "éĹ´": 514,
      "Ļ½": 515,
      "Ġæł": 516,
      "Ġæĸĩ": 517,
      "Ġé«ĺ": 518,
      "ĠéĽ": 519,
      "Ġé£": 520,
      "å¤ļ": 521,
      "å¤©": 522,
      "ĿĢ": 523,
      "Ħı": 524,
      "Ġæĭ": 525,
      "çĤ": 526,
      "ĠåĪ°": 527,
      "ä½ĵ": 528,
      "Ġæµ": 529,
      "Ġåħ¨": 530,
      "©¬": 531,
      "Ġä¸ľ": 532,
      "ĠåĮĹ": 533,
      "Ġè¯´": 534,
      "Ġå¼Ģ": 535,
      "åĬĽ": 536,
      "æ°ĳ": 537,
      "¦ĸ": 538,
      "é¢": 539,
      "Ġé»": 540,
      "Ġåĵ": 541,
      "æĸĩ": 542,
      "æĸ¯": 543,
      "Ġä¸¤": 544,
      "ĠæĮ": 545,
      "è¿ĩ": 546,
      "å®ļ": 547,
      "Ġç¾İ": 548,
      "å¾Ĺ": 549,
      "å£": 550,
      "Ġæĥ": 551,
      "Ġæĸ°": 552,
      "åľ¨": 553,
      "æĻ": 554,
      "ç±": 555,
      "èĥ½": 556,
      "ĠåįĹ": 557,
      "Ġä½Ĩ": 558,
      "ä½į": 559,
      "Ġ4": 560,
      "Ġç¬¬ä¸Ģ": 561,
      "ä¸ĭ": 562,
      "åĨĽ": 563,
      "å°Ķ": 564,
      "ĠåĽł": 565,
      "ĠçĶ±": 566,
      "Ġä»İ": 567,
      "æĺİ": 568,
      "çĦ¶": 569,
      "ä¸»": 570,
      "éģĵ": 571,
      "æľ¬": 572,
      "ĠçĶµ": 573,
      "Ġå½ĵ": 574,
      "Ġéķ¿": 575,
      "çİ°": 576,
      "ç¥": 577,
      "Ġå¾Ī": 578,
      "å²": 579,
      "åįĹ": 580,
      "æ¬¡": 581,
      "èī²": 582,
      "æ³ķ": 583,
      "è¥¿": 584,
      "çĲĥ": 585,
      "ä¸ļ": 586,
      "Ġå¦Ĥ": 587,
      "Ġ5": 588,
      "æ¼Ķ": 589,
      "ĠéĤ£": 590,
      "Ġå¹¶": 591,
      "Ł¥": 592,
      "Ġç»ı": 593,
      "..": 594,
      "Ġé¢": 595,
      "èĤ": 596,
      "è¯´": 597,
      "æĽ": 598,
      "åĪĨ": 599,
      "Ġæŀ": 600,
      "ĠæĹł": 601,
      "æµ·": 602,
      "Ġä¸ĭ": 603,
      "Ġæ´": 604,
      "ĠçĽ¸": 605,
      "ç½": 606,
      "èĪ": 607,
      "ĠéĹ": 608,
      "--": 609,
      "Ġäºİ": 610,
      "æľŁ": 611,
      "å¿ĥ": 612,
      "ĠæĻ": 613,
      "Ġæ°´": 614,
      "Ġæ²¡": 615,
      "åĪ©": 616,
      "éķ¿": 617,
      "ĠåİŁ": 618,
      "ĠåĲį": 619,
      "ĠåıĪ": 620,
      "åĩ": 621,
      "æĹı": 622,
      "ĠåĶ": 623,
      "åı²": 624,
      "Ġ200": 625,
      "Ġæ¯Ķ": 626,
      "éĩı": 627,
      "ä¸į": 628,
      "Ġè½": 629,
      "æ¯": 630,
      "åĳĺ": 631,
      "äºĭ": 632,
      "Ġè¿Ľ": 633,
      "Ġæµ·": 634,
      "Ġ:": 635,
      "ä¹Ī": 636,
      "Ġçİ°": 637,
      "å·ŀ": 638,
      "Ġæı": 639,
      "ĠÂ": 640,
      "ç§°": 641,
      "Ġç¥": 642,
      "ĠæĿ¥": 643,
      "ä¹ī": 644,
      "è°": 645,
      "çĲĨ": 646,
      "Ġä¸ª": 647,
      "Ġä¾": 648,
      "ĠèĬ": 649,
      "æ´²": 650,
      "Ġéĩį": 651,
      "Ġåı¤": 652,
      "Ġè·": 653,
      "æĬ": 654,
      "Ġåģ": 655,
      "åĿ": 656,
      "Ġå»º": 657,
      "Ġè°": 658,
      "Ġåıª": 659,
      "ĠåĽĽ": 660,
      "Ġå®ĥ": 661,
      "Ġå°Ĩ": 662,
      "º«": 663,
      "æĢ§": 664,
      "æĥħ": 665,
      "ĠçĶ¨": 666,
      "³»": 667,
      "åĢ": 668,
      "ç«ĭ": 669,
      "ä¿": 670,
      "Ġå¥³": 671,
      "åĵģ": 672,
      "åīį": 673,
      "Ġæ·": 674,
      "åĲĪ": 675,
      "Ġä¼ļ": 676,
      "çĤ¹": 677,
      "åħ¥": 678,
      "Ġçģ": 679,
      "è·": 680,
      "Ġ...": 681,
      "Ġå°±æĺ¯": 682,
      "Ġæ¬": 683,
      "ĠåĲĮ": 684,
      "Ġè¦ģ": 685,
      "ĠåĨħ": 686,
      "ĠåİĨ": 687,
      "ç»ı": 688,
      "Ġ6": 689,
      "ĠæŃ£": 690,
      "æ°´": 691,
      "ĠÂ·": 692,
      "Ġè¶": 693,
      "Ġéĩĳ": 694,
      "Ġåı¯ä»¥": 695,
      "Ġèĥ½": 696,
      "ç©": 697,
      "ĠæĿİ": 698,
      "Ġè¯Ĺ": 699,
      "Ġè¿ĩ": 700,
      "Ġå¤ª": 701,
      "Ħ¿": 702,
      "Ġèĭ±": 703,
      "Ġï¼ģ": 704,
      "ä¸ĸ": 705,
      "å¸Ŀ": 706,
      "Ġåįģ": 707,
      "é£": 708,
      "æĮ": 709,
      "ĠåĽ½å®¶": 710,
      "Ġçİĭ": 711,
      "Ġä½¿": 712,
      "ä¾": 713,
      "æ¡": 714,
      "Ġçľĭ": 715,
      "æł·": 716,
      "èĥ": 717,
      "ĠçĲ": 718,
      "æĺŁ": 719,
      "Ġéļ": 720,
      "éĺ³": 721,
      "æ±Ł": 722,
      "åŁİ": 723,
      "æŀľ": 724,
      "Ġåīį": 725,
      "Ġç½": 726,
      "ĠçĪ±": 727,
      "Ġå±±": 728,
      "ģĶ": 729,
      "Ġèĳ": 730,
      "çļ": 731,
      "æľº": 732,
      "Ġç§°": 733,
      "Ġé¦ĸ": 734,
      "çľģ": 735,
      "ĠæĪĸ": 736,
      "Ġå¹³": 737,
      "Ġ\"": 738,
      "æĽ²": 739,
      "é«ĺ": 740,
      "é¡": 741,
      "ĠäºĮ": 742,
      "åħ¬": 743,
      "ç®": 744,
      "Ġï¼İ": 745,
      "Ġè¡¨": 746,
      "Ġå¥½": 747,
      "åľº": 748,
      "Ġç«": 749,
      "èµ·": 750,
      "ĠåŃ¦": 751,
      "åħĥ": 752,
      "Ġ20": 753,
      "ä¹Ĳ": 754,
      "å°ı": 755,
      "äºĽ": 756,
      "ĠæĢ»": 757,
      "Ġ7": 758,
      "Ġæ²¡æľī": 759,
      "Ġæĸ¹": 760,
      "Ġçī¹": 761,
      "æ¹": 762,
      "çĪ": 763,
      "Ġéĵ": 764,
      "ĠèĪ": 765,
      "Ġèĥ": 766,
      "æ°Ķ": 767,
      "æŃ¤": 768,
      "åĲĮ": 769,
      "Ġç±": 770,
      "äº§": 771,
      "Ġåĸ": 772,
      "Ġç®": 773,
      "åĮĹ": 774,
      "æĹ¥": 775,
      "¾Ļ": 776,
      "åįģ": 777,
      "æľĿ": 778,
      "Ġä¼ł": 779,
      "Ġç²": 780,
      "æ²»": 781,
      "çİĭ": 782,
      "å¼ı": 783,
      "æĪĺ": 784,
      "èĭ": 785,
      "äºĮ": 786,
      "Ġ8": 787,
      "èĬ±": 788,
      "æİ": 789,
      "ĠåĲĦ": 790,
      "ĠæĪĺ": 791,
      "æģ": 792,
      "Ġé¥": 793,
      "Ġé»Ħ": 794,
      "ĠéĢļ": 795,
      "Ġå·²": 796,
      "ä¹ĭ": 797,
      "ĠæĬĬ": 798,
      "Ġå·¥": 799,
      "è¡¨": 800,
      "æľ¯": 801,
      "å·±": 802,
      "ç¨": 803,
      "åı£": 804,
      "èĲ": 805,
      "Ġï¼Ł": 806,
      "éĺŁ": 807,
      "è±": 808,
      "Ġèİ": 809,
      "çº§": 810,
      "ĦŁ": 811,
      "è¿Ĳ": 812,
      "èµĽ": 813,
      "Ġæ³ķ": 814,
      "Ġèį": 815,
      "åĪ¶": 816,
      "åħĭ": 817,
      "äºļ": 818,
      "Ļ¾": 819,
      "çģ": 820,
      "ĠéĩĮ": 821,
      "æº": 822,
      "ĠåŁİ": 823,
      "ä¹¦": 824,
      "Ġå²": 825,
      "Ġå½¢": 826,
      "ä¸ľ": 827,
      "ĠåİĨåı²": 828,
      "å§ĭ": 829,
      "ç¤": 830,
      "æ²³": 831,
      "Ġæľ¬": 832,
      "Ġçĭ": 833,
      "å¹³": 834,
      "åĶ": 835,
      "äº¬": 836,
      "ĠåĿ": 837,
      "ĠåĬł": 838,
      "ĠæĽ´": 839,
      "åī§": 840,
      "Ġèĩªå·±": 841,
      "Ġå§": 842,
      "é©¬": 843,
      "ĥŃ": 844,
      "Ġä¸ĩ": 845,
      "Ġèī": 846,
      "Ġç»ĵ": 847,
      "Ġå¼ł": 848,
      "æŀĹ": 849,
      "æį": 850,
      "åĬł": 851,
      "Ġæ°ĳ": 852,
      "ĠèĢģ": 853,
      "Ġåķ": 854,
      "Ġæķħ": 855,
      "å¤ĸ": 856,
      "ĠäºĶ": 857,
      "ĠçĿĢ": 858,
      "è§Ĩ": 859,
      "éħ": 860,
      "çī¹": 861,
      "Ġ10": 862,
      "Ġå¾Ĺ": 863,
      "å®ŀ": 864,
      "Ġæĺİ": 865,
      "æĭī": 866,
      "Ġèµ·": 867,
      "Ġå¹¿": 868,
      "æīĭ": 869,
      "Ġ/": 870,
      "Ġæ¼Ķ": 871,
      "Ġå®ŀ": 872,
      "Ġé£İ": 873,
      "åİ¿": 874,
      "ĠçĻ½": 875,
      "¦»": 876,
      "¦Ļ": 877,
      "Ġ9": 878,
      "ĠæŃĮ": 879,
      "Ġæ¸ħ": 880,
      "éĹ¨": 881,
      "ç³»": 882,
      "Ġéģ": 883,
      "å±ķ": 884,
      "è¶": 885,
      "èį": 886,
      "ç´": 887,
      "æł¼": 888,
      "Ġåĳ¨": 889,
      "ä¸ī": 890,
      "èĬĤ": 891,
      "åįİ": 892,
      "Ġåħ³": 893,
      "éĶ": 894,
      "åıĳ": 895,
      "¨Ģ": 896,
      "ĠæĦı": 897,
      "Ġä¸»è¦ģ": 898,
      "ç¾İ": 899,
      "éĻħ": 900,
      "è·¯": 901,
      "ĠèĤ": 902,
      "åĪ«": 903,
      "ŀĭ": 904,
      "è´¨": 905,
      "åŃĹ": 906,
      "Ġä½ĵ": 907,
      "éļ": 908,
      "å¾·": 909,
      "Ġç¼": 910,
      "Ġ18": 911,
      "Ġç©": 912,
      "å¸¸": 913,
      "ĠåĨĻ": 914,
      "Ġå¥¹": 915,
      "Ġé©¬": 916,
      "æĦı": 917,
      "ĠæıĲ": 918,
      "Ġå¤ĸ": 919,
      "æ¶": 920,
      "åĳ½": 921,
      "Ġéĺ¿": 922,
      "ĠåŁº": 923,
      "Ġä»£": 924,
      "å¥½": 925,
      "Ġä½į": 926,
      "å¤´": 927,
      "æŃĮ": 928,
      "Ġçļĩ": 929,
      "ĠåĪĺ": 930,
      "å£«": 931,
      "Ģä¹Ī": 932,
      "çº¿": 933,
      "ĠæĪĲä¸º": 934,
      "æ®": 935,
      "è½¦": 936,
      "æĶ¿": 937,
      "åħ°": 938,
      "èĩª": 939,
      "å¸ĥ": 940,
      "æľĪ": 941,
      "åĨħ": 942,
      "ĠæĮĩ": 943,
      "Ġç¾İåĽ½": 944,
      "Ġåı«": 945,
      "Ġå¥¥": 946,
      "ĠèĳĹ": 947,
      "æķ°": 948,
      "åİŁ": 949,
      "Ġåıį": 950,
      "é¢ĺ": 951,
      "ç±»": 952,
      "Ġ?": 953,
      "å¨": 954,
      "æĥ³": 955,
      "Ġé¡": 956,
      "Ġç¥ŀ": 957,
      "å®ī": 958,
      "ĠæĶ¿": 959,
      "ĠåĪ¶": 960,
      "è¾¾": 961,
      "è¯Ŀ": 962,
      "ĠåĪĽ": 963,
      "ĥı": 964,
      "Ġç¤": 965,
      "ç»Ł": 966,
      "Ġæ¶": 967,
      "Ġå®ī": 968,
      "Ġè¿Ĳ": 969,
      "èĢĮ": 970,
      "Ġéħ": 971,
      "Ġçł": 972,
      "ĠåĶĲ": 973,
      "Ġæ¹": 974,
      "Ġ0": 975,
      "Ġå¢": 976,
      "Ġè¿Ļä¸ª": 977,
      "è¯Ń": 978,
      "ĠçľŁ": 979,
      "Ġåİ»": 980,
      "Ļ¨": 981,
      "Ġå¿ĥ": 982,
      "Ġéľ": 983,
      "ĠéĴ": 984,
      "Ġæ¯ı": 985,
      "ĠéĿ¢": 986,
      "éª": 987,
      "æµģ": 988,
      "ç¬": 989,
      "Ġæ¢": 990,
      "Ġæµģ": 991,
      "ĠæĪĳä»¬": 992,
      "éĴ": 993,
      "ĠæīĢä»¥": 994,
      "Ġåį³": 995,
      "å½±": 996,
      "ĠåĨĽ": 997,
      "Ġæĥħ": 998,
      "ĠçŁ¥": 999,
      "ĠåıĬ": 1000,
      "Ġçº¢": 1001,
      "Ġèĩ³": 1002,
      "å¢": 1003,
      "Ġæīĵ": 1004,
      "ä¼ł": 1005,
      "ĠæĪĳåĽ½": 1006,
      "ĠâĢ¦": 1007,
      "åı·": 1008,
      "Ġ12": 1009,
      "åħī": 1010,
      "ĠåºĶ": 1011,
      "è¨Ģ": 1012,
      "ĠæľĢå¤§": 1013,
      "æķĻ": 1014,
      "ĠæŃ¦": 1015,
      "èĦ": 1016,
      "ç¥ŀ": 1017,
      "Ġæ±ī": 1018,
      "Ġåıĳå±ķ": 1019,
      "Ġä¿Ŀ": 1020,
      "ç¨ĭ": 1021,
      "å³": 1022,
      "åħ³": 1023,
      "ĠåĢ": 1024,
      "çīĩ": 1025,
      "ĠæĶ¹": 1026,
      "Ġå®Į": 1027,
      "çĿĢ": 1028,
      "ĠåħĪ": 1029,
      "ĠåĽŀ": 1030,
      "æºĲ": 1031,
      "æ´»": 1032,
      "Ġåħĥ": 1033,
      "è±¡": 1034,
      "ĠåĬ¨": 1035,
      "Ġé¥°": 1036,
      "Ġåĩł": 1037,
      "å»º": 1038,
      "Ġæ²³": 1039,
      "Ġè¡Į": 1040,
      "åıĬ": 1041,
      "ĠéĿĴ": 1042,
      "çºª": 1043,
      "ĠæĤ": 1044,
      "äºĨ": 1045,
      "Ġæ±Ł": 1046,
      "Ġäº§": 1047,
      "Ġåıĺ": 1048,
      "Ġç±³": 1049,
      "å¼Ģ": 1050,
      "åĢĻ": 1051,
      "Ġç§ĳ": 1052,
      "ĠèĲ": 1053,
      "Ġèº«": 1054,
      "ĠæĽ¾": 1055,
      "å¦Ĥ": 1056,
      "ĠéĿŀ": 1057,
      "ç§¯": 1058,
      "é¾Ļ": 1059,
      "__": 1060,
      "ĠåĲĪ": 1061,
      "Ġç»Ħ": 1062,
      "å¥³": 1063,
      "ç¾": 1064,
      "åı¸": 1065,
      "Ġä¸ĵ": 1066,
      "å°ĳ": 1067,
      "çĥ": 1068,
      "Ġåħ±": 1069,
      "ĠèĬ±": 1070,
      "å¦": 1071,
      "Ġc": 1072,
      "éĢł": 1073,
      "éĩĳ": 1074,
      "å¿Ĺ": 1075,
      "åŀĭ": 1076,
      "æ¢": 1077,
      "Ġäºĭ": 1078,
      "Ġæīĭ": 1079,
      "è®°": 1080,
      "ç±³": 1081,
      "ç½Ĺ": 1082,
      "Ġæģ": 1083,
      "ĠæĦŁ": 1084,
      "Ġæ·±": 1085,
      "éĻ¢": 1086,
      "è§Ĵ": 1087,
      "éĵ": 1088,
      "Ġåģļ": 1089,
      "ĠåĨį": 1090,
      "å¸Ī": 1091,
      "ħ§": 1092,
      "Ġå¼Ģå§ĭ": 1093,
      "ĠçĽ´": 1094,
      "Ġå®¶": 1095,
      "çĽ®": 1096,
      "æ¸¸": 1097,
      "ĠçĶ·": 1098,
      "åĻ¨": 1099,
      "ä»¶": 1100,
      "æ»": 1101,
      "éĥ½": 1102,
      "ĠæķĻ": 1103,
      "ĠæŃ¤": 1104,
      "Ġäº¤": 1105,
      "Ġä»Ģä¹Ī": 1106,
      "Ġå·´": 1107,
      "è£": 1108,
      "éľ": 1109,
      "ĠçĤ": 1110,
      "ĠéĶ": 1111,
      "å©": 1112,
      "Ġ11": 1113,
      "é£İ": 1114,
      "ĠéĹ®": 1115,
      "Ġå½±": 1116,
      "Ġä¸įæĺ¯": 1117,
      "Ġäºļ": 1118,
      "ĠåĽłä¸º": 1119,
      "Ġè®¤": 1120,
      "Ġæīį": 1121,
      "Ġæ°Ķ": 1122,
      "è®º": 1123,
      "Ġæķ°": 1124,
      "Ġéĥ¨": 1125,
      "Ġåĸľ": 1126,
      "èİ": 1127,
      "åºľ": 1128,
      "ç¼": 1129,
      "Ġå£": 1130,
      "Ġæ»": 1131,
      "æ´ĭ": 1132,
      "Ġæį": 1133,
      "éĢļ": 1134,
      "Ġè®°": 1135,
      "å¤Ħ": 1136,
      "å²Ľ": 1137,
      "Ġä»Ĭ": 1138,
      "éĩį": 1139,
      "æį®": 1140,
      "Ġæ¬§": 1141,
      "äºī": 1142,
      "Ġç²¾": 1143,
      "ĠåĲĳ": 1144,
      "Ġä»ĸä»¬": 1145,
      "Ġç»Ļ": 1146,
      "Ġçģ«": 1147,
      "ķĩ": 1148,
      "Ġå°ĳ": 1149,
      "Ġèĭı": 1150,
      "åĦ¿": 1151,
      "åı¤": 1152,
      "Ġåı·": 1153,
      "ĠèĮ": 1154,
      "Ġ199": 1155,
      "çı": 1156,
      "ĠéĽĨ": 1157,
      "ĠåıĤ": 1158,
      "åĶ±": 1159,
      "ĠéĻĪ": 1160,
      "çĻ½": 1161,
      "èº«": 1162,
      "ĠèģĶ": 1163,
      "åħ¶": 1164,
      "ç¡": 1165,
      "ĠæŁ": 1166,
      "åĬ¡": 1167,
      "åĽł": 1168,
      "ç©º": 1169,
      "Ġæĥ³": 1170,
      "å·¥": 1171,
      "ĠèĳĹåĲį": 1172,
      "è§ģ": 1173,
      "Ġä¸Ģç§į": 1174,
      "å¡": 1175,
      "è®¡": 1176,
      "ĠåŁİå¸Ĥ": 1177,
      "ĠåĽ½éĻħ": 1178,
      "èħ": 1179,
      "¾ä¼ļ": 1180,
      "Ġå±ŀ": 1181,
      "æĻ¯": 1182,
      "æĸ°": 1183,
      "æµİ": 1184,
      "Ġä½ľèĢħ": 1185,
      "ĠéŁ": 1186,
      "Ġèİ·": 1187,
      "åı°": 1188,
      "Ġè®©": 1189,
      "ĠæĹ¶éĹ´": 1190,
      "Ġåħ·": 1191,
      "åĴĮ": 1192,
      "ĠåĮħ": 1193,
      "Ġç¬¬äºĮ": 1194,
      "Ġè®¾": 1195,
      "ĠåĮĹäº¬": 1196,
      "Ġ201": 1197,
      "æĢĿ": 1198,
      "èĤ²": 1199,
      "æ±ī": 1200,
      "èĳ": 1201,
      "çº¦": 1202,
      "Ġç´": 1203,
      "æĸĻ": 1204,
      "Ġä¸¾": 1205,
      "èĻ": 1206,
      "é»": 1207,
      "ĠçŁ³": 1208,
      "----": 1209,
      "éĤ": 1210,
      "¦ı": 1211,
      "çŁ³": 1212,
      "è¿Ľ": 1213,
      "æ·": 1214,
      "å¯¹": 1215,
      "Ġçī©": 1216,
      "Ġæ¡": 1217,
      "Ġé£ŀ": 1218,
      "Ġæĺ¥": 1219,
      "ç¤º": 1220,
      "Ġä¹ĭä¸Ģ": 1221,
      "èĮ": 1222,
      "Ġå¸Ĥ": 1223,
      "ä¸»ä¹ī": 1224,
      "Ġåį´": 1225,
      "çĪ±": 1226,
      "Ġæľº": 1227,
      "çł": 1228,
      "Ġå¾·": 1229,
      "ĠçĻ¾": 1230,
      "Ġé»ĳ": 1231,
      "é¦ĸ": 1232,
      "ä»»": 1233,
      "åģ": 1234,
      "èĩ³": 1235,
      "Ġæ®": 1236,
      "æĿĥ": 1237,
      "éŁ³": 1238,
      "æ¥": 1239,
      "Ġæ¹ĸ": 1240,
      "in": 1241,
      "åİ»": 1242,
      "ä¸Ķ": 1243,
      "Ġç¡": 1244,
      "Ġåįķ": 1245,
      "Ġä»£è¡¨": 1246,
      "Ġé²": 1247,
      "Ġä½įäºİ": 1248,
      "èģĶ": 1249,
      "Ġä»»": 1250,
      "çĶµ": 1251,
      "Ġçķ": 1252,
      "Ġç»Ł": 1253,
      "æ¹ĸ": 1254,
      "åĲĳ": 1255,
      "åĽŃ": 1256,
      "Ġå¼º": 1257,
      "å½¢": 1258,
      "èı": 1259,
      "ĠæĸĩåĮĸ": 1260,
      "åĵį": 1261,
      "å¤«": 1262,
      "Ġåįĥ": 1263,
      "Ġç§¦": 1264,
      "ĠèĦ": 1265,
      "Ġçº¦": 1266,
      "ç²": 1267,
      "å°¼": 1268,
      "Ġa": 1269,
      "Ġè¿Ľè¡Į": 1270,
      "é¸": 1271,
      "æĿ¯": 1272,
      "ç´ł": 1273,
      "Ġs": 1274,
      "Ġè¿ŀ": 1275,
      "åħ¨": 1276,
      "ä»ĸ": 1277,
      "Ġ=": 1278,
      "ĠèĴ": 1279,
      "ĠéŁ³": 1280,
      "ĠèµĦ": 1281,
      "Ġç®Ģ": 1282,
      "æĮģ": 1283,
      "å¸¦": 1284,
      "Ġæ´»": 1285,
      "çĶ»": 1286,
      "Ġåħī": 1287,
      "ĠåıĹ": 1288,
      "Ġæİ¥": 1289,
      "åºĶ": 1290,
      "Ġçĭ¬": 1291,
      "åı¥": 1292,
      "åĸ": 1293,
      "æīĢ": 1294,
      "Ġéģĵ": 1295,
      "Ġç¾": 1296,
      "çļĦ": 1297,
      "è§£": 1298,
      "ĠåŃĹ": 1299,
      "Ġæł¹": 1300,
      "Ġé¦Ļ": 1301,
      "Ġä¹¦": 1302,
      "Ġå¦Ĥæŀľ": 1303,
      "Ġåı°": 1304,
      "Ġåĵª": 1305,
      "å½ĵ": 1306,
      "Ġé¢Ĩ": 1307,
      "ĠæĹ¥æľ¬": 1308,
      "åı¯": 1309,
      "ĠéĢī": 1310,
      "åĽĽ": 1311,
      "Ġç¤¾ä¼ļ": 1312,
      "ĠçĽ®": 1313,
      "Ġç½Ĺ": 1314,
      "åĪĹ": 1315,
      "Ġåħ¨åĽ½": 1316,
      "éĽĨ": 1317,
      "Ġéĥ": 1318,
      "æ¯Ķ": 1319,
      "åĭ": 1320,
      "Ġå¸¦": 1321,
      "æŁ": 1322,
      "çĭ": 1323,
      "Ġè±": 1324,
      "¯ĩ": 1325,
      "ĠçĲĨ": 1326,
      "Ĺı": 1327,
      "åħ±": 1328,
      "æĤ": 1329,
      "ĠçŁ": 1330,
      "è®®": 1331,
      "æĺĵ": 1332,
      "Ġç©º": 1333,
      "Ġ~": 1334,
      "Ġæİ¨": 1335,
      "Ġèģ": 1336,
      "ĠæĢĿ": 1337,
      "åł": 1338,
      "Ġçļĩå¸Ŀ": 1339,
      "åħ¸": 1340,
      "é²": 1341,
      "é¥": 1342,
      "Ġå¯¼": 1343,
      "ĠçĥŃ": 1344,
      "æľĽ": 1345,
      "èĪ¬": 1346,
      "Ġåľ°åĮº": 1347,
      "ĠçĶŁæ´»": 1348,
      "ä¸½": 1349,
      "Ġè¾¾": 1350,
      "ĠçĲĥ": 1351,
      "Ġé¸": 1352,
      "Ġè§£": 1353,
      "çŁ¥": 1354,
      "çĸ": 1355,
      "Ġåħ¶ä¸Ń": 1356,
      "Ġm": 1357,
      "Ġè§Ĥ": 1358,
      "Ġéĩįè¦ģ": 1359,
      "Ġç§°ä¸º": 1360,
      "Ġä½Ĩæĺ¯": 1361,
      "Ġæ¸¸": 1362,
      "Ġåı²": 1363,
      "Ġåħ«": 1364,
      "å¼º": 1365,
      "Ġç»ıæµİ": 1366,
      "an": 1367,
      "Ġå½ĵæĹ¶": 1368,
      "ç§ĳ": 1369,
      "äº²": 1370,
      "Ġå¨": 1371,
      "æĿ¡": 1372,
      "åİĨ": 1373,
      "éģ": 1374,
      "å®Ĺ": 1375,
      "è¯Ĺ": 1376,
      "å¤ĩ": 1377,
      "Ĺħ": 1378,
      "æĶ¾": 1379,
      "Ġåįİ": 1380,
      "å®¹": 1381,
      "Ġ15": 1382,
      "ĠéŃ": 1383,
      "ĠæŃ»": 1384,
      "ä¿¡": 1385,
      "çīĮ": 1386,
      "å¯¼": 1387,
      "æ®µ": 1388,
      "åº§": 1389,
      "Ġçİ°åľ¨": 1390,
      "Ġäººæ°ĳ": 1391,
      "æ¬¢": 1392,
      "Ġå¤Ħ": 1393,
      "Ġæĳ": 1394,
      "çĮ": 1395,
      "Ġä¸ĥ": 1396,
      "Ġ198": 1397,
      "er": 1398,
      "åıĺ": 1399,
      "çĽ¸": 1400,
      "Ġè¿ĺæľī": 1401,
      "ĠæŀĹ": 1402,
      "ĠæĺŁ": 1403,
      "æ£": 1404,
      "ĠæĿ¨": 1405,
      "ĠéŁ©": 1406,
      "åĬŁ": 1407,
      "ĠåħŃ": 1408,
      "Ġ16": 1409,
      "Ġb": 1410,
      "Ġè®¸": 1411,
      "Ġä½ľåĵģ": 1412,
      "Ġèĭ±åĽ½": 1413,
      "å¢ĥ": 1414,
      "±¼": 1415,
      "Ġä¸įåĲĮ": 1416,
      "ĠåŃĻ": 1417,
      "ç®¡": 1418,
      "Ġè§Ħ": 1419,
      "ãĢĬ": 1420,
      "äºĶ": 1421,
      "ĠåķĨ": 1422,
      "Ġã": 1423,
      "åıĭ": 1424,
      "åŃ£": 1425,
      "å¿µ": 1426,
      "ĠåĨľ": 1427,
      "ĠéĢļè¿ĩ": 1428,
      "åįĥ": 1429,
      "Ġè¿ĲåĬ¨": 1430,
      "Ġåį°": 1431,
      "Ġèīº": 1432,
      "ĠçĶµè§Ĩ": 1433,
      "Ġ17": 1434,
      "æ¸¯": 1435,
      "æŃ£": 1436,
      "ĠçĮ": 1437,
      "çº³": 1438,
      "ĠæĶ¾": 1439,
      "åĨĻ": 1440,
      "ç»ĩ": 1441,
      "Ġå¸¸": 1442,
      "Ġåĩºçİ°": 1443,
      "Ġæ¸©": 1444,
      "ĠçĶµå½±": 1445,
      "Ġå·²ç»ı": 1446,
      "Ġè¶ħ": 1447,
      "19": 1448,
      "æ¡Ī": 1449,
      "ĠçłĶ": 1450,
      "åŁŁ": 1451,
      "è¯į": 1452,
      "ĠåĪĻ": 1453,
      "Ġè·¯": 1454,
      "ĠçŁ¥éģĵ": 1455,
      "å³°": 1456,
      "Ġç½ĳ": 1457,
      "Ġçı": 1458,
      "æ¹¾": 1459,
      "æŃ¥": 1460,
      "ĠåĨ³": 1461,
      "è¾¹": 1462,
      "Ġçª": 1463,
      "å£°": 1464,
      "ĠåĲ´": 1465,
      "Ġéª": 1466,
      "Ġä¸ĢèĪ¬": 1467,
      "Ġéĩĩ": 1468,
      "Ġåħ¬åħĥ": 1469,
      "Ġç¨": 1470,
      "è¿ĳ": 1471,
      "è¿Ĳä¼ļ": 1472,
      "è§Ĥ": 1473,
      "¦Ĩ": 1474,
      "åĽ¢": 1475,
      "Ġè¿Ļæł·": 1476,
      "Ĭ¶": 1477,
      "æ±Ĥ": 1478,
      "©åĳ½": 1479,
      "on": 1480,
      "æĹ©": 1481,
      "åĥı": 1482,
      "ĠçĶ±äºİ": 1483,
      "Ġä½ľä¸º": 1484,
      "Ġåıĸ": 1485,
      "Ġç»Ĩ": 1486,
      "Ġä¹Ŀ": 1487,
      "Ġäººä»¬": 1488,
      "Ġå®ĭ": 1489,
      "ĠåĮº": 1490,
      "è¯Ĩ": 1491,
      "Ġæ¨": 1492,
      "Ġåľ°æĸ¹": 1493,
      "ĠæľĿ": 1494,
      "ĠåĪĿ": 1495,
      "åıĹ": 1496,
      "ä»Ĭ": 1497,
      "çŃī": 1498,
      "é¹": 1499,
      "ĠçĪ¶": 1500,
      "¤į": 1501,
      "çĽ´": 1502,
      "Ġå¡": 1503,
      "éĻĨ": 1504,
      "Ġæ£": 1505,
      "ç¿": 1506,
      "Ġä¾¿": 1507,
      "Ġå²ģ": 1508,
      "å¤ª": 1509,
      "å±Ĭ": 1510,
      "åŃ¦å®¶": 1511,
      "Ġä¸ĸçºª": 1512,
      "æĬ¤": 1513,
      "Ġæ°ĳæĹı": 1514,
      "Ġè½¬": 1515,
      "ĠæĿ¡": 1516,
      "æİ¥": 1517,
      "Ġå¼ķ": 1518,
      "Ġåı¤ä»£": 1519,
      "Ġä»¥åıĬ": 1520,
      "ĠæĶ¶": 1521,
      "ĠæľĢåĲİ": 1522,
      "æĭ¬": 1523,
      "ĠãĢĳ": 1524,
      "ĠæĢ§": 1525,
      "çĨ": 1526,
      "ĠæĹ¶æľŁ": 1527,
      "è¿ľ": 1528,
      "Ġèµ°": 1529,
      "Ġéļı": 1530,
      "Ġn": 1531,
      "çĻ¾": 1532,
      "Ġèİ·å¾Ĺ": 1533,
      "Ġä¿¡": 1534,
      "å¥ĸ": 1535,
      "Ġè¿ĳ": 1536,
      "Ġ--": 1537,
      "Ġæ³ķåĽ½": 1538,
      "Ġæ¶Ī": 1539,
      "Ġè¾ĥ": 1540,
      "ĠåĽłæŃ¤": 1541,
      "ĠæĹ¶åĢĻ": 1542,
      "ĠåĮĸ": 1543,
      "ĠèĬĤ": 1544,
      "Ġæłĩ": 1545,
      "Ġå½¢æĪĲ": 1546,
      "Ġçľģ": 1547,
      "Ġè®¤ä¸º": 1548,
      "Ġå·¦": 1549,
      "ç©¶": 1550,
      "ç®Ĺ": 1551,
      "ç¢": 1552,
      "Ġè¿ĺæĺ¯": 1553,
      "ä¸ĩ": 1554,
      "åĩ»": 1555,
      "Ġæŀģ": 1556,
      "Ġåħ·æľī": 1557,
      "Ġåįł": 1558,
      "Ġç§į": 1559,
      "Ġä¹Ĳ": 1560,
      "åħµ": 1561,
      "è¯¥": 1562,
      "åŁº": 1563,
      "æĺ¥": 1564,
      "łåĨĽ": 1565,
      "å®ĺ": 1566,
      "ä½ķ": 1567,
      "ĠåıĮ": 1568,
      "Ġç¼ĸ": 1569,
      "æŀģ": 1570,
      "å±ŀ": 1571,
      "ĠèĢĥ": 1572,
      "Ġ13": 1573,
      "Ġæķħäºĭ": 1574,
      "Ġè£": 1575,
      "ĠéĹ®é¢ĺ": 1576,
      "ä»½": 1577,
      "çīĪ": 1578,
      "ĠæĽ¹": 1579,
      "ĠéŁ³ä¹Ĳ": 1580,
      "Ġåī§": 1581,
      "Ġè®¡": 1582,
      "Ġå½±åĵį": 1583,
      "åħĪ": 1584,
      "Ġäººçī©": 1585,
      "æĢģ": 1586,
      "æĹł": 1587,
      "åĬŀ": 1588,
      "Ġåħ¬åı¸": 1589,
      "Ġä¼ĺ": 1590,
      "éĢŁ": 1591,
      "çĳ": 1592,
      "ç»Ń": 1593,
      "Ġçĥ": 1594,
      "ĠåĲ«": 1595,
      "Ġèµµ": 1596,
      "ĠæĲ": 1597,
      "Ġæ¬§æ´²": 1598,
      "000": 1599,
      "Ġå¸Į": 1600,
      "Ġä½¿çĶ¨": 1601,
      "äºĳ": 1602,
      "æŀĦ": 1603,
      "ç¯ĩ": 1604,
      "å·Ŀ": 1605,
      "å¼ł": 1606,
      "ĠèĻ½": 1607,
      "ĠæĹ©": 1608,
      "äº®": 1609,
      "Ġå°ģ": 1610,
      "è½½": 1611,
      "Ļ»": 1612,
      "Ġç¢": 1613,
      "å°Ĩ": 1614,
      "Ġå¤ı": 1615,
      "èĥŀ": 1616,
      "ĠéľĢ": 1617,
      "Ġå±ŀäºİ": 1618,
      "Ġåıĳçİ°": 1619,
      "Ġè°ģ": 1620,
      "Ġä¸įèĥ½": 1621,
      "Ġè¯¥": 1622,
      "Ġæļ": 1623,
      "ĠåĦ¿": 1624,
      "åķ": 1625,
      "ĠéĿ¢ç§¯": 1626,
      "Ġå®ļ": 1627,
      "èīº": 1628,
      "çļĩ": 1629,
      "åŃĺ": 1630,
      "ĠåľŁ": 1631,
      "Ġæº": 1632,
      "Ġåı¦": 1633,
      "ä¼Ĺ": 1634,
      "Ġæľª": 1635,
      "ĠèĩªçĦ¶": 1636,
      "å®Ŀ": 1637,
      "èĲ½": 1638,
      "Ġé¾Ļ": 1639,
      "åĪĻ": 1640,
      "éĢī": 1641,
      "Ġ!": 1642,
      "Ġh": 1643,
      "Ġå¥ĩ": 1644,
      "Ġä¸¤ä¸ª": 1645,
      "å»": 1646,
      "ĠåĲĮæĹ¶": 1647,
      "Ġéĵģ": 1648,
      "½Ĳ": 1649,
      "Ġç¦»": 1650,
      "çĶ±": 1651,
      "Ġå°ıè¯´": 1652,
      "Ġèīºæľ¯": 1653,
      "åĽ¾": 1654,
      "Ġè¯Ĺäºº": 1655,
      "Ġä¸ºäºĨ": 1656,
      "Ġç¿": 1657,
      "èĥľ": 1658,
      "ĠåĪ«": 1659,
      "åľŁ": 1660,
      "ĠåĶ±": 1661,
      "Ġç³»": 1662,
      "æ¥¼": 1663,
      "æł¡": 1664,
      "è¯ģ": 1665,
      "Ġèı": 1666,
      "æ¯į": 1667,
      "åıĸ": 1668,
      "Ġåı¯èĥ½": 1669,
      "æŃ¦": 1670,
      "Ġä¸ĸçķĮæĿ¯": 1671,
      "ĠèĢĮä¸Ķ": 1672,
      "Ġåĥı": 1673,
      "å¾ģ": 1674,
      "Ġè¿ĻäºĽ": 1675,
      "Ġæ¥": 1676,
      "Ġæķ´": 1677,
      "ç½®": 1678,
      "Ġå¥¥è¿Ĳä¼ļ": 1679,
      "ä¼¦": 1680,
      "ĠæĻ®": 1681,
      "è¾ĥ": 1682,
      "Ġçİ¯": 1683,
      "Ġä¸ĢäºĽ": 1684,
      "å±Ģ": 1685,
      "æ¼": 1686,
      "Ġé¥°æ¼Ķ": 1687,
      "æĸŃ": 1688,
      "çĵ": 1689,
      "æ¸ħ": 1690,
      "Ġt": 1691,
      "Ġåĭ": 1692,
      "çģ«": 1693,
      "Ġå¦": 1694,
      "æĴ": 1695,
      "ĠæľĢé«ĺ": 1696,
      "å¯Į": 1697,
      "ĠãĢĲ": 1698,
      "ĠæĻ¯": 1699,
      "Ġåĸľæ¬¢": 1700,
      "çº¢": 1701,
      "Ġè¶Ĭ": 1702,
      "Ġè¿Ļç§į": 1703,
      "èĴ": 1704,
      "ĠåįĬ": 1705,
      "å°Ħ": 1706,
      "Ġäºĳ": 1707,
      "ĠæľĢæĹ©": 1708,
      "å©ļ": 1709,
      "Ġè¶³": 1710,
      "ĠåĮħæĭ¬": 1711,
      "å¾ĭ": 1712,
      "ĠæİĴ": 1713,
      "åĬ¿": 1714,
      "ä¸ĸçķĮ": 1715,
      "Ġç®¡": 1716,
      "Ġè¡Ģ": 1717,
      "æĦŁ": 1718,
      "Ġä¸Ńå¿ĥ": 1719,
      "æŃ»": 1720,
      "è®¾": 1721,
      "çħ§": 1722,
      "ĠåĪ©": 1723,
      "éĥ": 1724,
      "ĠæĴ": 1725,
      "Ġ14": 1726,
      "å±ħ": 1727,
      "å¥ĩ": 1728,
      "Ġå¢ŀ": 1729,
      "ĠåĲ¬": 1730,
      "Ġï¼į": 1731,
      "Ġä¹ĭåĲİ": 1732,
      "Ġæ¼": 1733,
      "ç»´": 1734,
      "ĠæĶ¿æ²»": 1735,
      "Ġå®ĺ": 1736,
      "Ġå¾Īå¤ļ": 1737,
      "ĠåĽ¾": 1738,
      "è¶³": 1739,
      "Ġè¯¸": 1740,
      "ç¦»": 1741,
      "ĠåĴ": 1742,
      "Ġåħ¶ä»ĸ": 1743,
      "ĠåĲ§": 1744,
      "Ġåıªæľī": 1745,
      "ĠçĤ¹": 1746,
      "çīĻ": 1747,
      "éĽĦ": 1748,
      "Ġç»´": 1749,
      "ĠæĹħ": 1750,
      "Ġå¿ħ": 1751,
      "è¾ĳ": 1752,
      "åĽŀ": 1753,
      "çľĭ": 1754,
      "æģ¯": 1755,
      "ĠæĬĢ": 1756,
      "Ġ]": 1757,
      "Ġåĵģ": 1758,
      "éķĩ": 1759,
      "å½ķ": 1760,
      "ç§Ģ": 1761,
      "Ġä¹ĭéĹ´": 1762,
      "Ġé©": 1763,
      "åħ«": 1764,
      "ç«ł": 1765,
      "åºķ": 1766,
      "éĽ¨": 1767,
      "Ġæ½": 1768,
      "ĠæĶ¯": 1769,
      "Ġå®£": 1770,
      "Ġå·¥ä½ľ": 1771,
      "éªĮ": 1772,
      "ĠåĲİæĿ¥": 1773,
      "Ġæ¯Ķè¾ĥ": 1774,
      "ĠéĻ¤": 1775,
      "Ġç¬¬ä¸ī": 1776,
      "å±Ĥ": 1777,
      "å¤®": 1778,
      "ĠåºĶè¯¥": 1779,
      "Ġäº§çĶŁ": 1780,
      "çŃĳ": 1781,
      "æı": 1782,
      "è¿°": 1783,
      "Ġèħ": 1784,
      "è£ħ": 1785,
      "åħļ": 1786,
      "ç§ĭ": 1787,
      "èµĦ": 1788,
      "ä½³": 1789,
      "Ġ30": 1790,
      "ĠçĶŁäº§": 1791,
      "éħ¸": 1792,
      "Ġä¸Ĭæµ·": 1793,
      "æľ¨": 1794,
      "ĠåĬŁ": 1795,
      "ĠçłĶç©¶": 1796,
      "æ¡¥": 1797,
      "èĩ´": 1798,
      "åĨµ": 1799,
      "åħ´": 1800,
      "Ġå»ºç«ĭ": 1801,
      "Ġå±ħ": 1802,
      "Ġåĳ¢": 1803,
      "å®ģ": 1804,
      "Ġé£Ł": 1805,
      "ĠçĶ»": 1806,
      "ĠåıĳçĶŁ": 1807,
      "Ġæł¹æį®": 1808,
      "æļ": 1809,
      "ĠåķĬ": 1810,
      "Ġå©": 1811,
      "ĵį": 1812,
      "Ġåľ°çĲĥ": 1813,
      "é¢Ĩ": 1814,
      "ªī": 1815,
      "Ġå¤ªéĺ³": 1816,
      "Ġç±»": 1817,
      "Ġåľ£": 1818,
      "Ġèĵ": 1819,
      "Ġä¾Ŀ": 1820,
      "ĠèĪª": 1821,
      "é¡¹": 1822,
      "ä½¿": 1823,
      "ĠæĮī": 1824,
      "Ġæĭī": 1825,
      "Ġè¿ľ": 1826,
      "å·´": 1827,
      "ĠèĻ": 1828,
      "Ġå¹²": 1829,
      "åĳ¨": 1830,
      "èĹı": 1831,
      "ĠæĬķ": 1832,
      "çĿ": 1833,
      "Ġæ³¨": 1834,
      "è§ī": 1835,
      "Ġä¸Ģæł·": 1836,
      "å§Ķ": 1837,
      "Ġåħ¥": 1838,
      "åĵ¥": 1839,
      "Ġåħ¬éĩĮ": 1840,
      "åħŃ": 1841,
      "ä¼¯": 1842,
      "Ġçİ°ä»£": 1843,
      "Ġç¡®": 1844,
      "Ġä¸°": 1845,
      "Ġå·¨": 1846,
      "ĠéĢł": 1847,
      "Ġ[": 1848,
      "å¤§åĪ©": 1849,
      "Ġäº²": 1850,
      "Ġè¯Ń": 1851,
      "æĪı": 1852,
      "Ġå£°": 1853,
      "æł¹": 1854,
      "Ġéļ¾": 1855,
      "ç»Ħ": 1856,
      "å®«": 1857,
      "åĪĩ": 1858,
      "æłĩ": 1859,
      "åºĨ": 1860,
      "éĻµ": 1861,
      "Ġæ»¡": 1862,
      "ĠæĢĿæĥ³": 1863,
      "Ġç»Ī": 1864,
      "ç¥ĸ": 1865,
      "Ġçºª": 1866,
      "éŃ": 1867,
      "é©": 1868,
      "ĠéĻĨ": 1869,
      "ĠçĦ¶": 1870,
      "Ġå¿«": 1871,
      "Ġçĸ": 1872,
      "ĠåĲĥ": 1873,
      "é£ŀ": 1874,
      "æ²¹": 1875,
      "Ġå¤±": 1876,
      "ĠåĨłåĨĽ": 1877,
      "Ġâĳ": 1878,
      "åĽ´": 1879,
      "ĠéĿŀå¸¸": 1880,
      "Ġæ°¸": 1881,
      "Ġä¸Ńåįİ": 1882,
      "Ġè®¸å¤ļ": 1883,
      "Ġä½ľçĶ¨": 1884,
      "èĭı": 1885,
      "Ġæ¯ĶèµĽ": 1886,
      "Ġç¬¬ä¸Ģä¸ª": 1887,
      "æĳ": 1888,
      "èģ": 1889,
      "ç«Ļ": 1890,
      "åįķ": 1891,
      "Ġç»Ŀ": 1892,
      "ç»ĵ": 1893,
      "Ġè¡¨çİ°": 1894,
      "ar": 1895,
      "è´¥": 1896,
      "åĩĨ": 1897,
      "èĢģ": 1898,
      "Ġçľ¼": 1899,
      "ç¡®": 1900,
      "åį«": 1901,
      "Ġéĵ¶": 1902,
      "Ġåı°æ¹¾": 1903,
      "æ´¾": 1904,
      "ç»Ĩ": 1905,
      "Ġè½¦": 1906,
      "Ġç«ĭ": 1907,
      "éĿŀ": 1908,
      "ĠçĻ»": 1909,
      "Ġæ¬¡": 1910,
      "åħ·": 1911,
      "åĳ³": 1912,
      "âĢ": 1913,
      "Ġè§ģ": 1914,
      "Ġæ¼Ķåĳĺ": 1915,
      "Ġä¸Ģæ¬¡": 1916,
      "ä¹ħ": 1917,
      "Ġè¿Ļæĺ¯": 1918,
      "Ġæ¯Ľ": 1919,
      "æ¨": 1920,
      "Ġä¿Ħ": 1921,
      "Ġï½": 1922,
      "å¼Ł": 1923,
      "Ġè¿Ľåħ¥": 1924,
      "Ġä½İ": 1925,
      "å¤į": 1926,
      "ĠåıĤåĬł": 1927,
      "å¾Ģ": 1928,
      "Ġç»§": 1929,
      "Ġä¸Ģå®ļ": 1930,
      "çķ¥": 1931,
      "æĿ°": 1932,
      "æĸĹ": 1933,
      "Ġèľ": 1934,
      "ĠéģĹ": 1935,
      "Ġè§Ĵ": 1936,
      "Ġä¿®": 1937,
      "éĽª": 1938,
      "Ġåħĭ": 1939,
      "Ġèįī": 1940,
      "åĬ©": 1941,
      "Ġä¼Ĭ": 1942,
      "ĠæĸĩåŃ¦": 1943,
      "æ¶²": 1944,
      "ä»ħ": 1945,
      "Ġå¸ĥ": 1946,
      "Ġæıı": 1947,
      "è¶Ĭ": 1948,
      "è°ĥ": 1949,
      "çİī": 1950,
      "Ġå¾·åĽ½": 1951,
      "Ġä¸Ģéĥ¨": 1952,
      "Ġéķĩ": 1953,
      "Ġå¤į": 1954,
      "éħĴ": 1955,
      "å¤ľ": 1956,
      "ĠçķĻ": 1957,
      "ĠåŃĺ": 1958,
      "Ġç¦ı": 1959,
      "èĭ±": 1960,
      "æ°ı": 1961,
      "é¦Ĩ": 1962,
      "Ġè¯»": 1963,
      "ĠéľĢè¦ģ": 1964,
      "åįĬ": 1965,
      "åı¶": 1966,
      "éļ¾": 1967,
      "æłĳ": 1968,
      "äº¤": 1969,
      "ä¹¡": 1970,
      "Ġæľ±": 1971,
      "¤įçī©": 1972,
      "ç¦ı": 1973,
      "Ġäººåı£": 1974,
      "Ġæ²Ļ": 1975,
      "Ġ197": 1976,
      "ĠåŃĲ": 1977,
      "Ġæ´»åĬ¨": 1978,
      "é¦Ļ": 1979,
      "Ġé¦Ļæ¸¯": 1980,
      "Ġå¸Ŀ": 1981,
      "Ġå®Ŀ": 1982,
      "èªī": 1983,
      "çĥŃ": 1984,
      "Ġåĺ": 1985,
      "æĿĳ": 1986,
      "Ġåİ¿": 1987,
      "en": 1988,
      "Ġ25": 1989,
      "æ»¡": 1990,
      "Ġd": 1991,
      "Ġæĺ¾": 1992,
      "Ġå¤´": 1993,
      "ĠèĽ": 1994,
      "Ġ195": 1995,
      "Ġä½ķ": 1996,
      "åĪĿ": 1997,
      "Ġä¸ĢçĽ´": 1998,
      "Ġé²ģ": 1999,
      "åį¡": 2000,
      "ĠæĬ¥": 2001,
      "ä¹Ŀ": 2002,
      "ç»Ī": 2003,
      "Ġè¯į": 2004,
      "å¡Ķ": 2005,
      "ä»İ": 2006,
      "ĠæŃ£å¼ı": 2007,
      "ĠåŁºæľ¬": 2008,
      "ä½ı": 2009,
      "Ġè¯Ħ": 2010,
      "æħ": 2011,
      "è¢": 2012,
      "å²¸": 2013,
      "éº": 2014,
      "çıŃ": 2015,
      "Ġp": 2016,
      "or": 2017,
      "¿Ģ": 2018,
      "ĠèĻ½çĦ¶": 2019,
      "Ġæł¸": 2020,
      "æĬĢ": 2021,
      "ä»¤": 2022,
      "Ġéº": 2023,
      "æŃ¢": 2024,
      "ĠçŃĶ": 2025,
      "ĠæĹ¶ä»£": 2026,
      "Ġè¡¨ç¤º": 2027,
      "æ³¢": 2028,
      "çĹħ": 2029,
      "Ġç»Ħç»ĩ": 2030,
      "Ġä¸Ģèµ·": 2031,
      "Ġåį¡": 2032,
      "ĠæĿĢ": 2033,
      "ĠåĵĪ": 2034,
      "Ġç¥ĸ": 2035,
      "Ġåį«": 2036,
      "åķĨ": 2037,
      "ĠæľŁ": 2038,
      "å¸Ń": 2039,
      "åĪ»": 2040,
      "é¥°": 2041,
      "Ġåĳ½": 2042,
      "Ġï½ŀ": 2043,
      "Ġå»ºçŃĳ": 2044,
      "Ġä¸¾è¡Į": 2045,
      "ĠéĿ©åĳ½": 2046,
      "Ġä½Ľ": 2047,
      "èĽ": 2048,
      "Ġçªģ": 2049,
      "åºŃ": 2050,
      "æ¸©": 2051,
      "ä¸¹": 2052,
      "è¡Ģ": 2053,
      "Ġåı¸": 2054,
      "Ġåıªæĺ¯": 2055,
      "20": 2056,
      "Ġæľ¨": 2057,
      "ĠéħĴ": 2058,
      "èĳĹ": 2059,
      "ĠåĪĹ": 2060,
      "Ġè¿ĻéĩĮ": 2061,
      "Ġéĥ¨åĪĨ": 2062,
      "ĠçĪ±æĥħ": 2063,
      "Ġä¹Į": 2064,
      "éĹ®": 2065,
      "ĠåĲįåŃĹ": 2066,
      "åĢ¼": 2067,
      "æĮĩ": 2068,
      "Ġæ³¢": 2069,
      "Ġäººç±»": 2070,
      "çª": 2071,
      "Ġåıĳæĺİ": 2072,
      "Ġ;": 2073,
      "ĠåĲ¸": 2074,
      "å°±": 2075,
      "Ġä¸Ńå¤®": 2076,
      "çŁ": 2077,
      "Ġç»ĦæĪĲ": 2078,
      "____": 2079,
      "ĠåĤ": 2080,
      "ĠéĹ¨": 2081,
      "ä¹ł": 2082,
      "äººæ°ĳ": 2083,
      "Ġé¡¹": 2084,
      "é±¼": 2085,
      "æľį": 2086,
      "ĠæĢİ": 2087,
      "Ġl": 2088,
      "åħ»": 2089,
      "ĠæīĢæľī": 2090,
      "Ġä»¥åĲİ": 2091,
      "é²ģ": 2092,
      "çł´": 2093,
      "ĠçĨ": 2094,
      "Ġä»¬": 2095,
      "éĻĲ": 2096,
      "ĠåĪĽä½ľ": 2097,
      "Ġè°ĥ": 2098,
      "è¿Ļ": 2099,
      "ĠèĮĥ": 2100,
      "çİĩ": 2101,
      "Ġåħħ": 2102,
      "ĠçĽ®åīį": 2103,
      "ä»·": 2104,
      "Ġ196": 2105,
      "Ġåī¯": 2106,
      "Ġè®²": 2107,
      "Ġåı£": 2108,
      "ĠæĪĲç«ĭ": 2109,
      "ĠåĲī": 2110,
      "åłĤ": 2111,
      "å½©": 2112,
      "ĠæĿľ": 2113,
      "å®ĭ": 2114,
      "ĠèĴĻ": 2115,
      "Ġæĸ¹éĿ¢": 2116,
      "Ġ21": 2117,
      "ä¹İ": 2118,
      "ç¬¬": 2119,
      "æīį": 2120,
      "Ġå¾Ĳ": 2121,
      "Ġä¸¥": 2122,
      "ĠåĮ»": 2123,
      "åı³": 2124,
      "ĠèĥĮ": 2125,
      "Ġæĭį": 2126,
      "ĠæĬĢæľ¯": 2127,
      "Ġäºļæ´²": 2128,
      "Ġåį°åº¦": 2129,
      "ç»Ļ": 2130,
      "Ġç»ıè¿ĩ": 2131,
      "ĠåĨ°": 2132,
      "Ġåįļ": 2133,
      "Ġè·Ł": 2134,
      "å®³": 2135,
      "ĠæĬĹ": 2136,
      "æ·±": 2137,
      "ĠåĬĽ": 2138,
      "Ġ194": 2139,
      "å¯Ł": 2140,
      "Ġæľį": 2141,
      "åĲĽ": 2142,
      "Ġé½Ĳ": 2143,
      "Ġæ¯į": 2144,
      "Ġå´": 2145,
      "ĠçĶµè§Ĩåī§": 2146,
      "æĪĳ": 2147,
      "è´µ": 2148,
      "Ġf": 2149,
      "Ġä¸įè¿ĩ": 2150,
      "å¤§åŃ¦": 2151,
      "ĠæĽ²": 2152,
      "çĥĪ": 2153,
      "åĪĴ": 2154,
      "äº¡": 2155,
      "Ġå¯¼æ¼Ķ": 2156,
      "Ġè¿½": 2157,
      "Ġæī¾": 2158,
      "æ³½": 2159,
      "Ġè¯·": 2160,
      "èįī": 2161,
      "ä¸ĥ": 2162,
      "å¤Ł": 2163,
      "Ġæ¢¦": 2164,
      "Ġèĥ¡": 2165,
      "æĵį": 2166,
      "Ġè¾¹": 2167,
      "Ġé¦ĸéĥ½": 2168,
      "Ġä¸īåĽ½": 2169,
      "å¯Ĩ": 2170,
      "ŀį": 2171,
      "Ġå®¢": 2172,
      "Ġåħ´": 2173,
      "åľ£": 2174,
      "ĠçľĭåĪ°": 2175,
      "Ġè±¡": 2176,
      "æĶ¿åºľ": 2177,
      "Ġä¹¡": 2178,
      "åħ¬éĩĮ": 2179,
      "ĠæıĲåĩº": 2180,
      "Ġå¹´ä»£": 2181,
      "Ġä»¥ä¸Ĭ": 2182,
      "ĠéĤ£ä¹Ī": 2183,
      "ĠèĪŀ": 2184,
      "ĠæŃĮæĽ²": 2185,
      "ĠèģĶåĲĪ": 2186,
      "éĿĴ": 2187,
      "Ġå¹³æĸ¹": 2188,
      "Ġç¾¤": 2189,
      "èĪŀ": 2190,
      "Ġ193": 2191,
      "ĠæĪı": 2192,
      "Ġåħ³ç³»": 2193,
      "Ġç»Ĩèĥŀ": 2194,
      "åĳĬ": 2195,
      "é£Ł": 2196,
      "çĬ¶": 2197,
      "æĺł": 2198,
      "Ġç»¿": 2199,
      "Ġè£ħ": 2200,
      "Ġæĸ¯": 2201,
      "Ġä¼łç»Ł": 2202,
      "çĶ°": 2203,
      "ĠèģĮ": 2204,
      "ĠçŁŃ": 2205,
      "ç¥¨": 2206,
      "Ġåı¶": 2207,
      "åĴĮåĽ½": 2208,
      "Ġå¾ĹåĪ°": 2209,
      "Ġå¯Į": 2210,
      "Ġå¸Ī": 2211,
      "Ġè¿ĩç¨ĭ": 2212,
      "Ġæ²¿": 2213,
      "å¨ģ": 2214,
      "Ġå»": 2215,
      "åīĳ": 2216,
      "çľŁ": 2217,
      "Ġr": 2218,
      "Ġä»į": 2219,
      "Ġä¸ªäºº": 2220,
      "Ġæł¼": 2221,
      "Ġçī¹åĪ«": 2222,
      "Ġå¾®": 2223,
      "Ġç»Łä¸Ģ": 2224,
      "æĴŃ": 2225,
      "è¯ķ": 2226,
      "ĠçīĪ": 2227,
      "ĠçĶļ": 2228,
      "ĠåĶ¯": 2229,
      "å®¢": 2230,
      "Ġè¶³çĲĥ": 2231,
      "æĪ·": 2232,
      "ĠæĪĲåĬŁ": 2233,
      "å®¤": 2234,
      "ĠæĪĺäºī": 2235,
      "Ġçĩ": 2236,
      "è´¹": 2237,
      "ĠèµĽ": 2238,
      "å¹¿": 2239,
      "ä¼¼": 2240,
      "es": 2241,
      "Ġéĥĳ": 2242,
      "ĠäºĮåįģ": 2243,
      "Ġæį®": 2244,
      "Ġæĭ¥": 2245,
      "æ½": 2246,
      "åº·": 2247,
      "è¿¹": 2248,
      "åĿĩ": 2249,
      "é¼": 2250,
      "Ġéħį": 2251,
      "ĠåĬ¨çī©": 2252,
      "Ġä¸´": 2253,
      "ĠæĻļ": 2254,
      "--------": 2255,
      "ĠæĹħæ¸¸": 2256,
      "Ġç¬¬ä¸Ģæ¬¡": 2257,
      "èī¯": 2258,
      "Ġå®Ĺ": 2259,
      "ĠèĵĿ": 2260,
      "Ġæħ": 2261,
      "æĶ¶": 2262,
      "al": 2263,
      "æĺĮ": 2264,
      "Ġæ±½": 2265,
      "Ġ24": 2266,
      "ç±į": 2267,
      "Ġæ¾": 2268,
      "ĠåĿļ": 2269,
      "å¿«": 2270,
      "Ġçĳ": 2271,
      "ĠåĬŀ": 2272,
      "Ġç§ĳåŃ¦": 2273,
      "ĠçĽĽ": 2274,
      "ĠåĲĦç§į": 2275,
      "ç¼ĸ": 2276,
      "ç´¢": 2277,
      "éĵģ": 2278,
      "ĠçīĽ": 2279,
      "Ġ100": 2280,
      "ĠèĲ½": 2281,
      "Ġw": 2282,
      "éĴŁ": 2283,
      "ç»į": 2284,
      "ĠèĶ": 2285,
      "å²ģ": 2286,
      "Ġé¼": 2287,
      "Ġéķ¿æ±Ł": 2288,
      "ĠéĢĤ": 2289,
      "è¿ŀ": 2290,
      "Ġèµ·æĿ¥": 2291,
      "éļĨ": 2292,
      "Ġ22": 2293,
      "ç½ĳ": 2294,
      "Ġ+": 2295,
      "ķľ": 2296,
      "Ġè´µ": 2297,
      "èĢĥ": 2298,
      "Ġg": 2299,
      "ç«¯": 2300,
      "Ġ50": 2301,
      "é¾": 2302,
      "æ²Ļ": 2303,
      "ĠæĤ²": 2304,
      "Ġå¤§å®¶": 2305,
      "ĠåĲĪä½ľ": 2306,
      "Ġä»ħ": 2307,
      "èĦī": 2308,
      "Ġçİī": 2309,
      "çİ¯": 2310,
      "at": 2311,
      "çľ¼": 2312,
      "ĠæĥħåĨµ": 2313,
      "Ġæ¯ķ": 2314,
      "Ġè·Ŀ": 2315,
      "¶çº§": 2316,
      "Ġ23": 2317,
      "æĭĶ": 2318,
      "Ġé¢ĺ": 2319,
      "å³¡": 2320,
      "Ġä¸įä¼ļ": 2321,
      "ç¾¤": 2322,
      "ç¡Ģ": 2323,
      "ä¸Ŀ": 2324,
      "å¹²": 2325,
      "æ°§": 2326,
      "åĺ": 2327,
      "Ġåħ¶å®ŀ": 2328,
      "ĠåĲĹ": 2329,
      "Ġå¥ĸ": 2330,
      "Ġæ¼ĶåĶ±": 2331,
      "ĠçĪ¶äº²": 2332,
      "Ġä¸Ģä½į": 2333,
      "å¥¥": 2334,
      "ĠåĨ³å®ļ": 2335,
      "Ġè®¾è®¡": 2336,
      "¹ģ": 2337,
      "Ġi": 2338,
      "èıľ": 2339,
      "æĬ¥": 2340,
      "Ġå©ļ": 2341,
      "ĠçļĦè¯Ŀ": 2342,
      "æģ©": 2343,
      "ä¸¾": 2344,
      "Ġå²Ľ": 2345,
      "Ġå¤§éĻĨ": 2346,
      "åĶĲ": 2347,
      "ĠåĩºçĶŁ": 2348,
      "Ġèİ«": 2349,
      "Ġè¯ķ": 2350,
      "Ġå®«": 2351,
      "åĨ³": 2352,
      "Ġéĺ²": 2353,
      "Ġæ¢ģ": 2354,
      "ĠÃ": 2355,
      "ĠåľĨ": 2356,
      "çĩ": 2357,
      "ä¿Ŀ": 2358,
      "çĲ´": 2359,
      "ĠåĪĨåĪ«": 2360,
      "é¡»": 2361,
      "Ġä¸°å¯Į": 2362,
      "Ġæ´¾": 2363,
      "ĠçĬ": 2364,
      "Ġäº¬": 2365,
      "Ġå±ķ": 2366,
      "ĠéĻį": 2367,
      "ĠåŃĶ": 2368,
      "åĭĴ": 2369,
      "ĠæĪĸèĢħ": 2370,
      "ĠéĢĲ": 2371,
      "Ġå°½": 2372,
      "Ġåħµ": 2373,
      "Ġå¨ģ": 2374,
      "Ġå¤©ä¸ĭ": 2375,
      "è½¬": 2376,
      "çĴ": 2377,
      "Ġçĵ": 2378,
      "ĠåĿĩ": 2379,
      "Ġå®¹": 2380,
      "ĠæĦıå¤§åĪ©": 2381,
      "Ġä¼Ĺ": 2382,
      "ĠåĨ¬": 2383,
      "åħ¬åı¸": 2384,
      "ĠåĦ¿åŃĲ": 2385,
      "ĠæŀĦ": 2386,
      "ĠåĩºæĿ¥": 2387,
      "Ġç£": 2388,
      "ĭåıĭ": 2389,
      "Ġæ´Ľ": 2390,
      "Ġæĭ¿": 2391,
      "Ġçī©è´¨": 2392,
      "Ġè¯ģ": 2393,
      "Ġæī¿": 2394,
      "ĠæķĻèĤ²": 2395,
      "el": 2396,
      "ĠéĢģ": 2397,
      "åĿĹ": 2398,
      "ç¾½": 2399,
      "Ġç²¾ç¥ŀ": 2400,
      "éĤ¦": 2401,
      "ä½Ļ": 2402,
      "åĿĢ": 2403,
      "Ġå¸®": 2404,
      "èĵ": 2405,
      "æĿ¿": 2406,
      "Ġç®Ģç§°": 2407,
      "Ġåľº": 2408,
      "ĠæµĻ": 2409,
      "Ġè½»": 2410,
      "ĠåĨħå®¹": 2411,
      "ĠéĤ£ä¸ª": 2412,
      "é¡¿": 2413,
      "è¿ĲåĬ¨": 2414,
      "æĿĲ": 2415,
      "Ġåº¦": 2416,
      "æķĪ": 2417,
      "³ĸ": 2418,
      "å¾½": 2419,
      "åľ°åĮº": 2420,
      "Ġè¯Ŀ": 2421,
      "çıł": 2422,
      "ĠéĺŁ": 2423,
      "ĠåŁºç¡Ģ": 2424,
      "Ġèĭ±éĽĦ": 2425,
      "Ġå½Ĵ": 2426,
      "ç¦": 2427,
      "çĹ": 2428,
      "ĠæĹ¢": 2429,
      "å¼¹": 2430,
      "è´Ŀ": 2431,
      "Ġäº¿": 2432,
      "ĠåİŁåĽł": 2433,
      "Ġä¼ģ": 2434,
      "Ġç¬Ķ": 2435,
      "Ġå§ĭ": 2436,
      "å»·": 2437,
      "Ġå¤ľ": 2438,
      "Ġk": 2439,
      "ĠçĦ¶åĲİ": 2440,
      "èĤī": 2441,
      "Ġèĥľ": 2442,
      "èĪ¹": 2443,
      "Ġå·¥ä¸ļ": 2444,
      "ĠæľĢä½³": 2445,
      "Ġé±¼": 2446,
      "èĨ": 2447,
      "Ġ2008": 2448,
      "ĠåĨĽäºĭ": 2449,
      "éĶĻ": 2450,
      "Ġæī§": 2451,
      "Ġç»Łæ²»": 2452,
      "Ġä»·": 2453,
      "Ġä»Ļ": 2454,
      "çģµ": 2455,
      "Ġç©¿": 2456,
      "ĠéŃĶ": 2457,
      "¬¼": 2458,
      "Ġé¹": 2459,
      "æīĵ": 2460,
      "Ġä¸ľè¥¿": 2461,
      "Ġåįı": 2462,
      "Ġä¼Ł": 2463,
      "æĹĹ": 2464,
      "å¸ģ": 2465,
      "å·²": 2466,
      "çĽŁ": 2467,
      "Ġä»ĭ": 2468,
      "Ġå±Ĭ": 2469,
      "ĠçĹ": 2470,
      "éĹ»": 2471,
      "ĠçĹħ": 2472,
      "Ġæ³°": 2473,
      "Ġè´¨": 2474,
      "Ġé¢Ħ": 2475,
      "åºĹ": 2476,
      "éĽ·": 2477,
      "ĠçĬ¶": 2478,
      "Ġçģµ": 2479,
      "ĠéĻĦ": 2480,
      "Ġä¸įä»ħ": 2481,
      "Ġé¢Ĩå¯¼": 2482,
      "Ġåħ¬åħĥåīį": 2483,
      "Ġçł´": 2484,
      "Ġç§ĭ": 2485,
      "æ¯Ľ": 2486,
      "Ġæ¤įçī©": 2487,
      "Ġçļ®": 2488,
      "ĠæĿĥ": 2489,
      "Ġçİ¯å¢ĥ": 2490,
      "ĠåĽ¢": 2491,
      "ĠåĩĨ": 2492,
      "å·ŀå¸Ĥ": 2493,
      "Ġæ®µ": 2494,
      "Ġè®°è½½": 2495,
      "æ³ī": 2496,
      "æī¿": 2497,
      "Ġå¸ĮæľĽ": 2498,
      "æ¸Ĳ": 2499,
      "éª¨": 2500,
      "éĻ©": 2501,
      "è®¸": 2502,
      "ä»Ģä¹Ī": 2503,
      "æĸ½": 2504,
      "ĠæŁĲ": 2505,
      "èĻİ": 2506,
      "åŃ©": 2507,
      "è®¤": 2508,
      "ĠåŃĺåľ¨": 2509,
      "Ġä½Ļ": 2510,
      "ĠåħĪçĶŁ": 2511,
      "Ġå¤§åŃ¦": 2512,
      "Ġåįķä½į": 2513,
      "æķ´": 2514,
      "Ġèī²": 2515,
      "èĲ¨": 2516,
      "Ġå·®": 2517,
      "è°ĵ": 2518,
      "Ġé¡º": 2519,
      "Ġæĸ¹æ³ķ": 2520,
      "åºı": 2521,
      "Ġç´«": 2522,
      "ç²¾": 2523,
      "Ġå¯Ĩ": 2524,
      "ĠæĶ»": 2525,
      "èĦĳ": 2526,
      "çĽĬ": 2527,
      "èĭ¦": 2528,
      "èĲ¥": 2529,
      "Ġè®º": 2530,
      "æĦ": 2531,
      "Ġä»¤": 2532,
      "è§Ħ": 2533,
      "Ġè§Ħå®ļ": 2534,
      "Ġè§ī": 2535,
      "å¤±": 2536,
      "ic": 2537,
      "ç¬Ķ": 2538,
      "æ¢¦": 2539,
      "ĠéĽª": 2540,
      "åĸĦ": 2541,
      "Ġæ±½è½¦": 2542,
      "Ġç®¡çĲĨ": 2543,
      "æķħ": 2544,
      "å½¹": 2545,
      "Ġäºī": 2546,
      "Ġä¿ĿæĬ¤": 2547,
      "Ġæ¿Ģ": 2548,
      "Ġå¾Ģ": 2549,
      "æĪĺäºī": 2550,
      "Ġå°¼": 2551,
      "è½»": 2552,
      "ä½Ľ": 2553,
      "ĠçĽ´æİ¥": 2554,
      "è°·": 2555,
      "Ġå®Įåħ¨": 2556,
      "éĨ": 2557,
      "æĿ¾": 2558,
      "å§Ĩ": 2559,
      "æ¨¡": 2560,
      "ä»ĭ": 2561,
      "Ġè¡Ĺ": 2562,
      "Ġå§Ķ": 2563,
      "ĠçĶ°": 2564,
      "çļ®": 2565,
      "Ġåł": 2566,
      "ĠéĤ®": 2567,
      "ĠæĦıæĢĿ": 2568,
      "ĠåĨ²": 2569,
      "Ġå®ĮæĪĲ": 2570,
      "æĭ©": 2571,
      "æĪ¿": 2572,
      "Ġå¤ªå¹³": 2573,
      "çĮ®": 2574,
      "éĽħ": 2575,
      "ĠçŃĶæ¡Ī": 2576,
      "Ġåħ¸": 2577,
      "Ġæĭħ": 2578,
      "ä¸ŃåĽ½": 2579,
      "æĶ¯": 2580,
      "Ġæĭ¥æľī": 2581,
      "Ġå®ĥä»¬": 2582,
      "Ġãģ": 2583,
      "Ġçħ§": 2584,
      "Ġåĳ¼": 2585,
      "ĠæĸĹ": 2586,
      "Ġæķ£": 2587,
      "åĪĽ": 2588,
      "Ġå·¦åı³": 2589,
      "ä»Ļ": 2590,
      "Ġèį·": 2591,
      "å°ģ": 2592,
      "ĠåŃ£": 2593,
      "ĠåĪĨå¸ĥ": 2594,
      "Ġè¯Ńè¨Ģ": 2595,
      "èĩ£": 2596,
      "Ġç»ĵæŀĦ": 2597,
      "Ġè´Ŀ": 2598,
      "Ġé¢ľ": 2599,
      "ĠèĲ¥": 2600,
      "æŁ¥": 2601,
      "Ġå±±ä¸ľ": 2602,
      "Ġä¸»æ¼Ķ": 2603,
      "ĠåĽĽå·Ŀ": 2604,
      "Ġæ¥ļ": 2605,
      "éĿĻ": 2606,
      "å¤ı": 2607,
      "Ġå¢ĥ": 2608,
      "Ġåº·": 2609,
      "ç¬ĳ": 2610,
      "Ġæī®": 2611,
      "éĿ©": 2612,
      "Ġ40": 2613,
      "æ°ĳæĹı": 2614,
      "ĠéŃı": 2615,
      "åħ±åĴĮåĽ½": 2616,
      "ä¾Ľ": 2617,
      "ç»Ŀ": 2618,
      "ĠçŃ¾": 2619,
      "Ġå°ıæĹ¶": 2620,
      "Ġè§Ĩ": 2621,
      "Ġå¤§éĩı": 2622,
      "Ġåħ³äºİ": 2623,
      "ĠéĥŃ": 2624,
      "Ġæ¢ħ": 2625,
      "ĠçĶŁåĳ½": 2626,
      "éĵ¶": 2627,
      "Ġéĺ³": 2628,
      "ä¿Ĺ": 2629,
      "æĻĵ": 2630,
      "æĮ¥": 2631,
      "ĠéĿŀæ´²": 2632,
      "ĠèĩªçĶ±": 2633,
      "Ġäº¦": 2634,
      "ĠåįģåĪĨ": 2635,
      "Ġä¸ľåĮĹ": 2636,
      "åİĭ": 2637,
      "é¾Ħ": 2638,
      "ä¼¤": 2639,
      "æŀĲ": 2640,
      "ĠçĶ²": 2641,
      "ĠéĽ·": 2642,
      "æĿĢ": 2643,
      "å¼Ĥ": 2644,
      "ĠåĿĲ": 2645,
      "ĠéŁ©åĽ½": 2646,
      "ĠçĪĨ": 2647,
      "éĿ¢ç§¯": 2648,
      "ĠæľĢå¤ļ": 2649,
      "é»İ": 2650,
      "Ġæ²Ī": 2651,
      "æĿŁ": 2652,
      "ĠæĿ°": 2653,
      "ĠçĶļèĩ³": 2654,
      "Ġå¯¹äºİ": 2655,
      "ĠåŃŁ": 2656,
      "ĠåıĺåĮĸ": 2657,
      "Ġçħ": 2658,
      "ĠæĻº": 2659,
      "å§Ĳ": 2660,
      "Ġå°¤": 2661,
      "éľ²": 2662,
      "ĠèĢħ": 2663,
      "åĨ°": 2664,
      "Ġæ²³åįĹ": 2665,
      "Ń¦": 2666,
      "Ġè´Ł": 2667,
      "Ġæ²ī": 2668,
      "Ġ*": 2669,
      "èħĬ": 2670,
      "Ġè¯º": 2671,
      "èĴĻ": 2672,
      "æ³¨": 2673,
      "éĻ¤": 2674,
      "Ġä¼Łå¤§": 2675,
      "Ġç³»ç»Ł": 2676,
      "Ġ28": 2677,
      "ĠæµĻæ±Ł": 2678,
      "çłģ": 2679,
      "200": 2680,
      "èľ": 2681,
      "Ġè°¢": 2682,
      "å¨ĺ": 2683,
      "çĶ²": 2684,
      "Ġéĩİ": 2685,
      "Ġçº§": 2686,
      "Ġå¤º": 2687,
      "Ġè¦ģæ±Ĥ": 2688,
      "âĢľ": 2689,
      "Ġæľīåħ³": 2690,
      "Ġèĭ¥": 2691,
      "ĠçĶŁçī©": 2692,
      "Ġç¨ĭ": 2693,
      "ĠæĿĳ": 2694,
      "Ġå½¢è±¡": 2695,
      "åģļ": 2696,
      "ĠåĬ³": 2697,
      "åĿ¦": 2698,
      "åįĩ": 2699,
      "å°½": 2700,
      "Ġ26": 2701,
      "Ġæ°§": 2702,
      "å¡ŀ": 2703,
      "Ġæ¨¡": 2704,
      "å¦¹": 2705,
      "Ġæ¾³": 2706,
      "Ġo": 2707,
      "Ġæłĩå¿Ĺ": 2708,
      "ĠèĮ¶": 2709,
      "Ġèĥ½å¤Ł": 2710,
      "ĠæĹ§": 2711,
      "Ġä¸ľåįĹ": 2712,
      "Ġå»ºè®¾": 2713,
      "ĠåĵģçīĮ": 2714,
      "ä¾ĭ": 2715,
      "é²ľ": 2716,
      "ä¸İ": 2717,
      "èį£": 2718,
      "æľĹ": 2719,
      "ĠåĨ·": 2720,
      "Ġäºİæĺ¯": 2721,
      "ĠåĽĽå¤§": 2722,
      "ĠåĪĨä¸º": 2723,
      "ĠéĶĻ": 2724,
      "Ġå·´è¥¿": 2725,
      "ĠåĲĽ": 2726,
      "çĽĽ": 2727,
      "Ġæİ§": 2728,
      "å°ıè¯´": 2729,
      "ç»ĥ": 2730,
      "ĠçĶŁäºİ": 2731,
      "om": 2732,
      "ä¸ģ": 2733,
      "Ġæī®æ¼Ķ": 2734,
      "Ġç¹ģ": 2735,
      "Ġä¸»é¢ĺ": 2736,
      "å¹ķ": 2737,
      "Ġä¼¤": 2738,
      "Ġèµ¤": 2739,
      "Ġj": 2740,
      "Ġç¿»": 2741,
      "åŃĻ": 2742,
      "ĠéĩĮéĿ¢": 2743,
      "Ġx": 2744,
      "Ġåĵªä¸ª": 2745,
      "Ġä¸Ģå¹´": 2746,
      "ac": 2747,
      "Ġå®ŀéĻħ": 2748,
      "ĠéĹ´": 2749,
      "èį¯": 2750,
      "Ġå°ģå»º": 2751,
      "Ġè¡ĮæĶ¿": 2752,
      "Ġæłĳ": 2753,
      "ä¼Ł": 2754,
      "è¯»": 2755,
      "èĻ«": 2756,
      "Ġ192": 2757,
      "Ġçĭ¬ç«ĭ": 2758,
      "ĠåĽ½åĨħ": 2759,
      "Ġæİ¢": 2760,
      "ç½Ĺæĸ¯": 2761,
      "çĪ¶": 2762,
      "ĠåıĹåĪ°": 2763,
      "Ġè¾½": 2764,
      "ĠæĽ¹æĵį": 2765,
      "Ġä½ĵèĤ²": 2766,
      "is": 2767,
      "ĠãĢĮ": 2768,
      "Ġè¾¾åĪ°": 2769,
      "çīĽ": 2770,
      "ĠåŃ¦ä¹ł": 2771,
      "18": 2772,
      "èĳĽ": 2773,
      "çŃĸ": 2774,
      "Ġä¸įæĸŃ": 2775,
      "Ġçºªå¿µ": 2776,
      "Ġæ¼«": 2777,
      "Ġç§¯": 2778,
      "æĺ¾": 2779,
      "Ġåİĭ": 2780,
      "Ġè®¡ç®Ĺ": 2781,
      "éĿ©åĳ½": 2782,
      "ĠéĽħ": 2783,
      "ç«¥": 2784,
      "æ¼«": 2785,
      "Ġæ²»": 2786,
      "æĻļ": 2787,
      "ĠéĩĩçĶ¨": 2788,
      "å¾ħ": 2789,
      "Ġ---": 2790,
      "10": 2791,
      "Ġçī¹çĤ¹": 2792,
      "æ¯Ĵ": 2793,
      "çĨĻ": 2794,
      "ĠéĽĦ": 2795,
      "Ġä¸¾åĬŀ": 2796,
      "ĠãĢį": 2797,
      "le": 2798,
      "Ġå¿ħé¡»": 2799,
      "ĠåįĹäº¬": 2800,
      "éĺ¶çº§": 2801,
      "ĠæĢİä¹Ī": 2802,
      "Ġç¬¬åĽĽ": 2803,
      "Ġè·³": 2804,
      "Ġæĸ¹å¼ı": 2805,
      "ĠæĢĢ": 2806,
      "åĤ": 2807,
      "éŁ": 2808,
      "ä½İ": 2809,
      "ĠåĶ¯ä¸Ģ": 2810,
      "èĸ": 2811,
      "Ġè¶ħè¿ĩ": 2812,
      "Ġåħļ": 2813,
      "Ġå®ģ": 2814,
      "éĩĬ": 2815,
      "è¡£": 2816,
      "Ġåľ°ä½į": 2817,
      "åĽłä¸º": 2818,
      "ĠåĪļ": 2819,
      "ĠåĪĽéĢł": 2820,
      "åºĦ": 2821,
      "ä¾¿": 2822,
      "é»Ħ": 2823,
      "Ġ2000": 2824,
      "ç¾Ĭ": 2825,
      "Ġæ··": 2826,
      "ĠçĽ¸å½ĵ": 2827,
      "å¥ı": 2828,
      "æĻº": 2829,
      "ĠçĶ³": 2830,
      "å£ģ": 2831,
      "ĠæĿ¡ä»¶": 2832,
      "ï¼": 2833,
      "Ġå®½": 2834,
      "Ġå¹³åĿĩ": 2835,
      "Ġç«¥": 2836,
      "Ġè§īå¾Ĺ": 2837,
      "Ġæľĭåıĭ": 2838,
      "æīĺ": 2839,
      "ĠæĥĬ": 2840,
      "Ġåįĩ": 2841,
      "æ´Ľ": 2842,
      "ĠæııåĨĻ": 2843,
      "Ġçīĩ": 2844,
      "ĠæĪ¿": 2845,
      "ĠéĽ¨": 2846,
      "ĠåĪ©çĶ¨": 2847,
      "Ġ2010": 2848,
      "ĠæľĢç»Ī": 2849,
      "Ġé²ľ": 2850,
      "ĠæĤ¨": 2851,
      "Ġå½¢å¼ı": 2852,
      "Ġå°Ħ": 2853,
      "æ¢ħ": 2854,
      "éķľ": 2855,
      "ĠæĿĤ": 2856,
      "Ġ60": 2857,
      "ĠÂ°": 2858,
      "åĿ¡": 2859,
      "èģĮ": 2860,
      "Ġä½ľå®¶": 2861,
      "ĠæĦ": 2862,
      "¯®": 2863,
      "åĲī": 2864,
      "èĮĥ": 2865,
      "Ġçıį": 2866,
      "ĠæķĪ": 2867,
      "æĽ¼": 2868,
      "åıª": 2869,
      "ĠåĢŁ": 2870,
      "Ġ27": 2871,
      "ĠéĢīæĭ©": 2872,
      "å®Ī": 2873,
      "Ġä¼ģä¸ļ": 2874,
      "Ġåĵ¥": 2875,
      "ĠåĳĬ": 2876,
      "å¯º": 2877,
      "Ġæ¹ĸåįĹ": 2878,
      "Ġä¸īä¸ª": 2879,
      "ĠæıĲä¾Ľ": 2880,
      "å¾Ħ": 2881,
      "12": 2882,
      "Ġå¸Ĥåľº": 2883,
      "ç»ľ": 2884,
      "ä¸»è§Ĵ": 2885,
      "æľ«": 2886,
      "Ġç¤¼": 2887,
      "åĵĪ": 2888,
      "Ġä¸»å¸Ń": 2889,
      "ĠæĦıä¹ī": 2890,
      "ĠéĴ±": 2891,
      "Ġå°Ĭ": 2892,
      "è¾ĸ": 2893,
      "Ġçº¿": 2894,
      "åįļ": 2895,
      "Ġæ²¹": 2896,
      "ĠçĶĺ": 2897,
      "Ġæ¯įäº²": 2898,
      "Ġå¹¿ä¸ľ": 2899,
      "éĥİ": 2900,
      "ä»ģ": 2901,
      "èķ": 2902,
      "ĠéĢĢ": 2903,
      "ä½ł": 2904,
      "è¯·": 2905,
      "ĠåĽº": 2906,
      "ĠåĪ¶åº¦": 2907,
      "ing": 2908,
      "é¸Ł": 2909,
      "Ġæķ´ä¸ª": 2910,
      "it": 2911,
      "å§ĵ": 2912,
      "ç»©": 2913,
      "Ġå¤«": 2914,
      "ç£": 2915,
      "Ġå¹¸": 2916,
      "Ġåŀ": 2917,
      "ĠåĪ¶ä½ľ": 2918,
      "å®ĥ": 2919,
      "ä¾ł": 2920,
      "Ġç®Ĺ": 2921,
      "æ¬¾": 2922,
      "ç¤¼": 2923,
      "Ġæľīäºº": 2924,
      "ä¸´": 2925,
      "ĠåŃ©": 2926,
      "æµĭ": 2927,
      "å²³": 2928,
      "Ġæº¶": 2929,
      "ĠåŁĥ": 2930,
      "ĠåŃ¦çĶŁ": 2931,
      "Ġv": 2932,
      "Ġå½ĵçĦ¶": 2933,
      "ĠæŁ¥": 2934,
      "ĠæĶ¿åºľ": 2935,
      "ĠåĮĸåŃ¦": 2936,
      "Ġä»ĭç»į": 2937,
      "Ġå«": 2938,
      "ĠæŃĮæīĭ": 2939,
      "ç²ī": 2940,
      "æ°§åĮĸ": 2941,
      "éĥ¨åĪĨ": 2942,
      "Ġä¹°": 2943,
      "Ġè¿Ļä¸Ģ": 2944,
      "ĠæĿ¥èĩª": 2945,
      "Ġå¸ĿåĽ½": 2946,
      "Ġäººä½ĵ": 2947,
      "ĠåĲįç§°": 2948,
      "ĠåĪ¶éĢł": 2949,
      "Ġæī¹": 2950,
      "è½®": 2951,
      "æŁĵ": 2952,
      "æ¦": 2953,
      "å°¾": 2954,
      "ĠæĻĭ": 2955,
      "Ġå»¶": 2956,
      "Ġåĩı": 2957,
      "å¦Ī": 2958,
      "Ġä¸ºä»Ģä¹Ī": 2959,
      "ĠçľŁæŃ£": 2960,
      "Ġçĳŀ": 2961,
      "Ġæľ«": 2962,
      "Ġç«Ļ": 2963,
      "è¿ª": 2964,
      "Ġæ°ĳéĹ´": 2965,
      "å©Ĩ": 2966,
      "èµ°": 2967,
      "èİ±": 2968,
      "Ġåı³": 2969,
      "Ġèĸ": 2970,
      "èĢ³": 2971,
      "Ġèį£": 2972,
      "é¢Ĺ": 2973,
      "Ġèĭ±æĸĩ": 2974,
      "Ġæµª": 2975,
      "Ġä¿Ħç½Ĺæĸ¯": 2976,
      "²Į": 2977,
      "ç¾İæ´²": 2978,
      "ĠæĽ¾ç»ı": 2979,
      "Ġæ¨ª": 2980,
      "Ġä¾µ": 2981,
      "Ġæ°ĶåĢĻ": 2982,
      "Ġåŀĭ": 2983,
      "ä»ª": 2984,
      "Ġæ¯ıå¹´": 2985,
      "åĨł": 2986,
      "æ´¥": 2987,
      "ĠåĳĪ": 2988,
      "Ġç¬¦": 2989,
      "Ġç»ĵæŀľ": 2990,
      "Ġå¥³åĦ¿": 2991,
      "±ä¹Ĳ": 2992,
      "ĠåĲķ": 2993,
      "ĠåĽ½æ°ĳ": 2994,
      "Ġä¸ľæĸ¹": 2995,
      "è¯º": 2996,
      "Ġæŀľ": 2997,
      "Ġä¸ĢçĤ¹": 2998,
      "Ġåħ¨çĲĥ": 2999,
      "æıĲ": 3000,
      "Ġ2006": 3001,
      "è¯ī": 3002,
      "ä¹±": 3003,
      "ĠèĢĮæĺ¯": 3004,
      "çĬ": 3005,
      "Ġèĥ½åĬĽ": 3006,
      "ĠåŃ©åŃĲ": 3007,
      "ĠçĦ": 3008,
      "Ġé»Ħæ²³": 3009,
      "Ġæ¸¯": 3010,
      "Ġéĵľ": 3011,
      "åįĪ": 3012,
      "å°ļ": 3013,
      "ĦĴ": 3014,
      "ĠåħĦ": 3015,
      "Ġç¼º": 3016,
      "Ġæİ§åĪ¶": 3017,
      "ä½Ĩ": 3018,
      "Ġå¼ķèµ·": 3019,
      "ĠèĹı": 3020,
      "Ġ2007": 3021,
      "çģŃ": 3022,
      "åıį": 3023,
      "Ġä¸įè¦ģ": 3024,
      "Ġä»Ĭå¤©": 3025,
      "Ġè§Ĵèī²": 3026,
      "æ£®": 3027,
      "ç¥¥": 3028,
      "Ġå®ĩ": 3029,
      "Ġä¸Ģé¦ĸ": 3030,
      "Ġå·¥ç¨ĭ": 3031,
      "Ġå¹¶ä¸Ķ": 3032,
      "ĠåŃ¦æł¡": 3033,
      "æī¹": 3034,
      "æį¢": 3035,
      "Ġç¬¬ä¸Ģéĥ¨": 3036,
      "Ġä»»ä½ķ": 3037,
      "Ġä¸ĵè¾ĳ": 3038,
      "Ġå¼Ĥ": 3039,
      "ĠéĢŁ": 3040,
      "ĠåıįåºĶ": 3041,
      "Ġè±¡å¾ģ": 3042,
      "Ġé£İæĻ¯": 3043,
      "Ġä¹ĭåīį": 3044,
      "Ġå¡Ķ": 3045,
      "è´£": 3046,
      "Ġçº¯": 3047,
      "ĠéĴ¢": 3048,
      "Ġæ¯«": 3049,
      "Ġä¼łè¯´": 3050,
      "èĪª": 3051,
      "Ġè¥¿åĮĹ": 3052,
      "ĠåĶĲä»£": 3053,
      "ou": 3054,
      "ĠéĻ¤äºĨ": 3055,
      "ĠæĦŁè§ī": 3056,
      "ĠèĭıèģĶ": 3057,
      "æ¬§": 3058,
      "ĠåĶĲæľĿ": 3059,
      "ĠçĿ": 3060,
      "Ġè¯¸èĳĽ": 3061,
      "Ġä¸ĢåĪĩ": 3062,
      "æī¬": 3063,
      "Ġåħ¨éĥ¨": 3064,
      "Ġéĺ´": 3065,
      "Ġè¥¿æĸ¹": 3066,
      "ç¤¾": 3067,
      "Ġä¸Ģå¤©": 3068,
      "èı²": 3069,
      "ĠåĸĦ": 3070,
      "Ġåģĩ": 3071,
      "Ġæµĵ": 3072,
      "ĠçģŃ": 3073,
      "Ġå¤ļå¹´": 3074,
      "ä¿®": 3075,
      "Ġæ´ª": 3076,
      "Ġçİ°å®ŀ": 3077,
      "Ġäº§åĵģ": 3078,
      "å¨ľ": 3079,
      "ĠæľĽ": 3080,
      "çķĻ": 3081,
      "Ġç§»": 3082,
      "Ġæ±Łèĭı": 3083,
      "Ġä¸ĢæĿ¡": 3084,
      "Ġå¥³åŃĲ": 3085,
      "Ġèıľ": 3086,
      "Ġä¸¹": 3087,
      "ä¾¯": 3088,
      "çĿ£": 3089,
      "Ġåħ°": 3090,
      "ĠçĽ¸å¯¹": 3091,
      "Ġ2009": 3092,
      "è°¢": 3093,
      "as": 3094,
      "Ġç¬ĳ": 3095,
      "ĠåĪº": 3096,
      "Ġäº¤éĢļ": 3097,
      "Ġç»ĵæĿŁ": 3098,
      "Ġåıĳè¡Į": 3099,
      "Ġå³": 3100,
      "Ġæ¥¼": 3101,
      "am": 3102,
      "ol": 3103,
      "Ġè¯´æĺİ": 3104,
      "Ġä¸Ģä¸ĭ": 3105,
      "Ġæ¬¢": 3106,
      "ĠåįĹåĮĹ": 3107,
      "ç¼ĺ": 3108,
      "Ġä»¥ä¸ĭ": 3109,
      "Ġåıĸå¾Ĺ": 3110,
      "æĦ¿": 3111,
      "Ġä»¥åīį": 3112,
      "Ġé¢ľèī²": 3113,
      "Ġåħ·ä½ĵ": 3114,
      "Ġè¡¥": 3115,
      "èĪ°": 3116,
      "Ġç©ºæ°Ķ": 3117,
      "é¡¶": 3118,
      "ĠçĲĨè®º": 3119,
      "æ¥ļ": 3120,
      "Ġä»¥æĿ¥": 3121,
      "åĿĽ": 3122,
      "çģ¯": 3123,
      "Ġç´ł": 3124,
      "ĠæĺĨ": 3125,
      "ĠåĬŁèĥ½": 3126,
      "éĻį": 3127,
      "ĠéĻķ": 3128,
      "ĠéĢĲæ¸Ĳ": 3129,
      "Ġæ¸¸æĪı": 3130,
      "Ġç´§": 3131,
      "Ġåħ¼": 3132,
      "åĪļ": 3133,
      "et": 3134,
      "Ġä¼ļè®®": 3135,
      "Ġæĺ¥ç§ĭ": 3136,
      "å®¾": 3137,
      "Ġç»ıåħ¸": 3138,
      "Ġå£®": 3139,
      "Ġ29": 3140,
      "éĶĭ": 3141,
      "ĠèĴĻåı¤": 3142,
      "æ³Ĭ": 3143,
      "Ġåıªèĥ½": 3144,
      "ĠèĽĭ": 3145,
      "Ġè¥¿åįĹ": 3146,
      "Ġåħ±åĲĮ": 3147,
      "åį°": 3148,
      "ï¼Ī": 3149,
      "ĠæĹłæ³ķ": 3150,
      "Ġè¯ŀ": 3151,
      "Ġç»ĵå©ļ": 3152,
      "Ġçİ©": 3153,
      "ĠåĩºçīĪ": 3154,
      "Ġéĺ¶": 3155,
      "åŁİå¸Ĥ": 3156,
      "Ġå·¨å¤§": 3157,
      "ĠéĿĴå¹´": 3158,
      "çħ": 3159,
      "Ġç»¼": 3160,
      "æĻĭ": 3161,
      "æİĴ": 3162,
      "Ġä¸įåı¯": 3163,
      "ĠéĴŁ": 3164,
      "Ġé¸Ł": 3165,
      "Ġçİ°è±¡": 3166,
      "è¶£": 3167,
      "50": 3168,
      "Ġä¼¼": 3169,
      "çĨŁ": 3170,
      "Ġèµŀ": 3171,
      "Ġå¤ļå°ĳ": 3172,
      "Ġä¹ł": 3173,
      "äºĪ": 3174,
      "Ġåħĥç´ł": 3175,
      "Ġå§ĵ": 3176,
      "ĠäººçĶŁ": 3177,
      "ĠâĢĻ": 3178,
      "ĠéĤĵ": 3179,
      "Ġåıįæĺł": 3180,
      "Ġä½įç½®": 3181,
      "id": 3182,
      "ĠçŃīçŃī": 3183,
      "çĸĨ": 3184,
      "ĠèĤ¯": 3185,
      "ĠäºĴ": 3186,
      "Ġæī©": 3187,
      "Ġç½Ĺé©¬": 3188,
      "Ġç§ĺ": 3189,
      "Ġå¼Ģåıĳ": 3190,
      "Ġæīįèĥ½": 3191,
      "Ġå°ĳå¹´": 3192,
      "ĠåŃ¤": 3193,
      "èĭ¥": 3194,
      "å¸Į": 3195,
      "çĽĸ": 3196,
      "çĵ¦": 3197,
      "Ġåı¸é©¬": 3198,
      "Ġæĸ¹åĲĳ": 3199,
      "Ġæĳ©": 3200,
      "Ġç²ī": 3201,
      "Ġé£İæł¼": 3202,
      "Ġèį¯": 3203,
      "ĠåĢĴ": 3204,
      "å½Ĵ": 3205,
      "Ġé¦ĸæ¬¡": 3206,
      "Ġæ®ĭ": 3207,
      "Ġç¾İä¸½": 3208,
      "Ġçİĩ": 3209,
      "Ġè´¢": 3210,
      "Ġä¸ĢçĶŁ": 3211,
      "11": 3212,
      "è§Ī": 3213,
      "Ġé¥®": 3214,
      "ĠæľŁéĹ´": 3215,
      "ĠåıĺæĪĲ": 3216,
      "Ġæµ·æĭĶ": 3217,
      "è¿ħ": 3218,
      "Ġä¹ī": 3219,
      "Ġåĺī": 3220,
      "æĹ¶æľŁ": 3221,
      "æŀ¶": 3222,
      "Ġ80": 3223,
      "Ġå§Ķåĳĺ": 3224,
      "åŃ¦éĻ¢": 3225,
      "Ġæł¡": 3226,
      "Ġæīĭæľº": 3227,
      "æĭ¿": 3228,
      "æ³°": 3229,
      "è¹": 3230,
      "éĩİ": 3231,
      "Ġå¯»": 3232,
      "éħį": 3233,
      "æľª": 3234,
      "Ġåģľ": 3235,
      "Ġè¡¨æ¼Ķ": 3236,
      "ĠæŁ³": 3237,
      "Ġå°ĳæķ°": 3238,
      "åİļ": 3239,
      "ĠçĶµåŃĲ": 3240,
      "ĠæľĢéķ¿": 3241,
      "Ġéģĩ": 3242,
      "å´": 3243,
      "æĢ»": 3244,
      "åĲ¦": 3245,
      "Ġèº«ä»½": 3246,
      "ĠéĶ¦": 3247,
      "ĠçŁ¥è¯Ĩ": 3248,
      "åĪĢ": 3249,
      "Ġå®ŀçİ°": 3250,
      "çĽĺ": 3251,
      "Ġæ¦Ĥ": 3252,
      "ĠæİĮ": 3253,
      "Ġ90": 3254,
      "å¾Ĵ": 3255,
      "å¿Ĩ": 3256,
      "Ġæ¸©åº¦": 3257,
      "Ġèµ·æºĲ": 3258,
      "Ġå®¶åºŃ": 3259,
      "Ġåľ°çĲĨ": 3260,
      "Ġæ·¡": 3261,
      "éĴ±": 3262,
      "Ġè¾Ľ": 3263,
      "Ġä¸ºä¸»": 3264,
      "Ġä¾ĭ": 3265,
      "åİĤ": 3266,
      "Ġèĩ³ä»Ĭ": 3267,
      "ĠæłĩåĩĨ": 3268,
      "çıŃçīĻ": 3269,
      "Ġéª¨": 3270,
      "ĠâĢĺ": 3271,
      "Ġä¹ĺ": 3272,
      "Ġ2005": 3273,
      "Ġé¦ĸåħĪ": 3274,
      "Ġåį·": 3275,
      "æĢĢ": 3276,
      "ĠèĪ¹": 3277,
      "ĠåİŁæĿ¥": 3278,
      "Ġåģ¶": 3279,
      "Ġä¸ĵä¸ļ": 3280,
      "äº§éĺ¶çº§": 3281,
      "äººæ°ĳåħ±åĴĮåĽ½": 3282,
      "çĥ§": 3283,
      "Ġè¯´æ³ķ": 3284,
      "Ġä¹Ķ": 3285,
      "ĠåĬłåħ¥": 3286,
      "Ġä¸»æĮģ": 3287,
      "ĠéĽĨåĽ¢": 3288,
      "åĬ¨çī©": 3289,
      "Ġ2014": 3290,
      "èĮ¶": 3291,
      "å·®": 3292,
      "Ġå°ļ": 3293,
      "Ġéĺ¿æĭī": 3294,
      "Ġå¢¨": 3295,
      "ba": 3296,
      "Ġè¢ģ": 3297,
      "Ġä½ı": 3298,
      "çĥŁ": 3299,
      "è²Į": 3300,
      "æĻ®": 3301,
      "æĶ»": 3302,
      "ĠåĪĺå¤ĩ": 3303,
      "ĠåħĦå¼Ł": 3304,
      "Ġåģ¥": 3305,
      "æł¸": 3306,
      "Ġæµ·æ´ĭ": 3307,
      "Ġä¸Ķ": 3308,
      "Ġè¡¨è¾¾": 3309,
      "Ġå¹¿å·ŀ": 3310,
      "ĠäºĳåįĹ": 3311,
      "Ġ2004": 3312,
      "Ġåĩłä¹İ": 3313,
      "ĠéĨ": 3314,
      "ĠéļıçĿĢ": 3315,
      "çĪ¸": 3316,
      "Ġå¢ŀåĬł": 3317,
      "ĠåĬĽéĩı": 3318,
      "Ġå¢ĥåĨħ": 3319,
      "åĴ": 3320,
      "Ġãĥ": 3321,
      "ĠæĿ¾": 3322,
      "ĠæľĢå¥½": 3323,
      "Ġæ¯ķä¸ļ": 3324,
      "ĠåħĪåĲİ": 3325,
      "Ġç»ıåİĨ": 3326,
      "é½Ĳ": 3327,
      "æķ¦": 3328,
      "è¯ĳ": 3329,
      "è´¤": 3330,
      "äº§åħļ": 3331,
      "Ġæ¸ħæľĿ": 3332,
      "ĠéĢłæĪĲ": 3333,
      "ĠæĿ¡çº¦": 3334,
      "ç®Ń": 3335,
      "å¼ķ": 3336,
      "Ġ70": 3337,
      "æĹ¦": 3338,
      "Ġåı«åģļ": 3339,
      "åĮ¹": 3340,
      "Ġæ´ŀ": 3341,
      "ĠäºĨè§£": 3342,
      "Ġæĺĵ": 3343,
      "Ġåĩ¤": 3344,
      "Ġå®īå¾½": 3345,
      "ĠæĿŃ": 3346,
      "è¥¿çľģ": 3347,
      "Ġä¸Ńæĸĩ": 3348,
      "Ġè¥¿çıŃçīĻ": 3349,
      "åľĪ": 3350,
      "æ³Ľ": 3351,
      "he": 3352,
      "åª": 3353,
      "Ġäº«": 3354,
      "Ġå£°éŁ³": 3355,
      "è´¯": 3356,
      "æ±ł": 3357,
      "ĠéĿł": 3358,
      "tt": 3359,
      "Ġå±Ģ": 3360,
      "Ġç½ĳç»ľ": 3361,
      "us": 3362,
      "ĠåıĪç§°": 3363,
      "æºª": 3364,
      "Ġè¯ŀçĶŁ": 3365,
      "çº¸": 3366,
      "Ġæ¹ĸåĮĹ": 3367,
      "Ġåĩºèĩª": 3368,
      "ĠåĬ³åĬ¨": 3369,
      "Ġè´¨éĩı": 3370,
      "éĢĶ": 3371,
      "æĬĺ": 3372,
      "Ġåı¦å¤ĸ": 3373,
      "Ġç»Īäºİ": 3374,
      "ĠåįģäºĮ": 3375,
      "Ġå®ĹæķĻ": 3376,
      "Ġè´¾": 3377,
      "ĠæĿ¥è¯´": 3378,
      "ĠæĢ»ç»Ł": 3379,
      "ĠæŀĦæĪĲ": 3380,
      "Ġç¼ĸè¾ĳ": 3381,
      "å®ĩ": 3382,
      "ĠåĽ´": 3383,
      "Ġåĩłä¸ª": 3384,
      "è°ĭ": 3385,
      "è¡¡": 3386,
      "Ġè½¯": 3387,
      "Ġç¡®å®ļ": 3388,
      "æĳĦ": 3389,
      "Ġæ±Ĥ": 3390,
      "å®ľ": 3391,
      "æ´ģ": 3392,
      "ĠæĸĩåŃĹ": 3393,
      "ĠéĽ¶": 3394,
      "ĠæļĹ": 3395,
      "ĠéģŃ": 3396,
      "éģĩ": 3397,
      "Ġä¿ĥ": 3398,
      "Ġåĩ»": 3399,
      "ĠéĢŁåº¦": 3400,
      "ĠéĢı": 3401,
      "Ġæ²³æµģ": 3402,
      "Ġä¸īåįģ": 3403,
      "Ġ36": 3404,
      "èļ": 3405,
      "Ġå¹³æĸ¹åħ¬éĩĮ": 3406,
      "åĺī": 3407,
      "Ġæĸ½": 3408,
      "Ġå¸®åĬ©": 3409,
      "éģį": 3410,
      "åįı": 3411,
      "æģĭ": 3412,
      "Ġä¸Ŀ": 3413,
      "ĠæľįåĬ¡": 3414,
      "ĠåĩŃ": 3415,
      "Ġèĭ¦": 3416,
      "ĠæŃ¥": 3417,
      "èµı": 3418,
      "å²©": 3419,
      "Ġè¿ĲåĬ¨åĳĺ": 3420,
      "æŀª": 3421,
      "ĠæľīäºĽ": 3422,
      "Ġè¥¿éĥ¨": 3423,
      "ĠéĹ»": 3424,
      "ä¾§": 3425,
      "ĠåĪĴ": 3426,
      "Ġä»İèĢĮ": 3427,
      "Ġä¸Ģåº§": 3428,
      "Ġåĭĩ": 3429,
      "Ġåį±": 3430,
      "Ġèº«ä½ĵ": 3431,
      "ĠèĶ¡": 3432,
      "çĽ¾": 3433,
      "ç³ĸ": 3434,
      "Ġ\\": 3435,
      "å¥Ĺ": 3436,
      "éĤ£": 3437,
      "¤Ĳ": 3438,
      "åĨ²": 3439,
      "æ¢ģ": 3440,
      "ĠéļĲ": 3441,
      "Ġæ¶²": 3442,
      "ĠæĶ¹åıĺ": 3443,
      "æĿİ": 3444,
      "Ġéļĭ": 3445,
      "Ġå·´é»İ": 3446,
      "ĠåİŁåĲį": 3447,
      "Ġæĺ¯åĽłä¸º": 3448,
      "Ġçıł": 3449,
      "åĸľ": 3450,
      "Ġè¯¸èĳĽäº®": 3451,
      "æħ§": 3452,
      "Ġå¾ģ": 3453,
      "ĠåĪĨæŀĲ": 3454,
      "ĠæºĲ": 3455,
      "Ġå¦»": 3456,
      "è±Ĩ": 3457,
      "Ġè§Ĥä¼Ĺ": 3458,
      "æĿĤ": 3459,
      "Ġåĵ²": 3460,
      "Ġ2003": 3461,
      "un": 3462,
      "14": 3463,
      "Ġç¾Ĭ": 3464,
      "ĠçĲĥéĺŁ": 3465,
      "Ġç»§ç»Ń": 3466,
      "Ġè·¨": 3467,
      "Ġèĳ£": 3468,
      "Ġåīĳ": 3469,
      "éľĩ": 3470,
      "Ġæµĭ": 3471,
      "æĸ¯åĿ¦": 3472,
      "Ġå¹¿æ³Ľ": 3473,
      "Ġä¸Ńåįİäººæ°ĳåħ±åĴĮåĽ½": 3474,
      "Ġåıªè¦ģ": 3475,
      "Ġæĭħä»»": 3476,
      "è¯¯": 3477,
      "Ġç«ŀ": 3478,
      "Ġé¡¹çĽ®": 3479,
      "ĠæĪ´": 3480,
      "åľĨ": 3481,
      "Ġå¼¹": 3482,
      "Ġçī¹èī²": 3483,
      "æ®Ĭ": 3484,
      "ĠèģĶåĲĪåĽ½": 3485,
      "åºĵ": 3486,
      "è¶ħ": 3487,
      "ĠåľŁåľ°": 3488,
      "ĠåĪ»": 3489,
      "åģ¥": 3490,
      "Ġ190": 3491,
      "Ġå¹³åİŁ": 3492,
      "Ġèį·åħ°": 3493,
      "Ġè¿·": 3494,
      "æ´ŀ": 3495,
      "åĽº": 3496,
      "Ġä¸Ģæ®µ": 3497,
      "Ġå®īåħ¨": 3498,
      "ĠåĽŀçŃĶ": 3499,
      "ç»Ĩèĥŀ": 3500,
      "Ġä¸įå¾Ĺ": 3501,
      "Ġå®ŀéªĮ": 3502,
      "Ġç¯ĩ": 3503,
      "Ġä¸»äºº": 3504,
      "Ġå¾Īå¤§": 3505,
      "Ġéº»": 3506,
      "Ġï¼ĳ": 3507,
      "ĠèĿ": 3508,
      "ĠåĲ¯": 3509,
      "Ġçº³": 3510,
      "Ġå®¹æĺĵ": 3511,
      "Ġä¸įå°ĳ": 3512,
      "ĠæĦŁæĥħ": 3513,
      "ed": 3514,
      "èĿ": 3515,
      "èĩªæ²»": 3516,
      "éº¦": 3517,
      "Ġè¿ŀç»Ń": 3518,
      "Ġä½ľæĽ²": 3519,
      "ĠåĨĽéĺŁ": 3520,
      "Ġä»£è¡¨ä½ľ": 3521,
      "Ġç»ĵåĲĪ": 3522,
      "Ġéº¦": 3523,
      "Ġæķĳ": 3524,
      "Ġæ¯Ķå¦Ĥ": 3525,
      "åĲ«": 3526,
      "ĠåĦĴ": 3527,
      "æ¾": 3528,
      "å¼ĥ": 3529,
      "Ġå¼Ł": 3530,
      "Ġq": 3531,
      "åĲ¬": 3532,
      "ç§¦": 3533,
      "æ¼ł": 3534,
      "ĠçĥŁ": 3535,
      "ĠãĤ": 3536,
      "ĠæľĿä»£": 3537,
      "Ġæ±īæĹı": 3538,
      "åį·": 3539,
      "ĠéĻ¶": 3540,
      "ĠæĭįæĳĦ": 3541,
      "è¡Ĺ": 3542,
      "Ġä¿¡æģ¯": 3543,
      "Ġå¦Ī": 3544,
      "Ġæ±¤": 3545,
      "Ġäºĭä»¶": 3546,
      "ĠçİĭæľĿ": 3547,
      "Ġä»·åĢ¼": 3548,
      "ĠÐ": 3549,
      "Ġè·Ŀç¦»": 3550,
      "Ġè¿ĳä»£": 3551,
      "åĥ": 3552,
      "ĠåıĳåĬ¨": 3553,
      "ĠèĲ§": 3554,
      "ä¸ĸçºª": 3555,
      "ĠæĪĲå°±": 3556,
      "ä¿Ĭ": 3557,
      "Ġç¬¬åįģ": 3558,
      "å¹»": 3559,
      "ĠæīĢåľ¨": 3560,
      "ĠèŃ¦": 3561,
      "Ġæ²³åĮĹ": 3562,
      "Ġè®¡åĪĴ": 3563,
      "Ġä¹¾": 3564,
      "Ġç¬¬äºĶ": 3565,
      "è¿ģ": 3566,
      "Ġè§£æĶ¾": 3567,
      "ĠèģĮä¸ļ": 3568,
      "ĠæľīéĻĲ": 3569,
      "çĭ¬": 3570,
      "ĠæĴŃ": 3571,
      "ĠéĤ£äºĽ": 3572,
      "ä¸¤": 3573,
      "ĠåĴĮå¹³": 3574,
      "ĠèĻİ": 3575,
      "Ġé£Łçī©": 3576,
      "ä¾Ŀ": 3577,
      "Ġå¯Ĵ": 3578,
      "Ġæµģè¡Į": 3579,
      "Ġæ´Ĺ": 3580,
      "Ġè°Ī": 3581,
      "æĸĩåŃ¦": 3582,
      "Ġè¿Ļé¦ĸ": 3583,
      "ç»Ħç»ĩ": 3584,
      "Ġ189": 3585,
      "Ġæ£®": 3586,
      "¡èĲ": 3587,
      "ĠæľīçĿĢ": 3588,
      "èĤĥ": 3589,
      "èªīä¸º": 3590,
      "Ġè¯ĹæŃĮ": 3591,
      "Ģĳ": 3592,
      "Ġåıĳè¡¨": 3593,
      "ĠçĪ¸": 3594,
      "çĸĳ": 3595,
      "ĠçĶ·åŃĲ": 3596,
      "Ġè½½": 3597,
      "Ġ31": 3598,
      "èŀį": 3599,
      "Ġæİ¥åıĹ": 3600,
      "¡èĲĦ": 3601,
      "Ġ35": 3602,
      "æĭľ": 3603,
      "Ġå¹´è½»": 3604,
      "èĴĤ": 3605,
      "Ġçĩĥ": 3606,
      "ĠæĶ¯æĮģ": 3607,
      "ĠèĮĥåĽ´": 3608,
      "ĠæķĮ": 3609,
      "ç»¿": 3610,
      "ĠèĻļ": 3611,
      "åĨľ": 3612,
      "ĠæĭĽ": 3613,
      "Ġä¿ĿæĮģ": 3614,
      "Ġç§ĳåŃ¦å®¶": 3615,
      "Ġç³»åĪĹ": 3616,
      "ĠèĥľåĪ©": 3617,
      "ĠæĿĲ": 3618,
      "åı«": 3619,
      "ĠçĽĲ": 3620,
      "ĠéĽĨä¸Ń": 3621,
      "Ġä¾Ľ": 3622,
      "Ġæĵ": 3623,
      "ä¼Ĭ": 3624,
      "ĠéĩĳçīĮ": 3625,
      "Ġç»ıå¸¸": 3626,
      "èĪŁ": 3627,
      "Ġæ°Ķä½ĵ": 3628,
      "å¸ħ": 3629,
      "ĠèµĦæĸĻ": 3630,
      "ĠèľĢ": 3631,
      "åģĩ": 3632,
      "ĠéĻĦè¿ĳ": 3633,
      "Ġæį¢": 3634,
      "Ġçĩķ": 3635,
      "ĠæıĴ": 3636,
      "æķ£": 3637,
      "Ġå¦ĤæŃ¤": 3638,
      "ĠåĲ«æľī": 3639,
      "Ġå¸ĮèħĬ": 3640,
      "Ġå¼ı": 3641,
      "æ¼Ķä¹ī": 3642,
      "Ġ2002": 3643,
      "Ġä¼łå¥ĩ": 3644,
      "æİī": 3645,
      "å§ĭçļĩ": 3646,
      "ĠæĶ¹éĿ©": 3647,
      "éŃĤ": 3648,
      "éĺĶ": 3649,
      "çĶ«": 3650,
      "å¿ħ": 3651,
      "Ġè´¹": 3652,
      "Ġè¢«èªīä¸º": 3653,
      "ĠæĸŃ": 3654,
      "Ġæĸĩç«ł": 3655,
      "Ġèĩ´": 3656,
      "åĳ¼": 3657,
      "Ġåħ»": 3658,
      "é¢Ŀ": 3659,
      "å¼±": 3660,
      "Ġç»¼åĲĪ": 3661,
      "Ġç¦": 3662,
      "ĠæĪĲåĳĺ": 3663,
      "Ġå´ĩ": 3664,
      "ĠçĽĳ": 3665,
      "éĺ²": 3666,
      "å²Ń": 3667,
      "å¦ĥ": 3668,
      "åĿı": 3669,
      "Ġå½©": 3670,
      "Ġåģı": 3671,
      "ĠèĴĭ": 3672,
      "Ġå¹¸ç¦ı": 3673,
      "èİ·": 3674,
      "åł¡": 3675,
      "Ġæ³¨æĦı": 3676,
      "ĠåĮĹæĸ¹": 3677,
      "ĠæŃ£æĺ¯": 3678,
      "Ġèī¾": 3679,
      "Ġé¡¶": 3680,
      "Ġéľį": 3681,
      "æĹ¶éĹ´": 3682,
      "ĠéĢļå¸¸": 3683,
      "ç¢³": 3684,
      "ĠæıŃ": 3685,
      "Ġç®Ģåįķ": 3686,
      "è¿·": 3687,
      "åĪ©äºļ": 3688,
      "Ġæ¡ĥ": 3689,
      "èĽĭ": 3690,
      "Ġéķ": 3691,
      "Ġæģ¶": 3692,
      "è£Ĥ": 3693,
      "il": 3694,
      "Ġæĸĩæĺİ": 3695,
      "ĠæŃ£ç¡®": 3696,
      "æ½®": 3697,
      "ĠåĬłä¸Ĭ": 3698,
      "ĠåĬª": 3699,
      "Ġå¤ļç§į": 3700,
      "Ġå®£å¸ĥ": 3701,
      "Ġå¤ªå¹³æ´ĭ": 3702,
      "ĠéĩįåºĨ": 3703,
      "Ġå¿ĺ": 3704,
      "åºĻ": 3705,
      "Ġæ¡¥": 3706,
      "ĠèĤ¡": 3707,
      "Ġä½ĽæķĻ": 3708,
      "ĠåĻ¨": 3709,
      "ĠåºŁ": 3710,
      "ĠèĬĤçĽ®": 3711,
      "ĠçĲĥåĳĺ": 3712,
      "ĠæĲľ": 3713,
      "Ġä¹ĥ": 3714,
      "Ġå®Ī": 3715,
      "åĲ¸": 3716,
      "ĠåĮĪ": 3717,
      "ç¯ĩå°ıè¯´": 3718,
      "å§Ķä¼ļ": 3719,
      "å«": 3720,
      "å¹ħ": 3721,
      "Ġè¿ģ": 3722,
      "è¾ĵ": 3723,
      "ĠæĻ®éĢļ": 3724,
      "æµĴ": 3725,
      "åĪ¤": 3726,
      "Ġçº¸": 3727,
      "Ġå²³": 3728,
      "Ġçī©çĲĨ": 3729,
      "Ġæ¡Ĥ": 3730,
      "Ġå¹½": 3731,
      "ĠåİŁåŃĲ": 3732,
      "Ġä¼ĳ": 3733,
      "æĻ¨": 3734,
      "Ġçŀ": 3735,
      "æŀĿ": 3736,
      "æ³³": 3737,
      "Ġå°ĳæķ°æ°ĳæĹı": 3738,
      "ĠæĹĹ": 3739,
      "Ġé¸¡": 3740,
      "Ġä¹ĭç§°": 3741,
      "Ġè¿Ļä¹Ī": 3742,
      "Ġå¤§éĥ¨åĪĨ": 3743,
      "Ġèī¯": 3744,
      "Ġè®¤è¯Ĩ": 3745,
      "Ġæ½ľ": 3746,
      "Ġåį¢": 3747,
      "æĬĹ": 3748,
      "Ġæ¶ĪåĮĸ": 3749,
      "Ġèĳ¡èĲĦ": 3750,
      "ĠåĢ¼": 3751,
      "Ġä¼¦": 3752,
      "Ġå¡ŀ": 3753,
      "Ġç¨³": 3754,
      "ĠéĿĻ": 3755,
      "ç³»ç»Ł": 3756,
      "Ġè¾ĵ": 3757,
      "è´Ŀå°Ķ": 3758,
      "æľĢ": 3759,
      "Ġåħ¬ä¸»": 3760,
      "åĭĩ": 3761,
      "ĠèĬĤæĹ¥": 3762,
      "åīĤ": 3763,
      "æĢķ": 3764,
      "Ġå¤§çº¦": 3765,
      "ĠèĤī": 3766,
      "ĠåıĬåħ¶": 3767,
      "ĠåĮĹéĥ¨": 3768,
      "Ġå¯¼èĩ´": 3769,
      "Ġçĭ¬çī¹": 3770,
      "æĸ¹éĿ¢": 3771,
      "Ġï¼ħ": 3772,
      "ī´": 3773,
      "Ġèļ": 3774,
      "åį³": 3775,
      "os": 3776,
      "Ġä¸ļ": 3777,
      "Ġé¬¼": 3778,
      "äºŃ": 3779,
      "Ġéħ¸": 3780,
      "æĤŁ": 3781,
      "Ġä¸¤ç§į": 3782,
      "æĻ¶": 3783,
      "èİ²": 3784,
      "æĳ©": 3785,
      "æĶ¹": 3786,
      "æ®¿": 3787,
      "ĠæĪĺåĽ½": 3788,
      "é»ĳ": 3789,
      "ĠæĮīçħ§": 3790,
      "æĥł": 3791,
      "ĠæĪĲéĥ½": 3792,
      "éĶĢ": 3793,
      "Ġèŀį": 3794,
      "éĢģ": 3795,
      "ĠèµĦæľ¬": 3796,
      "æķı": 3797,
      "ĠçķĻä¸ĭ": 3798,
      "Ġ'": 3799,
      "Ġåº§": 3800,
      "ĠéĽķ": 3801,
      "Ġæ¯ıä¸ª": 3802,
      "ĠèµĦæºĲ": 3803,
      "¡çĮ®": 3804,
      "ĠæľĿé²ľ": 3805,
      "æµª": 3806,
      "éĿł": 3807,
      "ĠæĽ°": 3808,
      "Ġå»ºè®®": 3809,
      "çĦ": 3810,
      "Ġåı¯æĺ¯": 3811,
      "Ġå¤§åŀĭ": 3812,
      "Ġåıĳå°Ħ": 3813,
      "ĠåºĦ": 3814,
      "ĠåĲĦåĽ½": 3815,
      "ĠåĢ¾": 3816,
      "âĢĿ": 3817,
      "Ġæ°´æµĴ": 3818,
      "Ġéĺ¶æ®µ": 3819,
      "æŀĹåĮ¹": 3820,
      "é¸¡": 3821,
      "å¤§æĪĺ": 3822,
      "Ġç¡¬": 3823,
      "æ®ĸ": 3824,
      "Ġä¼ĺç§Ģ": 3825,
      "Ġç¦ıå»º": 3826,
      "ay": 3827,
      "Ġå¤§å°ı": 3828,
      "ĠæĿİçĻ½": 3829,
      "Ġç¤¾ä¼ļä¸»ä¹ī": 3830,
      "Ġä¸įéĶĻ": 3831,
      "Ġè±ª": 3832,
      "Ġåĩ¡": 3833,
      "ĠæīĢè°ĵ": 3834,
      "ad": 3835,
      "æ³½ä¸ľ": 3836,
      "åıĮ": 3837,
      "ĠçľŁçļĦ": 3838,
      "Ġèģļ": 3839,
      "Ġå®ŀè¡Į": 3840,
      "ion": 3841,
      "ĠèĦ±": 3842,
      "Ġå¤§å¤ļ": 3843,
      "å·§": 3844,
      "Ġè·ĳ": 3845,
      "Ġæ³ķå¾ĭ": 3846,
      "Ġé©¾": 3847,
      "Ġæĩ": 3848,
      "Ġé£ŀæľº": 3849,
      "ĠâĨ": 3850,
      "Ġå¦Ĥä½ķ": 3851,
      "Ġéĩĩçº³": 3852,
      "Ġç«¹": 3853,
      "Ġä»İæŃ¤": 3854,
      "Ġç±»åŀĭ": 3855,
      "Ġæµİ": 3856,
      "13": 3857,
      "Ġè´§": 3858,
      "ĠçĽ®çļĦ": 3859,
      "å¦Ļ": 3860,
      "ĠæĮĳ": 3861,
      "Ġè§£éĩĬ": 3862,
      "Ġè¡£": 3863,
      "éĺ¿": 3864,
      "Ġæ°ĳä¸»": 3865,
      "ç»ª": 3866,
      "åĮħ": 3867,
      "èıĮ": 3868,
      "æĥľ": 3869,
      "ĠåĲ¸æĶ¶": 3870,
      "åĨį": 3871,
      "Ġåı¬": 3872,
      "ĠåŃ¦éĻ¢": 3873,
      "Ġè¯ģæĺİ": 3874,
      "ĠæĢ§æł¼": 3875,
      "Ġä¼Ĺå¤ļ": 3876,
      "ĠçĪ¸çĪ¸": 3877,
      "éĵ¶è¡Į": 3878,
      "æµ©": 3879,
      "ĠæĿĲæĸĻ": 3880,
      "ĠæĮģ": 3881,
      "Ġé¼ĵ": 3882,
      "Ġå·ŀ": 3883,
      "åĸ»": 3884,
      "Ġéģ¿": 3885,
      "Ġä¸ľéĥ¨": 3886,
      "Ġè¸": 3887,
      "åĩ¤": 3888,
      "Ĩåľ°": 3889,
      "Ġæ¼«çĶ»": 3890,
      "æ¶¯": 3891,
      "åĬ³": 3892,
      "é©¶": 3893,
      "Ġè¿ħ": 3894,
      "é¡º": 3895,
      "Ġé«ĺåº¦": 3896,
      "åĩł": 3897,
      "å¤§åĪ©äºļ": 3898,
      "ĠèĢģå¸Ī": 3899,
      "Ġè¿Ļéĥ¨": 3900,
      "è®¢": 3901,
      "æķ¬": 3902,
      "Ġå½ĵåľ°": 3903,
      "ĠçľŁå®ŀ": 3904,
      "ĠåĨľä¸ļ": 3905,
      "Ġè¨Ģ": 3906,
      "ĠéĢĥ": 3907,
      "Ġé¦ĸæŃĮ": 3908,
      "é¡¾": 3909,
      "ĠçĨŁ": 3910,
      "åĮ»": 3911,
      "ĠåĬ¨çĶ»": 3912,
      "Ġåĳ³": 3913,
      "ĠèĪĴ": 3914,
      "Ġå¦»åŃĲ": 3915,
      "å¹³æĸ¹": 3916,
      "Ġå®¡": 3917,
      "çĤ®": 3918,
      "Ġæĺ¯åĲ¦": 3919,
      "Ġéĵģè·¯": 3920,
      "ä¸°": 3921,
      "Ġè¿ĩåİ»": 3922,
      "Ġæ£Ģ": 3923,
      "Ġéķ¿æľŁ": 3924,
      "Ġåķ¦": 3925,
      "Ġéĥ¡": 3926,
      "ĠçĹĽ": 3927,
      "Ġä¼¯": 3928,
      "çĽĲ": 3929,
      "æ¸¡": 3930,
      "Ġç¥ŀè¯Ŀ": 3931,
      "Ġä¹ĭä¸Ń": 3932,
      "å¯Ĵ": 3933,
      "ĠçĶŁéķ¿": 3934,
      "Ġè½®": 3935,
      "Ġæ±ŁåįĹ": 3936,
      "èĹ": 3937,
      "ĠçĽ´åĪ°": 3938,
      "èĦı": 3939,
      "ĠæĦ¿": 3940,
      "åŀ": 3941,
      "Ġå¥³äºº": 3942,
      "Ġçº¢èī²": 3943,
      "ĠèĳĹä½ľ": 3944,
      "ch": 3945,
      "Ġå½ĵå¹´": 3946,
      "Ġè¯ĳ": 3947,
      "Ġåıĭ": 3948,
      "ĠçļĩåĲİ": 3949,
      "æŃ¦å¸Ŀ": 3950,
      "Ġåª": 3951,
      "éĴĪ": 3952,
      "ĠéĶĢ": 3953,
      "éĶ®": 3954,
      "Ġå£«": 3955,
      "ĠèĴ¸": 3956,
      "Ġå¯º": 3957,
      "æ¶¦": 3958,
      "Ġèº«é«ĺ": 3959,
      "ĠåĸľçĪ±": 3960,
      "ĠæĿ°åĩº": 3961,
      "çĵľ": 3962,
      "æķ¢": 3963,
      "èĬ¬": 3964,
      "ĠåĽŃ": 3965,
      "Ġæµªæ¼«": 3966,
      "ç¤¾ä¼ļ": 3967,
      "ĠæģĲ": 3968,
      "ĠæĽ´åĬł": 3969,
      "ĠèĢģå©Ĩ": 3970,
      "Ġé£ŀè¡Į": 3971,
      "Ġç¯®": 3972,
      "ĠæĿŃå·ŀ": 3973,
      "ä»²": 3974,
      "ĠåŁºåľ°": 3975,
      "Ġæĺİæĺ¾": 3976,
      "æķĮ": 3977,
      "ĠåĿ¦": 3978,
      "ĠåĳĬè¯ī": 3979,
      "ĠåŁ¹": 3980,
      "é¬¼": 3981,
      "æķĳ": 3982,
      "ĠæıĲé«ĺ": 3983,
      "Ġæ·®": 3984,
      "ĠèĤ¯å®ļ": 3985,
      "Ġç§¦å§ĭçļĩ": 3986,
      "è¹Ī": 3987,
      "Ġ|": 3988,
      "ĠåĪĩ": 3989,
      "Ġåħ¶å®ĥ": 3990,
      "Ġçģ¯": 3991,
      "å¦»": 3992,
      "ĠçİĦ": 3993,
      "æ¼Ķåĳĺ": 3994,
      "Ġçī©ä½ĵ": 3995,
      "è¾ī": 3996,
      "ĠæĶ¿æĿĥ": 3997,
      "Ġä¸ģ": 3998,
      "Ġæ¯Ľæ³½ä¸ľ": 3999,
      "é»ĺ": 4000,
      "ĠåĨľæ°ĳ": 4001,
      "ĠéĦ": 4002,
      "ĠåĩĨå¤ĩ": 4003,
      "ĠåĮĹå®ĭ": 4004,
      "Ġçĥ§": 4005,
      "å¤º": 4006,
      "æ²¡": 4007,
      "Ġå±Ĥ": 4008,
      "ĠåĪĨåŃĲ": 4009,
      "ĠéĩįçĤ¹": 4010,
      "ĠèĪªç©º": 4011,
      "ä¹Ł": 4012,
      "èĤ¤": 4013,
      "ĠäºĮæ°§åĮĸ": 4014,
      "ĠåĪ«äºº": 4015,
      "Ġæĭľ": 4016,
      "Ġé¡¾": 4017,
      "60": 4018,
      "Ġå¥³ä¸»è§Ĵ": 4019,
      "åĲĦ": 4020,
      "Ġ2001": 4021,
      "çĪ·": 4022,
      "ĠæŃĮè¯į": 4023,
      "Ġåħħæ»¡": 4024,
      "Ġå°¤åħ¶": 4025,
      "ĠåŃĶåŃĲ": 4026,
      "Ġå¦Īå¦Ī": 4027,
      "Ġ32": 4028,
      "ĠæľĢä¸º": 4029,
      "åĶ®": 4030,
      "ĠéĤ£éĩĮ": 4031,
      "Ġæļ´": 4032,
      "½¿": 4033,
      "Ġå¿Ĺ": 4034,
      "ä¸įæĺ¯": 4035,
      "æ²Ł": 4036,
      "Ġéĩįå¤§": 4037,
      "Ġå¿«ä¹Ĳ": 4038,
      "ç§»": 4039,
      "èĤł": 4040,
      "ĠçĢĳ": 4041,
      "åħį": 4042,
      "å£®": 4043,
      "ĠçĶ¨äºİ": 4044,
      "Ġåĳ½åĲį": 4045,
      "¸æĺĵ": 4046,
      "Ġæķ£æĸĩ": 4047,
      "åħħ": 4048,
      "Ġçī¹æ®Ĭ": 4049,
      "èĪį": 4050,
      "ĠæĪĺçķ¥": 4051,
      "Ġæµ®": 4052,
      "æł¼åħ°": 4053,
      "Ġè¥¿å®ī": 4054,
      "15": 4055,
      "Ġå¥¥æŀĹåĮ¹": 4056,
      "å¥´": 4057,
      "Ġä¸Ģåı¥": 4058,
      "ĠéĻ¢": 4059,
      "Ġä½ĵçİ°": 4060,
      "Ġç¾½": 4061,
      "Ġéĵ¶è¡Į": 4062,
      "Ġè¯¦": 4063,
      "Ġè§Ħæ¨¡": 4064,
      "Ġåľ¨ä½į": 4065,
      "Ġæīĺ": 4066,
      "Ġåħ¨ä¸ĸçķĮ": 4067,
      "ĠçĪĨåıĳ": 4068,
      "Ġéĺ¿æĭīä¼¯": 4069,
      "éĢĬ": 4070,
      "æ¤į": 4071,
      "é¢ĸ": 4072,
      "Ġâĺ": 4073,
      "ĽçĽ¾": 4074,
      "ĠèĽĭçĻ½": 4075,
      "Ġçģ°": 4076,
      "Ġ00": 4077,
      "Ġè®°å½ķ": 4078,
      "æİĪ": 4079,
      "è®©": 4080,
      "æĢª": 4081,
      "éĺģ": 4082,
      "çº¬": 4083,
      "Ġè¥¿æ¸¸": 4084,
      "éĽķ": 4085,
      "ĠæĪıåī§": 4086,
      "Ġç¬¬ä¸Ģä½į": 4087,
      "----------------": 4088,
      "æ³ª": 4089,
      "è´Ł": 4090,
      "Ġæĺ¯ä»İ": 4091,
      "Ġä¸īåĽ½æ¼Ķä¹ī": 4092,
      "Ġé«ĺåİŁ": 4093,
      "è¿«": 4094,
      "Ġå¥Ķ": 4095,
      "åĨłåĨĽ": 4096,
      "çĩķ": 4097,
      "ĠèĲ¨": 4098,
      "æħ¢": 4099,
      "Ġæ°´å¹³": 4100,
      "Ġéªĳ": 4101,
      "ĠæĬĴ": 4102,
      "Ġä¸Ģéĥ¨åĪĨ": 4103,
      "çĴĥ": 4104,
      "æ¤": 4105,
      "åĨĮ": 4106,
      "ĠçĦ¶èĢĮ": 4107,
      "Ġ2011": 4108,
      "Ġé²ģè¿ħ": 4109,
      "ĠåįĹéĥ¨": 4110,
      "Ġæµģä¼ł": 4111,
      "Ġ33": 4112,
      "ĠçŁ¿": 4113,
      "ĠæŁ¯": 4114,
      "ĠæľºæŀĦ": 4115,
      "Ġå¸¦æĿ¥": 4116,
      "å°Ĭ": 4117,
      "ĠåıĻ": 4118,
      "åĩ¡": 4119,
      "ĠçŁ³æ²¹": 4120,
      "æ»¨": 4121,
      "å¥¶": 4122,
      "Ġè¿İ": 4123,
      "ĠæŃ£åľ¨": 4124,
      "ĠæĮĩæĮ¥": 4125,
      "éĺµ": 4126,
      "Ġåº·çĨĻ": 4127,
      "Ġæł¹æľ¬": 4128,
      "ĠæĪĺæĸĹ": 4129,
      "çĿĽ": 4130,
      "Ġä»¤äºº": 4131,
      "Ġçºµ": 4132,
      "ĠåĪĨéĴŁ": 4133,
      "ĠæĽ´æĺ¯": 4134,
      "Ġæ¹ĺ": 4135,
      "Ġå¡ĳ": 4136,
      "ĠåķĨä¸ļ": 4137,
      "åĨ·": 4138,
      "æľµ": 4139,
      "Ġçİ»": 4140,
      "è¥¿äºļ": 4141,
      "Ġå°ĨåĨĽ": 4142,
      "ĠèĲ¥åħ»": 4143,
      "Ġå®ľ": 4144,
      "ĠåĨ¯": 4145,
      "Ġåĩºæ¼Ķ": 4146,
      "ĠåĽĽä¸ª": 4147,
      "ä¸Ńå¿ĥ": 4148,
      "Ġå®Įæķ´": 4149,
      "Ġç¦»å¼Ģ": 4150,
      "Ġæī¾åĪ°": 4151,
      "ĠæİĪ": 4152,
      "Ġæ£®æŀĹ": 4153,
      "Ġéĩįæĸ°": 4154,
      "Ġåįĸ": 4155,
      "å±¿": 4156,
      "Ġéĩı": 4157,
      "Ġæĸ°çĸĨ": 4158,
      "Ġé¢ģ": 4159,
      "Ġçī¹å¾ģ": 4160,
      "å°¼äºļ": 4161,
      "ĠçĶľ": 4162,
      "è¡Ķ": 4163,
      "æĸ¤": 4164,
      "è¿İ": 4165,
      "ĠåĩĮ": 4166,
      "èĦļ": 4167,
      "çĮ«": 4168,
      "Ġæ©": 4169,
      "Ġè¯¾": 4170,
      "ĠæĬ¤": 4171,
      "æ±½": 4172,
      "Ġéĩĳå±ŀ": 4173,
      "ç«Ł": 4174,
      "Ġæ¾³å¤§åĪ©äºļ": 4175,
      "æļĹ": 4176,
      "ĠâĦ": 4177,
      "è¯Ħ": 4178,
      "Ġå§ľ": 4179,
      "Ġåºķ": 4180,
      "æīĢä»¥": 4181,
      "Ġå¹¼": 4182,
      "Ġç¬¬äºĮæ¬¡": 4183,
      "Ġäºĭæĥħ": 4184,
      "Ġéķ¿å®ī": 4185,
      "ç¬¬ä¸Ģ": 4186,
      "Ġä¸Ģåľº": 4187,
      "Ġç§ģ": 4188,
      "Ġç¢³": 4189,
      "ĠçĬ¶æĢģ": 4190,
      "æĭ¿å¤§": 4191,
      "ĠçĭĤ": 4192,
      "Ġæ°¸è¿ľ": 4193,
      "èµ«": 4194,
      "åľ³": 4195,
      "Ġè¯ºè´Ŀå°Ķ": 4196,
      "æ¤įçī©": 4197,
      "Ġç©ºéĹ´": 4198,
      "of": 4199,
      "èĬ³": 4200,
      "Ġéľĩ": 4201,
      "ĠåĨįæ¬¡": 4202,
      "ĠèĥĮæĻ¯": 4203,
      "ĠæĢ¥": 4204,
      "Ġç«ł": 4205,
      "Ġ2012": 4206,
      "40": 4207,
      "èĨľ": 4208,
      "ç½ª": 4209,
      "Ġåĵ¦": 4210,
      "ĠåıĪåĲį": 4211,
      "Ġè¡¨éĿ¢": 4212,
      "ĠæĺİæľĿ": 4213,
      "Ġè¡Ģæ¶²": 4214,
      "ig": 4215,
      "åŃĶ": 4216,
      "ĠçĽ¸åĲĮ": 4217,
      "çŁŃ": 4218,
      "Ġå¥ī": 4219,
      "Ġæ´Ľéĺ³": 4220,
      "èįĲ": 4221,
      "Ġè§£åĨ³": 4222,
      "Ġä¸Ģå®¶": 4223,
      "ttp": 4224,
      "çĤ¸": 4225,
      "ĠèµĦäº§éĺ¶çº§": 4226,
      "Ġåı²è®°": 4227,
      "ĠçļĨ": 4228,
      "ĠåĴ¸": 4229,
      "ĠåĸĿ": 4230,
      "Ġäºĭä¸ļ": 4231,
      "ä»£è¡¨": 4232,
      "ĠåĽłèĢĮ": 4233,
      "ĠåĬ¿": 4234,
      "Ġå¨±ä¹Ĳ": 4235,
      "Ġç«Ł": 4236,
      "ĠæĳĦ": 4237,
      "ĠçıŃ": 4238,
      "Ġ45": 4239,
      "ĠçĻ¾åº¦": 4240,
      "Ġç¬¦åĲĪ": 4241,
      "ĠåĨ³èµĽ": 4242,
      "Ġå¤Ħäºİ": 4243,
      "è®¯": 4244,
      "ĠåĮºåŁŁ": 4245,
      "è¾°": 4246,
      "Ġåħį": 4247,
      "Ġåħ±æľī": 4248,
      "ĠèģĶç³»": 4249,
      "å¯¿": 4250,
      "ĠèĦļ": 4251,
      "å®Ļ": 4252,
      "ç»§": 4253,
      "Ġå§Ĳ": 4254,
      "å¾®": 4255,
      "åįģå¹´": 4256,
      "Ġåĳ¼åĲ¸": 4257,
      "ĠåĪ¤": 4258,
      "ĠæĿ¿": 4259,
      "ĠçĢĳå¸ĥ": 4260,
      "Ġè®¨": 4261,
      "æı¡": 4262,
      "16": 4263,
      "Ġå¤©çĦ¶": 4264,
      "Ġå²©": 4265,
      "Ġæ½®": 4266,
      "ĠçĽ¸åħ³": 4267,
      "ĠæĪĺå½¹": 4268,
      "ĠçĬ¹": 4269,
      "Ġè®¡ç®Ĺæľº": 4270,
      "ä¸ĵ": 4271,
      "æĥ¯": 4272,
      "Ġç§ĳæĬĢ": 4273,
      "åİħ": 4274,
      "ĠçĶµè¯Ŀ": 4275,
      "ĠçĻ½èī²": 4276,
      "é¸£": 4277,
      "ĠçĲĨæĥ³": 4278,
      "Ġnba": 4279,
      "Ġç¨ĭåº¦": 4280,
      "Ġä¸¥éĩį": 4281,
      "Ġå§Ķåĳĺä¼ļ": 4282,
      "çĻ»": 4283,
      "ĠèĢ³": 4284,
      "Ġæĺ¾ç¤º": 4285,
      "çĸĹ": 4286,
      "Ġé»Ħéĩĳ": 4287,
      "Ġä¸ľæ±ī": 4288,
      "ĠçĽ¸ä¿¡": 4289,
      "ĠæĪĲç»©": 4290,
      "ĠåİŁåĶ±": 4291,
      "åĩ¯": 4292,
      "¹æŀľ": 4293,
      "ĠæĬĺ": 4294,
      "æ¿Ģ": 4295,
      "Ġæķ°åŃĹ": 4296,
      "ä½ľçĶ¨": 4297,
      "ä»ĳ": 4298,
      "ĠåĦ¿ç«¥": 4299,
      "ĠèįĨ": 4300,
      "Ġä¸¤äºº": 4301,
      "Ġå±Ī": 4302,
      "Ġå¹´éĹ´": 4303,
      "çĳŀ": 4304,
      "Ġæ°´æµĴä¼ł": 4305,
      "Ġçľģä¼ļ": 4306,
      "éĢĤ": 4307,
      "Ġåı¤èĢģ": 4308,
      "ĠæĹłè®º": 4309,
      "æĿ°ä¼¦": 4310,
      "Ġåı¤åħ¸": 4311,
      "ĠæĹĭ": 4312,
      "Ġå¤©æ´¥": 4313,
      "ĠçĶŁæĪĲ": 4314,
      "Ġ07": 4315,
      "å¢ĵ": 4316,
      "ĠçĲĨè§£": 4317,
      "æģ¶": 4318,
      "Ġå¹¿åĳĬ": 4319,
      "Ġæ´ĭ": 4320,
      "Ġä»ª": 4321,
      "ĠæĿ¥åĪ°": 4322,
      "æł¹å»·": 4323,
      "Ġæ°¢": 4324,
      "é«ĺåİŁ": 4325,
      "Ġè´Łè´£": 4326,
      "Ġä¿ĥè¿Ľ": 4327,
      "èĻĳ": 4328,
      "ĠåĬªåĬĽ": 4329,
      "30": 4330,
      "Ġï¼Ĳ": 4331,
      "ĠåºĶçĶ¨": 4332,
      "çĨĬ": 4333,
      "ĠåįĹæŀģ": 4334,
      "ĠæĺŁæľŁ": 4335,
      "ĠæľīéĻĲåħ¬åı¸": 4336,
      "Ġè¿ħéĢŁ": 4337,
      "Ġå¯Ħ": 4338,
      "Ġç«¯": 4339,
      "Ġå¤ĦçĲĨ": 4340,
      "17": 4341,
      "çĹĽ": 4342,
      "Ġåħ¨éĿ¢": 4343,
      "Ġå»ºæĪĲ": 4344,
      "ĠéĶĻè¯¯": 4345,
      "ĠæľĢå°ı": 4346,
      "ĠçĥŃå¸¦": 4347,
      "ĠåĲĮæł·": 4348,
      "ĠâĦĥ": 4349,
      "re": 4350,
      "Ġ1999": 4351,
      "çİĽ": 4352,
      "Ġä¸ĭéĿ¢": 4353,
      "Ġå»ºéĢł": 4354,
      "Ġå¤±è´¥": 4355,
      "Ġhttp": 4356,
      "æ¸Ĭ": 4357,
      "ĠåĬłæĭ¿å¤§": 4358,
      "Ġæ¼Ķåĩº": 4359,
      "Ġå¿½": 4360,
      "åįĥç±³": 4361,
      "ĠçķĮ": 4362,
      "çĤİ": 4363,
      "ĠæĤ¬": 4364,
      "Ġå®ª": 4365,
      "Ġä¸įåĪ°": 4366,
      "Ġæ²Īéĺ³": 4367,
      "Ġç»Ŀå¯¹": 4368,
      "Ġçĭ¼": 4369,
      "Ġåľ°å¤Ħ": 4370,
      "Ġä¸īå¹´": 4371,
      "Ġæ·±åľ³": 4372,
      "ĠåıĤä¸İ": 4373,
      "Ġæķ°éĩı": 4374,
      "ä¼ı": 4375,
      "Ġèµ¢": 4376,
      "ĠæĲŀ": 4377,
      "è°Ī": 4378,
      "Ġç§¯æŀģ": 4379,
      "ĠåĽŀåĪ°": 4380,
      "Ġå½±çīĩ": 4381,
      "ç»ķ": 4382,
      "Ġå®ŀåĬĽ": 4383,
      "ĠçĿ¡": 4384,
      "ä¸ĢæŃ¥": 4385,
      "´éļ": 4386,
      "Ġèī²å½©": 4387,
      "æŁ±": 4388,
      "Ġçĵ¦": 4389,
      "æļĸ": 4390,
      "ç§ĺ": 4391,
      "æ¡ĳ": 4392,
      "Ġåıįå¯¹": 4393,
      "Ġä½ĵéĩį": 4394,
      "ĠæĸĹäºī": 4395,
      "Ġå¥ł": 4396,
      "éĤ»": 4397,
      "å±ĭ": 4398,
      "ĠæĽ¼": 4399,
      "ĠåŀĤ": 4400,
      "Ġæģ¢": 4401,
      "Ġç§Ģ": 4402,
      "å¡ĺ": 4403,
      "ĠèĪªå¤©": 4404,
      "ĠéĤ£æł·": 4405,
      "èĤ¡": 4406,
      "ĠåĨħåľ°": 4407,
      "________": 4408,
      "Ġç»ĦåĲĪ": 4409,
      "ç®Ģ": 4410,
      "Ġæ¼Ĥ": 4411,
      "ĠèĪŀè¹Ī": 4412,
      "Ġè¥¿æ¸¸è®°": 4413,
      "ĺç±³": 4414,
      "Ġæ±ĩ": 4415,
      "Ġå½ķ": 4416,
      "Ġè¡Įä¸º": 4417,
      "ĠÃĹ": 4418,
      "èĴĻåı¤": 4419,
      "Ġåįĥç±³": 4420,
      "ĠéŁ¦": 4421,
      "199": 4422,
      "Ġç¤¾": 4423,
      "æ±Ĺ": 4424,
      "ĠéĻĲ": 4425,
      "and": 4426,
      "çħĮ": 4427,
      "ĠåĪ°è¾¾": 4428,
      "ĠåĬ¨ä½ľ": 4429,
      "é¹¤": 4430,
      "ĠæľĢåĪĿ": 4431,
      "ĠåĽ½çİĭ": 4432,
      "¥Ħ": 4433,
      "åŁĥ": 4434,
      "Ġæ·±åĪ»": 4435,
      "Ġç£ģ": 4436,
      "Ġç¼©": 4437,
      "ĠåºĨ": 4438,
      "Ġé©»": 4439,
      "Ġæĵį": 4440,
      "ä¸ĺ": 4441,
      "ç¿°": 4442,
      "st": 4443,
      "Ġèĭ±è¯Ń": 4444,
      "Ġéĺ¿æł¹å»·": 4445,
      "Ġ500": 4446,
      "Ġè¿ª": 4447,
      "ĠèĦ¸": 4448,
      "ĠæŃ£å¸¸": 4449,
      "Ġç¥Ŀ": 4450,
      "ĠæŃ¦æ±ī": 4451,
      "Ġé«ĺéĢŁ": 4452,
      "ĠèĪ°": 4453,
      "ĠåĪĽå§ĭ": 4454,
      "Ġä»»åĬ¡": 4455,
      "åħ±äº§åħļ": 4456,
      "ç»ĺ": 4457,
      "åĢŁ": 4458,
      "70": 4459,
      "Ġ1000": 4460,
      "Ġæģĭ": 4461,
      "Ġä¹ħ": 4462,
      "ĠæľīæĹ¶": 4463,
      "è£ģ": 4464,
      "Ġæ®ĸ": 4465,
      "ĠæĪĲåĪĨ": 4466,
      "èħ¾": 4467,
      "ä¼Ĳ": 4468,
      "ĠæĬµ": 4469,
      "åĲ¯": 4470,
      "Ġé£ĺ": 4471,
      "Ġå¼ºçĥĪ": 4472,
      "ĠæĺİæĺŁ": 4473,
      "é¥Ń": 4474,
      "80": 4475,
      "ĠçĮ«": 4476,
      "Ġçħ¤": 4477,
      "ĠçĶµèĦĳ": 4478,
      "Ġå¤©æĸĩ": 4479,
      "Ġå¿ł": 4480,
      "æĸ¯çī¹": 4481,
      "Ġç¥Ń": 4482,
      "ĠæģĴ": 4483,
      "ç²Ĵ": 4484,
      "ro": 4485,
      "Ġæ¦": 4486,
      "æĹ¶ä»£": 4487,
      "å£¤": 4488,
      "å¿ł": 4489,
      "çī©é¦Ĩ": 4490,
      "Ġæ¬²": 4491,
      "éĽĢ": 4492,
      "èħĶ": 4493,
      "è¯ļ": 4494,
      "Ġç³ĸ": 4495,
      "Ġå¤ĸåĽ½": 4496,
      "é¹¿": 4497,
      "æ¦Ĥ": 4498,
      "åĲĥ": 4499,
      "ä¸ĸçķĮå¤§æĪĺ": 4500,
      "ĠçīĻ": 4501,
      "ĠâĨĴ": 4502,
      "åĨĪ": 4503,
      "ĠåĲİäºº": 4504,
      "Ġä½³": 4505,
      "Ġä¾ĭå¦Ĥ": 4506,
      "åĬ¡éĻ¢": 4507,
      "Ġå¹´é¾Ħ": 4508,
      "Ġy": 4509,
      "å¦ĩ": 4510,
      "æ³¡": 4511,
      "ĠèĢ¶": 4512,
      "Ġå¥³æĢ§": 4513,
      "Ġ1998": 4514,
      "Ġè¥¿æ±ī": 4515,
      "Ġå¥¥æŀĹåĮ¹åħĭ": 4516,
      "Ġç»§æī¿": 4517,
      "æ¯Ķäºļ": 4518,
      "ĠçĪ¶æ¯į": 4519,
      "ĠåĤ¨": 4520,
      "Ġä¸Ģåıª": 4521,
      "Ġæ®ĸæ°ĳ": 4522,
      "Ġé¢ĳ": 4523,
      "Ġâĳł": 4524,
      "Ġä¿ĦåĽ½": 4525,
      "Ġå²Ľå±¿": 4526,
      "Ġç´¢": 4527,
      "Ġå¼ºå¤§": 4528,
      "Ġçľ¼çĿĽ": 4529,
      "åıĶ": 4530,
      "ĠéĻĨåľ°": 4531,
      "ĠéļĶ": 4532,
      "Ġç»ĺ": 4533,
      "Ġä¸ĬéĿ¢": 4534,
      "Ġè¯»èĢħ": 4535,
      "ĠåįĹæĸ¹": 4536,
      "ĠçłĶåĪ¶": 4537,
      "èİī": 4538,
      "ĠåĿļæĮģ": 4539,
      "Ġç¦ģ": 4540,
      "Ġä¸ĭæĿ¥": 4541,
      "Ġä¹¾éļĨ": 4542,
      "çģ°": 4543,
      "Ġ2013": 4544,
      "Ġå¤§æ°Ķ": 4545,
      "äºĴ": 4546,
      "ĠçĪ±åĽ½": 4547,
      "Ġè®¾ç«ĭ": 4548,
      "Ġåĳ¨æĿ°ä¼¦": 4549,
      "Ġèµ·æºĲäºİ": 4550,
      "ĠæľĢè¿ĳ": 4551,
      "Ġç®Ģä»ĭ": 4552,
      "Ġå®ŀéĻħä¸Ĭ": 4553,
      "Ġè´Ń": 4554,
      "ĠæĬĹæĹ¥": 4555,
      "Ġæ³ī": 4556,
      "Ġ`": 4557,
      "Ġè®®": 4558,
      "Ġæł¸å¿ĥ": 4559,
      "Ġåĳ½è¿Ĳ": 4560,
      "Ġä¸ĩäºº": 4561,
      "Ġå®ĩå®Ļ": 4562,
      "Ġçº½": 4563,
      "ĠæĬķèµĦ": 4564,
      "Ġè¿Ľä¸ĢæŃ¥": 4565,
      "Ġä¸įçŁ¥": 4566,
      "ĠéĩĬ": 4567,
      "Ġéģĵè·¯": 4568,
      "ĠæĢ»éĿ¢ç§¯": 4569,
      "Ġå¤§æ´ĭ": 4570,
      "ĠåĲĮä¸Ģ": 4571,
      "Ġå·§": 4572,
      "ĠæķĪæŀľ": 4573,
      "Ġæī¬": 4574,
      "ĠåĨħéĥ¨": 4575,
      "éŃı": 4576,
      "th": 4577,
      "èīĩ": 4578,
      "ĠåĩĿ": 4579,
      "Ġæİ¨åĩº": 4580,
      "ĠåħħåĪĨ": 4581,
      "ĠçīĪæľ¬": 4582,
      "éľ¸": 4583,
      "Ġéĺ»": 4584,
      "Ġå¹¿è¥¿": 4585,
      "ĠçĽĺ": 4586,
      "Ġå§ļ": 4587,
      "Ġåģ¥åº·": 4588,
      "æĩ": 4589,
      "è¸": 4590,
      "ç¦ģ": 4591,
      "åĩī": 4592,
      "åĩĢ": 4593,
      "Ġæģ©": 4594,
      "ĠæįŁ": 4595,
      "ĠçĽĸ": 4596,
      "ĠæĢª": 4597,
      "ĠèµĦæľ¬ä¸»ä¹ī": 4598,
      "Ġåıĳåĩº": 4599,
      "Ġè´¡çĮ®": 4600,
      "Ġæ»ĳ": 4601,
      "ĠèĽĭçĻ½è´¨": 4602,
      "æĬĬ": 4603,
      "ĠéģĹåĿĢ": 4604,
      "Ġåıĳè¾¾": 4605,
      "Ġæľ¬èº«": 4606,
      "Ġèĥ½éĩı": 4607,
      "ĠåŃĿ": 4608,
      "ĠåĢį": 4609,
      "ĠçĶ±æŃ¤": 4610,
      "ĠåŃ¦èĢħ": 4611,
      "Ġè±Ĩ": 4612,
      "çĲ³": 4613,
      "Ġåħ¸åŀĭ": 4614,
      "Ġå¤ªç©º": 4615,
      "ĠåĲĦåľ°": 4616,
      "Ġ05": 4617,
      "æ¢°": 4618,
      "ç¢ĳ": 4619,
      "ĠåıĳèĤ²": 4620,
      "Ġå¤ļä¸ª": 4621,
      "çĭ±": 4622,
      "Ġè¡Ĺéģĵ": 4623,
      "å£³": 4624,
      "Ġä¸»äººåħ¬": 4625,
      "ĠäºĮæ°§åĮĸç¢³": 4626,
      "ĠçĶŁæĹ¥": 4627,
      "Ġè½¨": 4628,
      "è·Ŀ": 4629,
      "Ġå¥½åĥı": 4630,
      "ĠçŁĽçĽ¾": 4631,
      "Ġä½¿å¾Ĺ": 4632,
      "Ġåī§æĥħ": 4633,
      "Ġä¸Ģå¸¦": 4634,
      "ç³": 4635,
      "Ġç¨³å®ļ": 4636,
      "å°º": 4637,
      "Ġè¿Ļæ¬¡": 4638,
      "Ġèµ«": 4639,
      "Ġä¸ĵå®¶": 4640,
      "èĶ": 4641,
      "ĠæĿ¯": 4642,
      "åħ½": 4643,
      "Ġä¸Ńéĥ¨": 4644,
      "æĽ¿": 4645,
      "çļĩå¸Ŀ": 4646,
      "ĠåĪĢ": 4647,
      "Ġch": 4648,
      "åĪĬ": 4649,
      "Ġä¿Ĺ": 4650,
      "åĢĴ": 4651,
      "çº§å¸Ĥ": 4652,
      "Ġä»¥ä¸º": 4653,
      "....": 4654,
      "å¤·": 4655,
      "åĨ¬": 4656,
      "Ġæ¯Ĵ": 4657,
      "ĠæĢ»æĺ¯": 4658,
      "Ġç¯®çĲĥ": 4659,
      "Ġæĸ¼": 4660,
      "Ġèĩªæ²»": 4661,
      "Ġä¸ĩå¹³æĸ¹": 4662,
      "äºķ": 4663,
      "ĠæĺŁåº§": 4664,
      "å¤ķ": 4665,
      "Ġå®ĺæĸ¹": 4666,
      "Ġä»įçĦ¶": 4667,
      "ĠçĶ¨æĿ¥": 4668,
      "éľŀ": 4669,
      "Ġä¼¦æķ¦": 4670,
      "Ġæģ¢å¤į": 4671,
      "22": 4672,
      "ä¿ĿæĬ¤": 4673,
      "èĵĿ": 4674,
      "Ġå¢ĵ": 4675,
      "é¼ĵ": 4676,
      "Ġæĸ°éĹ»": 4677,
      "Ġ38": 4678,
      "Ġ300": 4679,
      "åº¸": 4680,
      "ĠæĻ¯åĮº": 4681,
      "Ġæ°§æ°Ķ": 4682,
      "æ¦ľ": 4683,
      "è§¦": 4684,
      "ĠæĶ¿çŃĸ": 4685,
      "Ġåį«æĺŁ": 4686,
      "èį¡": 4687,
      "Ġç»ıéªĮ": 4688,
      "Ġè°·": 4689,
      "åĪĻå¤©": 4690,
      "Ġè¿½æ±Ĥ": 4691,
      "Ġè¿Ļä½į": 4692,
      "çĶµè§Ĩ": 4693,
      "Ġå±ħä½ı": 4694,
      "Ġä¸ŃåĽ½åħ±äº§åħļ": 4695,
      "ĠåĲ«éĩı": 4696,
      "èĩªæ²»åĮº": 4697,
      "ĠâĹ": 4698,
      "Ġä¼łæĴŃ": 4699,
      "ĠæĦŁåıĹ": 4700,
      "Ġå¤ıåŃ£": 4701,
      "Ġç¥ĸåĽ½": 4702,
      "Ġé©¬åħĭ": 4703,
      "ä»°": 4704,
      "æģ¨": 4705,
      "Ġç¥¨": 4706,
      "Ġæµ·åĨĽ": 4707,
      "Ġçªģåĩº": 4708,
      "ĠåĽ½æ°ĳåħļ": 4709,
      "æĺŃ": 4710,
      "Ġz": 4711,
      "ĠæĢİæł·": 4712,
      "ĠæĦŁåĪ°": 4713,
      "Ġä¸ĢåĲį": 4714,
      "æ¡ĥ": 4715,
      "Ġä¸ĵéĹ¨": 4716,
      "åľŃ": 4717,
      "Ġå§ĳ": 4718,
      "Ġä¸Ģçīĩ": 4719,
      "ĠçĽ®æłĩ": 4720,
      "Ġå±±è¥¿": 4721,
      "æ°ĶåĢĻ": 4722,
      "ĠæĹ©æľŁ": 4723,
      "Ġæ½ĺ": 4724,
      "Ġé¹¿": 4725,
      "åıĤ": 4726,
      "ĠåĲ¹": 4727,
      "Ġå¤ļæ¬¡": 4728,
      "Ġåĳ¨åĽ´": 4729,
      "è¢Ń": 4730,
      "ĠçĶ·äºº": 4731,
      "Ġæħ¢": 4732,
      "Ġå½±è§Ĩ": 4733,
      "æŀļ": 4734,
      "è±ª": 4735,
      "ĠåįĹå®ĭ": 4736,
      "Ġéĺ¿å°Ķ": 4737,
      "Ġå¤įæĿĤ": 4738,
      "Ġu": 4739,
      "å®ı": 4740,
      "ĠçĦ¦": 4741,
      "æīİ": 4742,
      "ĠæĤł": 4743,
      "ĠæĶ¹ç¼ĸ": 4744,
      "Ġæĳĩ": 4745,
      "è¥¿æ´ĭ": 4746,
      "æ°¸": 4747,
      "ĠçĶŁæĢģ": 4748,
      "ĠçĮª": 4749,
      "Ġåħ¬åĽŃ": 4750,
      "Ġåħ³æ³¨": 4751,
      "ĠèĢĮæĪĲ": 4752,
      "Ġæķ°æį®": 4753,
      "Ġæĸĩèīº": 4754,
      "Ġé¢ĩ": 4755,
      "ĠèĢĥè¯ķ": 4756,
      "Ġåħ³ç¾½": 4757,
      "ĠåİŁå§ĭ": 4758,
      "ä¼ĺ": 4759,
      "Ġé³": 4760,
      "å¤§ä¼ļ": 4761,
      "éĶ¡": 4762,
      "ĠåĪĽå§ĭäºº": 4763,
      "Ġåĩ¯": 4764,
      "Ġè¿ĺè¦ģ": 4765,
      "åĪĨä¹ĭ": 4766,
      "ĠæĮº": 4767,
      "Ġè¿ŀæİ¥": 4768,
      "Ġç»¿èī²": 4769,
      "ä»ĺ": 4770,
      "æ²ī": 4771,
      "Ġç©Ĩ": 4772,
      "åĥ§": 4773,
      "ĠèĨ": 4774,
      "Ġçİ°åŃĺ": 4775,
      "Ġèº«ä¸Ĭ": 4776,
      "ĠåıĳæºĲ": 4777,
      "éĺ´": 4778,
      "Ġèµĭ": 4779,
      "Ġç§Ĵ": 4780,
      "Ġä¹Įæĭī": 4781,
      "é½¿": 4782,
      "æį·": 4783,
      "åŃĿ": 4784,
      "æŁı": 4785,
      "ĠæľªæĿ¥": 4786,
      "Ġè®°èĢħ": 4787,
      "æİ¢": 4788,
      "Ġä¸»è§Ĵ": 4789,
      "ĠçĭĹ": 4790,
      "Ġæľºä¼ļ": 4791,
      "ter": 4792,
      "Ġæł·": 4793,
      "ç³»åĪĹ": 4794,
      "Ġä½ĵåĨħ": 4795,
      "Ġçİ»çĴĥ": 4796,
      "è·ĥ": 4797,
      "Ġçº¢æ¥¼": 4798,
      "è¾Ī": 4799,
      "Ġçľĭçľĭ": 4800,
      "Ġä»Ĭå¹´": 4801,
      "ĠèįĴ": 4802,
      "Ġâĳ¡": 4803,
      "Ġå¤ºå¾Ĺ": 4804,
      "Ġæ¯ıå¤©": 4805,
      "Ġä¾µçķ¥": 4806,
      "çľī": 4807,
      "Ġ188": 4808,
      "ĠæŃ¤æĹ¶": 4809,
      "çĶµå½±": 4810,
      "èģļ": 4811,
      "Ġé¡¹ç¾½": 4812,
      "çº·": 4813,
      "Ġä½ľæĪĺ": 4814,
      "ĠçĽ¸å½ĵäºİ": 4815,
      "éĨĴ": 4816,
      "cm": 4817,
      "éĶ¦": 4818,
      "ĠæŃ»äº¡": 4819,
      "éĢı": 4820,
      "Ġä¸»å¼ł": 4821,
      "Ġå¹¿å¤§": 4822,
      "éĵľ": 4823,
      "ĠæĬĵ": 4824,
      "åį¿": 4825,
      "Ġåįģä¸ī": 4826,
      "ĠåŁĥåıĬ": 4827,
      "Ġåºŀ": 4828,
      "Ġè´«": 4829,
      "å¤ļå¹´": 4830,
      "ĠåĨľåİĨ": 4831,
      "Ġâĸ": 4832,
      "è¯ŀ": 4833,
      "ĠåĽłç´ł": 4834,
      "Ġé¢ĨåŁŁ": 4835,
      "Ġæ¹¿": 4836,
      "Ġäºĭå®ŀ": 4837,
      "Ġä¹¦æ³ķ": 4838,
      "ĠæľīæķĪ": 4839,
      "è¾Ĩ": 4840,
      "é¸¿": 4841,
      "æ£ĭ": 4842,
      "Ġä¸ĢçĻ¾": 4843,
      "Ġæľ¬äºº": 4844,
      "Ġä¸ŃéĹ´": 4845,
      "ĠèĤº": 4846,
      "Ġè¿ĲçĶ¨": 4847,
      "Ġä¹±": 4848,
      "å¹¶": 4849,
      "Ġä¸īå¤§": 4850,
      "ĠäººéĹ´": 4851,
      "ĠåŁºçĿ£": 4852,
      "ä¹°": 4853,
      "Ġ34": 4854,
      "Ġè§Ĥå¯Ł": 4855,
      "ĠæŁĶ": 4856,
      "Ġä¼ı": 4857,
      "ĠåĽ½åĬ¡éĻ¢": 4858,
      "Ġ180": 4859,
      "ĠæĢ§è´¨": 4860,
      "ç«¹": 4861,
      "æĿī": 4862,
      "ĠâĢ²": 4863,
      "çªģ": 4864,
      "Ġä¸ŃåŃ¦": 4865,
      "ä½ľåĵģ": 4866,
      "çĶŁæ´»": 4867,
      "å¢Ļ": 4868,
      "Ġæī®æ¼ĶèĢħ": 4869,
      "Ġå½Ń": 4870,
      "é¢Ĥ": 4871,
      "ĠåĪĺéĤ¦": 4872,
      "Ġåĥ": 4873,
      "Ġç¢§": 4874,
      "ĠæĿľçĶ«": 4875,
      "ĠçĶ³è¯·": 4876,
      "å¯¨": 4877,
      "ĠåĨħèĴĻåı¤": 4878,
      "Ġç¬¬åħŃ": 4879,
      "é¼İ": 4880,
      "ĠæĪĲçĨŁ": 4881,
      "Ġåįĵ": 4882,
      "Ġå·Ŀ": 4883,
      "ĠåħĪè¿Ľ": 4884,
      "çĩĥ": 4885,
      "Ġéĥ¨éĺŁ": 4886,
      "ĠåĽ°": 4887,
      "Ġå¾ħ": 4888,
      "ç½²": 4889,
      "Ġå¡«": 4890,
      "æĬĢæľ¯": 4891,
      "æ¶µ": 4892,
      "Ġåľ¨äºİ": 4893,
      "èī³": 4894,
      "Ġä¸īè§Ĵ": 4895,
      "ĠæĿ¥æºĲ": 4896,
      "Ġèĥ¸": 4897,
      "ĠæĳĨ": 4898,
      "ĠèįīåİŁ": 4899,
      "Ġå¿ĥçĲĨ": 4900,
      "ĠçīĮ": 4901,
      "éĺ³å¸Ĥ": 4902,
      "Ġä¸Ńæľī": 4903,
      "ĠåĬ©": 4904,
      "Ġå°¾": 4905,
      "å¥Ī": 4906,
      "ĠéĻķè¥¿": 4907,
      "ĠèĹ": 4908,
      "Ġå·¡": 4909,
      "Ġä»ģ": 4910,
      "Ġå¥³åŃ©": 4911,
      "Ġâĺħ": 4912,
      "Ġåįģå¤§": 4913,
      "im": 4914,
      "çī§": 4915,
      "Ġä¸Ģä»£": 4916,
      "ĠåªĴ": 4917,
      "Ġé¢ĨåľŁ": 4918,
      "æ»©": 4919,
      "Ġè¯¸ä¾¯": 4920,
      "Ġèµ¶": 4921,
      "ĠæĪ·": 4922,
      "Ġè¿ĻæĹ¶": 4923,
      "Ġè¾ĸ": 4924,
      "Ġè¯Ħä»·": 4925,
      "Ġä¸Ģç³»åĪĹ": 4926,
      "Ġä»¿": 4927,
      "Ġst": 4928,
      "ĠæĪĲé¾Ļ": 4929,
      "ĠåĨ¬åŃ£": 4930,
      "Ġèĭį": 4931,
      "Ġé»ĳèī²": 4932,
      "äººåı£": 4933,
      "ĠçĽ¸äºĴ": 4934,
      "Ġç²¤": 4935,
      "ĠåįģäºĶ": 4936,
      "Ġåį³ä½¿": 4937,
      "Ġå¥³ç¥ŀ": 4938,
      "ĠéĿĴæĺ¥": 4939,
      "Ġå¹³æĸ¹åįĥç±³": 4940,
      "ĠæĿ¥çľĭ": 4941,
      "Ġè´µæĹı": 4942,
      "Ġèķ": 4943,
      "ĠæŃ¦åĪĻå¤©": 4944,
      "åįĬçĲĥ": 4945,
      "æ¡£": 4946,
      "ĠæĻ®éģį": 4947,
      "Ġèµı": 4948,
      "ĠæĲŃ": 4949,
      "ĠéĶ¦æłĩ": 4950,
      "åĪº": 4951,
      "Ġåľ°åĿĢ": 4952,
      "ĠéĿ¢å¯¹": 4953,
      "ĠæĥħèĬĤ": 4954,
      "Ġè¯»ä¹¦": 4955,
      "Ġè¶ħçº§": 4956,
      "å¹¸": 4957,
      "ĠæŃ¤å¤ĸ": 4958,
      "Ġä¸ŃåİŁ": 4959,
      "Ġåľ°éľĩ": 4960,
      "ç¼©": 4961,
      "Ġçģ«è½¦": 4962,
      "å»¶": 4963,
      "Ġçļ®èĤ¤": 4964,
      "ĠæľīåĲį": 4965,
      "Ġå¦Ĥä¸ĭ": 4966,
      "ĠåĬłå¼º": 4967,
      "é¾Ļæ±Ł": 4968,
      "è·ĳ": 4969,
      "Ġåİĺç±³": 4970,
      "åįĬå²Ľ": 4971,
      "æī¾": 4972,
      "Ġäº¤åĵį": 4973,
      "ĠæĩĤ": 4974,
      "Ġåİļ": 4975,
      "Ġå®£ä¼ł": 4976,
      "Ġè¯¯": 4977,
      "ĠéĹª": 4978,
      "æĤī": 4979,
      "Ġèı²": 4980,
      "ĠåīįåĲİ": 4981,
      "Ġä¸įåĨį": 4982,
      "Ġ186": 4983,
      "å¢¨": 4984,
      "Ġèħ¹": 4985,
      "ĠçĶĺèĤĥ": 4986,
      "Ġåºı": 4987,
      "Ġä¹Ļ": 4988,
      "çİĦ": 4989,
      "Ġç²Ĺ": 4990,
      "ä¹ĭä¸º": 4991,
      "Ġ&": 4992,
      "Ġä¹ĭå¤ĸ": 4993,
      "Ġéķ¿åŁİ": 4994,
      "Ġæ¿": 4995,
      "Ġä¸ĳ": 4996,
      "Ġå¹´åº¦": 4997,
      "Ġåı¯è§ģ": 4998,
      "27": 4999,
      "Ġéĺ³åħī": 5000,
      "Ġè½¨éģĵ": 5001,
      "è®¿": 5002,
      "Ġæ²¿æµ·": 5003,
      "ĠåĲĦä¸ª": 5004,
      "ĠåĨĻåĩº": 5005,
      "åįĸ": 5006,
      "æĹ§": 5007,
      "ĠåĵªéĩĮ": 5008,
      "Ġçº¢æ¥¼æ¢¦": 5009,
      "25": 5010,
      "ĠéĽħåħ¸": 5011,
      "24": 5012,
      "åı¹": 5013,
      "Ġåĩºåı£": 5014,
      "Ġè´´": 5015,
      "Ġmv": 5016,
      "éģĹ": 5017,
      "Ġè¥¿èĹı": 5018,
      "Ġèİ±": 5019,
      "Ġé£Łåĵģ": 5020,
      "ĠæľīçĤ¹": 5021,
      "Ġå±±èĦī": 5022,
      "èµĦæºĲ": 5023,
      "ĠåĲ¸å¼ķ": 5024,
      "em": 5025,
      "Ġä¸Ńåħ±": 5026,
      "Ġåįģä¸Ģ": 5027,
      "Ġçº·": 5028,
      "ĠèµĽåŃ£": 5029,
      "Ġèµ·ä¹ī": 5030,
      "ĠéĶ¦æłĩèµĽ": 5031,
      "ĠæĮĤ": 5032,
      "Ġæľīæľº": 5033,
      "çĲª": 5034,
      "Ġèĥĥ": 5035,
      "ĠåįĹç¾İæ´²": 5036,
      "Ġå¦¹": 5037,
      "Ġä¸¤åı¥": 5038,
      "Ġçģ«ç®Ń": 5039,
      "Īå¤«": 5040,
      "èĦ±": 5041,
      "Ġå®ĭä»£": 5042,
      "Ġæ¦Ĥå¿µ": 5043,
      "ir": 5044,
      "Ġäº®": 5045,
      "Ġå¼Ĺ": 5046,
      "ĠèĤĮ": 5047,
      "Ġ1990": 5048,
      "èŃ¦": 5049,
      "åħ¹": 5050,
      "é¼ł": 5051,
      "èµĭ": 5052,
      "ç¨İ": 5053,
      "çĳľ": 5054,
      "Ġåı¬å¼Ģ": 5055,
      "æĹĭ": 5056,
      "Ġèĭıå·ŀ": 5057,
      "æĤŁç©º": 5058,
      "èĤ¥": 5059,
      "ĠæĶ¾åľ¨": 5060,
      "åįł": 5061,
      "ĠæħĪ": 5062,
      "ĠÎ": 5063,
      "çķª": 5064,
      "èĥİ": 5065,
      "èį·": 5066,
      "ĠæµģåŁŁ": 5067,
      "Ġçĸ¾": 5068,
      "Ġéĺµ": 5069,
      "åħĦ": 5070,
      "Ġæĺİä»£": 5071,
      "ĠçĮ®": 5072,
      "Ġå®¶æĹı": 5073,
      "èĵī": 5074,
      "èĸĩ": 5075,
      "Ġå±ł": 5076,
      "ĠåİŁåĪĻ": 5077,
      "Ġå®Įç¾İ": 5078,
      "Ġæ²Ļæ¼ł": 5079,
      "Ġåįģå¹´": 5080,
      "ĠåĪĳ": 5081,
      "ĠåĨĴ": 5082,
      "ĠçĨĬ": 5083,
      "ĠéĢĤåĲĪ": 5084,
      "ĠæĥħæĦŁ": 5085,
      "Ġç«¥è¯Ŀ": 5086,
      "ĠåĹ": 5087,
      "æĦģ": 5088,
      "Ġ37": 5089,
      "Ġä½ľè¯į": 5090,
      "éĥģ": 5091,
      "Ġåģ¶åĥı": 5092,
      "ĠåĲĲ": 5093,
      "éŃĶ": 5094,
      "Ġè¡ĮæĺŁ": 5095,
      "Ġå¦ĸ": 5096,
      "å¿į": 5097,
      "ĠéļĨ": 5098,
      "Ġåı¥": 5099,
      "æ¨ª": 5100,
      "Ġæī¹åĩĨ": 5101,
      "Ġèī°": 5102,
      "è°±": 5103,
      "åŁ¹": 5104,
      "lo": 5105,
      "Ġå¥´éļ": 5106,
      "Ġå¥´éļ¶": 5107,
      "Ġç¨Ģ": 5108,
      "ĠåºĻ": 5109,
      "ĠåĲĮå¹´": 5110,
      "bs": 5111,
      "è¯¢": 5112,
      "ĠåĮºåĪ«": 5113,
      "ĠçŃ¾è®¢": 5114,
      "åĬ±": 5115,
      "Ġä¸įä¹ħ": 5116,
      "Ġæ¬£": 5117,
      "æ¶Ľ": 5118,
      "ĠæĤ²åī§": 5119,
      "iv": 5120,
      "Ġå¤§è¥¿æ´ĭ": 5121,
      "Ġåľ°çĤ¹": 5122,
      "Ġéĩĳèŀį": 5123,
      "Ġæ±Łè¥¿": 5124,
      "Ġæī§è¡Į": 5125,
      "Ġä¸¤æ¬¡": 5126,
      "åĢį": 5127,
      "èħº": 5128,
      "ç¿¼": 5129,
      "Ġæľ¬ä¹¦": 5130,
      "ç¯®": 5131,
      "Ġ03": 5132,
      "çĵ¶": 5133,
      "å§Ķåĳĺ": 5134,
      "ĠåĢ¼å¾Ĺ": 5135,
      "Ġä¹³": 5136,
      "çĤ¼": 5137,
      "é¹°": 5138,
      "Ġèĩ³äºİ": 5139,
      "Ġå¥¶": 5140,
      "Ġè®Ń": 5141,
      "Ġå¦ĩ": 5142,
      "Ġäººåĳĺ": 5143,
      "æµ¦": 5144,
      "ĠåĨĻä½ľ": 5145,
      "èĽĩ": 5146,
      "Ġåħĥå¹´": 5147,
      "ç¿»": 5148,
      "Ġä¹łæĥ¯": 5149,
      "Ġåı¯çĪ±": 5150,
      "Ġç±»ä¼¼": 5151,
      "Ġç§°åı·": 5152,
      "Ġ08": 5153,
      "Ġ1997": 5154,
      "Ġå¾Ģå¾Ģ": 5155,
      "Ĵä¹": 5156,
      "Ġæķ¬": 5157,
      "ĠåĪĽç«ĭ": 5158,
      "æĪĪ": 5159,
      "ä¸Ńå¤®": 5160,
      "å¯¸": 5161,
      "åĭĥ": 5162,
      "ĠåĬ¿åĬĽ": 5163,
      "Ĵä¹ĵ": 5164,
      "Ġè½°": 5165,
      "ĠéĴĪ": 5166,
      "ĠèĦĳ": 5167,
      "Ġæĸ¹ä¾¿": 5168,
      "Ġå¤±åİ»": 5169,
      "Ġï¼Ļ": 5170,
      "ĠçŁ¥åĲį": 5171,
      "ag": 5172,
      "Ġ_": 5173,
      "æ±ĩ": 5174,
      "ĠæĽ¿": 5175,
      "Ġæ±īæŃ¦å¸Ŀ": 5176,
      "Ġ1996": 5177,
      "Ġè¾ĥå¤§": 5178,
      "èĢĢ": 5179,
      "ĠâĶ": 5180,
      "éļı": 5181,
      "è®Ń": 5182,
      "Ġæĺİç¡®": 5183,
      "Ġçĭ®": 5184,
      "é¦": 5185,
      "ä¹ı": 5186,
      "Ġè´º": 5187,
      "Ġæµ·å³¡": 5188,
      "Ġèĭ±æł¼åħ°": 5189,
      "Ġè¶ĬæĿ¥": 5190,
      "ĠçĲ´": 5191,
      "ä¹³": 5192,
      "Ġæ±ª": 5193,
      "èĥĨ": 5194,
      "çłĶ": 5195,
      "Ġä¸»é¢ĺæĽ²": 5196,
      "ĠçĶŁåĬ¨": 5197,
      "ç®±": 5198,
      "ĠéĴ¢çĲ´": 5199,
      "ĠéĻª": 5200,
      "åħ³ç³»": 5201,
      "Ġè¯¦ç»Ĩ": 5202,
      "Ġæĺ¯ä¸įæĺ¯": 5203,
      "Ġå½¼": 5204,
      "Ġä¸įçĶ¨": 5205,
      "ĠåĳĢ": 5206,
      "æŁĶ": 5207,
      "ĠåįĹéĿŀ": 5208,
      "Ġè¶ĬæĿ¥è¶Ĭ": 5209,
      "Ġç³": 5210,
      "éĩĩ": 5211,
      "Ġå¿§": 5212,
      "ĠéģĤ": 5213,
      "Ġæģ°": 5214,
      "Ġé»ĳé¾Ļæ±Ł": 5215,
      "Ġè¾½å®ģ": 5216,
      "Ġä¸Ģé¢Ĺ": 5217,
      "å·¥ç¨ĭ": 5218,
      "Ġä¼¼ä¹İ": 5219,
      "åĩ°": 5220,
      "Ġéľ²": 5221,
      "å¥ĭ": 5222,
      "Ġæĺ¥å¤©": 5223,
      "Ġ----": 5224,
      "èĦ¸": 5225,
      "ĠæľĢä½İ": 5226,
      "Ġåľ°éĿ¢": 5227,
      "ĠåĲįåı«": 5228,
      "ĠåĲ¦": 5229,
      "è½¼": 5230,
      "Ġçģ«å±±": 5231,
      "çĭ¼": 5232,
      "ç¿Ķ": 5233,
      "Ġåįļçī©é¦Ĩ": 5234,
      "ĠèĵĿèī²": 5235,
      "ĠæŃ¦åĻ¨": 5236,
      "Ġæııè¿°": 5237,
      "Ġçĩĥçĥ§": 5238,
      "éĿĸ": 5239,
      "Ġæ°´ä¸Ń": 5240,
      "Ġå¥¥è¿Ĳ": 5241,
      "um": 5242,
      "æĵ": 5243,
      "è¾ŀ": 5244,
      "Ġæ¸Ķ": 5245,
      "Ġ55": 5246,
      "Ġæµ·åįĹ": 5247,
      "å¿ĺ": 5248,
      "Ġ48": 5249,
      "ĠåĲįèĥľ": 5250,
      "æĭ³": 5251,
      "è¾Ł": 5252,
      "Ġæķ°åŃ¦": 5253,
      "Ġä½łä»¬": 5254,
      "Ġæİ¨èįĲ": 5255,
      "ä¸Ńæµ·": 5256,
      "Ġä½ľåĩº": 5257,
      "æĸĩåĮĸ": 5258,
      "Ġç§°åĳ¼": 5259,
      "ä¼´": 5260,
      "Ġåħ¬æĸ¤": 5261,
      "ĠåŃĻæĤŁç©º": 5262,
      "Ġå¹¿ä¸ľçľģ": 5263,
      "æĮ¯": 5264,
      "ĠåĬ¨åĬĽ": 5265,
      "çĳ°": 5266,
      "op": 5267,
      "å²Ĺ": 5268,
      "Ġä»·æł¼": 5269,
      "æŁ³": 5270,
      "Ġç§įç±»": 5271,
      "Ġçī¡": 5272,
      "Ġ1992": 5273,
      "ĠçĽĨåľ°": 5274,
      "Ġåĩıå°ĳ": 5275,
      "Ġæ¯«ç±³": 5276,
      "éĢ¢": 5277,
      "ĠæĶ¹ä¸º": 5278,
      "Ġå°Ķ": 5279,
      "Ġå¾ĹåĲį": 5280,
      "ĠéĴ»": 5281,
      "ĠåŃ£èĬĤ": 5282,
      "çŀ": 5283,
      "ĠéĻµ": 5284,
      "Ġé©¬æĿ¥": 5285,
      "Ġæº¶æ¶²": 5286,
      "Ġï¼Ĵ": 5287,
      "çĶ·": 5288,
      "ç©·": 5289,
      "Ġçł´åĿı": 5290,
      "Ġå¼ĢæĶ¾": 5291,
      "è¢ĸ": 5292,
      "æĢ¥": 5293,
      "ĠçªģçĦ¶": 5294,
      "Ġå¾¡": 5295,
      "è¾Ľ": 5296,
      "Ġåģ·": 5297,
      "Ġåħ³éĶ®": 5298,
      "Ġéķľ": 5299,
      "åĪ·": 5300,
      "å¤©ä¸ĭ": 5301,
      "ĠåĵŃ": 5302,
      "Ġçīµ": 5303,
      "åĵ²": 5304,
      "Ġé¢Ĺ": 5305,
      "ĠåıĮæĸ¹": 5306,
      "Ġçľģçº§": 5307,
      "ĠåİŁçĲĨ": 5308,
      "ap": 5309,
      "Ġä¿ĿåŃĺ": 5310,
      "Ġåºľ": 5311,
      "Ġè¿ĽæŃ¥": 5312,
      "ĠæľĪçĲĥ": 5313,
      "Ġåī²": 5314,
      "ĠåİĨä»£": 5315,
      "Ġè´§å¸ģ": 5316,
      "99": 5317,
      "æĪĴ": 5318,
      "Ġä¹Łè®¸": 5319,
      "Ġåľ°ä¸Ńæµ·": 5320,
      "å§»": 5321,
      "Ġéľ¸": 5322,
      "ĠçĤ®": 5323,
      "Ġæ°§åĮĸ": 5324,
      "«çĳ°": 5325,
      "Ġå½»": 5326,
      "éĴł": 5327,
      "Ġè®²è¿°": 5328,
      "Ġæ¯Ķåĸ»": 5329,
      "è·µ": 5330,
      "ç©¿": 5331,
      "ĠèħĲ": 5332,
      "Ġç¥ŀç§ĺ": 5333,
      "Ġå¯¹æĸ¹": 5334,
      "è½¯": 5335,
      "Ġå°½ç®¡": 5336,
      "åĽ½å®¶": 5337,
      "ĠæľĪäº®": 5338,
      "Ġcom": 5339,
      "Ġè®¾ç½®": 5340,
      "ä¸²": 5341,
      "ĠåĽŀå¿Ĩ": 5342,
      "æĿĨ": 5343,
      "ĠæĬ±": 5344,
      "Ġæľºæ¢°": 5345,
      "Ġç§»åĬ¨": 5346,
      "ĠåĲİä¸ĸ": 5347,
      "Ġç¡®å®ŀ": 5348,
      "Ġç¿»è¯ĳ": 5349,
      "ĠæĹı": 5350,
      "Ġç¾İå¥½": 5351,
      "Ġç¥ŀç»ı": 5352,
      "çº²": 5353,
      "Ġçī§": 5354,
      "ĠåĲĽä¸»": 5355,
      "Ġå°ıåŃ¦": 5356,
      "Ġå¹¿åľº": 5357,
      "çıį": 5358,
      "35": 5359,
      "ĠçİĽ": 5360,
      "ĠèĦĤ": 5361,
      "Ġ-----": 5362,
      "ĠéģĩåĪ°": 5363,
      "Ġ56": 5364,
      "å¨ĥ": 5365,
      "ĠèĢĥèĻĳ": 5366,
      "ĠæĬ¢": 5367,
      "Ġæķħä¹¡": 5368,
      "Ġ120": 5369,
      "è¡¥": 5370,
      "ĠæĮĩåĩº": 5371,
      "Ġ1994": 5372,
      "ĠéĹ»åĲį": 5373,
      "Ġè¿Ļåı¥": 5374,
      "Ġå¤©ç©º": 5375,
      "Ġåĳ¨æľŁ": 5376,
      "Ġ75": 5377,
      "Ġæī¿è®¤": 5378,
      "Ġä»İäºĭ": 5379,
      "Ġåįģåħ«": 5380,
      "ħåĬĽ": 5381,
      "æĭį": 5382,
      "Ġç§įåŃĲ": 5383,
      "Ġä¸ľäº¬": 5384,
      "è¿Ĳæ²³": 5385,
      "Ġåľ°å½¢": 5386,
      "Ġè´¸æĺĵ": 5387,
      "é¢ĳ": 5388,
      "èµ·ä¹ī": 5389,
      "çĭĹ": 5390,
      "Ġåĳ¨å¹´": 5391,
      "ĠæľīæīĢ": 5392,
      "Ġç§°ä¹ĭä¸º": 5393,
      "ĠçĮĽ": 5394,
      "Ġå±ķå¼Ģ": 5395,
      "ĠåĮĪå¥´": 5396,
      "åĤ²": 5397,
      "Ġæ·¡æ°´": 5398,
      "åĿĲ": 5399,
      "Ġæĥ³è±¡": 5400,
      "Ġ1988": 5401,
      "è´§": 5402,
      "éļľ": 5403,
      "ĠéĢĶ": 5404,
      "ĠçİĭåĽ½": 5405,
      "èľľ": 5406,
      "èĤ¯": 5407,
      "ĠèģĶçĽŁ": 5408,
      "Ġä¸Ģå¤§": 5409,
      "éĢĴ": 5410,
      "Ĵä¹ĵçĲĥ": 5411,
      "ĠæİĴåĲį": 5412,
      "ĠæĻļä¸Ĭ": 5413,
      "ĠåĿ¦åħĭ": 5414,
      "ĠåĲİæľŁ": 5415,
      "Ġçĳŀå£«": 5416,
      "Ġå§ĵåĲį": 5417,
      "éŀ": 5418,
      "ĠâĪ": 5419,
      "ĠæĴŃåĩº": 5420,
      "Ġ400": 5421,
      "Ġæ±Ĺ": 5422,
      "Ġé»İ": 5423,
      "Ġä¸Ńåįİæ°ĳæĹı": 5424,
      "Ġæį®è¯´": 5425,
      "Ġå¹»": 5426,
      "Ġå¥ĭ": 5427,
      "æĪĳåĽ½": 5428,
      "Ġç¾½æ¯Ľ": 5429,
      "å®Į": 5430,
      "Ġæŀª": 5431,
      "ur": 5432,
      "Ġå¿ĥä¸Ń": 5433,
      "Ġå§ĭç»Ī": 5434,
      "Ġåĸ·": 5435,
      "Ġæ¸¸æ³³": 5436,
      "Ġä¼Ĭæĸ¯": 5437,
      "ĠåĬŀçĲĨ": 5438,
      "±ä¹Ĳéĥ¨": 5439,
      "Ġå®ªæ³ķ": 5440,
      "ĠåĪ¶å®ļ": 5441,
      "Ġ09": 5442,
      "ĠèĢĲ": 5443,
      "ŀº": 5444,
      "çİ²": 5445,
      "Ġä¿±ä¹Ĳéĥ¨": 5446,
      "Ġæľ¬æĿ¥": 5447,
      "ä¸¥": 5448,
      "ĠæĻ´": 5449,
      "Ġæ¹ĸæ³Ĭ": 5450,
      "Ġå¯¿": 5451,
      "ĠçĶ·ä¸»è§Ĵ": 5452,
      "Ġå¤ªåŃĲ": 5453,
      "ĠéĿĴæµ·": 5454,
      "Ġä¹ĲåĻ¨": 5455,
      "ĠèĸĽ": 5456,
      "èīĺ": 5457,
      "Ġèĭ¹æŀľ": 5458,
      "Ġåºĵ": 5459,
      "Ġçº½çº¦": 5460,
      "Ġéĩĩåıĸ": 5461,
      "Ġå±ħæ°ĳ": 5462,
      "Ġåį´æĺ¯": 5463,
      "Ġåĵ¥åĵ¥": 5464,
      "æ¬²": 5465,
      "Ġå¾Īå¿«": 5466,
      "Ġå¤§å¸Ī": 5467,
      "ĠæŁı": 5468,
      "å·¥ä¸ļ": 5469,
      "å°±æĺ¯": 5470,
      "ĠæĿĥåĬĽ": 5471,
      "åĪ¶åº¦": 5472,
      "ĠåĶ±çīĩ": 5473,
      "ĠéģĹä¼ł": 5474,
      "Ġæ²³åįĹçľģ": 5475,
      "Ġæ¶Īè´¹": 5476,
      "ĠéĻįæ°´": 5477,
      "ä½ľå®¶": 5478,
      "è§Ħæ¨¡": 5479,
      "å®µ": 5480,
      "ĠæĺİæľĪ": 5481,
      "Ġæİ¥è¿ĳ": 5482,
      "ĠæļĤ": 5483,
      "Ġéģ¥": 5484,
      "æ£Ĵ": 5485,
      "Ġæ¨±": 5486,
      "æķħäºĭ": 5487,
      "Ġè§Ĵåº¦": 5488,
      "ot": 5489,
      "èµŀ": 5490,
      "æĹħ": 5491,
      "ĠèĤ¥": 5492,
      "Ġè¶ĬåįĹ": 5493,
      "Ġæ¢¦æĥ³": 5494,
      "Ġç¨į": 5495,
      "Ġæııç»ĺ": 5496,
      "Ġæ··åĲĪ": 5497,
      "ĠåĽ½èĬ±": 5498,
      "æ·¡": 5499,
      "é¤Ĳ": 5500,
      "ĠæĸĩåŃ¦å®¶": 5501,
      "ä¸įå¤ļ": 5502,
      "Ġå¯¹å¤ĸ": 5503,
      "Ġç»ĥ": 5504,
      "Ġè¹": 5505,
      "Ġå°ĳå¥³": 5506,
      "Ġç½ĳä¸Ĭ": 5507,
      "éĢĢ": 5508,
      "Ġåİ»ä¸ĸ": 5509,
      "ĠèĸĦ": 5510,
      "æ³Į": 5511,
      "ĠæŁĵ": 5512,
      "èİİ": 5513,
      "¦çīĩ": 5514,
      "Ġæ³ª": 5515,
      "ĠèĪŀåı°": 5516,
      "¡æŁĵ": 5517,
      "Ġå¿į": 5518,
      "Ġè¿ĽæĶ»": 5519,
      "ĠæķħéĢī": 5520,
      "Ġæ¶ī": 5521,
      "ĠæµĻæ±Łçľģ": 5522,
      "ĠåĽºå®ļ": 5523,
      "Ġçī¡ä¸¹": 5524,
      "Ġæľ´": 5525,
      "Ġä¸ĢåĿĹ": 5526,
      "å¼¦": 5527,
      "ä¸įè¿ĩ": 5528,
      "Ġèİ²": 5529,
      "Ġäº§ä¸ļ": 5530,
      "Ġä¾§": 5531,
      "Ġæ¸ħæ¥ļ": 5532,
      "Ġæĸĩçī©": 5533,
      "å§¬": 5534,
      "Ġ1984": 5535,
      "é©°": 5536,
      "ĠåªĴä½ĵ": 5537,
      "å±±å¸Ĥ": 5538,
      "ĠçĶ·å¥³": 5539,
      "ĠæĹģ": 5540,
      "æ¯ħ": 5541,
      "Ġåĭ¾": 5542,
      "çĶŁç´ł": 5543,
      "é¢ľ": 5544,
      "éī´": 5545,
      "Ġåį§": 5546,
      "44": 5547,
      "çī©è´¨": 5548,
      "Ġå·¥èīº": 5549,
      "åĬłåĿ¡": 5550,
      "Ġä½ĵç§¯": 5551,
      "Ġç¡«": 5552,
      "Ġ02": 5553,
      "ä»Ģ": 5554,
      "Ġå¼Ħ": 5555,
      "od": 5556,
      "ãĢĲ": 5557,
      "Ġé«ĺçº§": 5558,
      "ĠéĤ£ç§į": 5559,
      "çĥĤ": 5560,
      "ĠåĪ°åºķ": 5561,
      "èĳ¬": 5562,
      "çŁ¿": 5563,
      "ĠæĶ»åĩ»": 5564,
      "ĠåĽ¢ä½ĵ": 5565,
      "Ġå®ı": 5566,
      "Ġå±±æ°´": 5567,
      "å¿Į": 5568,
      "Ġå¥ĩè¿¹": 5569,
      "ation": 5570,
      "æ´ª": 5571,
      "è¥¿åĵ¥": 5572,
      "Ġæµ·ä¸Ĭ": 5573,
      "Ġè°ĭ": 5574,
      "Ġç¾¤ä¼Ĺ": 5575,
      "å®ª": 5576,
      "ie": 5577,
      "ä»ĩ": 5578,
      "ä¹Ķ": 5579,
      "ĠéĤ®ç¥¨": 5580,
      "ĠéĶĢåĶ®": 5581,
      "Ġç¾İæ´²": 5582,
      "ĠèĤ¾": 5583,
      "Ġæ¡£": 5584,
      "Ġä¸įè¶³": 5585,
      "Ġba": 5586,
      "Ġé©¾é©¶": 5587,
      "Ġä¸Īå¤«": 5588,
      "Ġèµ´": 5589,
      "Ġç»ıèĲ¥": 5590,
      "å°ĺ": 5591,
      "çªŁ": 5592,
      "Ġï¼ı": 5593,
      "ĠçĤİ": 5594,
      "Ġåį«è§Ĩ": 5595,
      "ĠæĤ£": 5596,
      "Ġå¼ĢåĪĽ": 5597,
      "Ġä¼ĺåĬ¿": 5598,
      "ĠåĩŃåĢŁ": 5599,
      "Ġæŀļ": 5600,
      "å¤ªå®Ĺ": 5601,
      "ĠçĬ¯": 5602,
      "Ġç¬¬ä¸Ģå±Ĭ": 5603,
      "ĠåĽ¾æ¡Ī": 5604,
      "Ġç§ĺå¯Ĩ": 5605,
      "æ¬£": 5606,
      "ĠæķĻæİĪ": 5607,
      "Ġéķ¿åº¦": 5608,
      "ĠæĴ¤": 5609,
      "ĠçģĮ": 5610,
      "Ġæİ¨åĬ¨": 5611,
      "Ġåħ¬å¸ĥ": 5612,
      "ĠéĽį": 5613,
      "ĠåĲİéĿ¢": 5614,
      "Ġè¯Ħè®º": 5615,
      "Ġå«ģ": 5616,
      "ia": 5617,
      "Ġç½ª": 5618,
      "ĠåĬŀæ³ķ": 5619,
      "Ġå¤«äºº": 5620,
      "Ġå¼±": 5621,
      "Ġæ¤": 5622,
      "Ġä¸įå¥½": 5623,
      "Ġä¸ĩå¹³æĸ¹åħ¬éĩĮ": 5624,
      "Ġå¤§åŁİå¸Ĥ": 5625,
      "ĠæĪĲè¯Ń": 5626,
      "Ġå¤§å¤§": 5627,
      "ĠåºĶå½ĵ": 5628,
      "æĤł": 5629,
      "ĠèĽĩ": 5630,
      "Ġæĭ¼": 5631,
      "ĠåĻ¨å®ĺ": 5632,
      "Ġé©¬åħĭæĢĿ": 5633,
      "Ġå¤§èĩ£": 5634,
      "Ġä¸ŃåĽ½äººæ°ĳ": 5635,
      "ĠéĤĢ": 5636,
      "Ġæ³¡": 5637,
      "Ġæ®¿": 5638,
      "åĲ¨": 5639,
      "ĠåŃĻåŃĲ": 5640,
      "Ġå½¢å®¹": 5641,
      "Ġ185": 5642,
      "ĠæİĮæı¡": 5643,
      "ĠçĶŁåŃĺ": 5644,
      "ĠåĬłå·¥": 5645,
      "Ġ06": 5646,
      "ĠéĦĤ": 5647,
      "çº¯": 5648,
      "ĠåĲĮå¿Ĺ": 5649,
      "na": 5650,
      "Ġæ¸ħä»£": 5651,
      "ĠåĩºçĶŁåľ°": 5652,
      "åįĵ": 5653,
      "å°ī": 5654,
      "ĠèĪ¬": 5655,
      "Ġå¸ĤåĮº": 5656,
      "Ġèĭ±æĸĩåĲį": 5657,
      "ĠæĹ¥åŃĲ": 5658,
      "ĠèĢģäºº": 5659,
      "ĠéĢ¼": 5660,
      "Ġç²®": 5661,
      "æ¶Ī": 5662,
      "Ġåįµ": 5663,
      "Ġçªģçł´": 5664,
      "å§¿": 5665,
      "Ġèµ¢å¾Ĺ": 5666,
      "Ġ39": 5667,
      "Ġéĺħ": 5668,
      "Ġç£¨": 5669,
      "Ġå¼Łå¼Ł": 5670,
      "Ġå¤§æ¦Ĥ": 5671,
      "ä¸ĸæ°ĳ": 5672,
      "èĥĮ": 5673,
      "Ġæ¶Īæģ¯": 5674,
      "ĠæĴĴ": 5675,
      "çĬ¯": 5676,
      "éĹ¹": 5677,
      "ĠåĽ½ç±į": 5678,
      "ĠæĹłéĻĲ": 5679,
      "Ġå¹³çŃī": 5680,
      "ĠåıĳæĮ¥": 5681,
      "Ġå®¤": 5682,
      "ĠéħįéŁ³": 5683,
      "Ġç¬¬ä¸ĥ": 5684,
      "ĠåĮĹç¾İæ´²": 5685,
      "å¦Ĥæŀľ": 5686,
      "Ġè®Ńç»ĥ": 5687,
      "ĠæľīåĪ©": 5688,
      "Ġå®ŀæĸ½": 5689,
      "éŁµ": 5690,
      "Ġæ±Łèĭıçľģ": 5691,
      "ĠçŃīäºİ": 5692,
      "Ġ47": 5693,
      "Ġåłª": 5694,
      "Ġæ²Ł": 5695,
      "éļĶ": 5696,
      "ĠæķĻå¸Ī": 5697,
      "Ġèµ°åĲĳ": 5698,
      "ç¦¹": 5699,
      "è´ŀ": 5700,
      "çĸ¾": 5701,
      "Ġè¦Ĩ": 5702,
      "éĽģ": 5703,
      "ĠçĮľ": 5704,
      "Ġè´µå·ŀ": 5705,
      "Ġæľīä¸ª": 5706,
      "ĠåĽĽå·Ŀçľģ": 5707,
      "Ġä»£è¨Ģ": 5708,
      "ĠèıĬ": 5709,
      "ä¼ļè®®": 5710,
      "ĠåĪĨè§£": 5711,
      "ĠæĪĺèĥľ": 5712,
      "Ġèĭıè½¼": 5713,
      "Ġ1986": 5714,
      "ĠéļıåĲİ": 5715,
      "Ġä¾ĿçĦ¶": 5716,
      "ow": 5717,
      "ĠçĶ»å®¶": 5718,
      "Ġéļ¾ä»¥": 5719,
      "Ġè¡ĮæĶ¿åĮº": 5720,
      "Ġå¦¹å¦¹": 5721,
      "Ġå¤§ä¼ļ": 5722,
      "çĽĳ": 5723,
      "Ġå·¥åħ·": 5724,
      "ĠåĪ¶æĪĲ": 5725,
      "Ġèº«è¾¹": 5726,
      "éº»": 5727,
      "Ġé¾": 5728,
      "Ġæµħ": 5729,
      "ĠéĨī": 5730,
      "Ġå¡ĳéĢł": 5731,
      "æĢĿæĥ³": 5732,
      "Ġå©ļå§»": 5733,
      "éĻĪ": 5734,
      "æĺĤ": 5735,
      "Ġå£ģ": 5736,
      "éĢ¸": 5737,
      "Ġæ¬§éĺ³": 5738,
      "Ġèģª": 5739,
      "ĠéĢĿ": 5740,
      "Ġåħ¨éķ¿": 5741,
      "åĿļ": 5742,
      "ĠæĢ»éĥ¨": 5743,
      "æģĴ": 5744,
      "ĠåĨľæĿĳ": 5745,
      "Ġè¿«": 5746,
      "Ġåľ°ä¸ĭ": 5747,
      "ä¸Ńå±±": 5748,
      "ä¿Ħ": 5749,
      "ä½©": 5750,
      "ä¾£": 5751,
      "Ġé»ĳæļĹ": 5752,
      "Ġæĵħ": 5753,
      "é³": 5754,
      "Ġçĸĳ": 5755,
      "Ġä¸ªæĢ§": 5756,
      "çİ©": 5757,
      "Ġæ£ī": 5758,
      "Ġåĵ²åŃ¦": 5759,
      "ç»ıæµİ": 5760,
      "Ġè¡¨æĺİ": 5761,
      "ĠåłĤ": 5762,
      "ĠæĹ¥æľŁ": 5763,
      "æļ´": 5764,
      "Ġäººå·¥": 5765,
      "___": 5766,
      "ĠæŃ¤åĲİ": 5767,
      "Ġå¯»æī¾": 5768,
      "è¡ĮæĺŁ": 5769,
      "éļĲ": 5770,
      "Ġåį°è±¡": 5771,
      "Ġâĳ¢": 5772,
      "åĪĳ": 5773,
      "è¿ĺ": 5774,
      "ell": 5775,
      "Ġå½»åºķ": 5776,
      "ĠéĢīæīĭ": 5777,
      "Ġåı¦ä¸Ģ": 5778,
      "Ġ1949": 5779,
      "ĠåĮĹæŀģ": 5780,
      "Ġå¦Ĥä»Ĭ": 5781,
      "å¯»": 5782,
      "Ġä½ĵç³»": 5783,
      "Ġèĩ³å°ĳ": 5784,
      "Ġæīĭæ³ķ": 5785,
      "ĠæŁĲäºĽ": 5786,
      "Ġä¹Ĵä¹ĵçĲĥ": 5787,
      "ĠéĤ»": 5788,
      "Ġå¹¶éĿŀ": 5789,
      "ĠåĽĽåįģ": 5790,
      "æİĮ": 5791,
      "Ġä¹ĮæĭīåľŃ": 5792,
      "åľ°åĪ©": 5793,
      "ĠæĻºæħ§": 5794,
      "Ġæĸ°åĬłåĿ¡": 5795,
      "ĠâĢķ": 5796,
      "è¶³èģĶ": 5797,
      "åºĬ": 5798,
      "èĥ¡": 5799,
      "ĠåĿĹ": 5800,
      "Ġä¸įä½Ĩ": 5801,
      "åįµ": 5802,
      "Ġä¼Ĭæĸ¯åħ°": 5803,
      "Ġè§¦": 5804,
      "Ġéķ¿ç¯ĩå°ıè¯´": 5805,
      "Ġä¾¦": 5806,
      "ĠåĽĽå¹´": 5807,
      "Ġè®°å¾Ĺ": 5808,
      "Ġæ¸¯åı£": 5809,
      "Ġæī©å¤§": 5810,
      "Ġå¯ĵ": 5811,
      "Ġè§ĤçĤ¹": 5812,
      "ĠåĴı": 5813,
      "æĥĬ": 5814,
      "Ġè¾ŀ": 5815,
      "æĤ¦": 5816,
      "ªçİ¯": 5817,
      "èĬĿ": 5818,
      "Ġéķ¿æ²Ļ": 5819,
      "Ġæįķ": 5820,
      "ĠæĬ½": 5821,
      "Ġä¸»ä½ĵ": 5822,
      "26": 5823,
      "ent": 5824,
      "çĹĩ": 5825,
      "Ġç»ķ": 5826,
      "Ġäººæīį": 5827,
      "Ġ01": 5828,
      "ç¿ł": 5829,
      "å§ĳ": 5830,
      "Ġå¼ĢåĽ½": 5831,
      "ĠåıĤèĢĥ": 5832,
      "Ġè¿Ķ": 5833,
      "Ġè´£": 5834,
      "Ġåģļåĩº": 5835,
      "Ġå¥łå®ļ": 5836,
      "åĲ´": 5837,
      "Ġè¡ĮåĬ¨": 5838,
      "ĠæīĢåľ¨åľ°": 5839,
      "ĠçĽ¸æ¯Ķ": 5840,
      "Ġåı²ä¹¦": 5841,
      "å¥¥å§Ķä¼ļ": 5842,
      "éĨī": 5843,
      "Ġå¢¨è¥¿åĵ¥": 5844,
      "Ġå¤ĩ": 5845,
      "æĽ¾": 5846,
      "æ¯ģ": 5847,
      "ĠçģŃäº¡": 5848,
      "Ġqq": 5849,
      "ĠæĮ¯": 5850,
      "Ġ1995": 5851,
      "Ġé©±": 5852,
      "ĠåħĥæľĿ": 5853,
      "198": 5854,
      "ĠåºĲ": 5855,
      "ĠèĥĨ": 5856,
      "ç¥Ŀ": 5857,
      "ĠçĽ¸ä¼¼": 5858,
      "Ġç´łæľī": 5859,
      "å¥ī": 5860,
      "è´¼": 5861,
      "ĠæīĢè¯´": 5862,
      "Ġç½®": 5863,
      "æĥĳ": 5864,
      "Ġåľ£è¯ŀ": 5865,
      "Ġåıĳå¸ĥ": 5866,
      "ç´§": 5867,
      "ç¬¦": 5868,
      "å¤§éĻĨ": 5869,
      "ĠåĩĨç¡®": 5870,
      "Ġç»°": 5871,
      "Ġè¾ħ": 5872,
      "ĠæĹłæķ°": 5873,
      "ĠæĿİä¸ĸæ°ĳ": 5874,
      "èĮ¨": 5875,
      "Ġç§¦åĽ½": 5876,
      "Ġä¸įå¦Ĥ": 5877,
      "Ġåĩ¤åĩ°": 5878,
      "ĠåĦĴå®¶": 5879,
      "Ġå°ĸ": 5880,
      "ĠåĪĨçķĮ": 5881,
      "ĠåĲ¬åĪ°": 5882,
      "ä»¥æĿ¥": 5883,
      "Ġéĥģ": 5884,
      "é¹ħ": 5885,
      "Ġå¯Ĥ": 5886,
      "ĠåįģåħŃ": 5887,
      "Ġé¥Ń": 5888,
      "Ġåĸľåī§": 5889,
      "Ġå¤ªéĺ³ç³»": 5890,
      "ĠåİĭåĬĽ": 5891,
      "ä»Ķ": 5892,
      "Ġä¸Ģç¯ĩ": 5893,
      "Ġçº¬": 5894,
      "è°Ĭ": 5895,
      "Ġå·²æľī": 5896,
      "ç´¯": 5897,
      "Ġèħ¾": 5898,
      "ĠæĪĲéķ¿": 5899,
      "ĠéĹŃ": 5900,
      "Ġèį£èªī": 5901,
      "ç»¸": 5902,
      "Ġèĥļ": 5903,
      "å½»": 5904,
      "ä½ľèĢħ": 5905,
      "Ġå³°": 5906,
      "Ġå®īæİĴ": 5907,
      "Ġæ¾³éĹ¨": 5908,
      "ç©Ĩ": 5909,
      "ang": 5910,
      "90": 5911,
      "ĠæľĢæĸ°": 5912,
      "Ġè¡°": 5913,
      "ĠæĺŃ": 5914,
      "Ġè¿Ĳè¾ĵ": 5915,
      "èĦĤ": 5916,
      "Ġæ¢ģå±±": 5917,
      "éĺ¶": 5918,
      "Ġ43": 5919,
      "éĶħ": 5920,
      "Ġçĳŀåħ¸": 5921,
      "ä¼ĳ": 5922,
      "äººåĳĺ": 5923,
      "æĢĴ": 5924,
      "ĠèĤĿ": 5925,
      "Ġç®¡è¾ĸ": 5926,
      "Ġä¿®å»º": 5927,
      "Ġæ²»çĸĹ": 5928,
      "Ġè½¯ä»¶": 5929,
      "Ġæ¤į": 5930,
      "Ġå¤§å°Ĩ": 5931,
      "æµ·å³¡": 5932,
      "Ġä¾¯": 5933,
      "ĠèĩªåĬ¨": 5934,
      "ĠåįĥéĩĮ": 5935,
      "Ġå¯Įæľī": 5936,
      "Ġä¸»æĮģäºº": 5937,
      "½åŃĲ": 5938,
      "Ġin": 5939,
      "Ġåĺ´": 5940,
      "ĠåĮ»éĻ¢": 5941,
      "Ġåĵģç§į": 5942,
      "ĠæĺİçĻ½": 5943,
      "èĢ³åħ¶": 5944,
      "æ³¥": 5945,
      "Ġè¾ī": 5946,
      "Ġè¯ķéªĮ": 5947,
      "éĹ²": 5948,
      "å¦®": 5949,
      "Ġæ®·": 5950,
      "Ġé¢ĺæĿĲ": 5951,
      "æľ´": 5952,
      "æ²«": 5953,
      "ĠåİŁæĸĻ": 5954,
      "Ġç¼ĵ": 5955,
      "Ġæ·ĺ": 5956,
      "Ġå¤ĸäº¤": 5957,
      "Ġç²īä¸Ŀ": 5958,
      "Ġæ·±åħ¥": 5959,
      "ĠåķĨåĵģ": 5960,
      "Ġèī¯å¥½": 5961,
      "Ġå¤§å¤ļæķ°": 5962,
      "ĠæĮģç»Ń": 5963,
      "èĿ¶": 5964,
      "ĠæĹ¥åĩº": 5965,
      "Ġä¸ĺ": 5966,
      "Ġåħ¬å¼Ģ": 5967,
      "Ġçľĭè§ģ": 5968,
      "ĠæĢģ": 5969,
      "Ġ46": 5970,
      "ĠæĺŁæĺŁ": 5971,
      "ĠåĽ½æĹĹ": 5972,
      "æ¹¿": 5973,
      "çĺ": 5974,
      "Ġ184": 5975,
      "Ġå®ļä¸º": 5976,
      "ĠæĪª": 5977,
      "Ġå¼¦": 5978,
      "ĠæĢ»çĲĨ": 5979,
      "Ġèº": 5980,
      "Ġè¯Ĺåı¥": 5981,
      "ĠåĪĽå»º": 5982,
      "èķ¾": 5983,
      "æĿ¨": 5984,
      "Ġé«ĺä¸Ń": 5985,
      "ĠäºĶåįģ": 5986,
      "Ġå¥¥åľ°åĪ©": 5987,
      "Ġæİ¥è§¦": 5988,
      "å¸ĮèħĬ": 5989,
      "Ġå¸ķ": 5990,
      "Ġæľºåľº": 5991,
      "Ġæŀģå¤§": 5992,
      "Ġæĥł": 5993,
      "ĠåŁºåĽł": 5994,
      "ĠæĶ¾å¼ĥ": 5995,
      "Ġäº¤åĵįæĽ²": 5996,
      "çĦ°": 5997,
      "å®£": 5998,
      "ä¼Ļ": 5999,
      "Ġäººæĸĩ": 6000,
      "Ġå¤§æ´²": 6001,
      "Ġå¸¸å¸¸": 6002,
      "Ġåįıä¼ļ": 6003,
      "ĠåľĪ": 6004,
      "ĠçİĭåŃĲ": 6005,
      "ĠæĮĩå¯¼": 6006,
      "Ġæ°¯": 6007,
      "Ġåī©": 6008,
      "åĪĨåŃĲ": 6009,
      "Ġé¦ĸåºľ": 6010,
      "Ġ76": 6011,
      "Ġä»¥å¤ĸ": 6012,
      "å±ħæĺĵ": 6013,
      "ĠåĪĴåĪĨ": 6014,
      "Ġç¾¤å²Ľ": 6015,
      "Ġå¤©åľ°": 6016,
      "Ġéĥ¨éĹ¨": 6017,
      "å¡ĳ": 6018,
      "Ġå§Ĳå§Ĳ": 6019,
      "è¯¾": 6020,
      "éĻĢ": 6021,
      "Ġå±ĭ": 6022,
      "ĠåĨĽè¡Ķ": 6023,
      "å»ī": 6024,
      "Ġçħ§çīĩ": 6025,
      "ik": 6026,
      "Ġä¼°": 6027,
      "ĠåŃĻæĿĥ": 6028,
      "Ġè¡¡": 6029,
      "Ġéģį": 6030,
      "Ġæĸ©": 6031,
      "æ±¤": 6032,
      "Ġèµ¤éģĵ": 6033,
      "Ġæľºåħ³": 6034,
      "æ±ģ": 6035,
      "åĿĬ": 6036,
      "å¾·åįİ": 6037,
      "Ġé²ľæĺİ": 6038,
      "Ġç»°åı·": 6039,
      "èµ·æĿ¥": 6040,
      "ç´«": 6041,
      "æ»´": 6042,
      "ĠåŃ£é£İ": 6043,
      "Ġæ±īæľĿ": 6044,
      "Ġå·©": 6045,
      "Ġ58": 6046,
      "Ġé¸¦çīĩ": 6047,
      "Ġé¼»": 6048,
      "ĠäºĴçĽ¸": 6049,
      "Ġç¢³éħ¸": 6050,
      "ec": 6051,
      "Ġè¿Ī": 6052,
      "çī²": 6053,
      "Ġä¸Ģé¡¹": 6054,
      "Ġå´Ķ": 6055,
      "åĽ°": 6056,
      "Ġå®īå¾½çľģ": 6057,
      "Ġä½©": 6058,
      "Ġé¸£": 6059,
      "åķ¡": 6060,
      "Ġç»´çĶŁç´ł": 6061,
      "Ġäº²èĩª": 6062,
      "21": 6063,
      "ĠèĢĮå·²": 6064,
      "åħĭæĸ¯": 6065,
      "Ġèĩªèº«": 6066,
      "ĠåĪĽåĬŀ": 6067,
      "Ġç¬¦åı·": 6068,
      "Ġä¸¤å¹´": 6069,
      "ĠæĦıè¯Ĩ": 6070,
      "æ»ļ": 6071,
      "ĠåĴĸ": 6072,
      "çĻ¾å¹´": 6073,
      "if": 6074,
      "Ġç»Ń": 6075,
      "Ġ04": 6076,
      "Ġå¸¸è§ģ": 6077,
      "ä¼į": 6078,
      "Ġå¤§éĥ½": 6079,
      "ĠæıĲåĪ°": 6080,
      "Ġä¸»åĬŀ": 6081,
      "Ġéģµ": 6082,
      "ĠçĻ»ä¸Ĭ": 6083,
      "Ġæµģç»ı": 6084,
      "çİ¯å¢ĥ": 6085,
      "Ġé¦Ĩ": 6086,
      "ĠåĲĮåŃ¦": 6087,
      "Ġåī§ä¸Ń": 6088,
      "ĠåŁºçĿ£æķĻ": 6089,
      "ĠåĽ½æŃĮ": 6090,
      "Ġ187": 6091,
      "Ġçľģä»½": 6092,
      "ĠåŁºæľ¬ä¸Ĭ": 6093,
      "Ġçİ«çĳ°": 6094,
      "çĭĤ": 6095,
      "Ġç»ĺçĶ»": 6096,
      "èĬ½": 6097,
      "Ġå¿ĥæĥħ": 6098,
      "Ġå±ķç¤º": 6099,
      "åįĥå¹´": 6100,
      "Ġè¥Ħ": 6101,
      "Ġæ¸Ĳ": 6102,
      "èĤª": 6103,
      "Ġæľ«å¹´": 6104,
      "Ġæ°ĳæŃĮ": 6105,
      "Ġå¤©æ°Ķ": 6106,
      "å¿§": 6107,
      "è´¸": 6108,
      "Ġè¿ĽçĲĥ": 6109,
      "æİ§": 6110,
      "æİĺ": 6111,
      "ĠæĲº": 6112,
      "ĠåĪĹä¸º": 6113,
      "55": 6114,
      "ĠèĤĸ": 6115,
      "ĠåĶ±æŃĮ": 6116,
      "Ġçķ¥": 6117,
      "Ġæ£ĭ": 6118,
      "28": 6119,
      "ĠåľŁèĢ³åħ¶": 6120,
      "è´¢": 6121,
      "èĩĤ": 6122,
      "ĠæķĮäºº": 6123,
      "Ġä¿Ŀè¯ģ": 6124,
      "Ġäººæ°Ķ": 6125,
      "Ġ1993": 6126,
      "ĠèĭĹ": 6127,
      "Ġ1991": 6128,
      "ĠåĨł": 6129,
      "å¯ĵ": 6130,
      "Ġæİī": 6131,
      "æĦĪ": 6132,
      "èĻ¹": 6133,
      "Ġæ³¥": 6134,
      "å´ĩ": 6135,
      "Ġæ¶²ä½ĵ": 6136,
      "ĠåĬĿ": 6137,
      "ä¸īè§Ĵ": 6138,
      "Ġåħ±åĴĮåĽ½": 6139,
      "Ġåĳ¨çĳľ": 6140,
      "Ġåįĥåı¤": 6141,
      "Ġè®¿": 6142,
      "pu": 6143,
      "Ġä¸ĢæĶ¯": 6144,
      "äººçī©": 6145,
      "ĠçĪ¬": 6146,
      "ç¾İåħĥ": 6147,
      "Ġæ¡ĳ": 6148,
      "Ġ150": 6149,
      "Ġå¸¸çĶ¨": 6150,
      "ĠéĻ·": 6151,
      "Ġæ³°åĽ½": 6152,
      "Ġæ¹ĸåĮĹçľģ": 6153,
      "Ġä¸įç®¡": 6154,
      "Ġéĩįè§Ĩ": 6155,
      "æĪĲåĬŁ": 6156,
      "Ġå·¥äºº": 6157,
      "ĠçĶµè§Ĩåı°": 6158,
      "Ġå¸Ŀçİĭ": 6159,
      "Ġäºķ": 6160,
      "çº½": 6161,
      "Ġè¥¿æ¹ĸ": 6162,
      "Ġèĥ¶": 6163,
      "Ġå½¢çĬ¶": 6164,
      "ĠåŃĻä¸Ńå±±": 6165,
      "Ġæ£Ĵ": 6166,
      "çŁ¶": 6167,
      "ĠåİĤ": 6168,
      "Ġåĵį": 6169,
      "ĠåĲīæŀĹ": 6170,
      "Ġä¸§": 6171,
      "ĠåĽ½è¯Ń": 6172,
      "ĠåŁ¹åħ»": 6173,
      "Ġå¼Ģå¹ķ": 6174,
      "Ġå¹³è¡¡": 6175,
      "Ġåı²ä¸Ĭ": 6176,
      "Ġä»ĺ": 6177,
      "åĲ¾": 6178,
      "éĢĲ": 6179,
      "Ġåĩºåıĳ": 6180,
      "Ġå¤ıå¤©": 6181,
      "Ġçĺ": 6182,
      "ĠäºĮå¹´": 6183,
      "é«": 6184,
      "Ġå¾Īå°ĳ": 6185,
      "éħ·": 6186,
      "Ġè§ģåĪ°": 6187,
      "Ġæ¡ĥèĬ±": 6188,
      "Ġèĳ¡èĲĦçīĻ": 6189,
      "çķħ": 6190,
      "ĠéŃħåĬĽ": 6191,
      "Ġçļĩå®¶": 6192,
      "Ġæīĵçł´": 6193,
      "ĠåĪ©çĽĬ": 6194,
      "åĤ¨": 6195,
      "ç¢İ": 6196,
      "Ġè´¯": 6197,
      "Ġè¡¥åħħ": 6198,
      "éķ": 6199,
      "å¹³åİŁ": 6200,
      "ĠæĽ´ä¸º": 6201,
      "Ġå¥¥æĸ¯": 6202,
      "æĭħ": 6203,
      "Ġè¿Ĳè¡Į": 6204,
      "Ġsh": 6205,
      "Ġè®°å¿Ĩ": 6206,
      "Ġä¸ļåĬ¡": 6207,
      "ĠèĢģåħ¬": 6208,
      "ak": 6209,
      "ul": 6210,
      "åįľ": 6211,
      "Ġåĩī": 6212,
      "Ġæŀģä¸º": 6213,
      "Ġé«ĺå±±": 6214,
      "Ġéĵº": 6215,
      "Ġå·®ä¸įå¤ļ": 6216,
      "Ġä¹ĭæĥħ": 6217,
      "Ġä¼ĺç¾İ": 6218,
      "Ġä»Ļåīĳ": 6219,
      "Ġ44": 6220,
      "Ġæ°´æŀľ": 6221,
      "ĠæľºåĻ¨": 6222,
      "Ġçħ®": 6223,
      "äº¥": 6224,
      "å¾¡": 6225,
      "éĢĿ": 6226,
      "Ġåı¤äºº": 6227,
      "Ġå¼ºè°ĥ": 6228,
      "ĠçĥŃæĥħ": 6229,
      "ĠçªĹ": 6230,
      "ä¸ĭæĿ¥": 6231,
      "Ġäº§éĩı": 6232,
      "Ġéī´": 6233,
      "ĠæŁ´": 6234,
      "Ġçºªå½ķ": 6235,
      "Ġæŀ¶": 6236,
      "ä¹Į": 6237,
      "Ġå¿ĥéĩĮ": 6238,
      "Ġä¸Ģæĺ¯": 6239,
      "çĤī": 6240,
      "ĠåĽŀæĿ¥": 6241,
      "ĠéĿ¢åīį": 6242,
      "éĵŃ": 6243,
      "ĠåĽ½éĻħå¥¥å§Ķä¼ļ": 6244,
      "Ġä¸¥æł¼": 6245,
      "ĠæŃ¦è£ħ": 6246,
      "Ġå±±ä¸ľçľģ": 6247,
      "é¥¼": 6248,
      "å½¦": 6249,
      "Ġæĥħäºº": 6250,
      "ºçī²": 6251,
      "Ġå¤¸": 6252,
      "åĳµ": 6253,
      "ĠçŃīçº§": 6254,
      "Ġåįļå£«": 6255,
      "Ġè°¢è°¢": 6256,
      "Ġç©¶": 6257,
      "èĻļ": 6258,
      "è§£æĶ¾": 6259,
      "Ġç»´æĬ¤": 6260,
      "Ġæĭīä¸ģ": 6261,
      "Ġä¸Ŀç»¸": 6262,
      "ĠæľĢæ·±": 6263,
      "çº¹": 6264,
      "Ġä¸Ģå¼ł": 6265,
      "çľł": 6266,
      "è°Ĳ": 6267,
      "Ġ1982": 6268,
      "æħķ": 6269,
      "ĠèĦĤèĤª": 6270,
      "æª": 6271,
      "Ġä¾¿æĺ¯": 6272,
      "ĠéħĴåºĹ": 6273,
      "ĠåĪĨæ³Į": 6274,
      "ĠåĲĪåĶ±": 6275,
      "Ġä¸¤å¤§": 6276,
      "Ġ88": 6277,
      "ĠæĶ¹åĲį": 6278,
      "çĳŁ": 6279,
      "Ġå°±è¦ģ": 6280,
      "åħ¬åĽŃ": 6281,
      "Ġæ¸ħæĶ¿åºľ": 6282,
      "å¾Ĳ": 6283,
      "Ġæµĳ": 6284,
      "Ġåį³åı¯": 6285,
      "ĠéĢĤåºĶ": 6286,
      "Ġç®Ĺæĺ¯": 6287,
      "Ġå°ıç»Ħ": 6288,
      "Ġä¿Ĺç§°": 6289,
      "Ġèº«ä»½è¯ģ": 6290,
      "Ġå®³": 6291,
      "Ġåľ°åĽ¾": 6292,
      "å¤ļèĬ¬": 6293,
      "Ġéŀ": 6294,
      "å±±èĦī": 6295,
      "çģ¾": 6296,
      "éĶģ": 6297,
      "ĠåĪĿæľŁ": 6298,
      "Ġç¢±": 6299,
      "è¶³çĲĥ": 6300,
      "ĠçĶ»éĿ¢": 6301,
      "è®²": 6302,
      "æ²ĥ": 6303,
      "Ġè§Ħå¾ĭ": 6304,
      "Ġé¦": 6305,
      "ĠæŃĮåī§": 6306,
      "Ġæ³¨åħ¥": 6307,
      "Ġæļĸ": 6308,
      "Ġå¸ĿåĽ½ä¸»ä¹ī": 6309,
      "µ©": 6310,
      "çĬ¬": 6311,
      "ĠåĴĸåķ¡": 6312,
      "co": 6313,
      "Ġå¿µ": 6314,
      "çł´ä»ĳ": 6315,
      "igh": 6316,
      "tv": 6317,
      "åĪĺ": 6318,
      "ĠåīįéĿ¢": 6319,
      "ĠæĬĴæĥħ": 6320,
      "Ġè¿Ħ": 6321,
      "Ġæĸľ": 6322,
      "ĠæĹ¥èĩ³": 6323,
      "ĠåĽ½éĻħè¶³èģĶ": 6324,
      "èİ«": 6325,
      "Ġç½ĳåıĭ": 6326,
      "Ġæľįè£ħ": 6327,
      "Ġéģĵå¾·": 6328,
      "Ġå¤¹": 6329,
      "ĠåĨħå¿ĥ": 6330,
      "Ġå¦ĩå¥³": 6331,
      "å°Ŀ": 6332,
      "Ġæĺ¥é£İ": 6333,
      "Ġç¢°": 6334,
      "ĠçĽĹ": 6335,
      "çĪ½": 6336,
      "Ġé¢ĺæĦı": 6337,
      "ç£¨": 6338,
      "ĠåĮĸçŁ³": 6339,
      "ĠéĹ½": 6340,
      "æĹ¥æľŁ": 6341,
      "Ġæĺ¥èĬĤ": 6342,
      "ĠæĬ¥åĳĬ": 6343,
      "éĻ·": 6344,
      "éĽ¾": 6345,
      "Ġå½¢æĢģ": 6346,
      "Ġå®ĭæľĿ": 6347,
      "ĠãĢī": 6348,
      "å¼ĢæĶ¾": 6349,
      "è£ķ": 6350,
      "éĻ¶": 6351,
      "çĴĭ": 6352,
      "Ġåı¸é©¬è¿ģ": 6353,
      "ä»£è¡¨å¤§ä¼ļ": 6354,
      "Ġçº²": 6355,
      "Ġåħ±äº§åħļ": 6356,
      "Ġæĵįä½ľ": 6357,
      "å°ĸ": 6358,
      "Ġæīİ": 6359,
      "èħĲ": 6360,
      "ĠæıĴæĽ²": 6361,
      "åĩºæĿ¥": 6362,
      "Ġé£ŀèĪ¹": 6363,
      "ĠæĢĿæĥ³å®¶": 6364,
      "è¾±": 6365,
      "Ġé»Ħèī²": 6366,
      "Ġæīĭæ®µ": 6367,
      "æ»ĳ": 6368,
      "æľĭåıĭ": 6369,
      "Ġè¿ĽåĮĸ": 6370,
      "ĠçĭŃ": 6371,
      "èĩªçĦ¶": 6372,
      "ĠèģĶèµĽ": 6373,
      "ĠæĢ»ç»ĵ": 6374,
      "ĠçľŁæĺ¯": 6375,
      "Ġco": 6376,
      "Ġåį°åº¦æ´ĭ": 6377,
      "Ġç¾½æ¯ĽçĲĥ": 6378,
      "Ġå·«": 6379,
      "èĸĦ": 6380,
      "Ġå®ł": 6381,
      "ĠéĿĴèĹı": 6382,
      "ĠåĲīç¥¥": 6383,
      "ĠèĦĬ": 6384,
      "ĠæİĪäºĪ": 6385,
      "å¨ĩ": 6386,
      "Ġæ»¡è¶³": 6387,
      "åį±": 6388,
      "ç»µ": 6389,
      "è´Ń": 6390,
      "ĠæĭĴ": 6391,
      "ĠäºĶå¹´": 6392,
      "Ġç¼ĺ": 6393,
      "Ġäººæ°ĳå¸ģ": 6394,
      "ĠéĢłåŀĭ": 6395,
      "Ġå¢ŀéķ¿": 6396,
      "ĠæĬķåħ¥": 6397,
      "Ġæ¢ħèĬ±": 6398,
      "kg": 6399,
      "Ġåĳµ": 6400,
      "ĠåºĹ": 6401,
      "ç½ļ": 6402,
      "Ġæ°Ķæ¸©": 6403,
      "Ġä¼´": 6404,
      "ĠæĻ¶": 6405,
      "ĠåĽ½å®¶éĺŁ": 6406,
      "åĭ¤": 6407,
      "Ġçİ°ä»£åĮĸ": 6408,
      "Ġå°Ŀ": 6409,
      "Ġå®¾": 6410,
      "å·¦": 6411,
      "Ġå¯¹è±¡": 6412,
      "ĠçĤĴ": 6413,
      "ĠèĢĥå¯Ł": 6414,
      "23": 6415,
      "Ġåĵº": 6416,
      "ĠçĽ¸ä¼ł": 6417,
      "ĠæĿİå°ı": 6418,
      "ĠæĹħè¡Į": 6419,
      "Ġæĺ¾å¾Ĺ": 6420,
      "Ġåľ°åĬ¿": 6421,
      "ä½ĳ": 6422,
      "ĠåĨħéĻĨ": 6423,
      "å©·": 6424,
      "Ġ1987": 6425,
      "ç¹ģ": 6426,
      "Ġåħ¶æ¬¡": 6427,
      "éĥĬ": 6428,
      "Ġç¡®ç«ĭ": 6429,
      "Ġå±ĪåİŁ": 6430,
      "ĠåĵĢ": 6431,
      "Ġæµ·å²¸": 6432,
      "Ġé£İåħī": 6433,
      "Ġç§ĳä¸¾": 6434,
      "Ġé¸Ń": 6435,
      "æĢ¡": 6436,
      "ey": 6437,
      "ĠäºĮäºº": 6438,
      "æĪ´": 6439,
      "ĠåĪĨç±»": 6440,
      "Ġä¸ĩå¹´": 6441,
      "ç¿ģ": 6442,
      "æĿľ": 6443,
      "æ£Ģ": 6444,
      "Ġéĺ²æŃ¢": 6445,
      "æĨ": 6446,
      "Ġå¤©ä½¿": 6447,
      "ĠçŁ³å¤´": 6448,
      "çĭ®": 6449,
      "ç§ĳåŃ¦": 6450,
      "Ġçº·çº·": 6451,
      "Ġå°º": 6452,
      "ĠåĮ»åŃ¦": 6453,
      "ĠæĮ¥": 6454,
      "Ġæ¯Ķä¾ĭ": 6455,
      "ĠæĸĩåŃ¦åı²": 6456,
      "Ġæĸ°äºº": 6457,
      "ĠæŃĮåĶ±": 6458,
      "ĠæĶ¿æ²»å®¶": 6459,
      "ĠæĮĳæĪĺ": 6460,
      "ĠåĲŀ": 6461,
      "ĠéĩĳåŃĹ": 6462,
      "Ġå¿ĥèĦı": 6463,
      "Ġæĸĩä»¶": 6464,
      "Ġæķ´ä½ĵ": 6465,
      "ĠæĿĤå¿Ĺ": 6466,
      "Ġå¼ŁåŃĲ": 6467,
      "Ġæ²³åĮĹçľģ": 6468,
      "Ġ3000": 6469,
      "Ġ1980": 6470,
      "Ġ1985": 6471,
      "ĠæŁ¯åįĹ": 6472,
      "æ§": 6473,
      "ĠèĩŃ": 6474,
      "Ġæķ¢": 6475,
      "Ġæ¼Ķå¥ı": 6476,
      "Ġå¯Ĥå¯": 6477,
      "éŁ³ä¹Ĳ": 6478,
      "Ġåĭ¤": 6479,
      "åĿĿ": 6480,
      "ĠèĮħ": 6481,
      "ĠéĢĲæŃ¥": 6482,
      "ĠåĽ½å¤ĸ": 6483,
      "Ġæĺ¨": 6484,
      "ĠåŁĭ": 6485,
      "ĠåĮĹçº¬": 6486,
      "ĠèŁ": 6487,
      "Ġä¼¸": 6488,
      "è¾£": 6489,
      "Ġç©ºä¸Ń": 6490,
      "èŁ": 6491,
      "Ġåħ¬è·¯": 6492,
      "çĤŃ": 6493,
      "è·³": 6494,
      "Ġå¸¦æľī": 6495,
      "Ġä¸´æĹ¶": 6496,
      "èµĸ": 6497,
      "ĠçĤ¸": 6498,
      "Ġä¸ĭåĪĹ": 6499,
      "Ġç¦»å©ļ": 6500,
      "ĠåıĽ": 6501,
      "Ġåįłé¢Ĩ": 6502,
      "Ġæĥ³è¦ģ": 6503,
      "ĠåĽ½åľŁ": 6504,
      "ĠæĹ¥åĨĽ": 6505,
      "æµ®": 6506,
      "ĠæĻ¯èī²": 6507,
      "ĠæīĢå±ŀ": 6508,
      "tm": 6509,
      "Ġå¯¼å¼¹": 6510,
      "åªĴ": 6511,
      "Ġç±į": 6512,
      "ĠçĻ½å±ħæĺĵ": 6513,
      "Ġä¿¡ä»°": 6514,
      "ĠæĬĹæĪĺ": 6515,
      "Ġåĳ³éģĵ": 6516,
      "Ġäººå®¶": 6517,
      "Ġçº¦ç¿°": 6518,
      "Ġçķª": 6519,
      "Ġä¸Ģèĩ´": 6520,
      "Ġå¤§è§Ħæ¨¡": 6521,
      "è´º": 6522,
      "çĪµ": 6523,
      "ĠæŃ»åĲİ": 6524,
      "ĠçĶ¨æĪ·": 6525,
      "Ġæħķ": 6526,
      "Ġç»Łæ²»èĢħ": 6527,
      "Ġå¢Ļ": 6528,
      "ĠéģĵæķĻ": 6529,
      "Ġä¸Ģçº§": 6530,
      "æŀ¢": 6531,
      "æ¡Ĥ": 6532,
      "ĠæĲľç´¢": 6533,
      "Ġäººç§°": 6534,
      "æ¤Ĵ": 6535,
      "ĠæĢģåº¦": 6536,
      "Ġåħ¬å®ī": 6537,
      "ĠèĢģæĿ¿": 6538,
      "Ġæīĵå¼Ģ": 6539,
      "åħ¬è·¯": 6540,
      "ĠäºĶå¤§": 6541,
      "ĠåĮħåĲ«": 6542,
      "è¢ĭ": 6543,
      "Ġæĭ¿çł´ä»ĳ": 6544,
      "Ġé£İæĻ¯åĮº": 6545,
      "çĽĹ": 6546,
      "Ġçİ°åľº": 6547,
      "Ġçľĭåĩº": 6548,
      "ĠåŃ¦è¯´": 6549,
      "ĠåĮĹäº¬å¸Ĥ": 6550,
      "ĠåıĳåĬ¨æľº": 6551,
      "ĠéĤ®æĶ¿": 6552,
      "æĲ": 6553,
      "Ġæ¯ĶåĪ©": 6554,
      "å§Ķåĳĺä¼ļ": 6555,
      "68": 6556,
      "Ġä¸½": 6557,
      "åİ¦": 6558,
      "ĠçŃ¹": 6559,
      "ĠèģĤ": 6560,
      "ĠåĲ«ä¹ī": 6561,
      "Ĳå°Ħ": 6562,
      "Ġæµ©": 6563,
      "æĽ´": 6564,
      "Ġ65": 6565,
      "ĠåŃ¦æľ¯": 6566,
      "Ġé£İäºĳ": 6567,
      "æ¢¯": 6568,
      "Ġç¬¬åħ«": 6569,
      "Ġä¸»ä»»": 6570,
      "Ġæµ·æ°´": 6571,
      "Ġå®¿": 6572,
      "Ġåĩºèº«": 6573,
      "Ġå°Ĩé¢Ĩ": 6574,
      "Ġè¡Įä¸ļ": 6575,
      "éģ¿": 6576,
      "ĠèĬ¬": 6577,
      "Ġåı¤åŁİ": 6578,
      "Ġè¤": 6579,
      "Ġç½¢": 6580,
      "Ġæ¼ĶåĶ±ä¼ļ": 6581,
      "ĠåĶĲå¤ªå®Ĺ": 6582,
      "å°¼æĸ¯": 6583,
      "ĠæĿĥåĪ©": 6584,
      "Ġä¸¹éº¦": 6585,
      "Ġå¤©çİĭ": 6586,
      "Ġan": 6587,
      "Ġç¢ĳ": 6588,
      "ĠéĻĲåĪ¶": 6589,
      "ĠéĤĢè¯·": 6590,
      "æī°": 6591,
      "Ġéļ¶": 6592,
      "Ġä¸ľåįĹäºļ": 6593,
      "Ġä¸Ģåħ±": 6594,
      "ĠåįģåĽĽ": 6595,
      "ĠäºĶä¸ª": 6596,
      "Ġåį³ä½į": 6597,
      "ĠåĲĪæĪĲ": 6598,
      "Ġç²¾å½©": 6599,
      "èĹ¤": 6600,
      "Ġåľ°ä¸Ĭ": 6601,
      "Ġèĩªç§°": 6602,
      "Ġå½ĵä»£": 6603,
      "Ġå®ŀåľ¨": 6604,
      "ĠåĪ«åĲį": 6605,
      "ĠåįĬå²Ľ": 6606,
      "Ġå¥Ĺ": 6607,
      "Ġåİī": 6608,
      "Ġè°Ń": 6609,
      "Ġæ¹ĸåįĹçľģ": 6610,
      "ĠæµİåįĹ": 6611,
      "Ġä¼°è®¡": 6612,
      "ĠåĲ¨": 6613,
      "æ½Ń": 6614,
      "Ġç¹ģèį£": 6615,
      "Ġè¿Ŀ": 6616,
      "åıī": 6617,
      "Ġä¸īæľĪ": 6618,
      "Ġæ¸ħæĺİ": 6619,
      "ĠèģĶéĤ¦": 6620,
      "Ġä¾Ŀæį®": 6621,
      "ĠåĨ¬å¤©": 6622,
      "ĠçŃĸ": 6623,
      "ĠåĩĢ": 6624,
      "Ġæīĵåĩ»": 6625,
      "Ġæ»¡æĦı": 6626,
      "è¾ĸå¸Ĥ": 6627,
      "ĠæĺĨæĺİ": 6628,
      "Ġçĭ®åŃĲ": 6629,
      "è¥¿æĸ¯": 6630,
      "Ġäº«æľī": 6631,
      "Ġéĥ¨ä½į": 6632,
      "èĮĤ": 6633,
      "ĠéĩĳåŃĹå¡Ķ": 6634,
      "Ġåħģ": 6635,
      "çĶ¸": 6636,
      "åĮł": 6637,
      "Ġæ°¨": 6638,
      "ç¾²": 6639,
      "åħ¬ä¸»": 6640,
      "ĠåĿı": 6641,
      "Ġæ°ĶåĬ¿": 6642,
      "Ġå§ĳå¨ĺ": 6643,
      "Ġä¸Ģåįĥ": 6644,
      "èµµ": 6645,
      "ĠåĲįä¸º": 6646,
      "Ġçİĩé¢Ĩ": 6647,
      "Ġèĩªè¡Į": 6648,
      "èĤĸ": 6649,
      "ĠéĻįä½İ": 6650,
      "ĠéģŃåĪ°": 6651,
      "Ġä¸ĭè½½": 6652,
      "çĥŃå¸¦": 6653,
      "Ġèµ¤å£ģ": 6654,
      "¤ç»´": 6655,
      "Ġå¤§éģĵ": 6656,
      "Ġå®ĺåĳĺ": 6657,
      "ĠæľĢåħ·": 6658,
      "Ġé»ĺ": 6659,
      "è°Ń": 6660,
      "Ġç»į": 6661,
      "Ġç»ĵå±Ģ": 6662,
      "Ġçİ°å®ŀä¸»ä¹ī": 6663,
      "Ġä¸»åĬĽ": 6664,
      "Ġæ¸¡": 6665,
      "Ġåı¤å¸ĮèħĬ": 6666,
      "å¤«äºº": 6667,
      "Ġä»ħæ¬¡": 6668,
      "Ġ68": 6669,
      "ĠèĪį": 6670,
      "Ġé¡»": 6671,
      "ĠåĪºæ¿Ģ": 6672,
      "ç¢į": 6673,
      "ĠãĢĪ": 6674,
      "Ġä¸Ĭæĺł": 6675,
      "ĠèĬĻ": 6676,
      "Ġ64": 6677,
      "ĠæĶ¶åħ¥": 6678,
      "Ġå¯¹æīĭ": 6679,
      "Ġè¡Ģåŀĭ": 6680,
      "å°±æĺ¯è¯´": 6681,
      "Ġä¸Ĭè¿°": 6682,
      "æı´": 6683,
      "ĠâĢ¢": 6684,
      "Ġæĥ³åĪ°": 6685,
      "ĠåĲĦèĩª": 6686,
      "Ġæī£": 6687,
      "Ġç»Łè®¡": 6688,
      "Ġé¢Ĩå¯¼äºº": 6689,
      "Ġå°ıåŃ©": 6690,
      "Ġå¤©ä¸Ĭ": 6691,
      "ªæĸ½": 6692,
      "Ġåħ¬è®¤": 6693,
      "ĠæĪĺåľº": 6694,
      "Ġç½ĳçĲĥ": 6695,
      "Ġèªī": 6696,
      "äº«": 6697,
      "Ġä¸įå¾Ĺä¸į": 6698,
      "Ġæ¼Ķåıĺ": 6699,
      "ĠåĪĽæĸ°": 6700,
      "Ġç¼ºä¹ı": 6701,
      "Ġä¸ľç»ı": 6702,
      "ĠæĬķéĻį": 6703,
      "Ġçĸ¯": 6704,
      "Ġæ¯ķç«Ł": 6705,
      "Ġä¸ĢåįĬ": 6706,
      "Ġå°¿": 6707,
      "ĠæĪĺå£«": 6708,
      "Ġå®ŀè·µ": 6709,
      "ĠæĦŁåĬ¨": 6710,
      "Ġæī¶": 6711,
      "Ġå¾ĭ": 6712,
      "Ġåīª": 6713,
      "Ġ53": 6714,
      "Ġç©·": 6715,
      "ĠèĢĥåı¤": 6716,
      "çĶ±äºİ": 6717,
      "Ġthe": 6718,
      "åĪĨä¹ĭä¸Ģ": 6719,
      "Ġè´¥": 6720,
      "Ġå½ĵä¸Ń": 6721,
      "Ġæį·": 6722,
      "åī²": 6723,
      "å¢ŀ": 6724,
      "æĤ¨": 6725,
      "Ġçĸ¾çĹħ": 6726,
      "Ġä¹ĭæĪĺ": 6727,
      "Ġåıĺå¾Ĺ": 6728,
      "æ°ĳåĽ½": 6729,
      "è±¹": 6730,
      "æķĻèĤ²": 6731,
      "Ġäº¤æµģ": 6732,
      "Ġä¹ĭä¸ĭ": 6733,
      "Ġèĩªåı¤": 6734,
      "éĽ¶": 6735,
      "åħĥç´ł": 6736,
      "ĠçĨŁæĤī": 6737,
      "å¹¼": 6738,
      "Ġæ¯ģ": 6739,
      "è¸ª": 6740,
      "æĹ¨": 6741,
      "Ġ42": 6742,
      "Ġåıįå°Ħ": 6743,
      "Ġç¬¬äºĮä¸ª": 6744,
      "ĠçĲĨçĶ±": 6745,
      "ĠæĦ¿æĦı": 6746,
      "Ġä¸ĢéĿ¢": 6747,
      "å¿Ļ": 6748,
      "Ġèı©": 6749,
      "Ġé¢Ĩè¢ĸ": 6750,
      "Ġ1978": 6751,
      "æĿīçŁ¶": 6752,
      "Ġåľ°è´¨": 6753,
      "åī¯": 6754,
      "Ġal": 6755,
      "Ġ1983": 6756,
      "æĸĭ": 6757,
      "ĠçĶŁæŃ»": 6758,
      "æĭīåħĭ": 6759,
      "Ġæ¢µ": 6760,
      "Ġè´Ŀå¤ļèĬ¬": 6761,
      "Ġä¸Ģä»¶": 6762,
      "Ġç²ĺ": 6763,
      "Ġç¤º": 6764,
      "Ġæŀľå®ŀ": 6765,
      "Ġä¸¤ä½į": 6766,
      "é¡µ": 6767,
      "Ġèµ·çĤ¹": 6768,
      "ĠçĻ¾å§ĵ": 6769,
      "Ġæ³¢æĸ¯": 6770,
      "Ġå±ķçİ°": 6771,
      "Ġä¸»åĬ¨": 6772,
      "Ġå¯¹æ¯Ķ": 6773,
      "Ġä¿ĿçķĻ": 6774,
      "Ġ1958": 6775,
      "ĠéĻķè¥¿çľģ": 6776,
      "ĠæĪĴ": 6777,
      "Ġäººæķ°": 6778,
      "ĠæĥŁ": 6779,
      "ĠçĮİ": 6780,
      "Ġä¸ŃæĸĩåĲį": 6781,
      "Ġè®¨è®º": 6782,
      "Ġç»µ": 6783,
      "åįĳ": 6784,
      "Ġåı¯çŁ¥": 6785,
      "Ġä¸īæĺŁ": 6786,
      "éªĳ": 6787,
      "Ġé¤Ĳ": 6788,
      "Ġæ²ĥ": 6789,
      "ĠåįĹæµ·": 6790,
      "ä¾µ": 6791,
      "èĲį": 6792,
      "Ġæµªæ¼«ä¸»ä¹ī": 6793,
      "ĠéĢĿä¸ĸ": 6794,
      "Ġä¸Ģå¹ħ": 6795,
      "åıĪ": 6796,
      "æľºæŀĦ": 6797,
      "ĠåĨĻä¸ĭ": 6798,
      "Ġç§¦æľĿ": 6799,
      "ĠæĪıæĽ²": 6800,
      "åĴı": 6801,
      "ding": 6802,
      "å¤©åĽ½": 6803,
      "çĭĲ": 6804,
      "Ġåħ¬å¯ĵ": 6805,
      "è½´": 6806,
      "æĸ¯ç§ĳ": 6807,
      "Ġåħīæĺİ": 6808,
      "Ġç§įæ¤į": 6809,
      "Ġå¿«éĢŁ": 6810,
      "ĠçŁŃç¯ĩå°ıè¯´": 6811,
      "ĠçĹĽèĭ¦": 6812,
      "æ²¡æľī": 6813,
      "æ¯ķ": 6814,
      "ĠçĬ¬": 6815,
      "ĠéĽĮ": 6816,
      "Ġéħ·": 6817,
      "éºĵ": 6818,
      "èīºæľ¯": 6819,
      "Ġå¥ı": 6820,
      "éĹŃ": 6821,
      "ĠæĢķ": 6822,
      "æµĨ": 6823,
      "ĠåĽ½å®¶çº§": 6824,
      "ĠèĴ²": 6825,
      "Ġä»ħæ¬¡äºİ": 6826,
      "çĮĽ": 6827,
      "éºŁ": 6828,
      "Ġå£«åħµ": 6829,
      "Ġ1989": 6830,
      "Ġé£ŁçĶ¨": 6831,
      "Ġèģªæĺİ": 6832,
      "Ġï¼ķ": 6833,
      "Ġå»ºåĽ½": 6834,
      "Ġçĸı": 6835,
      "oh": 6836,
      "èº": 6837,
      "é¹ı": 6838,
      "äº§åĵģ": 6839,
      "Ġäº¤æį¢": 6840,
      "Ġç¥ĸåħĪ": 6841,
      "Ġæµĭéĩı": 6842,
      "Ġå¼Ģå°ģ": 6843,
      "Ġæ´ĽæĿīçŁ¶": 6844,
      "Ġåį±éĻ©": 6845,
      "ĠäºŃ": 6846,
      "Ġåħ´è¶£": 6847,
      "ç®Ģä»ĭ": 6848,
      "Ġè´£ä»»": 6849,
      "ĠåıĶ": 6850,
      "èıĬ": 6851,
      "ĠåĮĸåĲĪ": 6852,
      "åį«è§Ĩ": 6853,
      "Ġè¿Ħä»Ĭ": 6854,
      "èĢĲ": 6855,
      "Ġèµł": 6856,
      "Ġæİ¨ç¿»": 6857,
      "æ¹ĺ": 6858,
      "Ġç¿ħ": 6859,
      "Ġå®¢è§Ĥ": 6860,
      "Ġå±ĢéĿ¢": 6861,
      "ĠåĻ": 6862,
      "Ġåľ°çº§å¸Ĥ": 6863,
      "Ġçĵľ": 6864,
      "Ġæ¦ľ": 6865,
      "ĠâĶĢ": 6866,
      "Ġæ±¡æŁĵ": 6867,
      "Ġè¯Ĺç»ı": 6868,
      "åħĥçĴĭ": 6869,
      "Ġå¸¦é¢Ĩ": 6870,
      "Ġå¢ŀå¼º": 6871,
      "Ġæ¨¡å¼ı": 6872,
      "ĠåĪĨçķĮçº¿": 6873,
      "Ġå¬": 6874,
      "è¡°": 6875,
      "æĭŁ": 6876,
      "Ġè°±": 6877,
      "Ġä¸ĩéĩĮ": 6878,
      "yle": 6879,
      "Ġè´ŀ": 6880,
      "éĴ¢": 6881,
      "éģĹäº§": 6882,
      "åĪ¸": 6883,
      "Ġä½łå¥½": 6884,
      "Ġå®¶ä¹¡": 6885,
      "Ġç´¯": 6886,
      "Ġæ¶Īå¤±": 6887,
      "åĤħ": 6888,
      "Ġè¸ı": 6889,
      "76": 6890,
      "Ġé«ĺçŃī": 6891,
      "æİ¨": 6892,
      "ĠæĬ¥éģĵ": 6893,
      "çĩ¥": 6894,
      "äº¿": 6895,
      "Ġå¤§èĩ´": 6896,
      "Ġè´ª": 6897,
      "Ġæµ·å¤ĸ": 6898,
      "ĠäºĶæľĪ": 6899,
      "é¡¹çĽ®": 6900,
      "éŃĦ": 6901,
      "ä¹Łçº³": 6902,
      "Ġé¥±": 6903,
      "å°¼è¥¿äºļ": 6904,
      "ä»¿": 6905,
      "Ġä¸Ģå±Ĥ": 6906,
      "Ġä¸Ńå±±": 6907,
      "æ·Ģ": 6908,
      "åģ¶": 6909,
      "æ¾³": 6910,
      "Ġè¾īçħĮ": 6911,
      "Ġå¹´åīį": 6912,
      "åĵĢ": 6913,
      "Ġç¾İæľ¯": 6914,
      "Ġéĩįéĩı": 6915,
      "Ġå¤«å¦»": 6916,
      "Ġç©¶ç«Ł": 6917,
      "Ġä¸Ģè¯į": 6918,
      "Ġæ°ı": 6919,
      "Ġçīºçī²": 6920,
      "Ġè°¥": 6921,
      "ĠåĲĮæĦı": 6922,
      "æŃĮæīĭ": 6923,
      "æ´»åĬ¨": 6924,
      "ĠèĬ±åĽŃ": 6925,
      "å±ı": 6926,
      "Ġæĥħç»ª": 6927,
      "Ġç¦ħ": 6928,
      "ĠéĤ£æĹ¶": 6929,
      "Ġæ¯ĶåĪ©æĹ¶": 6930,
      "Ġæ´²": 6931,
      "ĠçĻ¾ç§ĳ": 6932,
      "Ġçª¦": 6933,
      "ĠæľĿå»·": 6934,
      "Ġäº¬åī§": 6935,
      "Ġæ³°å±±": 6936,
      "46": 6937,
      "Ġä¸īç§į": 6938,
      "å¾·éĩĮ": 6939,
      "Ġé©¬æĭī": 6940,
      "Ġåį³å°Ĩ": 6941,
      "ĠèģĬ": 6942,
      "Ġç«ĭåį³": 6943,
      "Ġç¾İå¥³": 6944,
      "Ġæīĵè´¥": 6945,
      "Ġtv": 6946,
      "Ġåĩ»è´¥": 6947,
      "Ġå¯Ĥå¯ŀ": 6948,
      "Ġ49": 6949,
      "Ġäº¤çķĮ": 6950,
      "Ġèīºäºº": 6951,
      "Ġç¬Ķè®°": 6952,
      "Ġè¡£æľį": 6953,
      "sp": 6954,
      "Ġå¥ĳ": 6955,
      "Ġå°±ç®Ĺ": 6956,
      "Ġåįģä¹Ŀ": 6957,
      "ĠéªĨ": 6958,
      "©¹": 6959,
      "ut": 6960,
      "Ġä¹Ī": 6961,
      "Ġä»İå°ı": 6962,
      "ĠæĤŁ": 6963,
      "å¹Ĥ": 6964,
      "ĠèĳĽ": 6965,
      "Ġæ·±è¿ľ": 6966,
      "éľĢ": 6967,
      "Ġè£ħå¤ĩ": 6968,
      "çİ°åľ¨": 6969,
      "Ġäº¤æĺĵ": 6970,
      "ĠæĴ°": 6971,
      "ç¾¤å²Ľ": 6972,
      "Ġçıįçıł": 6973,
      "Ġæ´ŀåºŃ": 6974,
      "Ġä¸įæĥ³": 6975,
      "Ġåĩºåľº": 6976,
      "Ġçİĭç»´": 6977,
      "æļĳ": 6978,
      "Ġåįıè®®": 6979,
      "ĠåĪ¤æĸŃ": 6980,
      "Ġåĵºä¹³": 6981,
      "Ġæĥ¨": 6982,
      "Ġä¸Ģæľ¬": 6983,
      "çĶĺ": 6984,
      "å·¾": 6985,
      "ĠèĬŃ": 6986,
      "ĠçıĬ": 6987,
      "33": 6988,
      "ä¹ĭè·¯": 6989,
      "Ġæ¬£èµı": 6990,
      "Ġè¦ĨçĽĸ": 6991,
      "Ġä¸įæķ¢": 6992,
      "ĠæĬļ": 6993,
      "æĬ±": 6994,
      "å¨¥": 6995,
      "oc": 6996,
      "åĲ¹": 6997,
      "ĠåįİåĮĹ": 6998,
      "Ġè§ĦåĪĻ": 6999,
      "Ġåī§æľ¬": 7000,
      "Ġå·®å¼Ĥ": 7001,
      "Ġè§Ĩä¸º": 7002,
      "ĠçĪĨçĤ¸": 7003,
      "Ġé©¬æĿ¥è¥¿äºļ": 7004,
      "Ġï¹": 7005,
      "çĶŁçī©": 7006,
      "ĠåĪĨè£Ĥ": 7007,
      "Ġä¸ľæµ·": 7008,
      "ĠæķĻç»ĥ": 7009,
      "ĠÑ": 7010,
      "Ġä¸Ĭåįĩ": 7011,
      "ĠéĽ¾": 7012,
      "Ġå¼Ģå±ķ": 7013,
      "Ġ110": 7014,
      "Ġ1930": 7015,
      "Ġäº«åıĹ": 7016,
      "Ġç«ŀäºī": 7017,
      "Ġ..": 7018,
      "Ġè´¤": 7019,
      "Ġå¤©æ¶¯": 7020,
      "Ġéķ¿ç¯ĩ": 7021,
      "ĠåĮ»çĶŁ": 7022,
      "ĠçģµéŃĤ": 7023,
      "Ġæķı": 7024,
      "Ġå¤ļä¸ĩ": 7025,
      "Ġè°ĥæŁ¥": 7026,
      "Ġåħ¸æķħ": 7027,
      "Ġæ¥¼ä¸»": 7028,
      "ĠåİŁæľ¬": 7029,
      "Ġæ·±åº¦": 7030,
      "éģ¥": 7031,
      "èĨĢ": 7032,
      "ĠåĽŃæŀĹ": 7033,
      "ww": 7034,
      "Ġä¸Ĭå¸Ŀ": 7035,
      "Ġçľĭä¸į": 7036,
      "ĠåĪĺå¾·åįİ": 7037,
      "ĠèľĤ": 7038,
      "Ġæĵħéķ¿": 7039,
      "Ġé«ĺå³°": 7040,
      "ç»´äºļ": 7041,
      "çĶ³": 7042,
      "Ġæī«": 7043,
      "Ġå¼łå®¶": 7044,
      "ç¡¬": 7045,
      "Ġå½ĵéĢī": 7046,
      "ĠåįģæľĪ": 7047,
      "Ġå¤®": 7048,
      "ĠåĬ¨æ¼«": 7049,
      "åģľ": 7050,
      "ĠæĹłäºº": 7051,
      "Ġç¬¬ä¹Ŀ": 7052,
      "Ġåĩłå¹´": 7053,
      "æħ¨": 7054,
      "Ġä¹ĭæīĢä»¥": 7055,
      "è¢«": 7056,
      "Ġè·Ŀä»Ĭ": 7057,
      "Ġé¡ºåºı": 7058,
      "Ġä¹ĭçİĭ": 7059,
      "eb": 7060,
      "ĠèµĦæł¼": 7061,
      "Ġç¬¬äºĮæ¬¡ä¸ĸçķĮå¤§æĪĺ": 7062,
      "ĠæĿ¿åĿĹ": 7063,
      "ph": 7064,
      "ĠèĢķ": 7065,
      "ĠçĽ¸è¿ŀ": 7066,
      "Ġä¸ĥåįģ": 7067,
      "ä»ĭçŁ³": 7068,
      "Ġæ¬¢è¿İ": 7069,
      "æĥ¨": 7070,
      "Ġå¤§ä¼Ĺ": 7071,
      "è½¨": 7072,
      "ç¾İåĽ½": 7073,
      "éľĨ": 7074,
      "ĠæİĴè¡Į": 7075,
      "ĠéĺŁéķ¿": 7076,
      "ĠåıĳæºĲåľ°": 7077,
      "Ġè¯±": 7078,
      "Ġç¦ıå»ºçľģ": 7079,
      "ov": 7080,
      "çĶµç«Ļ": 7081,
      "èĭĹ": 7082,
      "Ġæ¯ıæ¬¡": 7083,
      "ĠåıĬæĹ¶": 7084,
      "ĠéĽįæŃ£": 7085,
      "Ġéķ¿å¤§": 7086,
      "Ġåīįå¾Ģ": 7087,
      "å©ī": 7088,
      "ĠåıĤèµĽ": 7089,
      "Ġè®¾å¤ĩ": 7090,
      "Ġä¸įäºĨ": 7091,
      "Ġå®ĮåĸĦ": 7092,
      "ĠåĵĪå°Ķ": 7093,
      "ĠåĪĹåħ¥": 7094,
      "Ġï¼ĺ": 7095,
      "æįķ": 7096,
      "ĠçĻ»éĻĨ": 7097,
      "Ġåį«çĶŁ": 7098,
      "Ġä»²": 7099,
      "ç»£": 7100,
      "ç¨¿": 7101,
      "ĠåĳĪçİ°": 7102,
      "Ġå³¡": 7103,
      "Ġä¸Ģä¹¦": 7104,
      "ĠåĴĮè°Ĳ": 7105,
      "åį¢": 7106,
      "Ġå²¸": 7107,
      "av": 7108,
      "Ġå®°": 7109,
      "èĢĹ": 7110,
      "å¼Ĺ": 7111,
      "Ġä¸ŀ": 7112,
      "Ġå¾Ĵ": 7113,
      "Ġç¾İäºº": 7114,
      "Ġçī¹æľī": 7115,
      "ĠæĤī": 7116,
      "Ġäºĭçī©": 7117,
      "Ġå¿ĥçģµ": 7118,
      "Ġä¸ľæĻĭ": 7119,
      "ĠæĮĸ": 7120,
      "Ġ52": 7121,
      "ĠæľºåĬ¨": 7122,
      "Ġå¥¥æŀĹåĮ¹åħĭè¿ĲåĬ¨": 7123,
      "Ġä¼Ĭæĸ¯åħ°æķĻ": 7124,
      "Ġä¸Ģä½ĵ": 7125,
      "ab": 7126,
      "Ġç¥ŀå¥ĩ": 7127,
      "Ġäºļé©¬": 7128,
      "ĠåĽĽåŃ£": 7129,
      "ĠæĥħæŃĮ": 7130,
      "Ġéĥ¨èĲ½": 7131,
      "ĠçĥĪ": 7132,
      "Ġä¸ŃæľŁ": 7133,
      "åĽĬ": 7134,
      "ĠèĢĮè¨Ģ": 7135,
      "ä¹¦è®°": 7136,
      "èħ¿": 7137,
      "èĴ¸": 7138,
      "Ġåı¸ä»¤": 7139,
      "Ġæ²¿å²¸": 7140,
      "Ġï¼ĵ": 7141,
      "Ġä¸Ĭä¸ĭ": 7142,
      "ĠæŁĵèī²": 7143,
      "ĠæĥħæĻ¯": 7144,
      "ĠæķĻåŃ¦": 7145,
      "ĠæĿĢæŃ»": 7146,
      "Ġå¯Ĩåº¦": 7147,
      "Ġåİ¦": 7148,
      "èĥ¶": 7149,
      "ĠåĸĦèī¯": 7150,
      "Ġæħ¢æħ¢": 7151,
      "ĠåĲ¾": 7152,
      "æīĩ": 7153,
      "Ġæ±ł": 7154,
      "ĠçĶµæµģ": 7155,
      "ĠåĬŁå¤«": 7156,
      "Ġ___": 7157,
      "Ġä¸Ģæī¹": 7158,
      "Ġå¤ªåİŁ": 7159,
      "Ġå¾Ĺä»¥": 7160,
      "èµĦæĸĻ": 7161,
      "Ġç£·": 7162,
      "èĵĦ": 7163,
      "Ġåłªç§°": 7164,
      "Ġå¾ĹåĪĨ": 7165,
      "Ġåıĸä»£": 7166,
      "ĠåĪ«ç§°": 7167,
      "Ġæķ¦": 7168,
      "è½©": 7169,
      "Ġæĸĩäºº": 7170,
      "ĠæĹłäº§éĺ¶çº§": 7171,
      "Ġç»´ä¹Łçº³": 7172,
      "Ġä¸ľåĮĹéĥ¨": 7173,
      "Ġå¥¹ä»¬": 7174,
      "æ½ľ": 7175,
      "Ġæ¶īåıĬ": 7176,
      "Ġè¥¿åĳ¨": 7177,
      "Ġçģ«å½±": 7178,
      "Ġè´Ńä¹°": 7179,
      "ĠçĪ·": 7180,
      "è¯Ĺäºº": 7181,
      "Ġé¼İ": 7182,
      "ªĵ": 7183,
      "å®¿": 7184,
      "Ġå½ĵä»Ĭ": 7185,
      "Ġè¶ĭ": 7186,
      "Ġæľ±åħĥçĴĭ": 7187,
      "Ġ________": 7188,
      "æĿł": 7189,
      "Ġå¤§åľ°": 7190,
      "Ġå¼¥": 7191,
      "å·¢": 7192,
      "Ġ59": 7193,
      "Ġèĥ½æºĲ": 7194,
      "éĶĲ": 7195,
      "Ġæ¸©æļĸ": 7196,
      "Ġç»´æĮģ": 7197,
      "Ġä¸Ģå¯¹": 7198,
      "Ġæ»ļ": 7199,
      "åĬ²": 7200,
      "ĠéĩĳæĺŁ": 7201,
      "éĴĻ": 7202,
      "Ġç©¿è¶Ĭ": 7203,
      "Ġä¹łä¿Ĺ": 7204,
      "Ġæ±Łè¥¿çľģ": 7205,
      "Ġä¸ĥæľĪ": 7206,
      "çĵ·": 7207,
      "Ġèħ°": 7208,
      "ä¼¸": 7209,
      "ĠåĨ¥": 7210,
      "Ġå¥³çĶŁ": 7211,
      "ĠæİĴåĪĹ": 7212,
      "çĽĽé¡¿": 7213,
      "éĥ¡": 7214,
      "Ġä¸Ģè¾¹": 7215,
      "ĠæĹłçº¿": 7216,
      "Ġè¡Įé©¶": 7217,
      "Ġåı·ç§°": 7218,
      "Ġè½¬åĮĸ": 7219,
      "Ġæŀģåħ¶": 7220,
      "ĠåľºæīĢ": 7221,
      "ĠåıĻè¿°": 7222,
      "Ġæ¼Ĥäº®": 7223,
      "å¸ĿåĽ½": 7224,
      "ç¨£": 7225,
      "çºªå½ķ": 7226,
      "Ġè§ĦåĪĴ": 7227,
      "ĠåĪ«çļĦ": 7228,
      "Ġäºīå¤º": 7229,
      "75": 7230,
      "ĠéĢļçĶ¨": 7231,
      "ĠéĿĴå²Ľ": 7232,
      "Ġ1979": 7233,
      "Ġâħ": 7234,
      "Ġä»Ķ": 7235,
      "ĠæĹ¶å°ļ": 7236,
      "ĠçĭĦ": 7237,
      "Ġä»¥åįĹ": 7238,
      "Ġèį£èİ·": 7239,
      "ç§ģ": 7240,
      "åł°": 7241,
      "ĠçĶµå½±èĬĤ": 7242,
      "çĽĨåľ°": 7243,
      "ĠåĬłä»¥": 7244,
      "ĠåĤ£": 7245,
      "æģ©æĿ¥": 7246,
      "Ġå¤ªå¹³å¤©åĽ½": 7247,
      "ĠèįĨå·ŀ": 7248,
      "Ġåı¯è°ĵ": 7249,
      "est": 7250,
      "å½¢è±¡": 7251,
      "ç¦ħ": 7252,
      "ĠéĤ®ç¼ĸ": 7253,
      "Ġç«¥å¹´": 7254,
      "Ġæł·åŃĲ": 7255,
      "Ġéĥ½åŁİ": 7256,
      "ĠæĻ¯çĤ¹": 7257,
      "Ġæİ¢ç´¢": 7258,
      "ĠæĺĨèĻ«": 7259,
      "Ġé«ĺéĢŁåħ¬è·¯": 7260,
      "äº¦": 7261,
      "Ġèİİ": 7262,
      "æ¬¢è¿İ": 7263,
      "åĲı": 7264,
      "æĹģ": 7265,
      "Ġå±ı": 7266,
      "ĠéĻ©": 7267,
      "æŃĮæĽ²": 7268,
      "ĠæŃ¦ä¾ł": 7269,
      "Ġå¿ĺè®°": 7270,
      "åŃŁ": 7271,
      "Ġä¸ĸäºº": 7272,
      "åį«æĺŁ": 7273,
      "66": 7274,
      "ĠçĽ¸ç»§": 7275,
      "æµģåŁŁ": 7276,
      "ĠæµģæĺŁ": 7277,
      "Ġç¼©åĨĻ": 7278,
      "Ġè¿Ļåº§": 7279,
      "Ġåħ¶ä½Ļ": 7280,
      "Ġéĵ¸": 7281,
      "Ġ160": 7282,
      "ĠéªĦ": 7283,
      "ĠåĩºçĶŁæĹ¥æľŁ": 7284,
      "ä½Ĩæĺ¯": 7285,
      "å±Ī": 7286,
      "Ġé¢Ŀ": 7287,
      "Ġå±±åľ°": 7288,
      "Ġæ¶Ĥ": 7289,
      "ĠäºļçĥŃå¸¦": 7290,
      "Ġæ¸©æŁĶ": 7291,
      "ĠæĶ¶èĹı": 7292,
      "Ġåĵ¥ä¼¦": 7293,
      "ĠåĽ°éļ¾": 7294,
      "79": 7295,
      "Ġåľ°å¸¦": 7296,
      "ĠæĬĽ": 7297,
      "ĠçŃīå¾ħ": 7298,
      "Ġæ±īä»£": 7299,
      "å¦Ĩ": 7300,
      "éĤ®": 7301,
      "Ġéĥİ": 7302,
      "Ġè°ĥèĬĤ": 7303,
      "æĸĩåŃ¦å¥ĸ": 7304,
      "ĠåºĨç¥Ŀ": 7305,
      "Ġå¤§æ´ĭæ´²": 7306,
      "Ġä¸Ģéģĵ": 7307,
      "Ġç¼ħ": 7308,
      "çĳļ": 7309,
      "ĠæĶ¯æµģ": 7310,
      "Ġåħĥå®µ": 7311,
      "Ġè®¾åľ¨": 7312,
      "éĤĳ": 7313,
      "Ġæ¸¸å®¢": 7314,
      "Ġæ³¨åĨĮ": 7315,
      "è®¨": 7316,
      "æ³¼": 7317,
      "Ġåĩºèī²": 7318,
      "é¸Ń": 7319,
      "ĠåįİçĽĽé¡¿": 7320,
      "Ġçıįè´µ": 7321,
      "ĠæĪĪ": 7322,
      "ĠåĩºåľŁ": 7323,
      "Ġæ¡Ī": 7324,
      "ĠæĢ§èĥ½": 7325,
      "Ġç¿»åĶ±": 7326,
      "Ġåı¯æĥľ": 7327,
      "Ġä»£æĽ¿": 7328,
      "ĠåĶĲåĥ§": 7329,
      "ĠéħĴç²¾": 7330,
      "ĠèĤĮèĤī": 7331,
      "ä¸¸": 7332,
      "å±±åİ¿": 7333,
      "Ġåıĺæ³ķ": 7334,
      "ĠåĲİä»£": 7335,
      "ĠéĽģ": 7336,
      "Ġ54": 7337,
      "ĠçĨĶ": 7338,
      "å§Ĩæĸ¯": 7339,
      "ĠèŀįåĲĪ": 7340,
      "ç»İ": 7341,
      "Ġè¾£": 7342,
      "Ġæĭ³": 7343,
      "åĮĹäº¬": 7344,
      "Ġé»Ħå¸Ŀ": 7345,
      "78": 7346,
      "Ġå¤§è¿ŀ": 7347,
      "æ°¢": 7348,
      "ĠåŃŁåŃĲ": 7349,
      "Ġæ®ĸæ°ĳåľ°": 7350,
      "Ġé©¬åħĭæĢĿä¸»ä¹ī": 7351,
      "ĠäºĮæĪĺ": 7352,
      "Ġå¤§å¥ĸ": 7353,
      "Ġ5000": 7354,
      "åĢ©": 7355,
      "åłĨ": 7356,
      "Ġå¥ĩè°Ń": 7357,
      "çªĿ": 7358,
      "Ġæ¥ļåĽ½": 7359,
      "ĠåĲįèĥľåĮº": 7360,
      "ĠçļĦç¡®": 7361,
      "ĠåģľæŃ¢": 7362,
      "ĠæĬĹæĹ¥æĪĺäºī": 7363,
      "çıĬ": 7364,
      "Ġæİ¥å£¤": 7365,
      "Ġä¹¦è®°": 7366,
      "ĠæľĪä»½": 7367,
      "ĠåĽŀå®¶": 7368,
      "ĠèĲĮ": 7369,
      "Ġæ·±æ·±": 7370,
      "ĠäºĮåįģåĽĽ": 7371,
      "Ġä¹ĭä¸Ĭ": 7372,
      "ĠéĢĨ": 7373,
      "Ġ600": 7374,
      "åıįåºĶ": 7375,
      "è£Ķ": 7376,
      "Ġ1945": 7377,
      "Ġè¯ļ": 7378,
      "æ´Ĺ": 7379,
      "Ġè¯´è¯Ŀ": 7380,
      "ĠæķĻåłĤ": 7381,
      "å°Ķæĸ¯": 7382,
      "Ġæ°´éĿ¢": 7383,
      "Ġèµ·åĪ°": 7384,
      "Ġæ¬º": 7385,
      "ĠæŃ£æľĪ": 7386,
      "ç¢§": 7387,
      "Ġå±ħå£«": 7388,
      "ĠçĲ¼": 7389,
      "ĠåĸĢ": 7390,
      "Ġè¢«è¿«": 7391,
      "Ġ800": 7392,
      "Ġå¿ħçĦ¶": 7393,
      "ĠäºĮæľĪ": 7394,
      "Ġè¯ĦéĢī": 7395,
      "Ġä¸Ĭå¸Ĥ": 7396,
      "çŃĿ": 7397,
      "ĠéĢļä¿¡": 7398,
      "æº¶": 7399,
      "ĠçĽ´å¾Ħ": 7400,
      "Ġåįĥå¹´": 7401,
      "ĠæĹ©å·²": 7402,
      "ç£ģ": 7403,
      "Ġä¸¢": 7404,
      "æľ½": 7405,
      "ĠèµĲ": 7406,
      "ä¸įåĲĮ": 7407,
      "æģº": 7408,
      "åħ¶å®ŀ": 7409,
      "ord": 7410,
      "ĠèĴĭä»ĭçŁ³": 7411,
      "Ġä¾¦æİ¢": 7412,
      "é²¸": 7413,
      "Ġç¨»": 7414,
      "Ġä¸īè§Ĵå½¢": 7415,
      "æĶ¿æ²»": 7416,
      "ĠéĶ¡": 7417,
      "Ġåħ·å¤ĩ": 7418,
      "ers": 7419,
      "Ġåĭĩæķ¢": 7420,
      "ç°": 7421,
      "Ġäº¡": 7422,
      "èľĤ": 7423,
      "ĠæĹĭå¾ĭ": 7424,
      "Ġè®¢": 7425,
      "Ġæ°ĳåĽ½": 7426,
      "ĠåĬŀåħ¬": 7427,
      "Ġwww": 7428,
      "ce": 7429,
      "ĠæĸĩåĮĸåĲį": 7430,
      "ĠçĮ´": 7431,
      "Ġç¥ĸç±į": 7432,
      "Ġè°ĥæķ´": 7433,
      "36": 7434,
      "Ġå¤§äºİ": 7435,
      "Ġç¾İèªī": 7436,
      "Ġä¸ĭéĻį": 7437,
      "ä¼łè¯´": 7438,
      "Ġçº¬åº¦": 7439,
      "Ġè¥¿åŁŁ": 7440,
      "å¤ªåĲİ": 7441,
      "ĠåĽºä½ĵ": 7442,
      "Ġä¸ľåįĹéĥ¨": 7443,
      "æĺı": 7444,
      "ĠåĩĦ": 7445,
      "ä½įç½®": 7446,
      "Ġä¼łéĢĴ": 7447,
      "Ġèľ¡": 7448,
      "Ġè·¯çº¿": 7449,
      "Ġç¼ĸåī§": 7450,
      "ĠæĢ»åĨłåĨĽ": 7451,
      "Ġä¸įå¹¸": 7452,
      "Ġï¼Ķ": 7453,
      "Ġå®¶éĩĮ": 7454,
      "åĺ´": 7455,
      "38": 7456,
      "Ġå¹´åºķ": 7457,
      "Ġçºł": 7458,
      "èĬ¹": 7459,
      "Ġåħīçº¿": 7460,
      "Ġç§ĺä¹¦": 7461,
      "45": 7462,
      "71": 7463,
      "ĠæĪĲæŀľ": 7464,
      "Ġé£İä¿Ĺ": 7465,
      "Ġèİ«æĸ¯ç§ĳ": 7466,
      "Ġäºļè¿Ĳä¼ļ": 7467,
      "åįķä½į": 7468,
      "Ġå®«æ®¿": 7469,
      "ĠåĸĦäºİ": 7470,
      "ĠæĺĮ": 7471,
      "éĽ¯": 7472,
      "Ġç½ĳç«Ļ": 7473,
      "ĠèĩªæĪĳ": 7474,
      "ĠèĬĿ": 7475,
      "ĠèĤł": 7476,
      "Ġæ¸©å¸¦": 7477,
      "æ®ĭ": 7478,
      "åªļ": 7479,
      "ĠèĢ¶ç¨£": 7480,
      "å®½": 7481,
      "ĠåĲĬ": 7482,
      "ĠæĬĳ": 7483,
      "æ¡Ĳ": 7484,
      "ĠäºĶä»£": 7485,
      "æŁ´": 7486,
      "Ġ1981": 7487,
      "Ġç¦»åŃĲ": 7488,
      "åºļ": 7489,
      "ä¸Ģåı·": 7490,
      "æĢ¨": 7491,
      "Ġåĩ¶": 7492,
      "æĸĩå¸Ŀ": 7493,
      "ĠçĥŃçĪ±": 7494,
      "éŁ©": 7495,
      "ĠçīĻé½¿": 7496,
      "é¦¨": 7497,
      "Ġéĺħè¯»": 7498,
      "ĠåĵĪå°Ķæ»¨": 7499,
      "Ġåİ¦éĹ¨": 7500,
      "Ġä»¥æŃ¤": 7501,
      "ĠæĦıåĳ³": 7502,
      "ĠéŃĶæ³ķ": 7503,
      "éŁ¦": 7504,
      "ĠèĪªå¤©åĳĺ": 7505,
      "ĠçľĭæĿ¥": 7506,
      "ĠèĢģåŃĲ": 7507,
      "Ġä½ĵæĵį": 7508,
      "Ġè¾ĥä¸º": 7509,
      "ä½łå¥½": 7510,
      "Ġè®½": 7511,
      "Ġå¹³éĿ¢": 7512,
      "ĠåŃĶéĽĢ": 7513,
      "Ġèį¯çī©": 7514,
      "éľĸ": 7515,
      "Ġåľ¨åĨħ": 7516,
      "ĠæľĢå¼º": 7517,
      "ç¼º": 7518,
      "Ġè©¹": 7519,
      "Ġå¥³æ¼Ķåĳĺ": 7520,
      "çĥ¦": 7521,
      "Ġçģ«çĦ°": 7522,
      "ä¸ĳ": 7523,
      "Ġæĸĳ": 7524,
      "Ġè¿Ĳæ²³": 7525,
      "Ġèľľ": 7526,
      "Ġç²®é£Ł": 7527,
      "ew": 7528,
      "Ġä¹Łå°±æĺ¯è¯´": 7529,
      "ĠçĻ¾å¹´": 7530,
      "Ġç§įç§į": 7531,
      "Ġth": 7532,
      "Ġè¯įäºº": 7533,
      "Ġå¤§èµĽ": 7534,
      "ĠæµģåĬ¨": 7535,
      "ĠåĢĻ": 7536,
      "ack": 7537,
      "ĠéĩĬæĶ¾": 7538,
      "ĠæľīåĪ©äºİ": 7539,
      "Ġæ³Ľ": 7540,
      "ĠçĽ¸åºĶ": 7541,
      "æł¹æį®": 7542,
      "ĠéħįåĲĪ": 7543,
      "ĠåıĻäºĭ": 7544,
      "ĠåįĹæĺĮ": 7545,
      "ĠåĬłéĢŁ": 7546,
      "Ġæ±Łæ¹ĸ": 7547,
      "Ġå¤´åıĳ": 7548,
      "ä½Ĳ": 7549,
      "æĹº": 7550,
      "ĠåİĨæĹ¶": 7551,
      "Ġçº¢åĨĽ": 7552,
      "éĵĥ": 7553,
      "Ġèĵ¬": 7554,
      "Ġæİªæĸ½": 7555,
      "Ġå¼Ģè¾Ł": 7556,
      "Ġ85": 7557,
      "ĠçĲĥåľº": 7558,
      "Ġé½ĲåĽ½": 7559,
      "Ġé¸Łç±»": 7560,
      "Ġæ²§": 7561,
      "Ġå®ģæ³¢": 7562,
      "ĠäºĳåįĹçľģ": 7563,
      "è´¸æĺĵ": 7564,
      "çİĭæľĿ": 7565,
      "Ġå§¿": 7566,
      "ĠæĦıè§ģ": 7567,
      "ĠåıįæĬĹ": 7568,
      "Ġçķħ": 7569,
      "å¸®": 7570,
      "Ġé«ĺæ¸©": 7571,
      "Ġéĩĳåº¸": 7572,
      "Ġä¹ĲéĺŁ": 7573,
      "å»Ĭ": 7574,
      "è¿Ļæĺ¯": 7575,
      "ĠæĦļ": 7576,
      "¤éħĴ": 7577,
      "Ġ000": 7578,
      "åĿŀ": 7579,
      "Ġé»Ħå±±": 7580,
      "Ġåĳ¨æģ©æĿ¥": 7581,
      "Ġç¬¬äºĮåįģ": 7582,
      "ĠåħŃåįģ": 7583,
      "Ġç»£": 7584,
      "Ġæ¼Ķèīº": 7585,
      "Ġç§ĳå¹»": 7586,
      "ĠåĽ¾ä¹¦": 7587,
      "é©±": 7588,
      "cl": 7589,
      "Ġä¸Ģç±»": 7590,
      "åºµ": 7591,
      "Ġä¸ºä½ķ": 7592,
      "ĠæĹ¶åĪ»": 7593,
      "ĠæľŁå¾ħ": 7594,
      "Ġæ³¢åħ°": 7595,
      "Ġæ¦Ĥæĭ¬": 7596,
      "Ġéĥ½å¸Ĥ": 7597,
      "Ġåįłåľ°": 7598,
      "ĠçĬ¶åĨµ": 7599,
      "ĠåįĹæŀģæ´²": 7600,
      "Ġä¸Ģè§Ĵ": 7601,
      "ĠèĤ©": 7602,
      "éĵ¾": 7603,
      "æ¯įèĪ°": 7604,
      "åĨ³èµĽ": 7605,
      "Ġçĵ·": 7606,
      "æ±Łå¸Ĥ": 7607,
      "çĸ«": 7608,
      "Ġè§Ĥæµĭ": 7609,
      "Ġ179": 7610,
      "Ġå®¢ä¸²": 7611,
      "Ġç¹ģæ®ĸ": 7612,
      "Ġæī¹åĪ¤": 7613,
      "Ġ^": 7614,
      "éĺ»": 7615,
      "Ġå¦ĥ": 7616,
      "Ġç»įåħ´": 7617,
      "ç¢±": 7618,
      "ĠäººæĢ§": 7619,
      "Ġå¤§åĬĽ": 7620,
      "ĠæĻĵ": 7621,
      "ä¸įèµ·": 7622,
      "ĠèĬ¦": 7623,
      "é¹ĥ": 7624,
      "ĠèĪªç©ºæ¯įèĪ°": 7625,
      "ĠéĹ²": 7626,
      "ĠæĶ¹éĢł": 7627,
      "çĮ´": 7628,
      "Ġå»¶ç»Ń": 7629,
      "ip": 7630,
      "Ġå¼¯": 7631,
      "ç¨»": 7632,
      "çĮª": 7633,
      "Ġä½ľæĽ²å®¶": 7634,
      "Ġæ³ķåħ°": 7635,
      "ĠäºĶåĽĽ": 7636,
      "Ġä¸Ńåįİæ°ĳåĽ½": 7637,
      "Ġåħ¨æĸ°": 7638,
      "ong": 7639,
      "ĠåĲ¬è¯´": 7640,
      "ĠåĪļåĪļ": 7641,
      "ä¿ĿæĬ¤åĮº": 7642,
      "Ġä¸Ģäºº": 7643,
      "Ġä¸ĭåįĪ": 7644,
      "Ġæ»´": 7645,
      "Ġä¾ĿéĿł": 7646,
      "Ġéģ¿åħį": 7647,
      "Ġæ·¡æ°´æ¹ĸ": 7648,
      "å°¿": 7649,
      "Ġå¤§çĲĨ": 7650,
      "ĠåĲįå°Ĩ": 7651,
      "ĠæĽ´å¥½": 7652,
      "Ġ1970": 7653,
      "åĲ¾å°Ķ": 7654,
      "ĠæĢĴ": 7655,
      "Ġéķ¿æĺ¥": 7656,
      "Ġåı¤åīĳ": 7657,
      "ĠäºļåĨĽ": 7658,
      "ĠæĲ¬": 7659,
      "è¿Ļä¸ª": 7660,
      "Ġè¿ĶåĽŀ": 7661,
      "Ġå±±è¥¿çľģ": 7662,
      "Ġå»ī": 7663,
      "Ġçº§åĪ«": 7664,
      "èĥģ": 7665,
      "ĠæĪĸæĺ¯": 7666,
      "ĠæĢĿå¿µ": 7667,
      "ĠåĭĴ": 7668,
      "Ġå§ĭå»º": 7669,
      "ĠæŁ¥è¯¢": 7670,
      "Ġç¯": 7671,
      "å¹´æĿ¥": 7672,
      "Ġåįģä¸ĥ": 7673,
      "Ġåįłæľī": 7674,
      "æłı": 7675,
      "ĠåİŁæĸĩ": 7676,
      "Ġå²Ń": 7677,
      "ĠåĪ¶çīĩ": 7678,
      "æ¢¨": 7679,
      "Ġè±«": 7680,
      "ĠèģĮåĬ¡": 7681,
      "Ġå¹³æĹ¶": 7682,
      "Ġè½¬åıĺ": 7683,
      "Ġåĥ§": 7684,
      "ĠæĭĴç»Ŀ": 7685,
      "Ġå¤®è§Ĩ": 7686,
      "the": 7687,
      "è±ļ": 7688,
      "ĠçĽ´èĩ³": 7689,
      "Ġè¾¹ç¼ĺ": 7690,
      "ĠçıĬçĳļ": 7691,
      "Ġï¼ĸ": 7692,
      "åĿ¤": 7693,
      "éĺ³åİ¿": 7694,
      "Ġåį°åĪ·": 7695,
      "å®´": 7696,
      "Ġå°ıèĤł": 7697,
      "æĹıèĩªæ²»": 7698,
      "ĠçĪ±å¥½": 7699,
      "ĠéĻĨåĨĽ": 7700,
      "åĨ°æ´ĭ": 7701,
      "ain": 7702,
      "ĠæĨ": 7703,
      "åĽ½éĻħ": 7704,
      "Ġæĭĸ": 7705,
      "195": 7706,
      "ĠçĶ°åĽŃ": 7707,
      "Ġçľĭè¿ĩ": 7708,
      "ĠèĬĤå¥ı": 7709,
      "Ġèĳ£äºĭ": 7710,
      "Ġäººå£«": 7711,
      "Ġç»ıçºª": 7712,
      "ä¹ĭæĪĺ": 7713,
      "Ġä»¿ä½Ľ": 7714,
      "åĩı": 7715,
      "Ġä»ĬæĹ¥": 7716,
      "Ġç»ĻäºĪ": 7717,
      "ĠéģĵçĲĨ": 7718,
      "Ġ178": 7719,
      "Ġâĳ£": 7720,
      "ĠåĲķå¸ĥ": 7721,
      "Ġå®ĩèĪª": 7722,
      "æĿı": 7723,
      "Ġçľī": 7724,
      "Ġåīįè¿Ľ": 7725,
      "ĠåĢ¡": 7726,
      "Ġå®ĭæ±Ł": 7727,
      "Ġä¸įåıĺ": 7728,
      "é¡·": 7729,
      "Ġä¸Ŀç»¸ä¹ĭè·¯": 7730,
      "ld": 7731,
      "Ġä»°": 7732,
      "Ġä¸ĸåįļ": 7733,
      "æĮĤ": 7734,
      "éħ¶": 7735,
      "Ġç»ĨèıĮ": 7736,
      "ĠåħĭéĩĮ": 7737,
      "Ġåİ¿çº§å¸Ĥ": 7738,
      "ĠæºĲäºİ": 7739,
      "Ġä¸įè§ģ": 7740,
      "Ġéĵħ": 7741,
      "ĠæīĵéĢł": 7742,
      "ĠéĿĴéĵľ": 7743,
      "åĹ": 7744,
      "Ġä¸ĢæŃ¥": 7745,
      "ĠäºĮæĺ¯": 7746,
      "çĪĨ": 7747,
      "ĠåĨĻæĪĲ": 7748,
      "åİĨåı²": 7749,
      "29": 7750,
      "tr": 7751,
      "èµ¤": 7752,
      "çĤ¬": 7753,
      "Ġæ·±åıĹ": 7754,
      "çĮİ": 7755,
      "Ġæ¬¡æķ°": 7756,
      "ĠåŃĹæ¯į": 7757,
      "åıĺåĮĸ": 7758,
      "Ġç«ŁçĦ¶": 7759,
      "Ġâĸª": 7760,
      "Ġä¸Ģä¹Ŀ": 7761,
      "ĠåĪĨç¦»": 7762,
      "åĩĮ": 7763,
      "Ġçģ¾": 7764,
      "Ġè¦ģæĺ¯": 7765,
      "Ġå¥½åıĭ": 7766,
      "Ġä¼łåħ¥": 7767,
      "Ġé¡½": 7768,
      "Ġåħĥå¸ħ": 7769,
      "ĠæĢĿèĢĥ": 7770,
      "Ġå¨ĺ": 7771,
      "Ġç»Ŀå¤§": 7772,
      "Ġè¥¿åĮĹéĥ¨": 7773,
      "Ġä¸Ģè·¯": 7774,
      "ĠæĹ¥å¸¸": 7775,
      "éĤª": 7776,
      "ĠæŀĹå¿Ĺ": 7777,
      "ĠèĢĥè¯ģ": 7778,
      "å³»": 7779,
      "Ġåħ¬æ°ĳ": 7780,
      "ĠåľŁå£¤": 7781,
      "Ġå¤ļä¹Ī": 7782,
      "Ġæĸ¹æ¡Ī": 7783,
      "æĤ²": 7784,
      "Ġç¨ĭåºı": 7785,
      "Ġæ¿Ĵ": 7786,
      "æľ±": 7787,
      "Ġä¸ĢæĹ¥": 7788,
      "Ġç»ĩ": 7789,
      "Ġå¤§æĪĺ": 7790,
      "ĠæĹłæľº": 7791,
      "Ġæµ·åºķ": 7792,
      "Ġç¥ŀèĪŁ": 7793,
      "æĤ£": 7794,
      "å¸Ĥåľº": 7795,
      "Ġä¸¤æĿ¡": 7796,
      "Ġä¾į": 7797,
      "Ġé¦ĸä½į": 7798,
      "Ġ98": 7799,
      "é©¼": 7800,
      "ĠçīĮåŃĲ": 7801,
      "åŃķ": 7802,
      "Ġä¸įå¤Ł": 7803,
      "è´´": 7804,
      "Ġéĺ¶çº§": 7805,
      "Ġè¾Ĳå°Ħ": 7806,
      "ĠæĶ¯ä»ĺ": 7807,
      "ĠåŀĤçĽ´": 7808,
      "Ġä¸īéĥ¨": 7809,
      "Ġå¤ºåıĸ": 7810,
      "--------------------------------": 7811,
      "ç¯": 7812,
      "è¿Ķ": 7813,
      "çĲ¶": 7814,
      "ç½Ĺæ²³": 7815,
      "Ġåı·çłģ": 7816,
      "ĠæĻ¯è±¡": 7817,
      "Ġæŀ«": 7818,
      "éķ¿åŁİ": 7819,
      "çİĭæĺŁ": 7820,
      "ĠçĽ´è¾ĸå¸Ĥ": 7821,
      "Ġè£ħé¥°": 7822,
      "ĠçĬ¶åħĥ": 7823,
      "ĠåºĲå±±": 7824,
      "Ġé¦ĸé¢Ĩ": 7825,
      "ĠæĦıå¢ĥ": 7826,
      "ĠåĿĲèĲ½": 7827,
      "Ġæ¡ĤæŀĹ": 7828,
      "Ġåĳµåĳµ": 7829,
      "âĳ": 7830,
      "ç¥Ģ": 7831,
      "æ¡ĵ": 7832,
      "Ġèĳ¬": 7833,
      "æįŁ": 7834,
      "Ġ99": 7835,
      "ĠèĦī": 7836,
      "Ġä¹ĥèĩ³": 7837,
      "åįģå¹´ä»£": 7838,
      "Ġä¼ª": 7839,
      "Ġä¸īæ¬¡": 7840,
      "Ġçİ°ä»»": 7841,
      "è±«": 7842,
      "Ġéĺ¿éĩĮ": 7843,
      "Ġå¥¥æĸ¯åį¡": 7844,
      "å¸½": 7845,
      "å´ĸ": 7846,
      "43": 7847,
      "Ġå¤©ä½ĵ": 7848,
      "Ġæİ¥çĿĢ": 7849,
      "ĠèĹıæĹı": 7850,
      "Ġèĩªæ²»åĮº": 7851,
      "Ġä¸Ģè¯´": 7852,
      "å¸Ĩ": 7853,
      "Ġè¯Ĩ": 7854,
      "ĠæľĪåŃ£": 7855,
      "Ġé«ĺåħ´": 7856,
      "Ġæ·ĭ": 7857,
      "Ġæľ¬å±Ĭ": 7858,
      "ĠæĦŁæŁĵ": 7859,
      "ĠæĢ§åĪ«": 7860,
      "ĠéĽķå¡ĳ": 7861,
      "ĠæģĭçĪ±": 7862,
      "Ġå¤§èĦĳ": 7863,
      "æĤĶ": 7864,
      "Ġå¹²çĩ¥": 7865,
      "éĨĩ": 7866,
      "ĠæĦ¤": 7867,
      "Ġä¹Ķä¸¹": 7868,
      "ĠåĽ´ç»ķ": 7869,
      "Ġåĵ²åŃ¦å®¶": 7870,
      "å¥Ķ": 7871,
      "Ġæ¯Ĺ": 7872,
      "Ġåħ¨å¸Ĥ": 7873,
      "æ¯ı": 7874,
      "Ġé¦ĸå±Ĭ": 7875,
      "Ġçģ«è½¦ç«Ļ": 7876,
      "æĹ±": 7877,
      "Ġåĳĺ": 7878,
      "Ġä¸¤å²¸": 7879,
      "Ġç²Ĵ": 7880,
      "Ġç§ĭå¤©": 7881,
      "ĠéĿĴèĹıé«ĺåİŁ": 7882,
      "ĠåįĪ": 7883,
      "æĪĺåĽ½": 7884,
      "Ġ95": 7885,
      "ĠåħŃå¹´": 7886,
      "ĠæĦĪ": 7887,
      "è¿¦": 7888,
      "ĠæľĢå¹¿": 7889,
      "ĠçĶŁçĲĨ": 7890,
      "ĠéĤª": 7891,
      "Ġ63": 7892,
      "æĸ°è§ī": 7893,
      "Ġå®ļä¹ī": 7894,
      "ç¦Ħ": 7895,
      "Ġå§ĭäºİ": 7896,
      "Ġä¹¦æ³ķå®¶": 7897,
      "Ġéļ¶å±ŀ": 7898,
      "æĸ°è§īç½Ĺ": 7899,
      "åºĲ": 7900,
      "ĠåĲĮçĽŁ": 7901,
      "ĠæŃĮèĪŀ": 7902,
      "æĦ¤": 7903,
      "ĠæĦģ": 7904,
      "èĢ¶": 7905,
      "Ġèĥ°": 7906,
      "Ġè¿Ľè¡ĮæĽ²": 7907,
      "µçĲ¶": 7908,
      "ĹæĺŁ": 7909,
      "Ġå¤§æµ·": 7910,
      "åİ¢": 7911,
      "Ġåīįèº«": 7912,
      "ç²¹": 7913,
      "åĭĭ": 7914,
      "Ġå©ļç¤¼": 7915,
      "é«ĵ": 7916,
      "Ġèµ£": 7917,
      "ĠçĪ¶åŃĲ": 7918,
      "Ġåĵģè´¨": 7919,
      "Ġä¸Ĭæµ·å¸Ĥ": 7920,
      "Ġåĳ½ä»¤": 7921,
      "é¾Ł": 7922,
      "ĠãĢı": 7923,
      "Ġä¹ĭç±»": 7924,
      "Ġåıĳèµ·": 7925,
      "Ġå°ıå§Ĳ": 7926,
      "Ġå¤ļæķ°": 7927,
      "Ġ41": 7928,
      "ĠåŃ¦æ´¾": 7929,
      "Ġå¹¿éĺĶ": 7930,
      "Ġçīĩå°¾": 7931,
      "Ġæº¶è§£": 7932,
      "48": 7933,
      "ĠéĵĿ": 7934,
      "Ġè¶ħè¶Ĭ": 7935,
      "Ġä¸īåĽ½å¿Ĺ": 7936,
      "Ġï¼¿": 7937,
      "ä¸»å¸Ń": 7938,
      "ĠåįģåŃĹ": 7939,
      "ĠæĢ»äººåı£": 7940,
      "èħ»": 7941,
      "Ġè§Ĥå¿µ": 7942,
      "ĠåĲ»": 7943,
      "Ġåį°åº¦å°¼è¥¿äºļ": 7944,
      "ĠæľĢå¿«": 7945,
      "Ġä¹ĭä½ľ": 7946,
      "Ġå¼łé£ŀ": 7947,
      "èĬĤçĽ®": 7948,
      "è¯Ńè¨Ģ": 7949,
      "ä»ĵ": 7950,
      "Ġå¥½åĲ¬": 7951,
      "ĠéĢļéģĵ": 7952,
      "èħ¹": 7953,
      "ĠåķĨäºº": 7954,
      "ĠæģĲé¾Ļ": 7955,
      "Ġæ²ŁéĢļ": 7956,
      "ĠÄ": 7957,
      "Ġåī¥": 7958,
      "é¥®": 7959,
      "ĠåĦ¿å¥³": 7960,
      "Ġèīºæľ¯å®¶": 7961,
      "ĠæĴŀ": 7962,
      "çīĻåĪ©": 7963,
      "ĠçŃ¾çº¦": 7964,
      "åħ¨ä¹¦": 7965,
      "ĠåįĹåĮĹæľĿ": 7966,
      "iz": 7967,
      "ĠéĶħ": 7968,
      "è´¡": 7969,
      "ä¸Ńæĸĩ": 7970,
      "Ġä½ĵéªĮ": 7971,
      "Ġå®īè£ħ": 7972,
      "Ġæ»ĩ": 7973,
      "one": 7974,
      "Ġå®«å»·": 7975,
      "ĠåĨ²çªģ": 7976,
      "Ġèķ´": 7977,
      "Ġå·©åĽº": 7978,
      "og": 7979,
      "Ġä»İæĿ¥": 7980,
      "ä¹ĥ": 7981,
      "æī§": 7982,
      "Ġå°ıå°ı": 7983,
      "Ġå¤©æīį": 7984,
      "ä¸Ģå¹´": 7985,
      "Ġä¹ĭéĻħ": 7986,
      "ĠçĽŁ": 7987,
      "çĽĪ": 7988,
      "æĬķ": 7989,
      "æģŃ": 7990,
      "Ġéĥ¨éķ¿": 7991,
      "ĠèĮĤ": 7992,
      "Ġç§¦çİĭ": 7993,
      "æĴĴ": 7994,
      "ĠèĶ¬": 7995,
      "Ġå®ĪæĬ¤": 7996,
      "Ġæ°®": 7997,
      "Ġè¿ĺä¼ļ": 7998,
      "å°Ķåħ°": 7999,
      "Ġåħīç»ª": 8000,
      "Ġä¾Ŀæ¬¡": 8001,
      "ç»ĵæŀĦ": 8002,
      "Ġä¿®æĶ¹": 8003,
      "Ġæ¯«æĹł": 8004,
      "Ġå¤©å¤©": 8005,
      "Ġä¹ĿæľĪ": 8006,
      "ĠçĤ¹åĩ»": 8007,
      "Ġï¼Ĺ": 8008,
      "ĠåĮĹåĨ°æ´ĭ": 8009,
      "ĠéĢīä¸¾": 8010,
      "ç¦§": 8011,
      "ĠçĪ·çĪ·": 8012,
      "Ġå¼Ģå¤´": 8013,
      "ĠåĿĳ": 8014,
      "Ġå¸ĤèĬ±": 8015,
      "ĠæĻ¯è§Ĥ": 8016,
      "ĠèĴĻåı¤æĹı": 8017,
      "Ġæł¡åĽŃ": 8018,
      "Ġå¾ģæľį": 8019,
      "ĻĮ": 8020,
      "Ġå¸ħ": 8021,
      "Ġæ°´åĪĨ": 8022,
      "Ġæ¼Ķç»İ": 8023,
      "è¥Ħ": 8024,
      "Ġ69": 8025,
      "èĳµ": 8026,
      "Ġé¢ģå¸ĥ": 8027,
      "ä¹Ļ": 8028,
      "æĸľ": 8029,
      "ĠåĮĹåįĬçĲĥ": 8030,
      "ĠåĵªäºĽ": 8031,
      "è´¯ä¸Ń": 8032,
      "ber": 8033,
      "Ġå¾½": 8034,
      "æĢľ": 8035,
      "ĠåĩºåĲį": 8036,
      "ç¬Ľ": 8037,
      "ĠçĤ¼": 8038,
      "Ġè¾¹å¢ĥ": 8039,
      "ĠåĲįäºº": 8040,
      "Ġæ·Ģ": 8041,
      "è·¯åĨĽ": 8042,
      "ç¼ĵ": 8043,
      "Ġæİ¨è¿Ľ": 8044,
      "Ġèŀº": 8045,
      "è¯¸": 8046,
      "ä¸įåı¯": 8047,
      "ĠåĨħæ¶µ": 8048,
      "Ġå¥½çľĭ": 8049,
      "èİ¹": 8050,
      "åĦĴ": 8051,
      "ĠæľīåĬĽ": 8052,
      "Ġèĩ£": 8053,
      "Ġæİ©": 8054,
      "Ġè¯Ĺä¸Ń": 8055,
      "Ġé¡¿": 8056,
      "ĠåĤ¬": 8057,
      "ĠæĻļå¹´": 8058,
      "Ġçļĸ": 8059,
      "ĠåĽĽåĳ¨": 8060,
      "Ġåħ«æľĪ": 8061,
      "Ġä¸ĸçºªæľ«": 8062,
      "Ġä»ħä»ħ": 8063,
      "Ġä¸Ģæĸ¹éĿ¢": 8064,
      "ĠçŁ³çģ°": 8065,
      "Ġæ¹ĸåįĹåį«è§Ĩ": 8066,
      "ĠåĮĪçīĻåĪ©": 8067,
      "Ġåľ°åŁŁ": 8068,
      "Ġæĺİæ¸ħ": 8069,
      "çİĦå®Ĺ": 8070,
      "è§£æĶ¾åĨĽ": 8071,
      "Ġ66": 8072,
      "Ġçĵ¶": 8073,
      "èĲĿ": 8074,
      "Ġç¬¬ä¸Ģæ¬¡ä¸ĸçķĮå¤§æĪĺ": 8075,
      "Ġæ´¾åĩº": 8076,
      "Ġé¥®æĸĻ": 8077,
      "Ġèªīä¸º": 8078,
      "Ġèĩªè½¬": 8079,
      "Ġåĩºåĵģ": 8080,
      "Ġéħ¿": 8081,
      "ĠæŀĹåĨ²": 8082,
      "ĠæŁĲç§į": 8083,
      "çĶµè§Ĩåı°": 8084,
      "Ġéļ¾éģĵ": 8085,
      "Ġ1956": 8086,
      "Ġé¢ĺçĽ®": 8087,
      "ĠæĹĹä¸ĭ": 8088,
      "mm": 8089,
      "Ġæīģ": 8090,
      "æ°Ľ": 8091,
      "Ġæ°´åĪ©": 8092,
      "Ġå¤ĸæĸĩ": 8093,
      "Ġé²į": 8094,
      "æ³¢ç½Ĺ": 8095,
      "ĠéĢıéľ²": 8096,
      "ĠæŁıæŀĹ": 8097,
      "Ġå¾ªçİ¯": 8098,
      "Ġåķ¤éħĴ": 8099,
      "æĭīæĸ¯": 8100,
      "ĠèĩªçĦ¶ä¿ĿæĬ¤åĮº": 8101,
      "ĠçĹĩ": 8102,
      "ĠèĴ¸æ±½": 8103,
      "èļĢ": 8104,
      "Ġä»ªåĻ¨": 8105,
      "¿çĥĤ": 8106,
      "ä¸»æķĻ": 8107,
      "Ġä¿Ŀéļľ": 8108,
      "æħĪ": 8109,
      "Ġè£ħç½®": 8110,
      "Ġè½½äºº": 8111,
      "ĠæĬĴåıĳ": 8112,
      "ight": 8113,
      "31": 8114,
      "ä¹ĺ": 8115,
      "ä¼ģ": 8116,
      "åŁĶ": 8117,
      "Ġæ·»": 8118,
      "Ġ1960": 8119,
      "ĠèģĶåĲĪä¼ļ": 8120,
      "Ġå¯ĨåĪĩ": 8121,
      "Ġæī¬å·ŀ": 8122,
      "Ġåİīå®³": 8123,
      "Ġå¤ķ": 8124,
      "ĠåĬłçĽŁ": 8125,
      "ĠæĶ¶å½ķ": 8126,
      "Ġå¹³æĸ¹ç±³": 8127,
      "ĠéĩİçĶŁ": 8128,
      "Ġä»ªå¼ı": 8129,
      "42": 8130,
      "ĠéĺĲ": 8131,
      "æµĻ": 8132,
      "æ°ĳä¸»": 8133,
      "Ġéķ¿è¾¾": 8134,
      "ĠèĤ¡ä»½": 8135,
      "Ġåħ½": 8136,
      "ĠåĪĬ": 8137,
      "Ġæµ·åŁŁ": 8138,
      "ĠåĲĪåĲĮ": 8139,
      "Ġæľ¨æĺŁ": 8140,
      "Ġå¢ĥçķĮ": 8141,
      "Ġå³¨": 8142,
      "ĠåŃ£é£İæ°ĶåĢĻ": 8143,
      "è¯¦": 8144,
      "æī£": 8145,
      "ĠçĶŁæ¶¯": 8146,
      "Ġ4000": 8147,
      "Ġä¸ĭæ¸¸": 8148,
      "ĠåĽŀå½Ĵ": 8149,
      "Ġæ¡Ĳ": 8150,
      "Ġé¸¿": 8151,
      "Ġå²³é£ŀ": 8152,
      "ĠçĴ": 8153,
      "ĠãĢİ": 8154,
      "Ġè½¦è¾Ĩ": 8155,
      "Ġæľīæľºçī©": 8156,
      "ĠãĢĹ": 8157,
      "Ġå½Ŀ": 8158,
      "Ġå±¡": 8159,
      "èĬĴ": 8160,
      "æ·®": 8161,
      "Ġå°ıè¯´å®¶": 8162,
      "Ġç»Īæŀģ": 8163,
      "Ġä¹¡æĿĳ": 8164,
      "px": 8165,
      "Ġä¸ĢæĹ¦": 8166,
      "æ²Ľ": 8167,
      "ĠèĳĹç§°": 8168,
      "Ġè®¤çľŁ": 8169,
      "ä¸Ī": 8170,
      "ĠäºĽ": 8171,
      "Ġå¤§æ²³": 8172,
      "ĠåĪĨæķ°": 8173,
      "Ġåıªä¸įè¿ĩ": 8174,
      "ĠçĪ±æĸ°è§īç½Ĺ": 8175,
      "æº¢": 8176,
      "Ġé£İéĽ¨": 8177,
      "Ġæīĭä¸Ń": 8178,
      "Ġç¿ł": 8179,
      "Ġé©°": 8180,
      "ĠçĹħæ¯Ĵ": 8181,
      "Ġè¥¿åįĹéĥ¨": 8182,
      "........": 8183,
      "Ġæĭ¨": 8184,
      "ä¿ĳ": 8185,
      "ĠéĢīé¡¹": 8186,
      "Ġè§Ĥèµı": 8187,
      "ĠæĿ¨å¹Ĥ": 8188,
      "Ġå¿ħè¦ģ": 8189,
      "ä¼¯çī¹": 8190,
      "éĵģè·¯": 8191,
      "Ġç±įè´¯": 8192,
      "bl": 8193,
      "Ġç¾İç§°": 8194,
      "ĠæŃ¦åĬŁ": 8195,
      "Ġåįİå¤ı": 8196,
      "Ġæ¬¢ä¹Ĳ": 8197,
      "Ġè¾½å®ģçľģ": 8198,
      "æĭĽ": 8199,
      "ĠæŃ£å¥½": 8200,
      "æĺŁé©°": 8201,
      "ĠåĺĽ": 8202,
      "Ġä¸īå³¡": 8203,
      "ĠæĬĢå·§": 8204,
      "Ġæĺ¾çĦ¶": 8205,
      "Ġ1950": 8206,
      "Ġæ·Ģç²ī": 8207,
      "sh": 8208,
      "åħĶ": 8209,
      "æĿŃ": 8210,
      "ĠæĪĲåĲį": 8211,
      "Ġåħ¬äº¤": 8212,
      "Ġçłģ": 8213,
      "å¤įåħ´": 8214,
      "ĠæĪĺåĽ½æĹ¶æľŁ": 8215,
      "´èĿ¶": 8216,
      "æĸĳ": 8217,
      "Ġ170": 8218,
      "ĠÏ": 8219,
      "è¡į": 8220,
      "èįĴ": 8221,
      "ĠåĤ²": 8222,
      "ĠæľĢé«ĺå³°": 8223,
      "å¸ĺ": 8224,
      "å¥ķ": 8225,
      "ĠèĬ³": 8226,
      "Ġæľ¬è´¨": 8227,
      "ĠåıįèĢĮ": 8228,
      "Ġçģ«æĺŁ": 8229,
      "Ġ1974": 8230,
      "Ġåľ°çĲĨä½įç½®": 8231,
      "ĠæĤīå°¼": 8232,
      "åĲŁ": 8233,
      "Ġå¾ĹçŁ¥": 8234,
      "Ġå²ģæľĪ": 8235,
      "Ġè£ģ": 8236,
      "ĠæĽ²æĬĺ": 8237,
      "åĪĽä½ľ": 8238,
      "Ġç¿ħèĨĢ": 8239,
      "ĠçĶĦ": 8240,
      "Ġå¼ĺ": 8241,
      "å··": 8242,
      "å£¶": 8243,
      "Ġæĥ³èµ·": 8244,
      "Ġä¸Ģä»½": 8245,
      "ç§Ĵ": 8246,
      "éĺĢ": 8247,
      "Ġä¸ľé£İ": 8248,
      "ĠåİŁåĪĽ": 8249,
      "ĠåĬłçĥŃ": 8250,
      "ĠæĿľé¹ĥ": 8251,
      "Ġæ£ĢæŁ¥": 8252,
      "åĮĢ": 8253,
      "Ġæł½": 8254,
      "ĠèĪĮ": 8255,
      "Ġ108": 8256,
      "Ġåİ»å¹´": 8257,
      "Ġåįİäºº": 8258,
      "Ġèİ²èĬ±": 8259,
      "ev": 8260,
      "ĠåŃ¦åİĨ": 8261,
      "Ġæ¸ħæĸ°": 8262,
      "ä¾łä¼ł": 8263,
      "Ġæ¸Ń": 8264,
      "Ġ96": 8265,
      "Ġæ±īè¯Ń": 8266,
      "éľľ": 8267,
      "Ġæ¶ĪçģŃ": 8268,
      "37": 8269,
      "ĠæĹ¥çĽĬ": 8270,
      "ĠåĲįå±±": 8271,
      "åĽłæŃ¤": 8272,
      "åģ·": 8273,
      "ĠæĶ¶éĽĨ": 8274,
      "Ġæľ¯": 8275,
      "ĠèĪŁ": 8276,
      "Ġ2015": 8277,
      "Ġç»Īå¹´": 8278,
      "art": 8279,
      "ian": 8280,
      "up": 8281,
      "Ġå¤©åłĤ": 8282,
      "åłª": 8283,
      "Ġ1500": 8284,
      "èĽ®": 8285,
      "Ġ1966": 8286,
      "ĠèĮ¶åı¶": 8287,
      "ĠçĪµ": 8288,
      "Ġæķ´çĲĨ": 8289,
      "ĠéĺŁåĳĺ": 8290,
      "ĠæĥĬäºº": 8291,
      "ç£Ĭ": 8292,
      "Ġåħģè®¸": 8293,
      "Ġå¤§åĽ½": 8294,
      "ĠçĲµçĲ¶": 8295,
      "Ġæ»ĭ": 8296,
      "ĠåıĤæ¼Ķ": 8297,
      "Ġèĭ±åĽ½äºº": 8298,
      "ĠéĺŁä¼į": 8299,
      "å«©": 8300,
      "Ġä¸ĸçķĮåĨłåĨĽ": 8301,
      "Ġåıªå¥½": 8302,
      "ç¨Ģ": 8303,
      "ĠæĽ´æĸ°": 8304,
      "ĠæĶ¹è¿Ľ": 8305,
      "æ·»": 8306,
      "ĠåĽ¢ç»ĵ": 8307,
      "æĨ¾": 8308,
      "Ġä¸ŀçĽ¸": 8309,
      "ĠåĪĿæŃ¥": 8310,
      "éĻĦ": 8311,
      "Ġæĭħå¿ĥ": 8312,
      "Ġå§ļæĺİ": 8313,
      "ok": 8314,
      "Ġä¿Ĭ": 8315,
      "Ġåħ¨çľģ": 8316,
      "Ġåı¤éĥ½": 8317,
      "ĠçĶ°å¾Ħ": 8318,
      "Ġç¦¹": 8319,
      "ĠçĬ¹å¤ª": 8320,
      "çºµ": 8321,
      "Ġä»ĸäºº": 8322,
      "Ġæ¸´": 8323,
      "ĠåĲĦæľī": 8324,
      "Ġæ¶¦": 8325,
      "çĶµè¯Ŀ": 8326,
      "Ġè¿ŀè½½": 8327,
      "ç®¡çĲĨ": 8328,
      "Ġåħ¥éĢī": 8329,
      "Ġä¸įç®Ĺ": 8330,
      "Ġå¤§åİ¦": 8331,
      "ä¸ºæŃ¢": 8332,
      "éĥ¨éĹ¨": 8333,
      "å°Ķå¤ļ": 8334,
      "ĠåŃ¦ä¼ļ": 8335,
      "ĠçĶ·åŃ©": 8336,
      "Ġ1954": 8337,
      "Ġå®ģå¤ı": 8338,
      "Ġè¾Ľäº¥": 8339,
      "Ġæĺı": 8340,
      "åĿĳ": 8341,
      "Ġå¼ķåıĳ": 8342,
      "å°¸": 8343,
      "çİ®": 8344,
      "Ġé¢Ĥ": 8345,
      "å®īçŁ³": 8346,
      "æĿ¡ä»¶": 8347,
      "èĲ¨åħĭ": 8348,
      "ah": 8349,
      "Ġå°ĺ": 8350,
      "Ġå»¶ä¼¸": 8351,
      "ç³Ĭ": 8352,
      "Ġå¹¶ç§°": 8353,
      "ĠåĲįèĳĹ": 8354,
      "Ġå»ºäºİ": 8355,
      "Ġ78": 8356,
      "æ»ĭ": 8357,
      "Ġæ¿ĢçĥĪ": 8358,
      "Ġé«ĺå°Ķ": 8359,
      "ĠæŃ£éĿ¢": 8360,
      "Ġåıįå¤į": 8361,
      "ĠæŃ¦æľ¯": 8362,
      "Ġä¿¡åı·": 8363,
      "Ġè½°çĤ¸": 8364,
      "æĤłä¹ħ": 8365,
      "ĠèıĬèĬ±": 8366,
      "ĠèĶ¬èıľ": 8367,
      "ĠâĹı": 8368,
      "ĠæĮª": 8369,
      "ĠçľĭçĿĢ": 8370,
      "ĠèĢģèĪį": 8371,
      "ĠåıĹç²¾": 8372,
      "æ¸ħçħ§": 8373,
      "åªĽ": 8374,
      "Ġå²©çŁ³": 8375,
      "Ġæľ¬ç§ĳ": 8376,
      "ĠåĨ°å¿ĥ": 8377,
      "èĽĭçĻ½": 8378,
      "æĹ¬": 8379,
      "Ġåħ¨ç§°": 8380,
      "Ġåı°åĮĹ": 8381,
      "ĠæıŃéľ²": 8382,
      "Ġè¯ºè´Ŀå°ĶæĸĩåŃ¦å¥ĸ": 8383,
      "ĠåĲ¦åĪĻ": 8384,
      "39": 8385,
      "Ġä¹ĭæĦı": 8386,
      "ĠåĽ½äº§": 8387,
      "é»Ľ": 8388,
      "ĠéļĭæľĿ": 8389,
      "ĠæıŃç¤º": 8390,
      "ä¸ĵè¾ĳ": 8391,
      "day": 8392,
      "Ġçºº": 8393,
      "ĠçīĽé¡¿": 8394,
      "èİ±åĿŀ": 8395,
      "Ġä¸Ģèº«": 8396,
      "Ġå¹ķ": 8397,
      "Ġå°ıäºİ": 8398,
      "ĠåĮĹç¾İ": 8399,
      "æĸ¯åŁº": 8400,
      "Ġé©¬ä¸Ĭ": 8401,
      "Ġåī§åľº": 8402,
      "Ġæºª": 8403,
      "ĠåĿļå¼º": 8404,
      "Ġè¸¢": 8405,
      "Ġçºµæ¨ª": 8406,
      "ĠæļĤæĹ¶": 8407,
      "ĠåİĦ": 8408,
      "ĠéŁ©ä¿¡": 8409,
      "ĠèĵĦ": 8410,
      "Ġæī§å¯¼": 8411,
      "Ġé¡ºåĪ©": 8412,
      "çĨĬçĮ«": 8413,
      "Ġä¸»åľº": 8414,
      "Ġè¥¿æ¬§": 8415,
      "Ġåħ¨èº«": 8416,
      "ĠåĮĹæµ·": 8417,
      "Ġå¹³å®ī": 8418,
      "Ġä¹¦ä¸Ń": 8419,
      "æ¸Ĭæĺİ": 8420,
      "ĠæŁĵèī²ä½ĵ": 8421,
      "Ġä¸ĢæĬĬ": 8422,
      "å®ħ": 8423,
      "Ġä¹ĭåŃĲ": 8424,
      "Ġä»¥åĮĹ": 8425,
      "æĭĵ": 8426,
      "Ġå¼Ģå¿ĥ": 8427,
      "Ġç¬¬ä¸Ģåı°": 8428,
      "Ġè¿ŀç»Ńåī§": 8429,
      "æī®": 8430,
      "Ġè¢Ń": 8431,
      "ĠæĭĨ": 8432,
      "ĠæŃĮé¢Ĥ": 8433,
      "Ġç¥ŀéĽķ": 8434,
      "Ġæĺ¾èĳĹ": 8435,
      "ĠéģŃéģĩ": 8436,
      "ĠçĽ¸åıį": 8437,
      "åĩ¿": 8438,
      "Ġçİ°æľī": 8439,
      "ĠåĿİ": 8440,
      "Ġèīĺ": 8441,
      "ĠéĴĻ": 8442,
      "all": 8443,
      "ĠéĢģç»Ļ": 8444,
      "åħĨ": 8445,
      "Ġåĳ¨æĺŁé©°": 8446,
      "Ġå½±åĵįåĬĽ": 8447,
      "Ġçľ¼æ³ª": 8448,
      "Ġæī§æĶ¿": 8449,
      "Ġå¤ºåĨł": 8450,
      "Ġå°ģå»ºç¤¾ä¼ļ": 8451,
      "Ġæķ¦çħĮ": 8452,
      "ç¡«": 8453,
      "æĺĵå³°": 8454,
      "Ġçĥ¤": 8455,
      "Ġä»Ļäºº": 8456,
      "èķī": 8457,
      "ĠéĻ¢æł¡": 8458,
      "Ġè®½åĪº": 8459,
      "Ġç§°å¸Ŀ": 8460,
      "Ġcpu": 8461,
      "Ġå°ĳéĩı": 8462,
      "Ġçī©ç§į": 8463,
      "Ġä»»åĳ½": 8464,
      "æ¯ĶèµĽ": 8465,
      "ĠéĴĪå¯¹": 8466,
      "ĠãĢĸ": 8467,
      "ĠåİĨåı²æĤłä¹ħ": 8468,
      "Ġä¸ĵåĪ¶": 8469,
      "Ġä½İäºİ": 8470,
      "ĠåĪ»çĶ»": 8471,
      "ĠæĦ¿æľĽ": 8472,
      "ĠèĬĻèĵī": 8473,
      "åĻ": 8474,
      "Ġå¤ļæł·": 8475,
      "Ġåįĥä¸ĩ": 8476,
      "2014": 8477,
      "Ġæľ«æľŁ": 8478,
      "æ©": 8479,
      "ä»Ĺ": 8480,
      "ĠçĽĬ": 8481,
      "æµħ": 8482,
      "æĽ¹": 8483,
      "Ġä¼łåĪ°": 8484,
      "Ġåįıè°ĥ": 8485,
      "Ġä¼¤å®³": 8486,
      "ĠåŃ¤çĭ¬": 8487,
      "Ġä»£è¡¨ä½ľåĵģ": 8488,
      "ill": 8489,
      "72": 8490,
      "Ġæķ²": 8491,
      "ç²®": 8492,
      "Ġæľªèĥ½": 8493,
      "Ġç¡®è®¤": 8494,
      "Ġ1972": 8495,
      "ĠåĲŁ": 8496,
      "ĠäººéĢł": 8497,
      "èī¾": 8498,
      "Ġéķ¿å¾ģ": 8499,
      "ĠåĲĪå¹¶": 8500,
      "Ġè¿Ł": 8501,
      "ĠåĽĽæľĪ": 8502,
      "æĦıä¹ī": 8503,
      "ĠéĴ¦": 8504,
      "Ġå·´å°Ķ": 8505,
      "ĠéĽĨä½ĵ": 8506,
      "èĮ«": 8507,
      "ĠçķĻåŃ¦": 8508,
      "Ġè¯Ħä¸º": 8509,
      "Ġå°Ĭç§°": 8510,
      "Ġè´¢å¯Į": 8511,
      "Ġå°Ŀè¯ķ": 8512,
      "Ġå¦Ļ": 8513,
      "...": 8514,
      "çĽ®åīį": 8515,
      "ess": 8516,
      "åĲįèĳĹ": 8517,
      "Ġå¹¿æĴŃ": 8518,
      "Ġæ°Ķæ°Ľ": 8519,
      "ine": 8520,
      "Ġè·¯ä¸Ĭ": 8521,
      "å¾ĭå®¾": 8522,
      "æĵ¦": 8523,
      "Ġåħ¨ä¹¦": 8524,
      "ĠæĦıå¤ĸ": 8525,
      "ĠçľŁäºº": 8526,
      "Ġph": 8527,
      "ĠåĽ½åĨħå¤ĸ": 8528,
      "ĠçĦļ": 8529,
      "Ġ____": 8530,
      "èĤ¢": 8531,
      "Ġè¯ĹéĽĨ": 8532,
      "ĠæĹłè®ºæĺ¯": 8533,
      "ry": 8534,
      "Ġå¯¹åºĶ": 8535,
      "ĠçĽ¸æĢĿ": 8536,
      "ĠåĶĲçİĦå®Ĺ": 8537,
      "Ġäº§çī©": 8538,
      "Ġå®£è¨Ģ": 8539,
      "Ġå°Ħæīĭ": 8540,
      "Ġçıłæ±Ł": 8541,
      "Ġé¸¦çīĩæĪĺäºī": 8542,
      "Ġåĩºå¤Ħ": 8543,
      "Ġåı¤ä»Ĭ": 8544,
      "é©¬æĭī": 8545,
      "å¾·åĽ½": 8546,
      "çĳ¶": 8547,
      "ç¬¬äºĮ": 8548,
      "ĠéĴ»çŁ³": 8549,
      "Ġåľ£è¯ŀèĬĤ": 8550,
      "ĠæĭĶ": 8551,
      "Ġä¸¤ä¾§": 8552,
      "ĠåĲįåįķ": 8553,
      "ĠåĲĮåĲį": 8554,
      "Ġæ¶Į": 8555,
      "èĮµ": 8556,
      "Ġng": 8557,
      "Ġå¨ģå»ī": 8558,
      "Ġç¡«éħ¸": 8559,
      "Ġå°ıå¥³": 8560,
      "Ġé«ĺè¾¾": 8561,
      "èħ°": 8562,
      "Ġèİ·å¥ĸ": 8563,
      "Ġå¥ĸé¡¹": 8564,
      "Ġå°ļä¹¦": 8565,
      "ĠåĬ¨çĶ»çīĩ": 8566,
      "Ġæ¸Ĳæ¸Ĳ": 8567,
      "Ġå®°çĽ¸": 8568,
      "Ġçīĩå°¾æĽ²": 8569,
      "Ġéŀĭ": 8570,
      "Ġä¸»æĿĥ": 8571,
      "Ġä¸īäºº": 8572,
      "åĪĨéĴŁ": 8573,
      "Ġåħ´èµ·": 8574,
      "æ¦Ħ": 8575,
      "tern": 8576,
      "ĠæĪ·åı£": 8577,
      "ĠæĹ¥è®°": 8578,
      "éĥ¨éĺŁ": 8579,
      "åĲĮæĹ¶": 8580,
      "ĠéĹ®ä¸ĸ": 8581,
      "ĠåıĹæ¬¢è¿İ": 8582,
      "Ġæ°¨åŁº": 8583,
      "Ġä¸Ģæł¹": 8584,
      "Ġä½Ĳ": 8585,
      "Ġä¸ŃåįĹ": 8586,
      "Ġä¸Ńç§ĭ": 8587,
      "çĶľ": 8588,
      "Ġä¸įæ»¡": 8589,
      "Ġæ³¼": 8590,
      "Ġå±±å³°": 8591,
      "ĠéĢļè®¯": 8592,
      "ĠäºĶå²³": 8593,
      "Ġå®¶äºº": 8594,
      "ĠæķĻä¼ļ": 8595,
      "ĠèŃ¦å¯Ł": 8596,
      "Ġå®ĩèĪªåĳĺ": 8597,
      "ĠæĪĳçĪ±": 8598,
      "ĠéĹ¹": 8599,
      "ĠåĢļ": 8600,
      "Ġåįĥéĩĳ": 8601,
      "Ġæ¸¸è§Ī": 8602,
      "ĠçĤ¹çĩĥ": 8603,
      "Ġè¶³çĲĥèµĽ": 8604,
      "åĲĦåľ°": 8605,
      "Ġä¿ĿéĻ©": 8606,
      "ĠçŃ¾ç½²": 8607,
      "çŃĭ": 8608,
      "ĠåĮĹå¹³": 8609,
      "æĻ´": 8610,
      "ĠéĻĨæ¸¸": 8611,
      "Ġçİīç±³": 8612,
      "Ġç²¤è¯Ń": 8613,
      "Ġåľ°è¯´": 8614,
      "æĺİæĺŁ": 8615,
      "Ġé»Ħé¹¤": 8616,
      "ĠåģļåĪ°": 8617,
      "ĠåĮħåĽ´": 8618,
      "ĠåĬŀäºĭ": 8619,
      "ĠèĤ¡ç¥¨": 8620,
      "Ġ1912": 8621,
      "Ġèı©èĲ¨": 8622,
      "ä¹ĲåĻ¨": 8623,
      "éªļ": 8624,
      "Ġåģļæ³ķ": 8625,
      "Ġæķ°åŃ¦å®¶": 8626,
      "Ġæ»ķ": 8627,
      "ĠéĴ¢éĵģ": 8628,
      "Ġæµĵåº¦": 8629,
      "Ġä¸īçĻ¾": 8630,
      "Ġéĵ¾": 8631,
      "Ġä¸ĩåĲ¨": 8632,
      "Ġå¹¿ä¸º": 8633,
      "Ġéľľ": 8634,
      "èĭ±éĽĦ": 8635,
      "å¥¥è¿Ĳä¼ļ": 8636,
      "ĠéĢĶä¸Ń": 8637,
      "km": 8638,
      "Ġæľīæ²¡æľī": 8639,
      "Ġæ²¸": 8640,
      "Ġ72": 8641,
      "Ġæ°Ķè´¨": 8642,
      "Ġæĳĺ": 8643,
      "èĽĻ": 8644,
      "ĠèĿ´èĿ¶": 8645,
      "å°Ķçī¹": 8646,
      "Ġå¥½å¥½": 8647,
      "ĠèĥĮåĲİ": 8648,
      "è¯µ": 8649,
      "ĠæĪĳè¦ģ": 8650,
      "åħ¶ä¸Ń": 8651,
      "ĠåĨĽäºĭå®¶": 8652,
      "Ġéķľå¤´": 8653,
      "Ġé¾Ł": 8654,
      "ĠåİŁäº§": 8655,
      "Ġæį§": 8656,
      "Ġç¬¬äºĮéĥ¨": 8657,
      "Ġè¿ľè¿ľ": 8658,
      "åĲīæĢĿ": 8659,
      "Ġçº¤ç»´": 8660,
      "Ġå¯¹æŃ¤": 8661,
      "Ġç¥¥": 8662,
      "Ġåħ±äº§": 8663,
      "Ġä¼ĬæľĹ": 8664,
      "Ġå¨ģèĥģ": 8665,
      "Ġå°ļæľª": 8666,
      "Ġéªĳå£«": 8667,
      "ĠæĸĩåĮĸåĲįåŁİ": 8668,
      "éŀĭ": 8669,
      "èī²åĪĹ": 8670,
      "ĠæĹłçĸĳ": 8671,
      "ĠåİĨç»ı": 8672,
      "Ġæĸ¹è¨Ģ": 8673,
      "å¤ªç¥ĸ": 8674,
      "Ġ1955": 8675,
      "æıĲçĲ´": 8676,
      "ĠæĿ¥æºĲäºİ": 8677,
      "Ġèı²å¾ĭå®¾": 8678,
      "Ġå½¼æŃ¤": 8679,
      "Ġå¥ĭæĸĹ": 8680,
      "Ġ@": 8681,
      "Ġç§Ł": 8682,
      "Ġè¿Ľå£«": 8683,
      "Ġå°ĳæŀĹ": 8684,
      "Ġåħ¥ä¾µ": 8685,
      "å®¡": 8686,
      "Ġæĸ°çĶŁ": 8687,
      "Ġè¿ĩæĿ¥": 8688,
      "orld": 8689,
      "Ġéĥĳå·ŀ": 8690,
      "ĠèĢĹ": 8691,
      "æĿ¥è¯´": 8692,
      "Ġå§¬": 8693,
      "éĽªèĬ¹": 8694,
      "Ġå¥łåŁº": 8695,
      "Ġstyle": 8696,
      "Ġæ°¯åĮĸ": 8697,
      "ĠæĪĸè®¸": 8698,
      "Ġæ°Ķè±¡": 8699,
      "ĠçĻ¾ä¸ĩ": 8700,
      "ina": 8701,
      "Ġç½Ĺè´¯ä¸Ń": 8702,
      "Ġåĥıæĺ¯": 8703,
      "Ġæł¡éķ¿": 8704,
      "Ġç«ŀæĬĢ": 8705,
      "uc": 8706,
      "ĠéĻĩ": 8707,
      "ĠåĬ¨äºº": 8708,
      "Ġéĵ¶æ²³": 8709,
      "Ġçºªå¿µæĹ¥": 8710,
      "ç³ķ": 8711,
      "Ġä¸Ńå¤ĸ": 8712,
      "Ġéĺ®": 8713,
      "Ġè¿Ľåı£": 8714,
      "åĢ¡": 8715,
      "ĠåīįæľŁ": 8716,
      "Ġæ°ĳä¼Ĺ": 8717,
      "ĠäºĭåĬ¡": 8718,
      "é£İæł¼": 8719,
      "Ġ1937": 8720,
      "Ġå¸ĪåĤħ": 8721,
      "åı¬": 8722,
      "ĠæŃ¢": 8723,
      "ĠèĩªæĿĢ": 8724,
      "æº¯": 8725,
      "Ġæ¹¿æ¶¦": 8726,
      "73": 8727,
      "ĠæŀĿ": 8728,
      "ĠæĹłéĶ¡": 8729,
      "Ġå½¢åĬ¿": 8730,
      "ĠéĿĴå±±": 8731,
      "æĻ¯è§Ĥ": 8732,
      "ĠåħīåĲĪ": 8733,
      "åĪĻå¾Ĳ": 8734,
      "Ġè¯ģå®ŀ": 8735,
      "Ġæ¨¡çī¹": 8736,
      "Ġæĵ¦": 8737,
      "ĠæįŁå¤±": 8738,
      "ike": 8739,
      "Ġå¼Ģå¹ķå¼ı": 8740,
      "Ġä¸Ģå¥Ĺ": 8741,
      "Ġ51": 8742,
      "åŁİåĮº": 8743,
      "Ġä¹¦éĻ¢": 8744,
      "Ġ1961": 8745,
      "ĠçĽ¸å¯¹è®º": 8746,
      "ĠæĤłä¹ħ": 8747,
      "ĠåĪ·": 8748,
      "Ġç¾İçļĦ": 8749,
      "Ġçī¹å®ļ": 8750,
      "ĠåĨ³å¿ĥ": 8751,
      "äº©": 8752,
      "ĠæĿł": 8753,
      "ĠæĬ«": 8754,
      "æĸ¹å½¢": 8755,
      "ĠåĲĦç±»": 8756,
      "åģ¿": 8757,
      "Ġä¹¦ç±į": 8758,
      "ĠéĢĤçĶ¨": 8759,
      "by": 8760,
      "Ġä¸Ĭæ¸¸": 8761,
      "Ġåħ¬åŃĻ": 8762,
      "Ġæĭĵ": 8763,
      "ĠåĪ°å¤Ħ": 8764,
      "Ġä»£çĲĨ": 8765,
      "èľĢ": 8766,
      "Ġè¢ģç»į": 8767,
      "Ġäº¨": 8768,
      "åĬ«": 8769,
      "ĠæĪĲå¹´": 8770,
      "Ġåĩłåįģ": 8771,
      "èĩ³äºİ": 8772,
      "Ġè£´": 8773,
      "Ġåįĵè¶Ĭ": 8774,
      "çķı": 8775,
      "Ġä¸»æķĻ": 8776,
      "Ġä¸¤èĢħ": 8777,
      "Ġå¼łåĽ½": 8778,
      "Ġå°¼ç½Ĺæ²³": 8779,
      "Ġæ´ŀåºŃæ¹ĸ": 8780,
      "Ġä¸ĸåįļä¼ļ": 8781,
      "Ġåıĳæİĺ": 8782,
      "Ġåħ¬åħ±": 8783,
      "Ġæ°´éĩı": 8784,
      "èĭĳ": 8785,
      "Ġæ±īåŃĹ": 8786,
      "å°ĳå¹´": 8787,
      "Ġæģ¨": 8788,
      "Ġç¬¬äºĮåŃ£": 8789,
      "Ġæ¹ĸäºº": 8790,
      "Ġåħīè¾ī": 8791,
      "Ġè´¢æĶ¿": 8792,
      "Ġä¸Ģæĸ¹": 8793,
      "æĸĩæĺİ": 8794,
      "Ġæ´»æ³¼": 8795,
      "ĠåĵªåĦ¿": 8796,
      "ĠéĢıæĺİ": 8797,
      "Ġäºĭå®ŀä¸Ĭ": 8798,
      "ĠåħĶ": 8799,
      "Ġä¼½": 8800,
      "Ġé»Ķ": 8801,
      "Ġä¸ĭåİ»": 8802,
      "Ġè¿ĩæ¸¡": 8803,
      "Ġåįģåĩł": 8804,
      "Ġå·¥åİĤ": 8805,
      "Ġæ·±åİļ": 8806,
      "ĠèģĶæĥ³": 8807,
      "Ġä»£è¡¨æĢ§": 8808,
      "æĳĩ": 8809,
      "Ġæĸĩèīºå¤įåħ´": 8810,
      "ç¾²ä¹ĭ": 8811,
      "ĠåĮĸåĲĪçī©": 8812,
      "åĲīæĢĿæ±Ĺ": 8813,
      "èŀº": 8814,
      "è¿Ł": 8815,
      "ĠåįĹæľĿ": 8816,
      "ä¸ĭæ¸¸": 8817,
      "ä¾¨": 8818,
      "åŁİåİ¿": 8819,
      "çī¹åĭĴ": 8820,
      "Ġåħĥä»£": 8821,
      "è®¾è®¡": 8822,
      "ĠåĽ¾çīĩ": 8823,
      "Ġè¾ĵåħ¥": 8824,
      "Ġåıĭè°Ĭ": 8825,
      "Ħæ¦Ħ": 8826,
      "ĠèµĶ": 8827,
      "ĠåĲĮæĥħ": 8828,
      "ĠåĬłæ²¹": 8829,
      "ĠæīĭæĮĩ": 8830,
      "Ġä¹¦åĨĻ": 8831,
      "Ġå°ģç¥ŀ": 8832,
      "ĠçĶ³åĬŀ": 8833,
      "Ġåī©ä¸ĭ": 8834,
      "æĸ¹ç±³": 8835,
      "Ġå¤©åŃĲ": 8836,
      "ĠåĪĨæīĭ": 8837,
      "å²ļ": 8838,
      "éĩĳå±ŀ": 8839,
      "Ġç½Ĺæĸ¯": 8840,
      "Ġé¡ºæ²»": 8841,
      "Ġäºīåıĸ": 8842,
      "Ġå¹³åı°": 8843,
      "é«ĺç¥ĸ": 8844,
      "Ġé²¸": 8845,
      "éĽĨåĽ¢": 8846,
      "ĠåıĸåĲį": 8847,
      "Ġå®ļå¾ĭ": 8848,
      "Ġæ»¡æĹı": 8849,
      "Ġäºīè®®": 8850,
      "Ġçĺ¦": 8851,
      "åıł": 8852,
      "åį´": 8853,
      "Ġæ¸Ĺ": 8854,
      "Ġä¸ĸçķĮçºªå½ķ": 8855,
      "Ġä½¿äºº": 8856,
      "èĮħ": 8857,
      "å®ģå¸Ĥ": 8858,
      "ĠæķĪåĬĽ": 8859,
      "Ġè¿ĳä»£åı²": 8860,
      "Ġä¸Ģä¸¾": 8861,
      "åİĮ": 8862,
      "Ġåħ«è·¯åĨĽ": 8863,
      "è¡Ģç®¡": 8864,
      "æ±½è½¦": 8865,
      "å°ıå¹³": 8866,
      "ĠåŁİåĮº": 8867,
      "ind": 8868,
      "Ġå¨ľ": 8869,
      "Ġå¥ĩä¾łä¼ł": 8870,
      "ĠåĤ»": 8871,
      "Ġåħįè´¹": 8872,
      "49": 8873,
      "å¹½": 8874,
      "Ġä¸ĸçķĮåĲĦåľ°": 8875,
      "ĠéĹ¯": 8876,
      "Ġåı¤è£ħ": 8877,
      "Ġçİĭå®īçŁ³": 8878,
      "èĬĤæĹ¥": 8879,
      "ĠæĶ¹åĸĦ": 8880,
      "æ£ī": 8881,
      "Ġç§»æ°ĳ": 8882,
      "ĠçĶŁæĢģç³»ç»Ł": 8883,
      "åı¦": 8884,
      "å®īå¸Ĥ": 8885,
      "Ġæİ¨è¡Į": 8886,
      "Ġä¼Ĭæĭīåħĭ": 8887,
      "è¢į": 8888,
      "ĠèĪ¬çļĦ": 8889,
      "Ġä¼į": 8890,
      "ĠâĹİ": 8891,
      "Ġä¸ĢæĹ¶": 8892,
      "Ġä¸Ģåº¦": 8893,
      "å¸ľ": 8894,
      "Ġæĺ¥æĻļ": 8895,
      "èģĶéĤ¦": 8896,
      "ĠçĲĨå¿µ": 8897,
      "ĠçĥŃéĩı": 8898,
      "Ġè¾¾å°Ķ": 8899,
      "ĠéŁ©æĦĪ": 8900,
      "Ġè·¯æĺĵ": 8901,
      "Ġè§Ĩé¢ĳ": 8902,
      "Ġä¼¤å¿ĥ": 8903,
      "Ġç¥¨æĪ¿": 8904,
      "ĠæĸĩçĮ®": 8905,
      "ĠåŁºéĩĳ": 8906,
      "Ġçģ«çĤ¬": 8907,
      "ĠåıĹä¼¤": 8908,
      "ĠåħŃæľĪ": 8909,
      "Ġä¸ºæŃ¤": 8910,
      "Ġæ¬¾": 8911,
      "ç©´": 8912,
      "èĭ¹æŀľ": 8913,
      "ĠæıĲåĲį": 8914,
      "Ġæ¢¨": 8915,
      "Ġå¨¶": 8916,
      "Ġç¬ĶåĲį": 8917,
      "Ġé±¼ç±»": 8918,
      "Ġé»ĳé¾Ļæ±Łçľģ": 8919,
      "ĠåĬ±": 8920,
      "ĠåĲİèĢħ": 8921,
      "Ġè¥¿é£İ": 8922,
      "Ġç¬¬ä¸Ģé¢Ĺ": 8923,
      "åĲ§": 8924,
      "Ġä¸ºé¦ĸ": 8925,
      "æłĸ": 8926,
      "Ġ1900": 8927,
      "ĠèĢģå¤§": 8928,
      "ĠåĨ³è®®": 8929,
      "ĠéŁ³ä¹Ĳå®¶": 8930,
      "Ġç¿ģ": 8931,
      "Ġ1946": 8932,
      "Ġé¹ħ": 8933,
      "ĠçĹ´": 8934,
      "å«ģ": 8935,
      "Ġå¤§æ¡¥": 8936,
      "Ġä»¥èī²åĪĹ": 8937,
      "çĽĨ": 8938,
      "Ġ89": 8939,
      "æ¶ī": 8940,
      "çĽ¸åĲĮ": 8941,
      "Ġå®ļä½į": 8942,
      "ĠçĽĽè¡Į": 8943,
      "å¡ŀç½Ĺ": 8944,
      "Ġä¸Ģæ®µæĹ¶éĹ´": 8945,
      "Ġå®´": 8946,
      "Ġæĭ±": 8947,
      "Ġå¼łåŃ¦": 8948,
      "Ġä¸ĥå¤§": 8949,
      "ĠåĤħ": 8950,
      "Ġåįļè§Ī": 8951,
      "ĠæĹ¢çĦ¶": 8952,
      "Ġä¹ĺåĿĲ": 8953,
      "ĠèĴ¸åıĳ": 8954,
      "ĠæĹĭè½¬": 8955,
      "Ġå¤§åĨĽ": 8956,
      "è´¡çĮ®": 8957,
      "ĠæıĲåįĩ": 8958,
      "ĠåĽŀåĽ½": 8959,
      "åĸĬ": 8960,
      "Ġ1957": 8961,
      "Ġç©¿è¿ĩ": 8962,
      "ĠæĪ¿å±ĭ": 8963,
      "Ġçİ©å®¶": 8964,
      "Ġè¾Ľäº¥éĿ©åĳ½": 8965,
      "Ġæīĳ": 8966,
      "Ġå¤§èĩªçĦ¶": 8967,
      "Ġè¿Ļåľº": 8968,
      "å¼ĺ": 8969,
      "ĠçĻ½é©¬": 8970,
      "ĠæĹ©å°±": 8971,
      "ĠæĿĥå¨ģ": 8972,
      "Ġæ¨¡ä»¿": 8973,
      "åį°åº¦": 8974,
      "ĠèĪ°éĺŁ": 8975,
      "åĨķ": 8976,
      "æłª": 8977,
      "Ġä¼łåªĴ": 8978,
      "Ġé£İåĳ³": 8979,
      "Ġcell": 8980,
      "åįĥéĩĮ": 8981,
      "Ġç¢İ": 8982,
      "åĨ°åĨ°": 8983,
      "èķĥ": 8984,
      "ob": 8985,
      "æ¿": 8986,
      "Ġä¸Ģçķª": 8987,
      "å®¶åºĦ": 8988,
      "è¡ĮæĶ¿": 8989,
      "Ġè¾¨": 8990,
      "æ³ķéĻ¢": 8991,
      "Ġå¼ķè¿Ľ": 8992,
      "Ġ1959": 8993,
      "Ġ1962": 8994,
      "ĠéĿłè¿ĳ": 8995,
      "Ġå°¹": 8996,
      "æ´Ĵ": 8997,
      "ĠåĽ½éĺ²": 8998,
      "Ġæ¼Ķåĳĺè¡¨": 8999,
      "ĠåĵĪåĪ©": 9000,
      "åħ¬åħĥ": 9001,
      "Ġå¥½èİ±åĿŀ": 9002,
      "éªĹ": 9003,
      "Ġåıĸæ¶Ī": 9004,
      "æĴŀ": 9005,
      "ç»ĵåĲĪ": 9006,
      "you": 9007,
      "Ġè¯ı": 9008,
      "Ġä¹ĭåľ°": 9009,
      "ĠçĽ¸çŃī": 9010,
      "ä¾łä¾£": 9011,
      "ĠéļĭåĶĲ": 9012,
      "ĠåİŁåŃĲå¼¹": 9013,
      "Ġæ¡£æ¡Ī": 9014,
      "ĬåŃĲ": 9015,
      "ĠãĢķ": 9016,
      "Ġè¾©": 9017,
      "å»ºçŃĳ": 9018,
      "Ġè®¿éĹ®": 9019,
      "ĠåĲīç¥¥çī©": 9020,
      "ĠåħīåĲĪä½ľçĶ¨": 9021,
      "ĠåįĴ": 9022,
      "å¼Ħ": 9023,
      "è¾½": 9024,
      "Ġè½´": 9025,
      "Ġæīĭè¡¨": 9026,
      "ĠçĶ·æĢ§": 9027,
      "æŁ¯": 9028,
      "æĦ§": 9029,
      "ĠæĲŀç¬ĳ": 9030,
      "ĠåĨĢ": 9031,
      "éħµ": 9032,
      "æĹŃ": 9033,
      "ĠåĮĹå¤§": 9034,
      "ĠçŁ£": 9035,
      "Ġåı²æĸĻ": 9036,
      "Ġéĩĩè®¿": 9037,
      "Ġç¼ħçĶ¸": 9038,
      "¤æµ·": 9039,
      "´åĦ¿": 9040,
      "Ġåı¹": 9041,
      "Ġåľ°éĵģ": 9042,
      "ĠæĭŁ": 9043,
      "Ġæ´¥": 9044,
      "ĠæĿİæĺĵå³°": 9045,
      "Ġæ¹¾": 9046,
      "Ġäºļæ¬§": 9047,
      "Ġç¡ħ": 9048,
      "Ġåįķçº¯": 9049,
      "Ġè½¬ç§»": 9050,
      "Ġè®ºè¯Ń": 9051,
      "Ġé¢ģå¥ĸ": 9052,
      "Ġç»ĥä¹ł": 9053,
      "æĸĮ": 9054,
      "ĠæĢ¨": 9055,
      "Ġæłı": 9056,
      "Ġåħ¨è¯Ĺ": 9057,
      "è¥¿åħ°": 9058,
      "Ġçī¹æĢ§": 9059,
      "çī¹åĪ«": 9060,
      "Ġå®£åĳĬ": 9061,
      "Ġ1976": 9062,
      "ĠçīĽå¥¶": 9063,
      "æ¤İ": 9064,
      "ĠèĹ¤": 9065,
      "Ġæ¶Īè´¹èĢħ": 9066,
      "ä¹¾": 9067,
      "å°ģå»º": 9068,
      "ĠæĪĺæľ¯": 9069,
      "åĬłç´¢": 9070,
      "ĠéĻĨç»Ń": 9071,
      "Ġåı£åı·": 9072,
      "Ġä½ĵèĤ²åľº": 9073,
      "Ġå¤§äºĭ": 9074,
      "ĠæĶĢ": 9075,
      "å±±å¤§": 9076,
      "Ġå±±ä¸Ĭ": 9077,
      "ĠåĲĪçĲĨ": 9078,
      "Ġçľ¼åīį": 9079,
      "ĠæŀĦéĢł": 9080,
      "ĠåĽ¢éĺŁ": 9081,
      "Ġä¸ĸå®¶": 9082,
      "Ġæĺİå¤©": 9083,
      "Ġé©¬å°Ķ": 9084,
      "æłĩåĩĨ": 9085,
      "Ġç¼ºå°ĳ": 9086,
      "çŃĴ": 9087,
      "Ġåĩºäºİ": 9088,
      "åĩºçīĪ": 9089,
      "Ġè¥¿äºļ": 9090,
      "æ¯«": 9091,
      "Ġæİ¨å¹¿": 9092,
      "Ġå©ī": 9093,
      "Ġ1975": 9094,
      "Ġä¼łç»ŁèĬĤæĹ¥": 9095,
      "Ġå¼Ĥå¸¸": 9096,
      "æĺĨ": 9097,
      "çº±": 9098,
      "Ġèĭ¥å¹²": 9099,
      "ĠæĤ£èĢħ": 9100,
      "ĠæĿİå°ıé¾Ļ": 9101,
      "Ġæīįåįİ": 9102,
      "ĠèĻ«": 9103,
      "ĠéĨĴ": 9104,
      "ĠèĢ³æľµ": 9105,
      "ĠåĲĮä¸Ģä¸ª": 9106,
      "Ġåı¦ä¸Ģæĸ¹éĿ¢": 9107,
      "Ġä¸İåħ¶": 9108,
      "å§¥": 9109,
      "Ġå¦ĤåĲĮ": 9110,
      "Ġä¸ĭä»¤": 9111,
      "ĠçĪ±ä¸Ĭ": 9112,
      "Ġåħ±åĴĮ": 9113,
      "Ġèĭıæł¼åħ°": 9114,
      "Ġè§£çŃĶ": 9115,
      "Ġ140": 9116,
      "Ġï¼Ŀ": 9117,
      "åĩĿ": 9118,
      "Ġæĺİçıł": 9119,
      "ĠæŃĮå£°": 9120,
      "åıĳå±ķ": 9121,
      "ĠæĽ¼èģĶ": 9122,
      "Ġä¸Ľ": 9123,
      "Ġä¸Ģçº¿": 9124,
      "Ġå®Ļ": 9125,
      "å±±åĮº": 9126,
      "Ġæµ¸": 9127,
      "Ġä¸ªä½ĵ": 9128,
      "èĦĬ": 9129,
      "æ·ĳ": 9130,
      "Ġå¾Ĳå·ŀ": 9131,
      "Ġ1948": 9132,
      "Ġ1936": 9133,
      "åŁĥåıĬ": 9134,
      "æĢĸ": 9135,
      "Ġåħ¨ä½ĵ": 9136,
      "Ġ57": 9137,
      "Ġ86": 9138,
      "Ġå®ŀçĶ¨": 9139,
      "ĠèĢĥæŁ¥": 9140,
      "Ġè¶³å¤Ł": 9141,
      "Ġèħ¿": 9142,
      "Ġè´¹çĶ¨": 9143,
      "Ġæ·®æ²³": 9144,
      "é³į": 9145,
      "æľĭ": 9146,
      "ĠåīĬ": 9147,
      "Ġåħ¬è½¬": 9148,
      "Ġä¸ĩåħĥ": 9149,
      "ĠéľĢæ±Ĥ": 9150,
      "Ġç¥Ńç¥Ģ": 9151,
      "Ġä¸Ģåĳ¨": 9152,
      "ĠäºĮçº§": 9153,
      "ç¨³": 9154,
      "Ġè®¾æĸ½": 9155,
      "Ġè§ĤéŁ³": 9156,
      "æ£ł": 9157,
      "æħİ": 9158,
      "Ġäº¿åħĥ": 9159,
      "Ġç´§å¼ł": 9160,
      "Ġåį±æľº": 9161,
      "Ġèħ¾è®¯": 9162,
      "Ġç¥ŀéĽķä¾łä¾£": 9163,
      "Ġæīĩ": 9164,
      "Ġå¥Ī": 9165,
      "ĠèµĮ": 9166,
      "ĠéĤµ": 9167,
      "Ġå½ĵä½ľ": 9168,
      "èĤĮ": 9169,
      "æĹıèĩªæ²»åĮº": 9170,
      "ĠéĿ¢ä¸´": 9171,
      "Ġç¨İ": 9172,
      "åŁºæĸ¯åĿ¦": 9173,
      "Ġå¥ĩçī¹": 9174,
      "Ġå¤įæ´»": 9175,
      "Ġåı¤ç§°": 9176,
      "ĠéĢļä¿Ĺ": 9177,
      "Ġæī¿æĭħ": 9178,
      "Ġä¹īåĬ¡": 9179,
      "Ġå¤©æĸĩåŃ¦å®¶": 9180,
      "Ġåĵ¥ä¼¦æ¯Ķäºļ": 9181,
      "çķĶ": 9182,
      "ĠæĬ¬": 9183,
      "Ġè¥¿æĻĭ": 9184,
      "Ġå¾Īéļ¾": 9185,
      "Ġçļĩå¤ª": 9186,
      "Ġæ³¨éĩį": 9187,
      "Ġå°Ĭéĩį": 9188,
      "ĠäºĴèģĶ": 9189,
      "aw": 9190,
      "ĠæŃ£ä¹ī": 9191,
      "Ġä¹ĲæĽ²": 9192,
      "Ġå®¢æĪ·": 9193,
      "ĠåľºæĻ¯": 9194,
      "Ġè¯Ŀåī§": 9195,
      "Ġè¯¾æĸĩ": 9196,
      "ĠçĶĺèĤĥçľģ": 9197,
      "ĠåĨĴéĻ©": 9198,
      "Ġä¸įå¤ª": 9199,
      "ĠåĽ½åºĨ": 9200,
      "ĠæĬĦ": 9201,
      "ĠåĲįåı¥": 9202,
      "Ġæľ¬åĲį": 9203,
      "ĠçĻ½äºĳ": 9204,
      "Ġmar": 9205,
      "Ġæ¾Ħ": 9206,
      "Ġå§Ĳå¦¹": 9207,
      "Ġèī°èĭ¦": 9208,
      "ĠæĿİæ¸ħçħ§": 9209,
      "Ġçİĭèı²": 9210,
      "Ġä½ĵä¼ļ": 9211,
      "Ġæ´»è·ĥ": 9212,
      "Ġæ¿Ģæĥħ": 9213,
      "2008": 9214,
      "ĠæĹłå¥Ī": 9215,
      "ĠæĦŁäºº": 9216,
      "Ġçĥ¹": 9217,
      "Ġä¸Ńåħ±ä¸Ńå¤®": 9218,
      "bc": 9219,
      "Ġæ²¦": 9220,
      "ĠæŃĮè¿·": 9221,
      "çĥ·": 9222,
      "å½ĵçĦ¶": 9223,
      "Ġåħ«å¤§": 9224,
      "Ġä¿¡çĶ¨": 9225,
      "Ġçī©çĲĨåŃ¦": 9226,
      "Ġå¹»æĥ³": 9227,
      "Ġä½Ł": 9228,
      "åĲįç§°": 9229,
      "Ġå¤©ä¸»æķĻ": 9230,
      "ĠåĬłå¿«": 9231,
      "ĠåĲĳåīį": 9232,
      "èķĬ": 9233,
      "èĬ¦": 9234,
      "Ġåĩ¸": 9235,
      "å¦į": 9236,
      "éģ£": 9237,
      "Ġäººæ°ĳæĶ¿åºľ": 9238,
      "Ġ1928": 9239,
      "å¡ŀç½ĹéĤ£": 9240,
      "ĠçĶŁèĤĸ": 9241,
      "Ġä¾ł": 9242,
      "ĠåĲĪèĤ¥": 9243,
      "Ġæ¯ĶèµĽé¡¹çĽ®": 9244,
      "Ġ250": 9245,
      "Ġåı¸æ³ķ": 9246,
      "Ġå¾®åįļ": 9247,
      "ĠèĲ½åĲİ": 9248,
      "ĠéĴ±å¡ĺ": 9249,
      "Ġèµŀç¾İ": 9250,
      "Ġä¼ĳæģ¯": 9251,
      "¬éĹ´": 9252,
      "ĠéĽı": 9253,
      "ĠæĹłåı¯": 9254,
      "ĠæŃ¦æĺĮ": 9255,
      "ĠèµµåĽ½": 9256,
      "Ġè¯ģæį®": 9257,
      "ĠéŃıåĽ½": 9258,
      "æ¾ľ": 9259,
      "Ġåºŀå¤§": 9260,
      "Ġå¯¿åĳ½": 9261,
      "ĠæĮªå¨ģ": 9262,
      "34": 9263,
      "ĠåĬ²": 9264,
      "Ġæŀ¯": 9265,
      "æĮ¡": 9266,
      "çī¹èī²": 9267,
      "ĠéĶģ": 9268,
      "åĽłæĸ¯åĿ¦": 9269,
      "Ġåħµé©¬": 9270,
      "Ġåħ¶åĲİ": 9271,
      "èĪ±": 9272,
      "ĠèĪªæµ·": 9273,
      "é¦Ļæ¸¯": 9274,
      "Ġè¾¹çķĮ": 9275,
      "ĠæĢĢçĸĳ": 9276,
      "ĠåĽ½äºº": 9277,
      "æ²§": 9278,
      "Ġåĳ¨è¾¹": 9279,
      "Ġå¨ĥ": 9280,
      "Ġå¸ĥé²ģ": 9281,
      "å½ª": 9282,
      "ĠæľĪåħī": 9283,
      "Ġè¿ĺåİŁ": 9284,
      "Ġå·²çŁ¥": 9285,
      "æ£į": 9286,
      "Ġè¿ĲåĬ¨ä¼ļ": 9287,
      "Ġç¢ĺ": 9288,
      "Ġè´Ŀå°Ķ": 9289,
      "Ġå°Ħåĩ»": 9290,
      "èļģ": 9291,
      "ĠéĩįåºĨå¸Ĥ": 9292,
      "Ġæ§": 9293,
      "ĠåįĹç¾İ": 9294,
      "Ġ61": 9295,
      "Ġå²Ĥ": 9296,
      "çº¢èī²": 9297,
      "çªĹ": 9298,
      "Ġéĺ²å®Ī": 9299,
      "Ġå¸Ń": 9300,
      "ĠæĢ»ä½ĵ": 9301,
      "Ġå¼łæĿ°": 9302,
      "Ġåħ³å¿ĥ": 9303,
      "åı¸ä»¤": 9304,
      "ĠèµĽäºĭ": 9305,
      "ĠåºŁéĻ¤": 9306,
      "eg": 9307,
      "ĠæľĹ": 9308,
      "Ġè¯ī": 9309,
      "çº¶": 9310,
      "Ġç«ĸ": 9311,
      "çĽ¸å¦Ĥ": 9312,
      "ĠåĲ´åĽ½": 9313,
      "Ġå¤©ä¸ĭç¬¬ä¸Ģ": 9314,
      "ĠçŁ¿äº§": 9315,
      "Ġæ°¨åŁºéħ¸": 9316,
      "Ġçłį": 9317,
      "Ġç§ĳæ¯Ķ": 9318,
      "Ġè®¤åı¯": 9319,
      "ĠæĶ¾åħ¥": 9320,
      "ĠæĪĳçĪ±ä½ł": 9321,
      "ĠãĢĶ": 9322,
      "Ġä¸Ģå£°": 9323,
      "åħģ": 9324,
      "ĠäºĶæĺŁ": 9325,
      "Ġä½ĵè£ģ": 9326,
      "Ġå¤ĸçķĮ": 9327,
      "ĠåĮ»çĸĹ": 9328,
      "Ġå¾®ç¬ĳ": 9329,
      "Ġæ®ĭéħ·": 9330,
      "Ġå¯ĴåĨ·": 9331,
      "ĠæĶ¹éĿ©å¼ĢæĶ¾": 9332,
      "ĠæľĢæľī": 9333,
      "ĠæľĢåħĪ": 9334,
      "Ġåĩ¿": 9335,
      "Ġå¤©é¾Ļ": 9336,
      "Ġé«ĺæīĭ": 9337,
      "ĠåľĨåĳ¨": 9338,
      "ĠåĿĲåľ¨": 9339,
      "ç¾Ĭç¾Ĭ": 9340,
      "Ġæ©Ħæ¦Ħ": 9341,
      "ĠæĪĲåĲīæĢĿæ±Ĺ": 9342,
      "Ġæ²³åı£": 9343,
      "Ġä¸ĵçĶ¨": 9344,
      "ĠæŀĹåĪĻå¾Ĳ": 9345,
      "ĠæĭīèĲ¨": 9346,
      "Ġåĩ¡å°Ķ": 9347,
      "ĠæĲºå¸¦": 9348,
      "ĠéªĨé©¼": 9349,
      "¿è½¦": 9350,
      "å¸ķ": 9351,
      "ĠæīŃ": 9352,
      "Ġé¦ĸæĴŃ": 9353,
      "Ġå®Ļæĸ¯": 9354,
      "ĠæıĲåĢ¡": 9355,
      "Ġè¡Ģç®¡": 9356,
      "æħ°": 9357,
      "Ġè´¢äº§": 9358,
      "Ġæ½ľèīĩ": 9359,
      "Ġåĵºä¹³åĬ¨çī©": 9360,
      "Ġå¹´ä»½": 9361,
      "ĠåĪĨæĪĲ": 9362,
      "Ġç²¾ç¡®": 9363,
      "ĠéªĹ": 9364,
      "Ġèį·èĬ±": 9365,
      "ĠæĿı": 9366,
      "Ġæĸ°é²ľ": 9367,
      "Ġæ°´ç¨»": 9368,
      "Ġæ¬§ç¾İ": 9369,
      "Ġar": 9370,
      "Ġéĺ²å¾¡": 9371,
      "åıĽ": 9372,
      "Ġå¤§èĥĨ": 9373,
      "Ġä»¥ä¸ľ": 9374,
      "Ġå¿Ļ": 9375,
      "æĭīå¤«": 9376,
      "ĠçĻ½éĽª": 9377,
      "Ġç©ºåĨĽ": 9378,
      "å¨ģå¤·": 9379,
      "ĠæĬµæĬĹ": 9380,
      "ĠåĤ¨åŃĺ": 9381,
      "Ġè®®ä¼ļ": 9382,
      "ĠæľºåĬ¨è½¦": 9383,
      "ĠæĹłæķĮ": 9384,
      "Ġå·¦æīĭ": 9385,
      "Ġdna": 9386,
      "ĠåĲīä»ĸ": 9387,
      "Ġæł¼æŀĹ": 9388,
      "idu": 9389,
      "Ġå·§å¦Ļ": 9390,
      "åĲĲ": 9391,
      "ĠéĿ©": 9392,
      "åĲİæĿ¥": 9393,
      "Ġéĺİ": 9394,
      "åįģäºĶ": 9395,
      "åħĭåĬĽ": 9396,
      "èįĨ": 9397,
      "Ġä¸ĵåĪ©": 9398,
      "é¥¶": 9399,
      "Ġå°ģä¸º": 9400,
      "é£ŀæľº": 9401,
      "Ġå¸ĥå±Ģ": 9402,
      "ĠéĢĤå®ľ": 9403,
      "ĠéĤĵå°ıå¹³": 9404,
      "ĠæŃ¼": 9405,
      "ĠæĮ½": 9406,
      "Ġå®¶ä¸Ń": 9407,
      "Ġå¸Ĥéķ¿": 9408,
      "Ġé¹°": 9409,
      "ĠæİĢ": 9410,
      "æ°´éĩı": 9411,
      "Ġæķħå®«": 9412,
      "å®ĿçŁ³": 9413,
      "Ġè°¥åı·": 9414,
      "ä¸įåĪ°": 9415,
      "Ġæµ·åĨħ": 9416,
      "ond": 9417,
      "Ġç§¯ç´¯": 9418,
      "ĠéĽĦä¼Ł": 9419,
      "Ġä¹īåĭĩ": 9420,
      "ĠéĻįæ°´éĩı": 9421,
      "Ġå¥¥æŀĹåĮ¹åħĭè¿ĲåĬ¨ä¼ļ": 9422,
      "88": 9423,
      "Ġä¸Ńæ¸¸": 9424,
      "Ġä¸įè®º": 9425,
      "ĠçŃĳ": 9426,
      "ĠéĤ±": 9427,
      "æ¸ł": 9428,
      "æĻ°": 9429,
      "ĠæĢ»åĨ³èµĽ": 9430,
      "Ġæīĭä¸ĭ": 9431,
      "Ġä¸¾ä¸ĸ": 9432,
      "ĠåħŃä¸ª": 9433,
      "Ġåĭ¿": 9434,
      "Ġæ²ª": 9435,
      "ĠåıĳçĶµ": 9436,
      "ĠåİŁåŀĭ": 9437,
      "éªı": 9438,
      "Ġä¿Ŀåį«": 9439,
      "ĠéŁµ": 9440,
      "åı¯è§ģ": 9441,
      "Ġé¥®é£Ł": 9442,
      "Ġåģ¶çĦ¶": 9443,
      "Ġéº»çĥ¦": 9444,
      "Ġä»Ģ": 9445,
      "Ġä¸įå¿ħ": 9446,
      "Ġå¤§éĿ©åĳ½": 9447,
      "0000": 9448,
      "Ġå°ıéº¦": 9449,
      "Ġç±³åħ°": 9450,
      "Ġå¹½é»ĺ": 9451,
      "Ġé¢ģåıĳ": 9452,
      "Ġç¥Ŀç¦ı": 9453,
      "se": 9454,
      "ĠæĪĲäºº": 9455,
      "Ġå¥³çİĭ": 9456,
      "Ġéħ±": 9457,
      "Ġå·´åŁºæĸ¯åĿ¦": 9458,
      "Ġåı¶åŃĲ": 9459,
      "Ġé¼ĵåĬ±": 9460,
      "Ġå³¨çľī": 9461,
      "æıı": 9462,
      "ĠçłĶç©¶æīĢ": 9463,
      "é©¾": 9464,
      "ĠåłĨ": 9465,
      "Ġä¼ĳéĹ²": 9466,
      "ĠéĽķåĪ»": 9467,
      "Ġçĸ¯çĭĤ": 9468,
      "Ġ220": 9469,
      "Ġç¼ĸæĽ²": 9470,
      "ĠæĬ¥çº¸": 9471,
      "Ġç¤¼çī©": 9472,
      "å´İ": 9473,
      "ĠéĻ¶æ¸Ĭæĺİ": 9474,
      "Ġåıĳéħµ": 9475,
      "ĠæĹłåĲį": 9476,
      "Ġå°ĨæĿ¥": 9477,
      "Ġè®¾æľī": 9478,
      "Ġæ¶ĪèĢĹ": 9479,
      "Ġ1964": 9480,
      "Ġå¸ĪèĮĥ": 9481,
      "ich": 9482,
      "Ġé¢ĳçİĩ": 9483,
      "Ġæ¸´æľĽ": 9484,
      "åµ": 9485,
      "Ġåµ©": 9486,
      "åįī": 9487,
      "Ġæĺł": 9488,
      "ä¸įä½ı": 9489,
      "Ġç¡ķ": 9490,
      "Ġç©ºåīį": 9491,
      "Ġåįİå±±": 9492,
      "Ġåįłæį®": 9493,
      "Ġå©Ĩ": 9494,
      "ç¼ĸçłģ": 9495,
      "ĠæľĢå°ĳ": 9496,
      "èĥ½åĬĽ": 9497,
      "Ġç¬¬ä¸ĢåĲį": 9498,
      "Ġåı¤å·´": 9499,
      "æľºåħ³": 9500,
      "Ġå·¥åķĨ": 9501,
      "ĠæĽ¹éĽªèĬ¹": 9502,
      "åħĪçĶŁ": 9503,
      "Ġæ¼ı": 9504,
      "ĠæĺĨä»ĳ": 9505,
      "ĠæĹ¥åĨħ": 9506,
      "ä¸įä¸Ĭ": 9507,
      "Ġéĵĥ": 9508,
      "Ġç¼ł": 9509,
      "Ġå·´å¡ŀç½ĹéĤ£": 9510,
      "Ġå¨ĩ": 9511,
      "Ġçº¸å¸ģ": 9512,
      "Ġæ©Ļ": 9513,
      "Ġé»Ħé¹¤æ¥¼": 9514,
      "Ġèĥİ": 9515,
      "ĠæĪĺåĲİ": 9516,
      "ĠæŃ¦æĿ¾": 9517,
      "Ġåĩłç§į": 9518,
      "ĠæŃ¤æ¬¡": 9519,
      "ant": 9520,
      "çĻ¾å§ĵ": 9521,
      "Ġ130": 9522,
      "Ġä½ķæĹ¶": 9523,
      "ĠåĵĪèĲ¨åħĭ": 9524,
      "ĠåĪĹå¼º": 9525,
      "Ġå¯Ĩçłģ": 9526,
      "ĠçĩĥæĸĻ": 9527,
      "Ġå®¤åĨħ": 9528,
      "åıĻ": 9529,
      "Ġå¹´åĪĿ": 9530,
      "Ġäººä¸º": 9531,
      "Ġå·±": 9532,
      "çŃ¾": 9533,
      "æ±°": 9534,
      "è°¦": 9535,
      "Ġçľĭæ³ķ": 9536,
      "æ¸¸æĪı": 9537,
      "Ġæ»¨": 9538,
      "éĥĳ": 9539,
      "ĠåıĳæĺİèĢħ": 9540,
      "Ġçħİ": 9541,
      "ĠæģĴæĺŁ": 9542,
      "ĠèĬ¬åħ°": 9543,
      "32": 9544,
      "ĸåŃĲ": 9545,
      "åĨ¤": 9546,
      "Ġæµı": 9547,
      "Ġæĸ°è¥¿åħ°": 9548,
      "Ġ105": 9549,
      "å£«æ¯Ķäºļ": 9550,
      "Ġç¦ıå·ŀ": 9551,
[...]
